<unk>	0
<s>	0
</s>	0
▁이	-0
했다	-1
▁있	-2
에서	-3
▁대	-4
▁사	-5
▁지	-6
▁것	-7
▁그	-8
으로	-9
▁1	-10
▁수	-11
▁전	-12
▁2	-13
▁미	-14
▁“	-15
▁있다	-16
▁아	-17
▁한	-18
▁가	-19
▁주	-20
▁보	-21
▁시	-22
▁위	-23
▁경	-24
▁정	-25
▁말	-26
▁중	-27
▁인	-28
하고	-29
▁기	-30
00	-31
▁자	-32
라고	-33
하는	-34
▁밝	-35
다고	-36
▁부	-37
▁발	-38
▁일	-39
▁공	-40
▁관	-41
▁밝혔	-42
▁국	-43
들이	-44
▁오	-45
들은	-46
▁다	-47
▁유	-48
▁밝혔다	-49
▁말했다	-50
▁것이	-51
▁않	-52
▁미국	-53
▁의	-54
▁비	-55
▁상	-56
니다	-57
▁조	-58
▁하	-59
▁여	-60
▁제	-61
▁3	-62
▁소	-63
▁있는	-64
▁나	-65
통령	-66
▁연	-67
▁마	-68
▁모	-69
▁영	-70
▁동	-71
▁대통령	-72
으며	-73
▁선	-74
▁지난	-75
었다	-76
▁내	-77
에게	-78
▁해	-79
▁무	-80
▁그는	-81
▁최	-82
▁후	-83
▁고	-84
▁방	-85
▁당	-86
▁우	-87
▁바	-88
▁위해	-89
▁200	-90
▁알	-91
▁예	-92
▁파	-93
▁받	-94
▁북	-95
▁스	-96
▁대한	-97
시간	-98
▁결	-99
▁세	-100
현지	-101
▁없	-102
▁도	-103
▁총	-104
▁남	-105
▁회	-106
▁4	-107
▁정부	-108
▁통	-109
▁성	-110
▁전했다	-111
습니다	-112
지만	-113
했다고	-114
▁구	-115
▁5	-116
이다	-117
▁이번	-118
▁반	-119
▁개	-120
적인	-121
▁신	-122
▁불	-123
▁대해	-124
명이	-125
▁노	-126
▁어	-127
현지시간	-128
라크	-129
하기	-130
▁거	-131
▁계	-132
▁생	-133
▁장	-134
이라고	-135
▁만	-136
▁6	-137
▁또	-138
들을	-139
리는	-140
▁실	-141
까지	-142
▁프	-143
▁강	-144
▁포	-145
▁이라크	-146
▁차	-147
됐다	-148
▁폭	-149
▁경찰	-150
▁매	-151
명의	-152
▁올	-153
▁것으로	-154
들의	-155
▁사람	-156
▁"	-157
▁‘	-158
▁에	-159
▁서	-160
▁감	-161
▁때	-162
▁원	-163
▁재	-164
▁교	-165
▁것이라고	-166
▁안	-167
▁요	-168
▁문	-169
▁더	-170
하지	-171
▁있다고	-172
▁현	-173
러나	-174
▁진	-175
▁피	-176
▁북한	-177
▁중국	-178
한다	-179
▁19	-180
▁외	-181
▁것을	-182
▁달	-183
▁입	-184
▁자신	-185
았다	-186
였다	-187
▁열	-188
▁추	-189
▁사망	-190
▁한국	-191
in	-192
▁주장	-193
▁출	-194
▁발생	-195
적으로	-196
부터	-197
▁확	-198
에는	-199
▁많	-200
▁7	-201
▁로	-202
인은	-203
▁그러나	-204
▁군	-205
▁등	-206
▁약	-207
▁행	-208
▁민	-209
▁호	-210
▁테	-211
on	-212
시아	-213
하게	-214
▁다른	-215
▁카	-216
re	-217
▁같	-218
▁지역	-219
▁라	-220
▁8	-221
▁관계	-222
▁두	-223
▁영국	-224
an	-225
▁10	-226
▁예정	-227
▁증	-228
▁t	-229
▁발표	-230
▁분	-231
▁작	-232
▁대변	-233
▁투	-234
사는	-235
▁설	-236
장은	-237
리아	-238
▁한편	-239
er	-240
▁목	-241
바마	-242
▁집	-243
▁법	-244
기를	-245
라는	-246
▁되	-247
▁타	-248
▁단	-249
▁리	-250
▁문제	-251
▁베	-252
▁승	-253
들에게	-254
▁새	-255
졌다	-256
▁오바마	-257
▁살	-258
▁보도	-259
▁화	-260
▁과	-261
▁9	-262
▁이후	-263
▁배	-264
에따	-265
▁못	-266
▁C	-267
▁뉴	-268
▁후보	-269
▁일본	-270
에서는	-271
▁처	-272
▁건	-273
▁참	-274
자는	-275
▁A	-276
다는	-277
▁할	-278
▁관련	-279
▁독	-280
▁판	-281
ti	-282
▁치	-283
면서	-284
▁통해	-285
.0	-286
▁금	-287
▁심	-288
▁평	-289
▁들	-290
▁세계	-291
▁버	-292
▁적	-293
리고	-294
▁코	-295
하며	-296
▁많은	-297
스탄	-298
▁대통령은	-299
▁앞	-300
▁협	-301
▁핵	-302
▁'	-303
▁위한	-304
▁체	-305
▁검	-306
ar	-307
명을	-308
▁언	-309
▁크	-310
관은	-311
자가	-312
했으며	-313
▁병	-314
▁데	-315
사를	-316
▁국가	-317
레이	-318
▁부시	-319
▁클	-320
▁물	-321
▁벌	-322
▁운	-323
▁변	-324
▁가장	-325
▁합	-326
▁동안	-327
리가	-328
▁필	-329
▁저	-330
스트	-331
▁같은	-332
▁것이다	-333
▁사건	-334
스는	-335
▁시작	-336
▁대변인은	-337
▁그의	-338
▁산	-339
▁경제	-340
▁학	-341
▁공격	-342
▁테러	-343
된다	-344
문에	-345
▁이상	-346
▁영화	-347
원의	-348
▁항	-349
리를	-350
▁양	-351
자들은	-352
or	-353
들과	-354
▁브	-355
▁직	-356
▁12	-357
he	-358
▁계획	-359
▁보고	-360
▁아프	-361
al	-362
en	-363
▁임	-364
▁초	-365
▁될	-366
▁연구	-367
▁역	-368
▁아이	-369
혐의	-370
▁사용	-371
▁현재	-372
▁20	-373
▁민주	-374
▁주장했다	-375
▁것은	-376
지는	-377
▁선거	-378
▁한다	-379
000	-380
▁존	-381
▁국제	-382
달러	-383
▁T	-384
도록	-385
이트	-386
요일	-387
▁미군	-388
상을	-389
▁또한	-390
하다	-391
▁인터	-392
▁함	-393
▁뒤	-394
▁조사	-395
▁명	-396
▁지지	-397
스라	-398
▁했다	-399
▁돌	-400
되는	-401
▁발견	-402
었다고	-403
으나	-404
▁덧	-405
▁야	-406
▁덧붙	-407
▁혐의	-408
▁메	-409
▁시위	-410
▁최근	-411
▁계속	-412
▁일부	-413
레스	-414
했습니다	-415
▁경우	-416
▁보도했다	-417
▁포함	-418
▁토	-419
력을	-420
▁덧붙였다	-421
▁11	-422
▁S	-423
▁취	-424
▁및	-425
스라엘	-426
▁회담	-427
▁특	-428
▁않았다	-429
▁요구	-430
le	-431
▁사실	-432
라이	-433
원은	-434
▁여성	-435
▁페	-436
했던	-437
▁러	-438
▁생각	-439
▁경기	-440
▁태	-441
▁결정	-442
▁방문	-443
▁환	-444
장을	-445
st	-446
▁설명	-447
자들이	-448
▁(	-449
로운	-450
▁비난	-451
▁지도	-452
▁줄	-453
▁이스라엘	-454
▁자신의	-455
200	-456
▁박	-457
▁복	-458
리스	-459
키스탄	-460
▁당국	-461
▁탈	-462
▁몇	-463
르면	-464
니아	-465
▁레	-466
.”	-467
▁함께	-468
주의	-469
▁프로	-470
되고	-471
인이	-472
▁결과	-473
▁표	-474
보다	-475
▁가능	-476
▁당시	-477
▁활	-478
▁종	-479
▁이란	-480
사가	-481
입니다	-482
▁프랑	-483
해야	-484
▁모든	-485
▁논	-486
▁그리고	-487
에따르면	-488
▁게	-489
▁맞	-490
▁허	-491
원이	-492
▁석	-493
▁때문에	-494
시키	-495
회의	-496
▁파키스탄	-497
▁근	-498
▁수도	-499
▁높	-500
▁음	-501
▁하는	-502
▁15	-503
▁걸	-504
랜드	-505
▁N	-506
▁인도	-507
▁팔	-508
▁대선	-509
▁예정이다	-510
▁필요	-511
▁간	-512
▁모두	-513
▁있습니다	-514
▁F	-515
▁설명했다	-516
지를	-517
지고	-518
▁지원	-519
린턴	-520
▁드	-521
▁달러	-522
▁러시아	-523
번째	-524
자인	-525
에도	-526
▁새로운	-527
▁있으며	-528
▁정치	-529
▁충	-530
▁경찰은	-531
▁숨	-532
▁처음	-533
▁프랑스	-534
▁떨	-535
▁유엔	-536
부는	-537
at	-538
▁채	-539
▁정부는	-540
▁갖	-541
▁열린	-542
▁알려	-543
▁30	-544
왔다	-545
▁P	-546
은행	-547
▁사이	-548
▁클린턴	-549
es	-550
▁들어	-551
▁기록	-552
▁피해	-553
▁애	-554
▁본	-555
▁친	-556
서는	-557
기가	-558
장이	-559
▁기자	-560
▁있었다	-561
▁민주당	-562
▁떨어	-563
▁사고	-564
▁점	-565
▁o	-566
▁용	-567
▁철	-568
▁찾	-569
▁B	-570
▁규	-571
▁큰	-572
안을	-573
▁않았	-574
▁터	-575
원회	-576
라며	-577
▁아직	-578
▁없다	-579
▁I	-580
▁케	-581
.1	-582
▁좋	-583
▁블	-584
▁유럽	-585
▁M	-586
▁2005	-587
▁폭탄	-588
▁질	-589
▁않는	-590
▁상황	-591
▁백	-592
▁대표	-593
비아	-594
치를	-595
▁뉴욕	-596
▁담	-597
▁지난해	-598
▁휴	-599
▁대통령이	-600
▁우주	-601
▁플	-602
되어	-603
▁않을	-604
▁하고	-605
▁아니	-606
기에	-607
▁합의	-608
it	-609
리의	-610
▁곳	-611
▁s	-612
▁손	-613
▁U	-614
▁디	-615
▁압	-616
▁쿠	-617
▁그녀	-618
▁나타	-619
▁최고	-620
▁날	-621
▁16	-622
▁상원의	-623
▁준	-624
▁식	-625
됐다고	-626
▁c	-627
▁이에	-628
▁김	-629
▁무장	-630
▁권	-631
▁청	-632
▁월	-633
▁올해	-634
▁W	-635
▁온	-636
화를	-637
▁힐	-638
▁a	-639
▁시간	-640
▁199	-641
▁총리는	-642
▁있을	-643
그램	-644
▁이날	-645
부분	-646
▁있었	-647
▁체포	-648
▁침	-649
▁미국의	-650
▁따	-651
전을	-652
이며	-653
하여	-654
이고	-655
▁가족	-656
▁광	-657
정부	-658
▁the	-659
▁네	-660
▁접	-661
▁위치	-662
▁발생한	-663
▁속	-664
수는	-665
▁확인	-666
▁반대	-667
▁발표했다	-668
이는	-669
▁국민	-670
▁진행	-671
▁완	-672
▁첫	-673
거나	-674
과의	-675
자를	-676
▁부상	-677
tion	-678
▁K	-679
.08	-680
▁13	-681
▁끝	-682
▁정보	-683
동을	-684
▁25	-685
▁받고	-686
▁원문	-687
▁루	-688
스의	-689
▁18	-690
om	-691
▁대학	-692
성이	-693
▁비행	-694
▁f	-695
▁있다는	-696
ou	-697
▁소식	-698
▁폐	-699
NN	-700
is	-701
▁이미	-702
▁만들	-703
▁얻	-704
자의	-705
▁공개	-706
ic	-707
▁범	-708
이나	-709
▁다시	-710
▁이용	-711
이스	-712
▁잘	-713
▁증가	-714
에따라	-715
▁p	-716
▁14	-717
▁난	-718
▁각	-719
▁주민	-720
▁희	-721
운데	-722
▁다음	-723
▁to	-724
ed	-725
렸다	-726
▁대부분	-727
▁가운데	-728
▁of	-729
▁패	-730
▁아프간	-731
지역	-732
원을	-733
단체	-734
▁순	-735
▁이슬	-736
▁중단	-737
와의	-738
ing	-739
▁예상	-740
▁넘	-741
▁빠	-742
▁정부가	-743
사의	-744
▁항공	-745
성을	-746
타인	-747
정을	-748
▁밝혀	-749
▁의해	-750
▁사람들이	-751
▁워	-752
▁왕	-753
스가	-754
▁투표	-755
레반	-756
하면	-757
하면서	-758
▁방송	-759
)’	-760
▁트	-761
▁전문	-762
▁주요	-763
▁D	-764
▁막	-765
▁실시	-766
▁프로그램	-767
간의	-768
▁축	-769
▁내용	-770
▁2006	-771
▁된다	-772
▁된	-773
▁감독	-774
▁인해	-775
▁차량	-776
로부터	-777
▁콜	-778
인을	-779
▁누	-780
들에	-781
무장	-782
▁공화	-783
스를	-784
▁않은	-785
테러	-786
▁상태	-787
▁암	-788
▁지적	-789
▁해결	-790
▁L	-791
▁절	-792
▁병원	-793
▁외교	-794
▁납	-795
나는	-796
났다	-797
하려	-798
▁받아	-799
▁그가	-800
▁책	-801
▁이는	-802
▁in	-803
▁됐다	-804
▁언급	-805
는데	-806
▁혐의로	-807
▁E	-808
금을	-809
▁탈레반	-810
▁인터뷰	-811
▁홍	-812
했지만	-813
▁밀	-814
▁얼	-815
▁우리	-816
장에서	-817
▁머	-818
▁의회	-819
▁농	-820
▁향	-821
▁이어	-822
▁조지	-823
대로	-824
▁17	-825
▁여러	-826
▁언론	-827
▁중요	-828
위원회	-829
▁돌아	-830
▁전쟁	-831
▁독일	-832
▁폭발	-833
림픽	-834
▁국방	-835
▁대통령의	-836
동차	-837
드는	-838
▁2008	-839
▁도시	-840
▁변호	-841
무부	-842
위를	-843
▁정상	-844
▁급	-845
되지	-846
▁요청	-847
▁이슬람	-848
▁잡	-849
▁형	-850
디오	-851
▁단체	-852
개월	-853
레스타인	-854
km	-855
기로	-856
처럼	-857
▁살해	-858
▁골	-859
자로	-860
▁위치한	-861
▁평화	-862
▁있어	-863
사태	-864
▁받았다	-865
▁촉	-866
▁우려	-867
▁상승	-868
도로	-869
관이	-870
▁학생	-871
업체	-872
가는	-873
▁오늘	-874
▁캐	-875
▁이유	-876
▁없는	-877
명은	-878
▁승리	-879
ore	-880
▁참석	-881
▁강조	-882
▁석방	-883
▁에서	-884
▁명의	-885
▁제공	-886
▁연방	-887
▁TV	-888
▁죽	-889
▁남부	-890
▁판매	-891
il	-892
기는	-893
▁티	-894
▁헤	-895
▁50	-896
임을	-897
한다고	-898
▁소속	-899
▁추가	-900
▁공화당	-901
수가	-902
▁데이	-903
▁성공	-904
겠다고	-905
▁사실을	-906
▁브라	-907
▁팔레스타인	-908
▁탄	-909
격을	-910
▁개발	-911
▁관리	-912
▁방법	-913
되었다	-914
▁한다고	-915
▁모습	-916
이라며	-917
ro	-918
▁사진	-919
▁호주	-920
리카	-921
케인	-922
▁위협	-923
▁이들	-924
▁이를	-925
▁총리	-926
▁관계자는	-927
▁악	-928
했고	-929
▁금융	-930
▁않고	-931
▁당선	-932
▁떠	-933
▁힘	-934
냈다	-935
리포	-936
▁서울	-937
ent	-938
▁24	-939
▁보여	-940
▁자동차	-941
▁천	-942
▁생산	-943
▁하락	-944
▁인터넷	-945
▁''	-946
▁지적했다	-947
▁맥	-948
▁볼	-949
▁여행	-950
▁지금	-951
▁긴	-952
장에	-953
전에	-954
▁키	-955
▁b	-956
▁쓰	-957
▁베이	-958
자들을	-959
▁구조	-960
▁협상	-961
이었다	-962
▁군사	-963
▁매우	-964
▁용의	-965
▁인근	-966
이지	-967
▁당국은	-968
르는	-969
▁21	-970
▁마이	-971
▁터키	-972
대를	-973
업을	-974
▁기술	-975
▁보안	-976
▁인질	-977
러한	-978
▁보호	-979
▁올림픽	-980
▁측	-981
▁인정	-982
▁일어	-983
리에	-984
as	-985
de	-986
되었	-987
▁보인	-988
에서의	-989
▁없다고	-990
▁w	-991
▁위험	-992
▁주지	-993
▁사무	-994
▁최소	-995
▁H	-996
▁영향	-997
력이	-998
▁22	-999
▁반군	-1000
▁전문가	-1001
개의	-1002
기사	-1003
▁23	-1004
▁정책	-1005
▁회사	-1006
치는	-1007
▁100	-1008
▁27	-1009
▁받은	-1010
▁하지	-1011
권을	-1012
▁백악	-1013
년간	-1014
▁과학	-1015
▁잠	-1016
ation	-1017
▁경고	-1018
대의	-1019
센터	-1020
▁크리스	-1021
▁G	-1022
의를	-1023
▁납치	-1024
부를	-1025
있는	-1026
▁준비	-1027
회담	-1028
▁검찰	-1029
▁커	-1030
얀마	-1031
▁관광	-1032
▁공식	-1033
▁어떤	-1034
지에	-1035
▁외국	-1036
▁하지만	-1037
했으나	-1038
▁몰	-1039
▁의원	-1040
tic	-1041
▁폴	-1042
▁건물	-1043
▁R	-1044
▁편	-1045
음을	-1046
▁어린	-1047
하기로	-1048
▁이름	-1049
했었다	-1050
▁m	-1051
▁컴	-1052
▁이와	-1053
▁있던	-1054
다드	-1055
보기	-1056
▁공항	-1057
▁안전	-1058
▁오후	-1059
선을	-1060
▁노동	-1061
샤라	-1062
▁하나	-1063
▁40	-1064
▁도착	-1065
식을	-1066
▁받았	-1067
▁것에	-1068
대가	-1069
싱턴	-1070
▁자살	-1071
▁제작	-1072
도를	-1073
인트	-1074
▁고위	-1075
▁바그	-1076
▁원문기사	-1077
and	-1078
▁선수	-1079
▁와	-1080
신은	-1081
▁웹	-1082
▁은행	-1083
▁미얀마	-1084
ra	-1085
▁격	-1086
▁런	-1087
세를	-1088
퓨터	-1089
▁자유	-1090
▁북한의	-1091
페인	-1092
▁번	-1093
▁마지	-1094
회견	-1095
▁착	-1096
▁노력	-1097
▁보고서	-1098
카에	-1099
▁극	-1100
시켰	-1101
▁아시아	-1102
▁바그다드	-1103
▁길	-1104
▁건강	-1105
▁북한이	-1106
▁니	-1107
▁런던	-1108
▁지구	-1109
▁치료	-1110
▁그들은	-1111
▁인터뷰에서	-1112
▁북부	-1113
자와	-1114
▁사회	-1115
▁여론	-1116
▁컴퓨터	-1117
문을	-1118
▁시민	-1119
▁앞서	-1120
▁엘	-1121
▁갖고	-1122
▁이러한	-1123
▁밖	-1124
▁워싱턴	-1125
지지	-1126
▁학교	-1127
▁싶	-1128
▁정부의	-1129
▁강조했다	-1130
▁푸	-1131
나라	-1132
▁26	-1133
▁거래	-1134
▁조직	-1135
▁힐러	-1136
▁떨어진	-1137
장의	-1138
▁사태	-1139
하는데	-1140
th	-1141
▁오는	-1142
▁촉구	-1143
하다고	-1144
씨는	-1145
탈리아	-1146
▁경찰이	-1147
▁있도록	-1148
▁원문기사보기	-1149
었던	-1150
지가	-1151
▁놓	-1152
▁팀	-1153
▁연합	-1154
▁마지막	-1155
세계	-1156
▁기자회견	-1157
▁목표	-1158
국의	-1159
수를	-1160
▁창	-1161
▁미국이	-1162
▁발언	-1163
▁비난했다	-1164
있다	-1165
▁가진	-1166
▁도움	-1167
조사	-1168
▁현지	-1169
사일	-1170
▁장관은	-1171
▁논의	-1172
▁동물	-1173
▁스타	-1174
▁차지	-1175
에서도	-1176
▁느	-1177
같은	-1178
▁부인	-1179
▁잃	-1180
▁혼	-1181
회를	-1182
▁거부	-1183
ol	-1184
▁성명	-1185
리포니아	-1186
BC	-1187
▁빌	-1188
▁윌	-1189
스타	-1190
▁가격	-1191
▁수상	-1192
▁오전	-1193
▁그녀는	-1194
국은	-1195
▁29	-1196
▁거의	-1197
▁민간	-1198
▁백악관	-1199
▁자신이	-1200
▁처음으로	-1201
▁면	-1202
▁빈	-1203
▁기업	-1204
▁연설	-1205
▁유명	-1206
동안	-1207
▁공동	-1208
▁활동	-1209
했다는	-1210
으로부터	-1211
캘리포니아	-1212
▁재판	-1213
▁불구	-1214
▁삼	-1215
군이	-1216
▁경쟁	-1217
▁규모	-1218
▁충돌	-1219
▁판결	-1220
됐으며	-1221
마스	-1222
▁출신	-1223
▁타임	-1224
전히	-1225
▁결혼	-1226
▁국경	-1227
▁버락	-1228
하도록	-1229
군은	-1230
▁지난달	-1231
▁2007	-1232
▁Kore	-1233
▁눈	-1234
▁밤	-1235
대한	-1236
▁남아	-1237
▁불법	-1238
▁수감	-1239
카에다	-1240
▁198	-1241
▁CNN	-1242
▁돈	-1243
기도	-1244
▁수백	-1245
자들의	-1246
▁투자	-1247
샤라프	-1248
▁이탈리아	-1249
년에	-1250
가지	-1251
▁28	-1252
▁보내	-1253
니스탄	-1254
▁앞으로	-1255
▁소비	-1256
쳤다	-1257
▁통과	-1258
합니다	-1259
▁있지만	-1260
심을	-1261
▁금지	-1262
▁야당	-1263
▁헌	-1264
▁re	-1265
▁밝히	-1266
▁베이징	-1267
들도	-1268
▁관한	-1269
인들이	-1270
▁̋	-1271
사인	-1272
▁많이	-1273
사이트	-1274
센트	-1275
했을	-1276
▁레이	-1277
▁주둔	-1278
▁이상의	-1279
제를	-1280
▁AP	-1281
▁공급	-1282
▁참가	-1283
▁호텔	-1284
▁미국은	-1285
▁않는다	-1286
▁샤	-1287
▁만에	-1288
▁전망	-1289
▁환경	-1290
▁희생	-1291
▁북한은	-1292
ce	-1293
▁헬	-1294
▁부족	-1295
이라는	-1296
▁보인다	-1297
▁늘	-1298
▁이전	-1299
▁참여	-1300
▁캘리포니아	-1301
ig	-1302
▁유지	-1303
▁좋은	-1304
▁폭력	-1305
▁못했다	-1306
▁이들은	-1307
▁운영	-1308
▁슈	-1309
▁즉	-1310
▁지방	-1311
▁미사일	-1312
▁콘	-1313
▁퍼	-1314
베이	-1315
2005	-1316
▁라이	-1317
▁심각	-1318
▁사망했다	-1319
▁무샤라프	-1320
▁감소	-1321
▁사우	-1322
▁문제를	-1323
규모	-1324
▁없이	-1325
▁출연	-1326
▁하루	-1327
▁사람들은	-1328
안에	-1329
인의	-1330
가니스탄	-1331
▁오바마는	-1332
▁대상	-1333
▁수사	-1334
▁움	-1335
니는	-1336
▁아무	-1337
▁귀	-1338
▁동영	-1339
▁약속	-1340
▁친구	-1341
▁알카에다	-1342
ot	-1343
우리는	-1344
▁코리아	-1345
artic	-1346
감을	-1347
▁범죄	-1348
▁이루	-1349
졌다고	-1350
article	-1351
▁다이	-1352
▁회담을	-1353
▁몸	-1354
▁그를	-1355
원들이	-1356
un	-1357
▁h	-1358
스터	-1359
치가	-1360
▁낮	-1361
것은	-1362
▁바이	-1363
▁역사	-1364
▁우승	-1365
▁최초	-1366
▁구성	-1367
▁이곳	-1368
50	-1369
et	-1370
대에	-1371
▁알려졌다	-1372
드의	-1373
사회	-1374
어진	-1375
▁일으	-1376
▁스페인	-1377
▁중요한	-1378
▁불구하고	-1379
라도	-1380
원에	-1381
가를	-1382
,000	-1383
▁미국과	-1384
▁어린이	-1385
▁아프가니스탄	-1386
▁엄	-1387
▁움직	-1388
▁공격을	-1389
▁박사는	-1390
▁말했습니다	-1391
르코	-1392
세의	-1393
트는	-1394
▁번째	-1395
자들에게	-1396
▁갈	-1397
▁독립	-1398
▁지진	-1399
원들은	-1400
id	-1401
▁것입니다	-1402
▁웹사이트	-1403
▁너	-1404
▁징	-1405
▁이런	-1406
▁이야	-1407
▁역할	-1408
▁인용	-1409
▁장관	-1410
ec	-1411
▁응	-1412
▁반면	-1413
▁변화	-1414
▁매케인	-1415
▁사망한	-1416
ur	-1417
하자	-1418
▁놀	-1419
▁맡	-1420
▁가자	-1421
▁남성	-1422
▁폐쇄	-1423
▁for	-1424
▁봉	-1425
하던	-1426
▁내려	-1427
▁전투	-1428
▁직접	-1429
▁&	-1430
가가	-1431
기의	-1432
주는	-1433
▁대사	-1434
▁발사	-1435
▁부토	-1436
리에서	-1437
리다	-1438
후보	-1439
▁유권	-1440
▁성명을	-1441
부가	-1442
▁기소	-1443
▁말을	-1444
▁안보	-1445
▁전에	-1446
▁사망했다고	-1447
▁퇴	-1448
관계	-1449
▁마을	-1450
▁목격	-1451
IN	-1452
’’	-1453
▁앤	-1454
▁짐	-1455
기구	-1456
▁2005.08	-1457
즈는	-1458
▁서비	-1459
▁정도	-1460
▁특별	-1461
▁딸	-1462
당의	-1463
▁추정	-1464
▁발생했다	-1465
▁펼	-1466
서를	-1467
▁강화	-1468
▁회의	-1469
▁모습을	-1470
’(	-1471
▁쇼	-1472
인들은	-1473
▁힐러리	-1474
▁의하면	-1475
▁것이라는	-1476
▁대통령과	-1477
el	-1478
us	-1479
▁업	-1480
대는	-1481
바논	-1482
스템	-1483
▁확보	-1484
만달러	-1485
▁별	-1486
▁기간	-1487
원에서	-1488
▁조치를	-1489
▁혐의를	-1490
▁칼	-1491
▁보다	-1492
▁중심	-1493
▁통신	-1494
▁확실	-1495
▁가능성이	-1496
2005.08	-1497
베트	-1498
지구	-1499
▁나라	-1500
▁신문	-1501
▁알고	-1502
▁지나	-1503
▁최대	-1504
회에서	-1505
▁지역에서	-1506
였던	-1507
▁60	-1508
▁높은	-1509
▁더욱	-1510
▁어려	-1511
▁전체	-1512
▁지난주	-1513
▁뜻	-1514
국이	-1515
▁경선	-1516
▁아버	-1517
▁인권	-1518
▁인한	-1519
물을	-1520
이가	-1521
CNN	-1522
▁플로	-1523
포인트	-1524
▁성명에서	-1525
am	-1526
▁은	-1527
라인	-1528
▁과정	-1529
▁소유	-1530
▁운동	-1531
하겠다고	-1532
▁O	-1533
▁뿐	-1534
▁웨	-1535
▁강력	-1536
▁수천	-1537
▁행사	-1538
▁계획을	-1539
▁데이비	-1540
▁맨	-1541
해서	-1542
▁콜롬	-1543
▁총리가	-1544
▁않았다고	-1545
측은	-1546
▁개최	-1547
▁되는	-1548
▁n	-1549
▁기대	-1550
▁의견	-1551
▁입장을	-1552
점을	-1553
▁석유	-1554
▁것이며	-1555
▁문제가	-1556
SA	-1557
▁아침	-1558
▁이뤄	-1559
▁주택	-1560
▁우리는	-1561
▁캠	-1562
▁중앙	-1563
▁레바논	-1564
▁전세계	-1565
갔다	-1566
스와	-1567
시킬	-1568
▁인쇄	-1569
▁한나라	-1570
▁팬	-1571
▁황	-1572
시코	-1573
▁때문	-1574
▁아니다	-1575
▁2004	-1576
▁글	-1577
두고	-1578
이를	-1579
이번	-1580
자들	-1581
▁중국의	-1582
▁지역에	-1583
▁믿	-1584
슨은	-1585
훈련	-1586
▁일반	-1587
ay	-1588
▁겪	-1589
드가	-1590
▁마련	-1591
▁분석	-1592
리자	-1593
시켰다	-1594
▁폭탄테러	-1595
머니	-1596
▁담당	-1597
▁시도	-1598
차례	-1599
▁핵무	-1600
▁화재	-1601
소를	-1602
▁거주	-1603
▁건설	-1604
▁도로	-1605
▁영향을	-1606
▁먹	-1607
애나	-1608
트를	-1609
▁어제	-1610
▁위원	-1611
전에서	-1612
▁기자회견에서	-1613
▁J	-1614
부의	-1615
▁필요한	-1616
▁d	-1617
▁까지	-1618
▁윌리	-1619
▁의료	-1620
멕시코	-1621
▁관련된	-1622
▁엔	-1623
라마	-1624
▁생활	-1625
▁선고	-1626
▁수행	-1627
▁있었다고	-1628
▁풀	-1629
전이	-1630
드리	-1631
적이	-1632
▁너무	-1633
▁타고	-1634
ad	-1635
▁억	-1636
무현	-1637
▁개인	-1638
▁선택	-1639
▁시설	-1640
▁올라	-1641
▁재개	-1642
었으며	-1643
▁남북	-1644
▁증거	-1645
▁해외	-1646
년까지	-1647
▁없었다	-1648
사와	-1649
▁선언	-1650
▁사르코	-1651
▁실종	-1652
▁제조	-1653
너지	-1654
스에	-1655
▁교육	-1656
▁받을	-1657
한다는	-1658
▁한국의	-1659
JO	-1660
▁효	-1661
설명	-1662
스크	-1663
▁남자	-1664
▁있고	-1665
▁브라운	-1666
ri	-1667
▁울	-1668
는지	-1669
▁남편	-1670
▁여자	-1671
라이나	-1672
▁문제에	-1673
-1	-1674
INS	-1675
네시아	-1676
JOINS	-1677
▁탑	-1678
텍사	-1679
품을	-1680
▁육	-1681
▁여객	-1682
▁노무현	-1683
▁콜롬비아	-1684
5%	-1685
▁독해	-1686
▁연기	-1687
▁소식통	-1688
▁티베트	-1689
▁독해설명	-1690
▁둘	-1691
▁망	-1692
신을	-1693
▁31	-1694
▁또는	-1695
▁명이	-1696
▁비용	-1697
▁사상	-1698
▁시장	-1699
▁역시	-1700
▁타이	-1701
(2	-1702
▁즐	-1703
▁히	-1704
▁결국	-1705
▁나오	-1706
▁산업	-1707
▁주변	-1708
그러나	-1709
▁사건에	-1710
만에	-1711
▁이동	-1712
▁잔	-1713
스카	-1714
▁찾아	-1715
▁열리는	-1716
▁이유로	-1717
▁곧	-1718
▁끌	-1719
명과	-1720
무를	-1721
하이	-1722
▁해안	-1723
▁2003	-1724
위에	-1725
▁수준	-1726
▁이끌	-1727
▁주식	-1728
▁조사를	-1729
ve	-1730
▁이제	-1731
▁했다고	-1732
▁g	-1733
떻게	-1734
스코	-1735
▁동영상	-1736
▁지도자	-1737
▁인도네시아	-1738
ers	-1739
▁익	-1740
버트	-1741
제로	-1742
학교	-1743
▁의미	-1744
▁관광객	-1745
랐다	-1746
▁감염	-1747
▁제안	-1748
▁총선	-1749
▁출전	-1750
▁행동	-1751
▁피해를	-1752
▁찬	-1753
▁탐	-1754
▁내년	-1755
▁제기	-1756
▁철수	-1757
베스	-1758
▁비상	-1759
▁왔다	-1760
▁프리	-1761
▁플로리다	-1762
▁예정이라고	-1763
는다	-1764
이자	-1765
쪽으로	-1766
▁사람이	-1767
▁어떻게	-1768
▁뇌	-1769
▁붙	-1770
만이	-1771
▁자금	-1772
▁훈련	-1773
▁비디오	-1774
▁시스템	-1775
▁화요일	-1776
스로	-1777
▁아마	-1778
▁샌	-1779
술을	-1780
▁구호	-1781
▁얼마	-1782
▁회복	-1783
▁201	-1784
▁정보를	-1785
약을	-1786
▁책임	-1787
),	-1788
세력	-1789
정에	-1790
프는	-1791
▁바로	-1792
▁전달	-1793
▁제출	-1794
▁라이스	-1795
▁부상을	-1796
▁전문가들은	-1797
▁일을	-1798
▁보였다	-1799
▁윌리엄	-1800
ac	-1801
▁답	-1802
ist	-1803
▁게임	-1804
▁국영	-1805
▁드러	-1806
▁수십	-1807
▁휴대	-1808
료를	-1809
▁기념	-1810
▁음악	-1811
▁인구	-1812
무장관은	-1813
▁Korea	-1814
▁0	-1815
년대	-1816
월에	-1817
촬영	-1818
▁사업	-1819
▁있게	-1820
겠다는	-1821
대통령	-1822
▁텍사	-1823
▁멕시코	-1824
▁2000	-1825
▁대선후보	-1826
▁자신들의	-1827
도가	-1828
리트	-1829
스턴	-1830
▁대신	-1831
▁제재	-1832
드로	-1833
▁스티	-1834
였다고	-1835
▁아프리카	-1836
ht	-1837
▁펜	-1838
군의	-1839
당한	-1840
명에	-1841
바이	-1842
억원	-1843
치고	-1844
▁실패	-1845
▁주말	-1846
▁대의	-1847
▁사라	-1848
▁and	-1849
▁앞두고	-1850
▁사망하고	-1851
ut	-1852
만을	-1853
폭탄	-1854
▁비롯	-1855
▁중동	-1856
▁파괴	-1857
▁시작했다	-1858
▁한나라당	-1859
드를	-1860
▁배우	-1861
▁베네	-1862
▁불가	-1863
▁추락	-1864
소에서	-1865
었습니다	-1866
부에	-1867
일을	-1868
res	-1869
▁교통	-1870
▁대피	-1871
▁부분	-1872
어를	-1873
▁관할	-1874
NA	-1875
신이	-1876
행을	-1877
▁그렇	-1878
▁따라	-1879
▁주도	-1880
스러	-1881
▁전화	-1882
▁제시	-1883
▁촬영	-1884
하려는	-1885
▁위원회	-1886
▁다우	-1887
▁수용	-1888
▁지속	-1889
▁있었던	-1890
수로	-1891
연합	-1892
일에	-1893
피언	-1894
▁가까	-1895
▁감시	-1896
▁부정	-1897
▁헌법	-1898
으로써	-1899
▁정치적	-1900
▁싸	-1901
미국	-1902
▁고려	-1903
▁비판	-1904
▁살고	-1905
▁시아	-1906
▁일이	-1907
▁중인	-1908
▁포기	-1909
억달러	-1910
▁대규모	-1911
▁만들어	-1912
ir	-1913
나다	-1914
사에	-1915
시는	-1916
형을	-1917
▁보건	-1918
▁부모	-1919
▁사과	-1920
▁작업	-1921
▁정확	-1922
▁데이비드	-1923
▁상원의원	-1924
▁던	-1925
▁국내	-1926
▁아닌	-1927
▁포함한	-1928
▁돼	-1929
▁붕	-1930
▁흑	-1931
섰다	-1932
성은	-1933
으면	-1934
프트	-1935
회에	-1936
▁교수는	-1937
▁에너지	-1938
▁의원은	-1939
)'	-1940
▁가지고	-1941
단을	-1942
디아	-1943
▁입은	-1944
▁전해	-1945
▁희망	-1946
30	-1947
우리	-1948
▁장면	-1949
▁직원	-1950
▁탑승	-1951
▁이상이	-1952
▁앨	-1953
안이	-1954
▁무기	-1955
▁않다	-1956
▁협력	-1957
▁그들의	-1958
▁사망자	-1959
▁역할을	-1960
ow	-1961
▁벨	-1962
단은	-1963
르고	-1964
실을	-1965
▁메시	-1966
▁이같은	-1967
▁지원을	-1968
▁2002	-1969
바브	-1970
성에	-1971
com	-1972
바브웨	-1973
▁여전히	-1974
움을	-1975
ver	-1976
▁교도	-1977
▁안에	-1978
▁특히	-1979
▁아니라	-1980
▁가자지구	-1981
▁e	-1982
위원	-1983
정한	-1984
▁붕괴	-1985
▁수입	-1986
챔피언	-1987
▁이루어	-1988
▁대부분의	-1989
년이	-1990
리그	-1991
▁LA	-1992
▁만나	-1993
▁운전	-1994
▁전국	-1995
▁조치	-1996
▁토론	-1997
▁당국이	-1998
▁월요일	-1999
▁지역의	-2000
▁벗	-2001
▁송	-2002
고를	-2003
들로	-2004
자회담	-2005
▁로버트	-2006
▁말한다	-2007
▁미국인	-2008
ap	-2009
겠다	-2010
만원	-2011
▁것인	-2012
▁작은	-2013
시키는	-2014
▁부통령	-2015
▁관계자가	-2016
방송	-2017
시켜	-2018
▁되어	-2019
▁저지	-2020
▁홍콩	-2021
스에서	-2022
많은	-2023
▁US	-2024
▁기다	-2025
▁시험	-2026
▁열차	-2027
▁최종	-2028
▁심각한	-2029
▁나타났다	-2030
그는	-2031
지의	-2032
▁결의	-2033
▁나는	-2034
▁승객	-2035
▁의사	-2036
▁푸틴	-2037
▁온라인	-2038
im	-2039
▁젊	-2040
보는	-2041
시설	-2042
어들	-2043
.11	-2044
▁스미	-2045
▁한국인	-2046
▁생각한다	-2047
▁촉구했다	-2048
대표	-2049
▁밝힌	-2050
▁축구	-2051
▁태국	-2052
장으로	-2053
▁197	-2054
▁국무부	-2055
▁일본의	-2056
▁겨	-2057
란드	-2058
소에	-2059
▁없을	-2060
리스트	-2061
ge	-2062
▁섬	-2063
▁좌	-2064
트로	-2065
▁과거	-2066
▁반응	-2067
▁비해	-2068
▁확산	-2069
▁짐바브웨	-2070
▁난민	-2071
ment	-2072
▁발표한	-2073
▁뛰	-2074
▁빨	-2075
관을	-2076
사건	-2077
운드	-2078
운티	-2079
▁국립	-2080
▁성장	-2081
▁수는	-2082
▁한다는	-2083
▁먼	-2084
▁휘	-2085
▁on	-2086
▁다양	-2087
▁설치	-2088
▁암살	-2089
▁항의	-2090
▁마이클	-2091
▁경고했다	-2092
▁경기에서	-2093
▁씨	-2094
리노	-2095
해를	-2096
▁구속	-2097
▁생존	-2098
▁서로	-2099
▁승인	-2100
▁오른	-2101
▁전시	-2102
▁회원	-2103
퍼센트	-2104
▁라디오	-2105
▁시위를	-2106
▁후보가	-2107
▁2009	-2108
▁요구했다	-2109
▁곤	-2110
▁풍	-2111
상이	-2112
▁살아	-2113
▁상원	-2114
▁수색	-2115
▁제한	-2116
하지만	-2117
▁민간인	-2118
▁밝혀졌다	-2119
.2	-2120
지로	-2121
▁사임	-2122
▁수가	-2123
▁정권	-2124
▁챔피언	-2125
중인	-2126
수의	-2127
지도	-2128
.12	-2129
▁무엇	-2130
▁정당	-2131
▁진압	-2132
▁차례	-2133
▁넣	-2134
년의	-2135
▁발전	-2136
▁선정	-2137
▁식량	-2138
▁위반	-2139
▁하기	-2140
▁브라질	-2141
▁이름을	-2142
▁캐나다	-2143
▁활동을	-2144
▁녹	-2145
▁흔	-2146
것이	-2147
장인	-2148
▁de	-2149
▁수출	-2150
▁여름	-2151
▁정신	-2152
▁치러	-2153
op	-2154
▁/	-2155
이로	-2156
▁결승	-2157
▁그런	-2158
▁동맹	-2159
▁보수	-2160
▁실험	-2161
▁월드	-2162
▁전통	-2163
▁제품	-2164
▁지불	-2165
▁케냐	-2166
하거나	-2167
▁달러의	-2168
▁외국인	-2169
▁대변인이	-2170
TA	-2171
▁낙	-2172
가고	-2173
시킨	-2174
어는	-2175
운동	-2176
이프	-2177
일한	-2178
책을	-2179
▁가져	-2180
▁같이	-2181
▁명령	-2182
▁병사	-2183
▁선출	-2184
▁추진	-2185
▁충분	-2186
▁경기를	-2187
▁관계를	-2188
단이	-2189
리와	-2190
▁각각	-2191
▁대법	-2192
▁심장	-2193
년부터	-2194
시키고	-2195
▁내용을	-2196
▁사무총	-2197
▁상황을	-2198
IA	-2199
어나	-2200
.06	-2201
ate	-2202
▁동료	-2203
▁소송	-2204
▁평가	-2205
▁경찰에	-2206
▁시아파	-2207
▁프라이	-2208
=2	-2209
거래	-2210
려는	-2211
르트	-2212
선거	-2213
안은	-2214
이라	-2215
▁성폭	-2216
▁소방	-2217
▁수석	-2218
▁시즌	-2219
▁종교	-2220
▁지명	-2221
▁페르	-2222
▁평균	-2223
▁사건을	-2224
▁우리가	-2225
▁클린턴은	-2226
ch	-2227
계를	-2228
됐던	-2229
인인	-2230
정이	-2231
▁니콜	-2232
▁사령	-2233
▁취임	-2234
▁행위	-2235
일까지	-2236
▁결과를	-2237
▁상원의원은	-2238
▁프로그램을	-2239
▁싱	-2240
기와	-2241
르게	-2242
▁것과	-2243
▁경험	-2244
▁아르	-2245
▁업체	-2246
▁접근	-2247
▁총격	-2248
▁취소	-2249
무장관	-2250
지니아	-2251
▁감독은	-2252
▁여론조사	-2253
▁왔	-2254
500	-2255
▁나온	-2256
▁매케	-2257
▁센터	-2258
▁않아	-2259
▁알리	-2260
▁지하	-2261
▁500	-2262
국가	-2263
오는	-2264
장과	-2265
▁st	-2266
▁받는	-2267
▁비밀	-2268
장관은	-2269
▁과정에서	-2270
세인	-2271
스럽	-2272
▁동부	-2273
▁벌어	-2274
▁에드	-2275
▁있기	-2276
▁젊은	-2277
▁파병	-2278
명으로	-2279
▁관심을	-2280
▁중국은	-2281
▁지지를	-2282
▁행정부	-2283
▁대통령을	-2284
um	-2285
▁칸	-2286
프로	-2287
▁가지	-2288
▁게이	-2289
▁공연	-2290
▁동의	-2291
▁마감	-2292
▁무역	-2293
▁악화	-2294
만명의	-2295
우주	-2296
학생	-2297
ion	-2298
▁80	-2299
▁걸쳐	-2300
▁밖에	-2301
▁사는	-2302
▁스피	-2303
▁에이	-2304
▁국회의	-2305
▁이라크에서	-2306
▁견	-2307
▁쉽	-2308
리핀	-2309
엘라	-2310
▁그린	-2311
▁신용	-2312
▁파견	-2313
무부는	-2314
▁사건이	-2315
▁연료	-2316
▁작품	-2317
▁중에	-2318
지에서	-2319
2007	-2320
ak	-2321
도의	-2322
되기	-2323
적을	-2324
진이	-2325
▁대비	-2326
▁보유	-2327
▁임명	-2328
▁주재	-2329
▁후보는	-2330
▁미국에서	-2331
▁벤	-2332
▁홀	-2333
로는	-2334
소의	-2335
앞서	-2336
ill	-2337
▁개혁	-2338
▁그룹	-2339
▁마무	-2340
▁문화	-2341
▁사랑	-2342
▁설립	-2343
▁지켜	-2344
▁집중	-2345
▁허용	-2346
▁그들이	-2347
▁수요일	-2348
▁대상으로	-2349
▁슬	-2350
▁구제	-2351
▁나토	-2352
▁넘어	-2353
▁논쟁	-2354
▁돈을	-2355
▁뜻을	-2356
자들과	-2357
2006	-2358
▁The	-2359
▁경찰서	-2360
▁그녀의	-2361
▁사이에	-2362
▁핵무기	-2363
▁이에앞서	-2364
▁관계자들은	-2365
이란	-2366
▁배치	-2367
▁분명	-2368
▁사퇴	-2369
▁유죄	-2370
▁통제	-2371
▁바이러	-2372
▁대해서는	-2373
경찰	-2374
리우	-2375
었고	-2376
진을	-2377
▁공습	-2378
▁되고	-2379
▁바란	-2380
▁아내	-2381
▁전반	-2382
▁깨	-2383
▁잉	-2384
관리	-2385
끄는	-2386
명박	-2387
어도	-2388
일간	-2389
회는	-2390
▁EU	-2391
▁교황	-2392
▁조건	-2393
▁벌이고	-2394
▁알려진	-2395
▁총리의	-2396
60	-2397
기간	-2398
니스	-2399
비를	-2400
회가	-2401
▁혼란	-2402
▁환영	-2403
시키기	-2404
▁발견된	-2405
▁변호사는	-2406
▁옮	-2407
물이	-2408
▁상대로	-2409
▁텍사스	-2410
▁기록했다	-2411
-0	-2412
메라	-2413
▁Ch	-2414
▁개선	-2415
▁대중	-2416
▁두고	-2417
▁선포	-2418
▁수단	-2419
▁이래	-2420
버그	-2421
워드	-2422
▁그래	-2423
▁로켓	-2424
▁상대	-2425
▁서부	-2426
▁승리를	-2427
▁정부에	-2428
▁사람들을	-2429
▁대응	-2430
▁야후	-2431
▁전역	-2432
▁사람은	-2433
▁어머니	-2434
▁흥	-2435
카고	-2436
트의	-2437
.10	-2438
▁경영	-2439
▁남한	-2440
▁복귀	-2441
▁사형	-2442
졌으며	-2443
▁시리아	-2444
▁합니다	-2445
구를	-2446
산을	-2447
수지	-2448
▁구매	-2449
▁미래	-2450
▁신화	-2451
▁적이	-2452
▁좋아	-2453
▁크게	-2454
통신은	-2455
▁벌였다	-2456
▁북한에	-2457
▁이명박	-2458
▁아직까지	-2459
▁밝혔습니다	-2460
▁상원의원이	-2461
▁찰	-2462
나지	-2463
지인	-2464
화가	-2465
ter	-2466
▁고용	-2467
▁고통	-2468
▁로마	-2469
▁북핵	-2470
▁블로	-2471
밖에	-2472
▁동성	-2473
▁이로	-2474
▁저장	-2475
일부터	-2476
▁아니라고	-2477
▁폭력사태	-2478
▁l	-2479
군과	-2480
상의	-2481
▁NA	-2482
▁같다	-2483
▁양국	-2484
▁이집	-2485
▁임시	-2486
이라크	-2487
▁검찰은	-2488
(3	-2489
.7	-2490
FA	-2491
민주	-2492
▁90	-2493
▁다르	-2494
▁등의	-2495
▁연결	-2496
▁집권	-2497
▁표현	-2498
▁해야	-2499
▁베네수	-2500
▁위해서는	-2501
20	-2502
리지	-2503
회사	-2504
▁관해	-2505
▁따른	-2506
▁마크	-2507
▁이해	-2508
▁효과	-2509
▁결정을	-2510
▁대사관	-2511
▁때까지	-2512
▁사이트	-2513
▁민주주의	-2514
▁홈	-2515
▁부근	-2516
▁인간	-2517
▁해리	-2518
▁달러를	-2519
▁마이크	-2520
▁목요일	-2521
▁치료를	-2522
되었다고	-2523
▁사르코지	-2524
BS	-2525
▁갑	-2526
려고	-2527
르드	-2528
진은	-2529
▁UN	-2530
▁검토	-2531
▁고속	-2532
▁뉴스	-2533
▁모델	-2534
▁받게	-2535
▁이틀	-2536
▁최악	-2537
▁쿠바	-2538
트에서	-2539
▁다양한	-2540
▁받아들	-2541
▁있다며	-2542
▁회장은	-2543
로서	-2544
이어	-2545
▁기관	-2546
▁높아	-2547
▁매년	-2548
▁인수	-2549
▁펜실	-2550
▁해당	-2551
▁허리	-2552
였으며	-2553
▁못하고	-2554
▁2001	-2555
▁공격으로	-2556
▁깊	-2557
데이	-2558
리로	-2559
식이	-2560
▁분야	-2561
▁살인	-2562
▁집행	-2563
▁비행기	-2564
▁시카고	-2565
▁무장단체	-2566
▁프라이머	-2567
oo	-2568
se	-2569
로를	-2570
자에	-2571
▁강한	-2572
▁단계	-2573
▁등을	-2574
▁스트	-2575
▁재정	-2576
▁전자	-2577
▁진출	-2578
▁도움을	-2579
▁도움이	-2580
▁계획이다	-2581
▁보고서는	-2582
도에	-2583
르타	-2584
▁광고	-2585
▁바다	-2586
▁분쟁	-2587
▁사항	-2588
▁아파	-2589
▁자체	-2590
▁징역	-2591
점에서	-2592
하기도	-2593
▁강력한	-2594
▁일요일	-2595
▁자신을	-2596
▁무장세력	-2597
ID	-2598
▁능	-2599
리즈	-2600
차를	-2601
▁근처	-2602
▁보좌	-2603
▁선박	-2604
▁아랍	-2605
▁압둘	-2606
▁지휘	-2607
▁포르	-2608
▁방법을	-2609
▁수많은	-2610
▁타임즈	-2611
▁필리핀	-2612
▁린	-2613
▁윈	-2614
비행	-2615
측이	-2616
▁못한	-2617
▁아바	-2618
▁지시	-2619
▁파업	-2620
▁이끄는	-2621
▁하마스	-2622
▁버지니아	-2623
▁둔	-2624
북한	-2625
사고	-2626
제가	-2627
표를	-2628
▁구체	-2629
▁받지	-2630
▁입원	-2631
▁자녀	-2632
▁처리	-2633
▁향해	-2634
▁확신	-2635
▁사실이	-2636
▁정부와	-2637
▁이라크에	-2638
▁론	-2639
경기	-2640
어가	-2641
키는	-2642
▁강제	-2643
▁대만	-2644
▁선두	-2645
▁수익	-2646
▁있지	-2647
▁한반	-2648
스러운	-2649
▁언급했다	-2650
▁베네수엘라	-2651
80	-2652
위로	-2653
이드	-2654
▁70	-2655
▁In	-2656
▁공산	-2657
▁아메	-2658
▁힘들	-2659
자에게	-2660
▁내렸다	-2661
▁후보를	-2662
▁주지사는	-2663
."	-2664
EA	-2665
ew	-2666
▁컨	-2667
당은	-2668
배를	-2669
이의	-2670
▁근거	-2671
▁긴급	-2672
▁막기	-2673
▁비슷	-2674
▁빠져	-2675
▁시행	-2676
▁전략	-2677
었지만	-2678
▁con	-2679
▁밝히지	-2680
▁협상을	-2681
▁발견했다	-2682
▁요청했다	-2683
다면	-2684
법을	-2685
임스	-2686
▁나머	-2687
▁제거	-2688
하이오	-2689
▁상황이	-2690
▁받았다고	-2691
▁맺	-2692
성의	-2693
자이	-2694
▁관심	-2695
▁사우디	-2696
▁영국의	-2697
▁플레이	-2698
▁오바마가	-2699
다른	-2700
율을	-2701
▁논란	-2702
▁목숨	-2703
▁소재	-2704
▁승무	-2705
▁증시	-2706
되면서	-2707
▁달하는	-2708
▁성폭행	-2709
▁숨지고	-2710
▁잭	-2711
상태	-2712
없이	-2713
줬다	-2714
피아	-2715
oin	-2716
▁도쿄	-2717
▁만든	-2718
▁어느	-2719
가들은	-2720
하였다	-2721
해왔다	-2722
▁국방부	-2723
▁다음달	-2724
▁되었다	-2725
▁미군이	-2726
▁1000	-2727
co	-2728
국인	-2729
상에	-2730
식에	-2731
직을	-2732
▁개의	-2733
▁고객	-2734
▁둘러	-2735
▁만큼	-2736
▁에어	-2737
▁일자	-2738
▁주의	-2739
글랜드	-2740
▁북한을	-2741
▁예상된다	-2742
▁정상회담	-2743
▁주장하고	-2744
.8	-2745
▁찍	-2746
가로	-2747
겼다	-2748
년을	-2749
연구	-2750
.09	-2751
▁어떠	-2752
▁오래	-2753
▁제외	-2754
▁주한	-2755
으로서	-2756
▁가능한	-2757
▁미국을	-2758
▁비난을	-2759
▁작업을	-2760
▁오하이오	-2761
▁사람들에게	-2762
.3	-2763
▁묘	-2764
결을	-2765
이션	-2766
즈니	-2767
▁고등	-2768
▁노조	-2769
▁신고	-2770
▁착륙	-2771
여명이	-2772
▁여부를	-2773
▁움직임	-2774
▁정도로	-2775
▁지역을	-2776
▁이라크의	-2777
.9	-2778
BI	-2779
ia	-2780
단의	-2781
치의	-2782
all	-2783
▁35	-2784
▁마약	-2785
▁분리	-2786
▁비교	-2787
▁출발	-2788
대에서	-2789
된다고	-2790
oc	-2791
ul	-2792
▁쉬	-2793
나이	-2794
사한	-2795
생활	-2796
▁끝에	-2797
▁대회	-2798
▁세금	-2799
▁입고	-2800
▁잘못	-2801
▁케이	-2802
▁했던	-2803
▁후에	-2804
전으로	-2805
▁300	-2806
▁말레이	-2807
▁병력을	-2808
▁사진을	-2809
▁여성이	-2810
▁적어도	-2811
롤라이나	-2812
폭탄테러	-2813
▁발생했다고	-2814
.4	-2815
▁냉	-2816
▁솔	-2817
▁졸	-2818
▁탁	-2819
경을	-2820
기지	-2821
러는	-2822
브라	-2823
소가	-2824
하메	-2825
▁되지	-2826
▁모른	-2827
▁보낸	-2828
▁인물	-2829
▁하며	-2830
였습니다	-2831
▁사람들의	-2832
RC	-2833
롭게	-2834
상은	-2835
화에	-2836
▁계약	-2837
▁나와	-2838
▁넘는	-2839
▁예측	-2840
▁의혹	-2841
말리아	-2842
▁것이라	-2843
▁어떠한	-2844
▁십	-2845
같이	-2846
리기	-2847
art	-2848
▁공공	-2849
▁누구	-2850
▁수니	-2851
▁이달	-2852
▁접촉	-2853
▁하마	-2854
리노이	-2855
만명이	-2856
하지는	-2857
▁대표는	-2858
▁목숨을	-2859
▁최고의	-2860
(1	-2861
▁낸	-2862
▁습	-2863
▁왜	-2864
개발	-2865
내는	-2866
도는	-2867
라스	-2868
보를	-2869
▁검사	-2870
▁진술	-2871
▁출마	-2872
▁병원에	-2873
▁유명한	-2874
▁유일한	-2875
▁쿠르드	-2876
▁결정했다	-2877
(4	-2878
TO	-2879
uc	-2880
▁삶	-2881
이기	-2882
▁스포	-2883
▁시상	-2884
▁압박	-2885
▁인사	-2886
▁자치	-2887
▁장기	-2888
▁폭풍	-2889
됩니다	-2890
▁가졌다	-2891
▁발생해	-2892
▁사이클	-2893
▁시간을	-2894
▁정부를	-2895
▁듯	-2896
량을	-2897
친구	-2898
▁거절	-2899
▁근무	-2900
▁무너	-2901
▁시청	-2902
▁아주	-2903
▁증언	-2904
▁사건은	-2905
▁사고가	-2906
▁올랐다	-2907
▁이들의	-2908
▁이란의	-2909
▁질문에	-2910
..	-2911
▁끊	-2912
석을	-2913
스캐	-2914
트가	-2915
▁군인	-2916
▁내가	-2917
▁대기	-2918
▁불안	-2919
▁수치	-2920
▁유로	-2921
▁자연	-2922
▁해군	-2923
▁사고로	-2924
▁언론은	-2925
▁완전히	-2926
▁이야기	-2927
▁최초의	-2928
▁주민들이	-2929
▁지도자인	-2930
▁득	-2931
▁묻	-2932
▁펠	-2933
소는	-2934
▁규정	-2935
▁기후	-2936
▁알렉	-2937
▁일간	-2938
▁조종	-2939
▁대해서	-2940
▁한국은	-2941
지역에서	-2942
되었습니다	-2943
em	-2944
▁늦	-2945
▁술	-2946
가인	-2947
국을	-2948
르의	-2949
안보	-2950
어난	-2951
주일	-2952
▁경매	-2953
▁목소	-2954
▁소녀	-2955
▁아카	-2956
▁위성	-2957
▁의심	-2958
이지만	-2959
▁방안을	-2960
▁보여주	-2961
▁시간이	-2962
▁다이애나	-2963
▁소말리아	-2964
▁합의했다	-2965
▁과학자들은	-2966
경제	-2967
대와	-2968
들어	-2969
량의	-2970
량이	-2971
로스	-2972
마다	-2973
비치	-2974
위가	-2975
티나	-2976
oun	-2977
▁가질	-2978
▁동원	-2979
▁바람	-2980
월부터	-2981
▁나왔다	-2982
▁미군은	-2983
▁서비스	-2984
▁카운티	-2985
▁프로젝	-2986
▁않았지만	-2987
▁삭	-2988
그룹	-2989
아니	-2990
▁가스	-2991
▁동결	-2992
▁등록	-2993
▁숨진	-2994
▁신뢰	-2995
▁적용	-2996
▁청소	-2997
▁총재	-2998
▁평양	-2999
▁그것은	-3000
▁정책을	-3001
▁중국이	-3002
▁차베스	-3003
서부	-3004
위는	-3005
▁간의	-3006
▁개정	-3007
▁경비	-3008
▁기준	-3009
▁머물	-3010
일랜드	-3011
했는데	-3012
5000	-3013
▁pro	-3014
▁게이츠	-3015
▁목표로	-3016
▁방문한	-3017
▁보이는	-3018
▁블로그	-3019
▁반대하는	-3020
▁걱	-3021
군을	-3022
도시	-3023
되며	-3024
렀다	-3025
방을	-3026
세가	-3027
웠다	-3028
▁be	-3029
▁기억	-3030
▁들고	-3031
▁세르	-3032
▁존재	-3033
▁카르	-3034
▁트럭	-3035
▁해병	-3036
하다는	-3037
하라고	-3038
▁관련해	-3039
▁그리스	-3040
▁미국에	-3041
▁우려를	-3042
▁휴대폰	-3043
▁확인했다	-3044
▁말레이시아	-3045
EC	-3046
골을	-3047
당이	-3048
신의	-3049
항공	-3050
▁기상	-3051
▁느끼	-3052
▁물론	-3053
▁성화	-3054
▁아베	-3055
▁없어	-3056
▁여왕	-3057
▁장난	-3058
▁집단	-3059
▁청와	-3060
한다면	-3061
▁법안을	-3062
▁아무런	-3063
▁판결을	-3064
위원회는	-3065
스캐롤라이나	-3066
▁듣	-3067
▁며	-3068
개를	-3069
베즈	-3070
세로	-3071
아이	-3072
인지	-3073
호를	-3074
.01	-3075
▁St	-3076
▁놓고	-3077
▁리버	-3078
▁병력	-3079
▁수술	-3080
▁순간	-3081
▁실업	-3082
▁이민	-3083
▁이송	-3084
▁즉각	-3085
▁항상	-3086
▁행정	-3087
▁힐튼	-3088
▁일리노이	-3089
.5	-3090
DA	-3091
▁빅	-3092
▁옷	-3093
동부	-3094
문이	-3095
▁박물	-3096
▁부동	-3097
▁씨는	-3098
▁임무	-3099
▁자주	-3100
▁적절	-3101
2008	-3102
▁내무부	-3103
▁마드리	-3104
▁숨졌다	-3105
▁최악의	-3106
결과	-3107
리프	-3108
한을	-3109
해진	-3110
▁근로	-3111
▁만약	-3112
▁신청	-3113
▁오픈	-3114
▁저녁	-3115
▁투입	-3116
▁규모의	-3117
▁대의원	-3118
▁사무실	-3119
▁의견을	-3120
▁필요가	-3121
▁허리케인	-3122
)/	-3123
.6	-3124
▁굴	-3125
▁흡	-3126
장관	-3127
▁32	-3128
▁고래	-3129
▁도중	-3130
▁법률	-3131
▁블레	-3132
▁상징	-3133
▁세력	-3134
▁아들	-3135
▁여기	-3136
▁올메	-3137
▁유전	-3138
▁점을	-3139
▁밝혀지지	-3140
nn	-3141
▁델	-3142
▁좀	-3143
사로	-3144
트에	-3145
협회	-3146
▁나가	-3147
▁수반	-3148
▁약물	-3149
▁주는	-3150
았다고	-3151
지수는	-3152
▁수니파	-3153
▁이란이	-3154
▁이수지	-3155
▁있음을	-3156
▁판사는	-3157
▁하원의	-3158
▁크리스토	-3159
어야	-3160
역을	-3161
트리	-3162
The	-3163
ity	-3164
▁FA	-3165
▁동시	-3166
▁물질	-3167
▁베컴	-3168
▁생물	-3169
▁야생	-3170
▁얼굴	-3171
▁연속	-3172
▁주최	-3173
▁피터	-3174
▁한미	-3175
났다고	-3176
리우드	-3177
아니라	-3178
join	-3179
▁연설을	-3180
▁입었다	-3181
▁전까지	-3182
▁카메라	-3183
TV	-3184
ks	-3185
▁멸	-3186
▁빙	-3187
기관	-3188
율이	-3189
ain	-3190
▁고양	-3191
▁구입	-3192
▁국회	-3193
▁부패	-3194
▁불러	-3195
▁싶어	-3196
▁애플	-3197
▁억류	-3198
▁작년	-3199
▁전혀	-3200
▁정말	-3201
▁차기	-3202
▁찰스	-3203
랫동안	-3204
▁곳에서	-3205
▁나머지	-3206
▁계속해서	-3207
▁숨졌다고	-3208
▁잉글랜드	-3209
▁돕	-3210
▁벽	-3211
▁품	-3212
데미	-3213
률이	-3214
마일	-3215
미터	-3216
인과	-3217
평양	-3218
▁것도	-3219
▁민병	-3220
▁분노	-3221
▁새로	-3222
▁완화	-3223
▁작성	-3224
▁죽음	-3225
▁지연	-3226
▁파손	-3227
▁현대	-3228
여명의	-3229
▁스포츠	-3230
▁제임스	-3231
▁발견됐다	-3232
▁연설에서	-3233
▁오바마의	-3234
▁주민들은	-3235
▁땅	-3236
▁잇	-3237
가스	-3238
분이	-3239
승을	-3240
시에	-3241
실험	-3242
▁겪고	-3243
▁위기	-3244
▁인상	-3245
▁직후	-3246
▁하이	-3247
주에서	-3248
프리카	-3249
만아니라	-3250
하겠다는	-3251
(6	-3252
▁년	-3253
▁덴	-3254
▁톰	-3255
보가	-3256
지와	-3257
ary	-3258
▁기본	-3259
▁대처	-3260
▁라고	-3261
▁모여	-3262
▁불과	-3263
▁블랙	-3264
라비아	-3265
원으로	-3266
▁그에게	-3267
▁시장은	-3268
▁의원이	-3269
▁갤	-3270
바는	-3271
복을	-3272
우고	-3273
ort	-3274
▁is	-3275
▁무가	-3276
▁사살	-3277
▁슈퍼	-3278
▁저항	-3279
▁주인	-3280
▁홍보	-3281
▁흑인	-3282
▁이들을	-3283
▁이집트	-3284
▁자금을	-3285
▁가능성을	-3286
▁매케인은	-3287
▁병원으로	-3288
▁선거에서	-3289
ee	-3290
▁앉	-3291
대원	-3292
만명	-3293
어스	-3294
▁대형	-3295
▁맞아	-3296
▁몇몇	-3297
▁보장	-3298
▁산불	-3299
▁알아	-3300
▁열릴	-3301
▁유대	-3302
▁이르	-3303
▁자세	-3304
▁핵심	-3305
렸다고	-3306
▁마무리	-3307
▁미군의	-3308
▁보이고	-3309
▁스스로	-3310
▁원자로	-3311
▁책임을	-3312
▁후보에	-3313
▁비상사태	-3314
▁회담에서	-3315
▁테러리스트	-3316
▁괴	-3317
르크	-3318
만의	-3319
선에	-3320
조직	-3321
포를	-3322
푸르	-3323
.5%	-3324
▁45	-3325
▁감축	-3326
▁곳에	-3327
▁노출	-3328
▁다니	-3329
▁빠른	-3330
▁작전	-3331
▁집계	-3332
▁처벌	-3333
▁클럽	-3334
▁확대	-3335
▁BBC	-3336
▁바란다	-3337
▁변호사	-3338
▁부시는	-3339
▁소식을	-3340
▁주장을	-3341
▁중이다	-3342
▁관리들은	-3343
▁부상했다고	-3344
▁밴	-3345
▁색	-3346
분을	-3347
산업	-3348
세기	-3349
았던	-3350
▁37	-3351
▁경호	-3352
▁끌어	-3353
▁매일	-3354
▁무사	-3355
▁법정	-3356
▁수정	-3357
▁스위	-3358
▁연장	-3359
▁의한	-3360
▁절반	-3361
▁조금	-3362
▁지배	-3363
▁축하	-3364
▁코소	-3365
하메드	-3366
▁196	-3367
▁대화를	-3368
▁떨어져	-3369
▁발생할	-3370
▁보냈다	-3371
▁없다는	-3372
▁위기에	-3373
▁일어난	-3374
들로부터	-3375
▁고속도로	-3376
▁민주당의	-3377
▁병원에서	-3378
▁전망이다	-3379
▁죄	-3380
▁칠	-3381
라의	-3382
리며	-3383
리오	-3384
리키	-3385
웨이	-3386
▁강타	-3387
▁공군	-3388
▁나이	-3389
▁낮은	-3390
▁내각	-3391
▁싱가	-3392
▁언제	-3393
▁예방	-3394
▁오랜	-3395
▁조작	-3396
▁질병	-3397
▁최신	-3398
▁허가	-3399
식으로	-3400
월까지	-3401
▁말하고	-3402
▁시작된	-3403
joins	-3404
if	-3405
가의	-3406
당인	-3407
보고	-3408
처드	-3409
mer	-3410
▁결론	-3411
▁교수	-3412
▁알게	-3413
▁자료	-3414
▁차관	-3415
▁총기	-3416
▁카라	-3417
▁우리의	-3418
▁사망했으며	-3419
▁크리스토퍼	-3420
pp	-3421
▁멀	-3422
▁휩	-3423
디에	-3424
체를	-3425
▁개봉	-3426
▁노래	-3427
▁목적	-3428
▁방향	-3429
▁실제	-3430
▁원조	-3431
▁태양	-3432
▁표명	-3433
▁해제	-3434
▁확실히	-3435
▁부인했다	-3436
▁아카데미	-3437
▁오랫동안	-3438
▁대통령에게	-3439
▁Korean	-3440
란시	-3441
어로	-3442
▁개입	-3443
▁고든	-3444
▁네덜	-3445
▁떠나	-3446
▁멸종	-3447
▁왕세	-3448
▁우크	-3449
▁파악	-3450
▁후반	-3451
관계를	-3452
▁그렇게	-3453
▁남성이	-3454
▁대표팀	-3455
▁행동을	-3456
▁소식통은	-3457
▁올메르트	-3458
//	-3459
▁#	-3460
▁v	-3461
▁숙	-3462
스키	-3463
정은	-3464
증을	-3465
ith	-3466
▁1,	-3467
▁기반	-3468
▁두려	-3469
▁말한	-3470
▁브리	-3471
▁상당	-3472
▁예비	-3473
▁원유	-3474
▁이혼	-3475
▁전력	-3476
▁주고	-3477
▁400	-3478
▁기록을	-3479
▁기자는	-3480
▁기회를	-3481
▁비슷한	-3482
▁석방을	-3483
▁스미스	-3484
▁월드컵	-3485
▁이밖에	-3486
▁후보로	-3487
베이니아	-3488
tp	-3489
▁궁	-3490
▁염	-3491
▁쥐	-3492
▁획	-3493
개국	-3494
것을	-3495
내고	-3496
단한	-3497
만한	-3498
소로	-3499
슨이	-3500
영화	-3501
위의	-3502
치로	-3503
투표	-3504
://	-3505
▁등이	-3506
▁먼저	-3507
▁바르	-3508
▁보험	-3509
▁서명	-3510
▁안정	-3511
▁외환	-3512
▁주로	-3513
당국은	-3514
인들의	-3515
ight	-3516
▁150	-3517
▁경제적	-3518
▁경찰과	-3519
▁노력을	-3520
▁무가베	-3521
▁위험한	-3522
▁이용해	-3523
▁집에서	-3524
▁메시지를	-3525
os	-3526
들린	-3527
바로	-3528
스테	-3529
체가	-3530
축구	-3531
티아	-3532
프라	-3533
하우	-3534
Tot	-3535
cnn	-3536
▁대체	-3537
▁못할	-3538
▁배럴	-3539
▁사례	-3540
▁속에	-3541
▁얻은	-3542
▁입장	-3543
겠지만	-3544
http	-3545
▁가까운	-3546
▁실시된	-3547
▁일본은	-3548
▁있는데	-3549
▁테러로	-3550
Total	-3551
▁블로그에	-3552
▁세르비아	-3553
▁위원장은	-3554
▁있었으며	-3555
(5	-3556
2&	-3557
EO	-3558
▁윤	-3559
▁혈	-3560
▁혹	-3561
디어	-3562
분의	-3563
우는	-3564
점에	-3565
정보	-3566
지게	-3567
asp	-3568
cat	-3569
▁##	-3570
▁나무	-3571
▁내부	-3572
▁늘어	-3573
▁망명	-3574
▁보이	-3575
▁북극	-3576
▁아기	-3577
▁연루	-3578
▁지급	-3579
▁찬성	-3580
▁총을	-3581
▁태풍	-3582
▁통합	-3583
됐지만	-3584
쳤다고	-3585
=22&	-3586
code	-3587
▁들어가	-3588
▁리처드	-3589
▁문제로	-3590
▁블레어	-3591
▁알려져	-3592
▁일부는	-3593
▁임무를	-3594
▁후보의	-3595
▁사용하는	-3596
▁차지했다	-3597
▁펜실베이니아	-3598
10	-3599
3)	-3600
▁Y	-3601
제는	-3602
▁벌인	-3603
▁진입	-3604
▁피랍	-3605
▁스티븐	-3606
▁출신의	-3607
▁후세인	-3608
▁1999	-3609
▁NASA	-3610
▁봤	-3611
▁헨	-3612
통신	-3613
항을	-3614
▁가정	-3615
▁걱정	-3616
▁그중	-3617
▁놀라	-3618
▁당한	-3619
▁대북	-3620
▁분위	-3621
▁빨리	-3622
▁손을	-3623
▁쇼핑	-3624
▁스테	-3625
▁인기	-3626
▁파리	-3627
▁해변	-3628
돌리자	-3629
인으로	-3630
자들에	-3631
▁가격이	-3632
▁결과가	-3633
▁구성된	-3634
▁기자가	-3635
▁나섰다	-3636
▁영화를	-3637
▁위해서	-3638
▁이들이	-3639
▁정확한	-3640
함으로써	-3641
▁자신들이	-3642
2)	-3643
▁r	-3644
드와	-3645
보호	-3646
재판	-3647
청은	-3648
▁국왕	-3649
▁엄마	-3650
▁추방	-3651
▁표시	-3652
환으로	-3653
▁관리는	-3654
▁법원은	-3655
▁스티브	-3656
▁공화당의	-3657
▁사무총장은	-3658
▁우크라이나	-3659
▁낳	-3660
▁래	-3661
마크	-3662
면을	-3663
자금	-3664
자력	-3665
주를	-3666
하길	-3667
▁대답	-3668
▁라스	-3669
▁아부	-3670
▁이행	-3671
▁크로	-3672
▁하게	-3673
▁확정	-3674
사에서	-3675
▁동성애	-3676
▁살해한	-3677
▁않다고	-3678
▁최소한	-3679
▁추가로	-3680
▁나타냈다	-3681
▁자살폭탄테러	-3682
금융	-3683
동물	-3684
라늄	-3685
무역	-3686
연맹	-3687
평화	-3688
ant	-3689
est	-3690
ign	-3691
▁가는	-3692
▁기울	-3693
▁내린	-3694
▁며칠	-3695
▁이웃	-3696
▁조정	-3697
▁케네	-3698
▁형태	-3699
지역에	-3700
▁문제는	-3701
▁발언을	-3702
▁불만을	-3703
▁사람들	-3704
▁아직도	-3705
▁얼마나	-3706
▁웨스트	-3707
▁이것은	-3708
▁줄어들	-3709
▁회담은	-3710
▁회원국	-3711
▁이야기를	-3712
ational	-3713
▁끼	-3714
격이	-3715
기고	-3716
니가	-3717
랭킹	-3718
수도	-3719
짜리	-3720
출을	-3721
▁기독	-3722
▁네팔	-3723
▁무시	-3724
▁애완	-3725
▁장애	-3726
▁최저	-3727
▁파타	-3728
체스터	-3729
▁FBI	-3730
▁거대한	-3731
▁상황에	-3732
▁소프트	-3733
▁수술을	-3734
▁실시한	-3735
▁압력을	-3736
▁엘리자	-3737
▁전쟁을	-3738
▁테러를	-3739
▁토요일	-3740
▁하워드	-3741
▁행위를	-3742
▁상황에서	-3743
▁콘돌리자	-3744
고한	-3745
다가	-3746
분기	-3747
비가	-3748
슬러	-3749
워크	-3750
점이	-3751
▁""	-3752
▁그와	-3753
▁기타	-3754
▁대화	-3755
▁물리	-3756
▁반발	-3757
▁방해	-3758
▁자국	-3759
▁작가	-3760
▁점령	-3761
▁증명	-3762
▁지키	-3763
더라도	-3764
드에서	-3765
▁검사를	-3766
▁변화를	-3767
▁사용할	-3768
▁투표를	-3769
▁노대통령	-3770
▁대통령에	-3771
DC	-3772
▁꺾	-3773
▁킹	-3774
가에	-3775
긍정	-3776
라가	-3777
부와	-3778
오와	-3779
제에	-3780
티는	-3781
▁고문	-3782
▁교체	-3783
▁내에	-3784
▁노벨	-3785
▁순찰	-3786
▁응답	-3787
▁인종	-3788
▁장악	-3789
지면서	-3790
▁참석한	-3791
▁보고서를	-3792
▁않는다고	-3793
▁꾸	-3794
▁혁	-3795
나와	-3796
되면	-3797
르토	-3798
비는	-3799
사람	-3800
our	-3801
▁김정	-3802
▁쉽게	-3803
▁시티	-3804
▁인디	-3805
▁임신	-3806
▁즉시	-3807
▁페더	-3808
▁한번	-3809
하려고	-3810
outh	-3811
▁계획이	-3812
▁기술을	-3813
▁요구한	-3814
▁용의자	-3815
▁의장은	-3816
▁이번이	-3817
▁이전에	-3818
▁준비가	-3819
▁총격을	-3820
▁시작됐다	-3821
▁요구하는	-3822
▁신화통신은	-3823
40	-3824
▁첼	-3825
드르	-3826
이던	-3827
준다	-3828
호가	-3829
▁36	-3830
▁몰아	-3831
▁실망	-3832
▁애틀	-3833
▁연락	-3834
▁오르	-3835
▁음식	-3836
▁자택	-3837
▁직면	-3838
관들은	-3839
플레이	-3840
orth	-3841
▁강하게	-3842
▁것처럼	-3843
▁모스크	-3844
▁외무부	-3845
▁요구를	-3846
▁차량을	-3847
▁한국과	-3848
▁현장에	-3849
란시스코	-3850
▁유럽연합	-3851
ld	-3852
ly	-3853
▁콩	-3854
네이	-3855
전의	-3856
정책	-3857
투갈	-3858
ine	-3859
▁감행	-3860
▁다가	-3861
▁단지	-3862
▁되면	-3863
▁만족	-3864
▁복용	-3865
▁운행	-3866
▁캠프	-3867
사들이	-3868
상으로	-3869
질랜드	-3870
하라는	-3871
▁경기에	-3872
▁그녀가	-3873
▁대사는	-3874
▁보이지	-3875
▁불가능	-3876
▁여행객	-3877
▁여행을	-3878
▁테러가	-3879
▁한반도	-3880
▁서비스를	-3881
▁수천명의	-3882
▁약속했다	-3883
▁조사하고	-3884
▁필요하다	-3885
▁할리우드	-3886
▁롤	-3887
▁셰	-3888
▁옆	-3889
글라	-3890
배우	-3891
일린	-3892
타임	-3893
한이	-3894
ace	-3895
▁MS	-3896
▁가수	-3897
▁구글	-3898
▁긴장	-3899
▁끝난	-3900
▁방어	-3901
▁사기	-3902
▁전기	-3903
▁증권	-3904
▁철회	-3905
▁프레	-3906
▁하다	-3907
▁협조	-3908
▁화산	-3909
▁활용	-3910
때문에	-3911
스럽게	-3912
적이고	-3913
▁론스타	-3914
▁발표할	-3915
▁비롯한	-3916
▁사건의	-3917
▁실제로	-3918
▁위협을	-3919
▁의사를	-3920
▁회담에	-3921
▁소프트웨	-3922
▁우주비행	-3923
▁V	-3924
▁르	-3925
계획	-3926
과는	-3927
드에	-3928
디는	-3929
선이	-3930
셀로	-3931
시티	-3932
츠는	-3933
하마	-3934
한국	-3935
▁가택	-3936
▁갖추	-3937
▁부문	-3938
▁와인	-3939
▁우선	-3940
▁장례	-3941
▁제이	-3942
▁크루	-3943
▁탈출	-3944
리포터	-3945
오바마	-3946
이었던	-3947
▁독립을	-3948
▁있는지	-3949
▁핵실험	-3950
▁대부분은	-3951
▁못했다고	-3952
▁중이라고	-3953
▁웹사이트에	-3954
ab	-3955
qu	-3956
▁-	-3957
▁몬	-3958
▁앓	-3959
▁얘	-3960
간다	-3961
미르	-3962
일로	-3963
주로	-3964
환을	-3965
▁법안	-3966
▁소지	-3967
▁신속	-3968
▁아래	-3969
▁오마	-3970
▁저는	-3971
▁집을	-3972
▁흔들	-3973
국으로	-3974
▁기독교	-3975
▁소비자	-3976
▁시상식	-3977
▁아르헨	-3978
▁않으면	-3979
▁이르는	-3980
▁주에서	-3981
▁1997	-3982
▁사이클론	-3983
▁없었다고	-3984
▁인터뷰를	-3985
▁공식적으로	-3986
▁멜	-3987
▁빛	-3988
기문	-3989
랑카	-3990
바다	-3991
분에	-3992
주교	-3993
크는	-3994
ans	-3995
raq	-3996
▁at	-3997
▁기구	-3998
▁내놓	-3999
▁마리	-4000
▁미시	-4001
▁법적	-4002
▁보기	-4003
▁예술	-4004
▁요르	-4005
▁하원	-4006
▁헤럴	-4007
▁형성	-4008
▁경찰관	-4009
▁됐다고	-4010
▁매들린	-4011
▁부동산	-4012
▁속에서	-4013
▁장관이	-4014
▁체포된	-4015
▁회담이	-4016
▁1998	-4017
▁with	-4018
▁구체적인	-4019
▁뉴질랜드	-4020
▁받아들이	-4021
▁아이들을	-4022
▁지지하는	-4023
▁페르베즈	-4024
▁포함되어	-4025
▁현장에서	-4026
▁멋	-4027
▁쌍	-4028
▁앙	-4029
간에	-4030
계의	-4031
렇게	-4032
령을	-4033
리언	-4034
발유	-4035
▁38	-4036
▁가입	-4037
▁긍정	-4038
▁나달	-4039
▁날씨	-4040
▁메이	-4041
▁외곽	-4042
▁유세	-4043
▁이재	-4044
▁찾기	-4045
▁토니	-4046
▁해적	-4047
▁호소	-4048
사회의	-4049
왔다고	-4050
▁CBS	-4051
▁대학의	-4052
▁소송을	-4053
▁아바스	-4054
▁얻었다	-4055
▁있으나	-4056
▁중에는	-4057
▁지수는	-4058
▁했으며	-4059
▁Iraq	-4060
BA	-4061
계에	-4062
고래	-4063
단에	-4064
대학	-4065
백만	-4066
측의	-4067
함을	-4068
▁강경	-4069
▁글로	-4070
▁올랐	-4071
▁완전	-4072
▁이른	-4073
▁질문	-4074
▁탐사	-4075
▁화성	-4076
▁선거를	-4077
▁시리즈	-4078
▁인정했다	-4079
kg	-4080
▁빼	-4081
▁캄	-4082
▁혜	-4083
▁흘	-4084
리드	-4085
슨의	-4086
아몬	-4087
일이	-4088
중국	-4089
처를	-4090
측에	-4091
트남	-4092
팀은	-4093
ard	-4094
▁거짓	-4095
▁관여	-4096
▁답변	-4097
▁부대	-4098
▁불참	-4099
▁상업	-4100
▁수영	-4101
▁으로	-4102
▁착수	-4103
▁착용	-4104
▁초기	-4105
▁침해	-4106
▁협의	-4107
▁계획에	-4108
▁국제유	-4109
▁단체는	-4110
▁리버풀	-4111
▁스피어	-4112
▁싱가포	-4113
▁아이를	-4114
▁에이즈	-4115
▁역사상	-4116
▁이란은	-4117
▁주인공	-4118
▁테이프	-4119
▁아이들이	-4120
▁지진으로	-4121
▁총선에서	-4122
▁타임즈는	-4123
▁North	-4124
11	-4125
▁곡	-4126
▁웃	-4127
시각	-4128
자기	-4129
쪽에	-4130
치지	-4131
ial	-4132
ice	-4133
▁방침	-4134
▁소요	-4135
▁영어	-4136
▁유니	-4137
▁유혈	-4138
▁음반	-4139
▁인하	-4140
▁적극	-4141
▁전면	-4142
▁화장	-4143
격으로	-4144
었으나	-4145
▁DNA	-4146
▁곳으로	-4147
▁공격이	-4148
▁국가의	-4149
▁드라마	-4150
▁반정부	-4151
▁벌어진	-4152
▁않도록	-4153
▁영화는	-4154
▁우라늄	-4155
▁이상을	-4156
▁일어나	-4157
▁1980	-4158
▁맨체스터	-4159
▁열린우리	-4160
▁영국에서	-4161
▁요구하고	-4162
▁학생들이	-4163
프란시스코	-4164
▁엘리자베스	-4165
▁크리스마스	-4166
▁덮	-4167
대전	-4168
됐고	-4169
류의	-4170
만큼	-4171
수한	-4172
십자	-4173
트릭	-4174
▁가득	-4175
▁국무	-4176
▁마카	-4177
▁바라	-4178
▁브루	-4179
▁삼성	-4180
▁소개	-4181
▁스코	-4182
▁시신	-4183
▁어렵	-4184
▁음모	-4185
▁조각	-4186
▁집에	-4187
▁화학	-4188
곳에서	-4189
년에는	-4190
래스카	-4191
▁250	-4192
▁관리가	-4193
▁권리를	-4194
▁박물관	-4195
▁발언은	-4196
▁사람의	-4197
▁이끌어	-4198
▁조지아	-4199
▁코소보	-4200
▁페일린	-4201
▁포함해	-4202
▁휘발유	-4203
▁때문이다	-4204
▁포르투갈	-4205
▁이스라엘의	-4206
▁액	-4207
▁훨	-4208
거리	-4209
나의	-4210
붉은	-4211
시장	-4212
원과	-4213
원인	-4214
티모	-4215
했기	-4216
▁42	-4217
▁an	-4218
▁le	-4219
▁무릎	-4220
▁믿고	-4221
▁변경	-4222
▁보냈	-4223
▁시드	-4224
▁유리	-4225
▁좋지	-4226
▁치안	-4227
▁향후	-4228
▁훨씬	-4229
나이티	-4230
으로는	-4231
▁남북한	-4232
▁들었다	-4233
▁베트남	-4234
▁압둘라	-4235
▁최근의	-4236
함에따라	-4237
inist	-4238
▁1990	-4239
▁거주하는	-4240
▁모하메드	-4241
▁입었다고	-4242
▁하락했다	-4243
▁국무장관은	-4244
ss	-4245
▁칭	-4246
건의	-4247
공화	-4248
금이	-4249
리칸	-4250
시가	-4251
업이	-4252
학자	-4253
▁th	-4254
▁가르	-4255
▁거뒀	-4256
▁로봇	-4257
▁로스	-4258
▁맞서	-4259
▁무력	-4260
▁밀란	-4261
▁서식	-4262
▁성인	-4263
▁심리	-4264
▁심한	-4265
▁영토	-4266
▁온난	-4267
▁육군	-4268
▁전개	-4269
▁주간	-4270
▁지목	-4271
▁지출	-4272
▁콘서	-4273
▁패배	-4274
▁해산	-4275
▁획득	-4276
▁힘든	-4277
라운드	-4278
해졌다	-4279
▁방문할	-4280
▁북한과	-4281
▁불리는	-4282
▁오스트	-4283
▁의회의	-4284
▁일본이	-4285
▁테러범	-4286
▁대변인인	-4287
▁대부분이	-4288
▁예정이며	-4289
▁주장하는	-4290
▁샌프란시스코	-4291
EU	-4292
ry	-4293
▁든	-4294
▁빚	-4295
▁훌	-4296
건을	-4297
로의	-4298
브는	-4299
시의	-4300
양의	-4301
▁pl	-4302
▁걸어	-4303
▁검색	-4304
▁나쁜	-4305
▁도달	-4306
▁랭킹	-4307
▁맨유	-4308
▁문을	-4309
▁비자	-4310
▁시절	-4311
▁오사	-4312
▁중재	-4313
▁천연	-4314
▁침체	-4315
▁폐기	-4316
▁해고	-4317
아시아	-4318
에게는	-4319
틀랜드	-4320
ress	-4321
▁밖으로	-4322
▁반기문	-4323
▁반응을	-4324
▁사람을	-4325
▁이것이	-4326
ident	-4327
▁경선에서	-4328
▁당선인은	-4329
▁만들었다	-4330
▁정치적인	-4331
""	-4332
▁꿈	-4333
▁밑	-4334
▁뽑	-4335
▁흉	-4336
데타	-4337
렬한	-4338
병을	-4339
일의	-4340
터를	-4341
▁44	-4342
▁달리	-4343
▁마르	-4344
▁배심	-4345
▁복제	-4346
▁스리	-4347
▁스웨	-4348
▁실행	-4349
▁예산	-4350
▁이메	-4351
▁접속	-4352
▁특파	-4353
달러에	-4354
사들은	-4355
▁금요일	-4356
▁남자가	-4357
▁대변인	-4358
▁된다고	-4359
▁사태가	-4360
▁익명의	-4361
▁제안을	-4362
▁충분한	-4363
▁크라이	-4364
▁방법으로	-4365
▁생각하고	-4366
▁알려지지	-4367
▁의원들은	-4368
▁해결하기	-4369
▁South	-4370
-3	-4371
up	-4372
▁딜	-4373
▁텔	-4374
계가	-4375
국에	-4376
담을	-4377
동이	-4378
리조	-4379
었을	-4380
오늘	-4381
일부	-4382
즈볼	-4383
차가	-4384
치에	-4385
켰다	-4386
▁48	-4387
▁네트	-4388
▁도전	-4389
▁마치	-4390
▁모르	-4391
▁사법	-4392
▁성향	-4393
▁수집	-4394
▁앨범	-4395
▁영변	-4396
▁입양	-4397
▁잠재	-4398
▁찾는	-4399
▁취할	-4400
▁측근	-4401
▁치명	-4402
▁폭우	-4403
▁학살	-4404
일간의	-4405
▁CIA	-4406
▁결정은	-4407
▁그들을	-4408
▁리비아	-4409
▁원하는	-4410
▁자리를	-4411
▁특별한	-4412
프로그램	-4413
▁9.11	-4414
▁네덜란드	-4415
▁말합니다	-4416
▁체포됐다	-4417
▁발견했다고	-4418
▁아르헨티나	-4419
19	-4420
70	-4421
▁뿌	-4422
▁택	-4423
▁흐	-4424
구가	-4425
군에	-4426
므로	-4427
미디	-4428
발을	-4429
선수	-4430
세츠	-4431
실에	-4432
음이	-4433
주간	-4434
ear	-4435
ess	-4436
▁공중	-4437
▁권고	-4438
▁대량	-4439
▁리콜	-4440
▁명은	-4441
▁이익	-4442
▁주목	-4443
▁하와	-4444
▁허락	-4445
▁관계가	-4446
▁모습이	-4447
▁바라고	-4448
▁우려가	-4449
▁이번주	-4450
▁항공기	-4451
▁어려움을	-4452
▁필요하다고	-4453
5)	-4454
개가	-4455
격한	-4456
마리	-4457
타나	-4458
▁대다	-4459
▁레스	-4460
▁로이	-4461
▁보관	-4462
▁소탕	-4463
▁주석	-4464
▁편집	-4465
▁합동	-4466
▁경찰의	-4467
▁나타나	-4468
▁벗어나	-4469
▁사건과	-4470
▁선거캠	-4471
▁신문은	-4472
▁외교부	-4473
▁우승을	-4474
▁의회가	-4475
▁중국과	-4476
▁회의를	-4477
▁도착했다	-4478
▁드러났다	-4479
▁사건으로	-4480
▁아일랜드	-4481
▁않았으며	-4482
▁언급하지	-4483
▁예상했다	-4484
▁유나이티	-4485
-2	-4486
▁뒷	-4487
▁봄	-4488
국민	-4489
나가	-4490
류를	-4491
모든	-4492
선은	-4493
스톤	-4494
장한	-4495
져야	-4496
주민	-4497
차로	-4498
▁51	-4499
▁기능	-4500
▁법원	-4501
▁베를	-4502
▁붉은	-4503
▁수요	-4504
▁식품	-4505
▁약간	-4506
▁일정	-4507
▁자랑	-4508
▁재산	-4509
▁찾고	-4510
▁회견	-4511
그들은	-4512
실에서	-4513
▁194	-4514
▁가능성	-4515
▁김정일	-4516
▁내용이	-4517
▁다우존	-4518
▁당했다	-4519
▁수사를	-4520
▁알렉산	-4521
▁에드워	-4522
▁요르단	-4523
▁중국에	-4524
▁청소년	-4525
▁쿠데타	-4526
▁항공사	-4527
▁핵시설	-4528
▁헤즈볼	-4529
▁협상이	-4530
라이라마	-4531
무장관이	-4532
▁공개했다	-4533
▁떨어졌다	-4534
▁처음이다	-4535
4)	-4536
ag	-4537
▁옥	-4538
▁켄	-4539
▁횡	-4540
기업	-4541
도르	-4542
됐을	-4543
라덴	-4544
로드	-4545
선의	-4546
프리	-4547
▁걸릴	-4548
▁겨울	-4549
▁농축	-4550
▁담긴	-4551
▁도와	-4552
▁마틴	-4553
▁만날	-4554
▁말해	-4555
▁보면	-4556
▁보석	-4557
▁서방	-4558
▁성과	-4559
▁수퍼	-4560
▁싶다	-4561
▁일은	-4562
▁적은	-4563
▁탁신	-4564
▁포경	-4565
상에서	-4566
올림픽	-4567
정부는	-4568
▁의회는	-4569
▁작전을	-4570
▁전화를	-4571
▁주지사	-4572
▁최초로	-4573
▁통신은	-4574
▁했지만	-4575
이지리아	-4576
현지시각	-4577
▁동영상을	-4578
▁러시아의	-4579
▁사망자가	-4580
▁아이오와	-4581
▁현재까지	-4582
▁20080	-4583
1)	-4584
나미	-4585
루살	-4586
리게	-4587
용을	-4588
이슬	-4589
전은	-4590
제도	-4591
훼손	-4592
.02	-4593
ies	-4594
▁끝나	-4595
▁나누	-4596
▁동반	-4597
▁뛰어	-4598
▁만한	-4599
▁메르	-4600
▁물러	-4601
▁사찰	-4602
▁에스	-4603
▁옮겨	-4604
▁추측	-4605
번째로	-4606
▁CEO	-4607
▁강력히	-4608
▁관심이	-4609
▁밖에서	-4610
▁발표된	-4611
▁생각을	-4612
▁시작한	-4613
▁올렸다	-4614
▁장면을	-4615
▁조사에	-4616
▁총리와	-4617
▁카스트	-4618
▁케네디	-4619
▁회사인	-4620
▁다이아몬	-4621
▁모스크바	-4622
▁보여주는	-4623
▁일환으로	-4624
▁추정되는	-4625
▁대선후보인	-4626
HO	-4627
cm	-4628
▁걷	-4629
국적	-4630
내에	-4631
되자	-4632
만은	-4633
부시	-4634
이크	-4635
주에	-4636
ong	-4637
▁33	-4638
▁경계	-4639
▁교회	-4640
▁대리	-4641
▁맞이	-4642
▁보통	-4643
▁설득	-4644
▁소년	-4645
▁스키	-4646
▁시기	-4647
▁시인	-4648
▁오염	-4649
▁이하	-4650
▁잠시	-4651
▁주가	-4652
▁추산	-4653
▁통치	-4654
▁파티	-4655
글라데	-4656
했는지	-4657
over	-4658
▁FTA	-4659
▁가까이	-4660
▁만드는	-4661
▁명령을	-4662
▁시위대	-4663
▁여성은	-4664
▁여성의	-4665
▁유사한	-4666
▁청와대	-4667
▁치러진	-4668
▁희생자	-4669
이었다고	-4670
▁방문했다	-4671
▁부상했다	-4672
▁챔피언스	-4673
▁달라이라마	-4674
대중	-4675
불어	-4676
사추	-4677
세포	-4678
시피	-4679
율은	-4680
졌던	-4681
지어	-4682
킬로	-4683
판을	-4684
end	-4685
▁ag	-4686
▁sh	-4687
▁강요	-4688
▁개막	-4689
▁길을	-4690
▁바꾸	-4691
▁발굴	-4692
▁보조	-4693
▁부과	-4694
▁불을	-4695
▁산악	-4696
▁산타	-4697
▁세워	-4698
▁소환	-4699
▁업무	-4700
▁연관	-4701
▁위안	-4702
▁작동	-4703
▁장식	-4704
▁정기	-4705
▁카페	-4706
▁커피	-4707
▁콜로	-4708
▁파예	-4709
▁판단	-4710
▁폭락	-4711
▁합법	-4712
년간의	-4713
루살렘	-4714
하고자	-4715
▁50%	-4716
▁게임을	-4717
▁공격에	-4718
▁더불어	-4719
▁루이스	-4720
▁밝히고	-4721
▁샤리프	-4722
▁시신을	-4723
▁시위에	-4724
▁않지만	-4725
▁어려운	-4726
▁회사의	-4727
▁FARC	-4728
▁마이크로	-4729
▁목적으로	-4730
▁방글라데	-4731
▁성공했다	-4732
▁시장에서	-4733
▁중국에서	-4734
▁기자회견을	-4735
▁워싱턴에서	-4736
25	-4737
ub	-4738
ue	-4739
▁뮤	-4740
▁쏟	-4741
라미	-4742
번의	-4743
원제	-4744
일리	-4745
즈가	-4746
통상	-4747
age	-4748
▁IA	-4749
▁골을	-4750
▁나스	-4751
▁담배	-4752
▁도입	-4753
▁매각	-4754
▁모인	-4755
▁사냥	-4756
▁선보	-4757
▁스파	-4758
▁앉아	-4759
▁음주	-4760
▁자리	-4761
▁자이	-4762
▁점점	-4763
▁조합	-4764
▁통화	-4765
달러를	-4766
보다는	-4767
회사인	-4768
ance	-4769
▁거래를	-4770
▁것보다	-4771
▁달러에	-4772
▁대법원	-4773
▁됩니다	-4774
▁생활을	-4775
▁아이의	-4776
▁적절한	-4777
▁타격을	-4778
학자들은	-4779
▁것이라며	-4780
▁계속되고	-4781
▁다르푸르	-4782
▁스리랑카	-4783
▁이곳에서	-4784
6)	-4785
OC	-4786
▁넓	-4787
▁틀	-4788
네스	-4789
대회	-4790
상과	-4791
수에	-4792
스틴	-4793
안전	-4794
트너	-4795
후드	-4796
▁34	-4797
▁걸친	-4798
▁권력	-4799
▁그림	-4800
▁기존	-4801
▁남은	-4802
▁단순	-4803
▁대출	-4804
▁소행	-4805
▁아스	-4806
▁여겨	-4807
▁오브	-4808
▁자본	-4809
▁지정	-4810
▁칠레	-4811
▁트리	-4812
▁호세	-4813
▁휴전	-4814
음에도	-4815
▁NBC	-4816
▁com	-4817
▁갑자기	-4818
▁관련이	-4819
▁모른다	-4820
▁시위가	-4821
▁여객기	-4822
▁연구를	-4823
▁의회에	-4824
▁장난감	-4825
▁진행된	-4826
▁폭발로	-4827
▁하나의	-4828
▁화재가	-4829
사추세츠	-4830
▁노력하고	-4831
▁보고했다	-4832
▁알래스카	-4833
▁연구진은	-4834
▁조사에서	-4835
▁오스트리아	-4836
ff	-4837
▁美	-4838
▁섹	-4839
▁숫	-4840
라디	-4841
만약	-4842
바키	-4843
시를	-4844
하라	-4845
하였	-4846
▁군부	-4847
▁귀국	-4848
▁대책	-4849
▁라파	-4850
▁마흐	-4851
▁방영	-4852
▁버마	-4853
▁봉쇄	-4854
▁부여	-4855
▁부총	-4856
▁수송	-4857
▁스튜	-4858
▁의존	-4859
▁이사	-4860
▁조선	-4861
▁중독	-4862
▁초대	-4863
▁치열	-4864
▁파산	-4865
▁폐지	-4866
▁폭행	-4867
▁풀려	-4868
▁피고	-4869
▁피난	-4870
▁하면	-4871
▁합류	-4872
개월간	-4873
국장은	-4874
2009	-4875
apan	-4876
▁경제에	-4877
▁논의할	-4878
▁말하는	-4879
▁문제의	-4880
▁반군이	-4881
▁보좌관	-4882
▁빠르게	-4883
▁수백만	-4884
▁시설을	-4885
▁신원을	-4886
▁이유는	-4887
▁코미디	-4888
▁이라크전	-4889
▁이스라엘과	-4890
▁바그다드에서	-4891
FP	-4892
▁균	-4893
▁묵	-4894
▁짧	-4895
공항	-4896
내기	-4897
라우	-4898
린다	-4899
연금	-4900
유럽	-4901
▁가옥	-4902
▁검거	-4903
▁관객	-4904
▁교착	-4905
▁나갈	-4906
▁나를	-4907
▁나서	-4908
▁레드	-4909
▁상품	-4910
▁소설	-4911
▁자기	-4912
▁잔해	-4913
▁전날	-4914
▁진정	-4915
▁체니	-4916
▁추적	-4917
▁출석	-4918
▁출시	-4919
▁하늘	-4920
▁후임	-4921
으면서	-4922
있었다	-4923
▁가격을	-4924
▁것이고	-4925
▁못하는	-4926
▁사실상	-4927
▁아버지	-4928
▁언론이	-4929
▁없으며	-4930
▁위기를	-4931
▁주한미	-4932
졌습니다	-4933
▁일자리를	-4934
▁증가하고	-4935
▁나이지리아	-4936
▁남아프리카	-4937
▁파키스탄의	-4938
7)	-4939
RB	-4940
▁멈	-4941
▁섭	-4942
▁털	-4943
가족	-4944
교도	-4945
기술	-4946
내가	-4947
드시	-4948
바라	-4949
분간	-4950
실이	-4951
어의	-4952
없는	-4953
일은	-4954
전문	-4955
주가	-4956
틀러	-4957
.05	-4958
ood	-4959
und	-4960
▁건축	-4961
▁고조	-4962
▁공무	-4963
▁관람	-4964
▁나아	-4965
▁내릴	-4966
▁누군	-4967
▁달성	-4968
▁대항	-4969
▁득표	-4970
▁목록	-4971
▁받기	-4972
▁버스	-4973
▁복잡	-4974
▁신경	-4975
▁신체	-4976
▁야기	-4977
▁체결	-4978
▁취재	-4979
▁페루	-4980
▁하던	-4981
▁해양	-4982
▁헬기	-4983
▁훌륭	-4984
이슬람	-4985
작업을	-4986
점으로	-4987
▁2-0	-4988
▁600	-4989
▁결정에	-4990
▁경제가	-4991
▁계획은	-4992
▁말까지	-4993
▁무기를	-4994
▁민주화	-4995
▁사태를	-4996
▁있다면	-4997
▁있었고	-4998
▁태평양	-4999
▁해결을	-5000
▁고등학교	-5001
▁기다리고	-5002
▁네트워크	-5003
▁부근에서	-5004
▁세계대전	-5005
▁시위대는	-5006
▁자리에서	-5007
▁지도자들은	-5008
ib	-5009
iv	-5010
그가	-5011
노동	-5012
명도	-5013
서에	-5014
어버	-5015
진다	-5016
터는	-5017
튜브	-5018
피해	-5019
.07	-5020
ack	-5021
▁43	-5022
▁46	-5023
▁돌려	-5024
▁모색	-5025
▁서브	-5026
▁성적	-5027
▁소수	-5028
▁의학	-5029
▁인식	-5030
▁출판	-5031
▁패션	-5032
▁혜택	-5033
▁훼손	-5034
▁흡연	-5035
▁힘을	-5036
는지는	-5037
들과의	-5038
부에서	-5039
정부가	-5040
▁계약을	-5041
▁권력을	-5042
▁그동안	-5043
▁남아공	-5044
▁니콜라	-5045
▁방문을	-5046
▁스웨덴	-5047
▁시장에	-5048
▁이유를	-5049
▁제재를	-5050
▁지진이	-5051
▁폭탄이	-5052
▁피해가	-5053
파키스탄	-5054
▁보인다고	-5055
▁선거운동	-5056
▁여자친구	-5057
▁위원회는	-5058
▁제안했다	-5059
▁클린턴이	-5060
resident	-5061
▁노스캐롤라이나	-5062
lo	-5063
▁록	-5064
▁샘	-5065
▁셀	-5066
▁쌓	-5067
감한	-5068
곳에	-5069
나마	-5070
네자	-5071
닷컴	-5072
봉송	-5073
상황	-5074
아야	-5075
유지	-5076
일러	-5077
정거	-5078
지기	-5079
지난	-5080
토니	-5081
ast	-5082
iss	-5083
▁AC	-5084
▁AI	-5085
▁고대	-5086
▁고향	-5087
▁구출	-5088
▁그에	-5089
▁깊은	-5090
▁되찾	-5091
▁등장	-5092
▁명예	-5093
▁빠진	-5094
▁사담	-5095
▁은신	-5096
▁이주	-5097
▁전직	-5098
▁조기	-5099
▁줄기	-5100
▁코커	-5101
▁콩고	-5102
레이크	-5103
▁10%	-5104
▁것인지	-5105
▁내용의	-5106
▁덴마크	-5107
▁돌아가	-5108
▁승무원	-5109
▁야당인	-5110
▁위험이	-5111
▁이렇게	-5112
▁이재민	-5113
▁이후로	-5114
▁정확히	-5115
▁훈련을	-5116
▁2010	-5117
▁국방부는	-5118
▁시스템을	-5119
▁시위대가	-5120
▁싱가포르	-5121
▁이와같은	-5122
▁폭탄테러가	-5123
관련	-5124
냐는	-5125
물에	-5126
미니	-5127
선언	-5128
에선	-5129
프레	-5130
혔다	-5131
EFA	-5132
its	-5133
ren	-5134
ure	-5135
▁감바	-5136
▁광산	-5137
▁그루	-5138
▁기지	-5139
▁레알	-5140
▁마찬	-5141
▁만난	-5142
▁명확	-5143
▁비서	-5144
▁식당	-5145
▁아동	-5146
▁유력	-5147
▁이양	-5148
▁이중	-5149
▁인공	-5150
▁자극	-5151
▁자선	-5152
▁전당	-5153
▁절대	-5154
▁주문	-5155
▁청문	-5156
▁커플	-5157
▁특정	-5158
러시아	-5159
업체인	-5160
▁195	-5161
▁고통을	-5162
▁국경을	-5163
▁대가로	-5164
▁마치고	-5165
▁모두가	-5166
▁반드시	-5167
▁선거에	-5168
▁시드니	-5169
▁아마디	-5170
▁적십자	-5171
▁주식시	-5172
▁준비를	-5173
overn	-5174
▁IAEA	-5175
▁will	-5176
▁마찬가지	-5177
▁운영하는	-5178
▁핵무기를	-5179
▁과학자들이	-5180
▁관계자들이	-5181
▁발생했으며	-5182
▁이스라엘이	-5183
▁챔피언스리그	-5184
▁척	-5185
령은	-5186
서가	-5187
수와	-5188
인에	-5189
중앙	-5190
해질	-5191
ost	-5192
▁강도	-5193
▁결선	-5194
▁국정	-5195
▁근본	-5196
▁노예	-5197
▁농민	-5198
▁디지	-5199
▁말라	-5200
▁배출	-5201
▁불능	-5202
▁새끼	-5203
▁선발	-5204
▁수의	-5205
▁엄청	-5206
▁엘리	-5207
▁외무	-5208
▁입증	-5209
▁장을	-5210
▁장착	-5211
▁재검	-5212
▁재배	-5213
▁철도	-5214
▁출동	-5215
▁클리	-5216
▁텔레	-5217
베이거	-5218
움에서	-5219
▁말리키	-5220
▁부상자	-5221
▁사령관	-5222
▁사장은	-5223
▁소식이	-5224
▁에후드	-5225
▁전쟁에	-5226
▁조치가	-5227
▁증거를	-5228
▁혐의가	-5229
▁회사는	-5230
▁공항에서	-5231
▁선언했다	-5232
▁예루살렘	-5233
▁우려하고	-5234
▁의회에서	-5235
▁제공하는	-5236
디아라비아	-5237
▁Japan	-5238
▁마지막으로	-5239
▁외무장관은	-5240
(7	-5241
▁낭	-5242
▁맹	-5243
▁쇠	-5244
로이	-5245
르기	-5246
르도	-5247
질을	-5248
클라	-5249
탄을	-5250
티스	-5251
파로	-5252
현재	-5253
호는	-5254
화된	-5255
...	-5256
▁고발	-5257
▁교환	-5258
▁달려	-5259
▁리조	-5260
▁매장	-5261
▁민족	-5262
▁베르	-5263
▁분열	-5264
▁사원	-5265
▁소매	-5266
▁승려	-5267
▁쓰러	-5268
▁에도	-5269
▁열대	-5270
▁올린	-5271
▁완벽	-5272
▁운항	-5273
▁자산	-5274
▁자원	-5275
▁중순	-5276
▁추구	-5277
▁측은	-5278
▁후세	-5279
가에서	-5280
달라고	-5281
▁결과는	-5282
▁고양이	-5283
▁납치된	-5284
▁내용은	-5285
▁네바다	-5286
▁능력을	-5287
▁받아야	-5288
▁변화가	-5289
▁상태에	-5290
▁승인을	-5291
▁아무도	-5292
▁안전한	-5293
▁운동을	-5294
▁질문을	-5295
▁한국이	-5296
▁현재의	-5297
▁대선에서	-5298
▁서울에서	-5299
▁성화봉송	-5300
▁외교통상	-5301
▁이라크를	-5302
▁일본에서	-5303
▁주지사가	-5304
▁지역으로	-5305
ud	-5306
▁읽	-5307
미어	-5308
수인	-5309
이상	-5310
첨단	-5311
프의	-5312
▁PC	-5313
▁거두	-5314
▁고립	-5315
▁관영	-5316
▁관찰	-5317
▁극단	-5318
▁리히	-5319
▁멋진	-5320
▁무죄	-5321
▁바뀌	-5322
▁방지	-5323
▁보잉	-5324
▁상점	-5325
▁생긴	-5326
▁손상	-5327
▁수를	-5328
▁아웅	-5329
▁유치	-5330
▁잃은	-5331
▁재활	-5332
▁중지	-5333
됐으나	-5334
명에게	-5335
생활을	-5336
하기를	-5337
▁감독이	-5338
▁공연을	-5339
▁관계자	-5340
▁다국적	-5341
▁분명히	-5342
▁승리한	-5343
▁시장의	-5344
▁아니면	-5345
▁안전을	-5346
▁여부는	-5347
▁유권자	-5348
▁유럽의	-5349
▁이로써	-5350
▁타이틀	-5351
▁한국에	-5352
▁Chin	-5353
▁다쳤다고	-5354
▁발생하지	-5355
▁승리했다	-5356
▁있었지만	-5357
▁체포했다	-5358
▁했습니다	-5359
▁계획이라고	-5360
▁베이징에서	-5361
▁전했습니다	-5362
▁폭탄테러로	-5363
9)	-5364
me	-5365
▁값	-5366
▁욕	-5367
▁캔	-5368
▁펀	-5369
구의	-5370
씨가	-5371
월의	-5372
전쟁	-5373
지며	-5374
트라	-5375
햄프	-5376
화로	-5377
rom	-5378
ust	-5379
▁2,	-5380
▁ex	-5381
▁가량	-5382
▁갖게	-5383
▁개방	-5384
▁공유	-5385
▁극복	-5386
▁독재	-5387
▁묘사	-5388
▁발간	-5389
▁보복	-5390
▁아름	-5391
▁앤드	-5392
▁연주	-5393
▁운송	-5394
▁위조	-5395
▁은퇴	-5396
▁임기	-5397
▁입국	-5398
▁채택	-5399
▁측정	-5400
▁환자	-5401
나지르	-5402
레스트	-5403
▁그것이	-5404
▁나오는	-5405
▁논의를	-5406
▁안에서	-5407
▁줄리아	-5408
▁총리를	-5409
▁태어난	-5410
▁국무장관	-5411
▁기대하고	-5412
▁수상했다	-5413
▁인디애나	-5414
ations	-5415
▁국방장관은	-5416
▁라스베이거	-5417
▁일반적으로	-5418
▁프로그램에	-5419
6-	-5420
ie	-5421
ip	-5422
od	-5423
▁뼈	-5424
내지	-5425
물로	-5426
와는	-5427
이즈	-5428
주고	-5429
중한	-5430
표가	-5431
함이	-5432
.03	-5433
▁감사	-5434
▁거쳐	-5435
▁곤잘	-5436
▁골드	-5437
▁급속	-5438
▁노르	-5439
▁막을	-5440
▁맞춰	-5441
▁매니	-5442
▁매춘	-5443
▁명백	-5444
▁배제	-5445
▁보낼	-5446
▁복구	-5447
▁빈곤	-5448
▁삭제	-5449
▁삶을	-5450
▁신임	-5451
▁실질	-5452
▁쏟아	-5453
▁앓고	-5454
▁연행	-5455
▁유발	-5456
▁응급	-5457
▁재난	-5458
▁저질	-5459
▁주차	-5460
▁출산	-5461
▁카불	-5462
▁행복	-5463
▁협박	-5464
▁후원	-5465
라이언	-5466
리조나	-5467
선에서	-5468
햄프셔	-5469
▁가격은	-5470
▁검사는	-5471
▁경제를	-5472
▁국제적	-5473
▁대학교	-5474
▁마카오	-5475
▁법원이	-5476
▁사용한	-5477
▁수익을	-5478
▁실종된	-5479
▁일하는	-5480
▁자료를	-5481
▁자세한	-5482
▁지금은	-5483
▁토마스	-5484
▁폭탄을	-5485
▁2012	-5486
▁다우존스	-5487
▁대회에서	-5488
▁미국과의	-5489
▁보유하고	-5490
▁생각하는	-5491
▁진행되고	-5492
▁사우디아라비아	-5493
ep	-5494
▁궤	-5495
▁듀	-5496
▁묶	-5497
권에	-5498
러스	-5499
력에	-5500
받고	-5501
범죄	-5502
산화	-5503
수사	-5504
슬림	-5505
에만	-5506
일본	-5507
제의	-5508
anc	-5509
led	-5510
▁PP	-5511
▁ac	-5512
▁he	-5513
▁가난	-5514
▁구금	-5515
▁군중	-5516
▁논평	-5517
▁단속	-5518
▁무료	-5519
▁무선	-5520
▁발병	-5521
▁보는	-5522
▁비록	-5523
▁스캔	-5524
▁스탠	-5525
▁시달	-5526
▁조성	-5527
▁차를	-5528
▁철저	-5529
▁통한	-5530
▁펠로	-5531
▁펼쳐	-5532
였지만	-5533
인들을	-5534
▁거뒀다	-5535
▁당신이	-5536
▁못하게	-5537
▁베를린	-5538
▁비용이	-5539
▁시장이	-5540
▁유엔은	-5541
▁일정을	-5542
▁자유를	-5543
▁지역은	-5544
▁충분히	-5545
▁케이블	-5546
▁표했다	-5547
▁휴대전	-5548
meric	-5549
▁1994	-5550
▁3000	-5551
▁만들어진	-5552
▁바르셀로	-5553
▁백악관은	-5554
▁베나지르	-5555
▁사령관은	-5556
▁증가했다	-5557
▁보고서에서	-5558
▁똑	-5559
▁쫓	-5560
▁켈	-5561
각을	-5562
관에	-5563
권이	-5564
나우	-5565
년과	-5566
니의	-5567
드라	-5568
렸던	-5569
범위	-5570
봤다	-5571
터키	-5572
환경	-5573
ect	-5574
ric	-5575
▁39	-5576
▁64	-5577
▁간주	-5578
▁고소	-5579
▁골프	-5580
▁공장	-5581
▁급등	-5582
▁봉사	-5583
▁스프	-5584
▁시사	-5585
▁압수	-5586
▁죽은	-5587
▁찾을	-5588
▁한때	-5589
▁화물	-5590
됐었다	-5591
마리의	-5592
우리가	-5593
▁800	-5594
▁가치가	-5595
▁논란이	-5596
▁대학생	-5597
▁동티모	-5598
▁디즈니	-5599
▁레스토	-5600
▁말하며	-5601
▁모기지	-5602
▁발언에	-5603
▁법원에	-5604
▁스타디	-5605
▁쓰나미	-5606
▁애틀랜	-5607
▁에어버	-5608
▁여성을	-5609
▁오래된	-5610
▁있어서	-5611
▁제대로	-5612
▁총선을	-5613
▁파트너	-5614
▁가능성은	-5615
▁국제사회	-5616
▁러시아는	-5617
▁발생하는	-5618
▁보안관은	-5619
▁상승했다	-5620
▁외환은행	-5621
▁이라크와	-5622
▁회의에서	-5623
▁발견됐다고	-5624
og	-5625
▁맛	-5626
▁옐	-5627
▁힌	-5628
로가	-5629
미를	-5630
주년	-5631
케이	-5632
타민	-5633
패를	-5634
한지	-5635
▁(=	-5636
▁49	-5637
▁75	-5638
▁가로	-5639
▁거리	-5640
▁고고	-5641
▁기밀	-5642
▁나올	-5643
▁단어	-5644
▁대결	-5645
▁디스	-5646
▁마시	-5647
▁머리	-5648
▁바닥	-5649
▁앞에	-5650
▁장소	-5651
▁점차	-5652
▁조류	-5653
▁존스	-5654
▁존중	-5655
▁청구	-5656
▁초래	-5657
▁코스	-5658
▁합병	-5659
가들이	-5660
▁130	-5661
▁res	-5662
▁다니엘	-5663
▁북동부	-5664
▁상당한	-5665
▁스위스	-5666
▁익명을	-5667
▁일으킨	-5668
▁잃었다	-5669
▁자신은	-5670
▁저지른	-5671
▁주장에	-5672
▁책임이	-5673
▁피해자	-5674
▁회사가	-5675
킬로미터	-5676
▁거부했다	-5677
▁국회의원	-5678
▁역사적인	-5679
▁차관보는	-5680
8)	-5681
ey	-5682
ll	-5683
▁갇	-5684
다시	-5685
라를	-5686
르지	-5687
리나	-5688
메이	-5689
성과	-5690
왔던	-5691
으려	-5692
졌고	-5693
즈의	-5694
지금	-5695
포드	-5696
화의	-5697
ell	-5698
▁52	-5699
▁53	-5700
▁73	-5701
▁검은	-5702
▁되기	-5703
▁로비	-5704
▁리그	-5705
▁마음	-5706
▁못해	-5707
▁방안	-5708
▁비틀	-5709
▁상공	-5710
▁알바	-5711
▁알코	-5712
▁얻기	-5713
▁얻어	-5714
▁지상	-5715
▁휩싸	-5716
났으며	-5717
되었고	-5718
카르타	-5719
페이지	-5720
▁공격은	-5721
▁국가가	-5722
▁그러한	-5723
▁김대중	-5724
▁바스라	-5725
▁블라디	-5726
▁세금을	-5727
▁시작할	-5728
▁약속을	-5729
▁여학생	-5730
▁영화의	-5731
▁의사가	-5732
▁일으키	-5733
▁재판을	-5734
▁혐의에	-5735
스트리트	-5736
위원회가	-5737
플레이션	-5738
▁뉴욕에서	-5739
▁레스토랑	-5740
▁말했다고	-5741
▁받았으며	-5742
▁세계은행	-5743
▁시민들이	-5744
▁중요하다	-5745
▁호텔에서	-5746
▁방글라데시	-5747
▁뿐만아니라	-5748
▁예정입니다	-5749
▁이스라엘은	-5750
▁주민들에게	-5751
▁숀	-5752
▁엑	-5753
▁왼	-5754
▁짓	-5755
▁흰	-5756
국제	-5757
너는	-5758
뉴스	-5759
달을	-5760
담당	-5761
렌스	-5762
마빈	-5763
모리	-5764
서양	-5765
수록	-5766
스런	-5767
아버	-5768
우스	-5769
월드	-5770
조차	-5771
준비	-5772
탱크	-5773
팀이	-5774
ian	-5775
lec	-5776
ons	-5777
▁1/	-5778
▁55	-5779
▁가슴	-5780
▁강풍	-5781
▁공정	-5782
▁과도	-5783
▁그리	-5784
▁기쁘	-5785
▁기사	-5786
▁내내	-5787
▁다루	-5788
▁도망	-5789
▁보상	-5790
▁불길	-5791
▁위에	-5792
▁인류	-5793
▁인생	-5794
▁적합	-5795
▁지질	-5796
기에서	-5797
되었던	-5798
샤라포	-5799
세력이	-5800
▁같다고	-5801
▁국제원	-5802
▁그래서	-5803
▁나이트	-5804
▁답했다	-5805
▁독일의	-5806
▁벌금을	-5807
▁법안이	-5808
▁보내는	-5809
▁비용을	-5810
▁선두를	-5811
▁소장은	-5812
▁예정된	-5813
▁중국을	-5814
▁집으로	-5815
▁첫번째	-5816
▁총장은	-5817
▁테스트	-5818
마빈라덴	-5819
위원회의	-5820
▁1970	-5821
▁구제금융	-5822
▁국민들의	-5823
▁바이러스	-5824
▁보여줬다	-5825
▁학생들은	-5826
▁기자들에게	-5827
▁체포했다고	-5828
▁핵프로그램	-5829
▁보도에따르면	-5830
iz	-5831
▁쓴	-5832
▁헐	-5833
기록	-5834
더는	-5835
률을	-5836
변화	-5837
부로	-5838
아프	-5839
위해	-5840
일과	-5841
저는	-5842
통제	-5843
하에	-5844
old	-5845
▁78	-5846
▁Ro	-5847
▁ch	-5848
▁sp	-5849
▁검문	-5850
▁과격	-5851
▁누가	-5852
▁돌파	-5853
▁몸을	-5854
▁미술	-5855
▁방콕	-5856
▁복무	-5857
▁브래	-5858
▁비공	-5859
▁사막	-5860
▁산림	-5861
▁성직	-5862
▁스크	-5863
▁올려	-5864
▁의무	-5865
▁의장	-5866
▁잡고	-5867
▁재건	-5868
▁절차	-5869
▁진영	-5870
▁출입	-5871
▁침입	-5872
▁투어	-5873
▁혹은	-5874
단에서	-5875
하겠다	-5876
orld	-5877
▁40%	-5878
▁ABC	-5879
▁Com	-5880
▁결과에	-5881
▁경제학	-5882
▁국가를	-5883
▁나스닥	-5884
▁라이트	-5885
▁사용될	-5886
▁아웅산	-5887
▁외교적	-5888
▁원인을	-5889
▁위험에	-5890
▁일부가	-5891
▁일부를	-5892
▁회담의	-5893
▁가능성에	-5894
▁결의안을	-5895
▁런던에서	-5896
▁미사일을	-5897
▁비판했다	-5898
▁수백명의	-5899
▁실패했다	-5900
▁와인하우	-5901
▁콜로라도	-5902
▁일리노이주	-5903
▁꺼	-5904
▁꼭	-5905
▁덕	-5906
▁멤	-5907
정도	-5908
체의	-5909
한번	-5910
히려	-5911
▁걸려	-5912
▁공모	-5913
▁기회	-5914
▁높다	-5915
▁대륙	-5916
▁맞추	-5917
▁맡은	-5918
▁메릴	-5919
▁명을	-5920
▁북미	-5921
▁불편	-5922
▁빙하	-5923
▁상호	-5924
▁쓰촨	-5925
▁아흐	-5926
▁어디	-5927
▁체중	-5928
▁촉발	-5929
▁프린	-5930
▁필립	-5931
▁항구	-5932
국에서	-5933
단체는	-5934
됐다는	-5935
되어야	-5936
마리가	-5937
보장이	-5938
페인을	-5939
▁120	-5940
▁구조대	-5941
▁두려워	-5942
▁둘러싸	-5943
▁따라서	-5944
▁라이벌	-5945
▁마쳤다	-5946
▁만들고	-5947
▁방송은	-5948
▁배럴당	-5949
▁없지만	-5950
▁이란에	-5951
▁젊은이	-5952
이스라엘	-5953
▁공식적인	-5954
▁국민들은	-5955
▁마감했다	-5956
▁보호하기	-5957
▁비상사태를	-5958
▁소프트웨어	-5959
▁스코틀랜드	-5960
overnment	-5961
AN	-5962
KK	-5963
▁k	-5964
▁객	-5965
▁롬	-5966
라델	-5967
릴라	-5968
망을	-5969
명한	-5970
부양	-5971
비의	-5972
위기	-5973
위인	-5974
책임	-5975
터리	-5976
ang	-5977
ase	-5978
▁감지	-5979
▁개헌	-5980
▁거듭	-5981
▁겨냥	-5982
▁구축	-5983
▁규제	-5984
▁날아	-5985
▁당신	-5986
▁들여	-5987
▁리차	-5988
▁많다	-5989
▁몰려	-5990
▁배경	-5991
▁벌여	-5992
▁봉송	-5993
▁붙잡	-5994
▁생명	-5995
▁소득	-5996
▁순방	-5997
▁시속	-5998
▁알라	-5999
▁얻을	-6000
▁열어	-6001
▁원자	-6002
▁이론	-6003
▁일찍	-6004
▁작용	-6005
▁최우	-6006
▁트레	-6007
▁판사	-6008
▁해임	-6009
금으로	-6010
네자드	-6011
단체가	-6012
라고예	-6013
받았다	-6014
보디아	-6015
조치를	-6016
카운티	-6017
활동을	-6018
▁두바이	-6019
▁디자인	-6020
▁머리를	-6021
▁방법이	-6022
▁보도를	-6023
▁샤라포	-6024
▁연구에	-6025
▁올해의	-6026
▁증거가	-6027
▁차량이	-6028
▁천주교	-6029
▁패트릭	-6030
▁현장을	-6031
▁호나우	-6032
되었으며	-6033
자력기구	-6034
▁도시에서	-6035
▁받아들일	-6036
▁비난하고	-6037
▁생각했다	-6038
▁수석대표	-6039
▁실시되는	-6040
▁제기했다	-6041
▁주장하며	-6042
▁카르자이	-6043
▁지도자들이	-6044
▁텐	-6045
거운	-6046
다이	-6047
말을	-6048
비로	-6049
움이	-6050
지자	-6051
차별	-6052
타는	-6053
화는	-6054
400	-6055
ake	-6056
enc	-6057
red	-6058
▁결코	-6059
▁군은	-6060
▁급증	-6061
▁기부	-6062
▁높이	-6063
▁눈에	-6064
▁다섯	-6065
▁뒤를	-6066
▁뒤에	-6067
▁로드	-6068
▁문서	-6069
▁부담	-6070
▁부부	-6071
▁비핵	-6072
▁상관	-6073
▁스턴	-6074
▁시에	-6075
▁쌍둥	-6076
▁압도	-6077
▁에는	-6078
▁영웅	-6079
▁예를	-6080
▁유출	-6081
▁의약	-6082
▁입법	-6083
▁전인	-6084
▁정착	-6085
▁정해	-6086
▁중부	-6087
▁초반	-6088
▁충격	-6089
▁케빈	-6090
▁탄핵	-6091
▁폭격	-6092
▁폭파	-6093
▁풀어	-6094
▁해수	-6095
▁현실	-6096
▁후진	-6097
갔다고	-6098
경찰이	-6099
부르크	-6100
용으로	-6101
있다고	-6102
했다며	-6103
▁결론을	-6104
▁관계에	-6105
▁규모가	-6106
▁그것을	-6107
▁당국의	-6108
▁머물고	-6109
▁부부는	-6110
▁사태에	-6111
▁상태로	-6112
▁샌디에	-6113
▁시기에	-6114
▁심지어	-6115
▁아파트	-6116
▁알코올	-6117
▁여당인	-6118
▁완전한	-6119
▁의혹을	-6120
▁인근에	-6121
▁전부터	-6122
▁집회를	-6123
▁차량에	-6124
▁태도를	-6125
▁필라델	-6126
▁합의를	-6127
▁확실한	-6128
▁국민들이	-6129
▁용의자가	-6130
▁인터넷을	-6131
▁자신에게	-6132
▁참석했다	-6133
▁프랑스의	-6134
▁한국에서	-6135
뿐만아니라	-6136
▁국민들에게	-6137
▁국제사회의	-6138
▁블라디미르	-6139
▁웹사이트를	-6140
▁윌리엄스는	-6141
▁합의했다고	-6142
▁오사마빈라덴	-6143
▁캘리포니아주	-6144
82	-6145
▁~	-6146
▁딕	-6147
▁쌀	-6148
▁잊	-6149
▁훔	-6150
겨진	-6151
계는	-6152
공격	-6153
다운	-6154
레나	-6155
련의	-6156
률은	-6157
르다	-6158
매우	-6159
목을	-6160
민족	-6161
밀한	-6162
비와	-6163
살의	-6164
세는	-6165
셔츠	-6166
스티	-6167
애미	-6168
업에	-6169
연방	-6170
타오	-6171
협정	-6172
활동	-6173
ama	-6174
▁가해	-6175
▁게재	-6176
▁곳을	-6177
▁날짜	-6178
▁년간	-6179
▁눈이	-6180
▁물을	-6181
▁물이	-6182
▁미칠	-6183
▁법을	-6184
▁북쪽	-6185
▁분류	-6186
▁새벽	-6187
▁연예	-6188
▁오딩	-6189
▁온실	-6190
▁옷을	-6191
▁위로	-6192
▁졸업	-6193
▁종합	-6194
▁중간	-6195
▁차단	-6196
▁차드	-6197
▁채널	-6198
▁촉진	-6199
▁추모	-6200
▁침몰	-6201
▁카를	-6202
▁항소	-6203
▁헨리	-6204
▁과정을	-6205
▁디지털	-6206
▁배심원	-6207
▁비타민	-6208
▁산사태	-6209
▁상하이	-6210
▁언론에	-6211
▁연루된	-6212
▁왕세자	-6213
▁이산화	-6214
▁일본에	-6215
▁일주일	-6216
▁중앙일	-6217
▁증가한	-6218
▁지하철	-6219
▁트레이	-6220
▁펼쳤다	-6221
▁폭발이	-6222
▁프레스	-6223
▁관리들이	-6224
▁미시시피	-6225
▁오바마와	-6226
▁이에따라	-6227
▁즉각적인	-6228
▁캄보디아	-6229
▁평가했다	-6230
▁지지자들은	-6231
▁전세계적으로	-6232
▁President	-6233
12	-6234
SC	-6235
av	-6236
▁갱	-6237
▁옹	-6238
▁좁	-6239
건이	-6240
결승	-6241
고기	-6242
끄러	-6243
닉스	-6244
동맹	-6245
르가	-6246
석이	-6247
아메	-6248
제재	-6249
조합	-6250
중에	-6251
지원	-6252
필드	-6253
한은	-6254
.1%	-6255
PEC	-6256
ail	-6257
▁감금	-6258
▁골든	-6259
▁과반	-6260
▁그들	-6261
▁그러	-6262
▁근육	-6263
▁노스	-6264
▁뉴저	-6265
▁다운	-6266
▁다윈	-6267
▁대립	-6268
▁돌입	-6269
▁등에	-6270
▁부르	-6271
▁부채	-6272
▁빅토	-6273
▁빈민	-6274
▁소집	-6275
▁시각	-6276
▁시내	-6277
▁오토	-6278
▁왕실	-6279
▁일제	-6280
▁입을	-6281
▁존슨	-6282
▁최루	-6283
▁특수	-6284
▁호랑	-6285
▁홍수	-6286
년에서	-6287
았으며	-6288
▁2-1	-6289
▁가즈니	-6290
▁거리에	-6291
▁공항에	-6292
▁노동자	-6293
▁당신은	-6294
▁받으며	-6295
▁사우스	-6296
▁상태가	-6297
▁연구는	-6298
▁오늘날	-6299
▁위협이	-6300
▁인구가	-6301
▁인질로	-6302
▁장면이	-6303
▁조치는	-6304
▁증시는	-6305
▁참여한	-6306
▁초점을	-6307
▁치열한	-6308
▁폴란드	-6309
▁훌륭한	-6310
회의에서	-6311
▁가족들이	-6312
▁경기부양	-6313
▁마이애미	-6314
▁방식으로	-6315
▁컴퓨터를	-6316
▁투표에서	-6317
▁프리미어	-6318
▁공개적으로	-6319
▁사르코지는	-6320
▁이루어졌다	-6321
▁아프가니스탄에서	-6322
aw	-6323
▁*	-6324
▁X	-6325
▁겸	-6326
▁낼	-6327
구조	-6328
라에	-6329
셔널	-6330
오픈	-6331
지아	-6332
키퍼	-6333
톤의	-6334
해온	-6335
.8%	-6336
ens	-6337
ors	-6338
ush	-6339
▁47	-6340
▁갖춘	-6341
▁나왔	-6342
▁남동	-6343
▁내정	-6344
▁낸시	-6345
▁늦게	-6346
▁대치	-6347
▁마라	-6348
▁만남	-6349
▁물에	-6350
▁반영	-6351
▁비극	-6352
▁수하	-6353
▁신도	-6354
▁심사	-6355
▁에베	-6356
▁원숭	-6357
▁재미	-6358
▁전설	-6359
▁전염	-6360
▁주연	-6361
▁클레	-6362
▁탄압	-6363
▁프랭	-6364
▁플루	-6365
년만에	-6366
라마바	-6367
렸으며	-6368
자동차	-6369
작전을	-6370
직에서	-6371
▁off	-6372
▁가했다	-6373
▁골키퍼	-6374
▁그대로	-6375
▁남동부	-6376
▁대단한	-6377
▁로이터	-6378
▁리히터	-6379
▁방송을	-6380
▁보스턴	-6381
▁사실은	-6382
▁사회적	-6383
▁세계의	-6384
▁세력이	-6385
▁승리할	-6386
▁아들이	-6387
▁아마도	-6388
▁여성과	-6389
▁오히려	-6390
▁이같이	-6391
▁이곳에	-6392
▁이사회	-6393
▁장관의	-6394
▁전역에	-6395
▁토네이	-6396
▁페르난	-6397
▁평화를	-6398
▁포함돼	-6399
▁했다는	-6400
▁혜택을	-6401
▁휴가를	-6402
▁논의하기	-6403
▁무엇보다	-6404
▁변호사가	-6405
▁부상으로	-6406
▁브라이언	-6407
▁블라고예	-6408
▁여성들이	-6409
▁우리나라	-6410
▁이미지를	-6411
▁자치정부	-6412
▁진술했다	-6413
▁마이크로소	-6414
▁에베레스트	-6415
▁열린우리당	-6416
▁인플레이션	-6417
▁필라델피아	-6418
IV	-6419
▁밥	-6420
가와	-6421
건은	-6422
라와	-6423
몬트	-6424
세에	-6425
소와	-6426
위츠	-6427
이와	-6428
자유	-6429
커는	-6430
코맥	-6431
테네	-6432
품이	-6433
프가	-6434
ark	-6435
ork	-6436
▁41	-6437
▁61	-6438
▁Se	-6439
▁un	-6440
▁가게	-6441
▁가치	-6442
▁거대	-6443
▁게시	-6444
▁공간	-6445
▁금리	-6446
▁기각	-6447
▁나의	-6448
▁난사	-6449
▁다리	-6450
▁담겨	-6451
▁로저	-6452
▁블루	-6453
▁사전	-6454
▁상상	-6455
▁소형	-6456
▁순례	-6457
▁얼음	-6458
▁예선	-6459
▁인명	-6460
▁임금	-6461
▁체코	-6462
▁초청	-6463
도에서	-6464
립니다	-6465
안에서	-6466
운동을	-6467
적이며	-6468
페이스	-6469
▁가족과	-6470
▁감염된	-6471
▁개혁을	-6472
▁공개된	-6473
▁공산당	-6474
▁기록한	-6475
▁다음날	-6476
▁단체가	-6477
▁라이언	-6478
▁마무드	-6479
▁방문객	-6480
▁번째로	-6481
▁베컴은	-6482
▁예정인	-6483
▁정도의	-6484
▁제공할	-6485
▁중대한	-6486
▁해결할	-6487
▁화이트	-6488
▁화재로	-6489
시켰다고	-6490
▁내무부는	-6491
▁당선인의	-6492
▁사람들과	-6493
▁사람에게	-6494
▁여객기가	-6495
▁영향력을	-6496
▁움직임을	-6497
▁있었으나	-6498
▁목격자들은	-6499
▁이슬라마바	-6500
▁조사에따르면	-6501
▁2009.06	-6502
▁센	-6503
▁쓸	-6504
감독	-6505
곳을	-6506
관의	-6507
금지	-6508
기자	-6509
먼은	-6510
물의	-6511
성장	-6512
즈를	-6513
트와	-6514
튼은	-6515
피트	-6516
호의	-6517
600	-6518
ass	-6519
ide	-6520
ord	-6521
▁가담	-6522
▁각료	-6523
▁광부	-6524
▁기도	-6525
▁기온	-6526
▁남극	-6527
▁누리	-6528
▁다큐	-6529
▁달라	-6530
▁당부	-6531
▁미성	-6532
▁배후	-6533
▁보지	-6534
▁부딪	-6535
▁부서	-6536
▁비평	-6537
▁사육	-6538
▁상반	-6539
▁상을	-6540
▁선관	-6541
▁세포	-6542
▁올리	-6543
▁외부	-6544
▁원칙	-6545
▁이자	-6546
▁입수	-6547
▁자문	-6548
▁전용	-6549
▁질환	-6550
▁축제	-6551
▁출생	-6552
▁포드	-6553
▁표를	-6554
▁피츠	-6555
▁해도	-6556
▁흥분	-6557
레스를	-6558
웨이트	-6559
eral	-6560
lear	-6561
▁700	-6562
▁PPP	-6563
▁결과로	-6564
▁국장은	-6565
▁그랜드	-6566
▁나라의	-6567
▁단어장	-6568
▁둘러싼	-6569
▁또다시	-6570
▁리차드	-6571
▁무사히	-6572
▁물러나	-6573
▁미군을	-6574
▁벌이는	-6575
▁북서부	-6576
▁브랜드	-6577
▁사고를	-6578
▁사업을	-6579
▁승리로	-6580
▁엄청난	-6581
▁여사는	-6582
▁영화제	-6583
▁유튜브	-6584
▁음식을	-6585
▁통신이	-6586
▁하나인	-6587
▁홍수로	-6588
▁1996	-6589
▁국가안보	-6590
▁미국으로	-6591
▁발생하고	-6592
▁세계적인	-6593
▁안전하게	-6594
▁않겠다고	-6595
▁알렉산더	-6596
▁자유무역	-6597
▁진행되는	-6598
▁증가했다고	-6599
▁보고서에따르면	-6600
-5	-6601
.)	-6602
47	-6603
▁랜	-6604
▁뭄	-6605
감이	-6606
니어	-6607
면에	-6608
명인	-6609
받을	-6610
방에	-6611
뱅크	-6612
보험	-6613
비에	-6614
설을	-6615
언론	-6616
있던	-6617
조원	-6618
치게	-6619
치며	-6620
해줄	-6621
확인	-6622
.7%	-6623
ath	-6624
ild	-6625
ire	-6626
▁1%	-6627
▁54	-6628
▁56	-6629
▁57	-6630
▁58	-6631
▁GM	-6632
▁Th	-6633
▁개시	-6634
▁개체	-6635
▁구멍	-6636
▁라덴	-6637
▁롤링	-6638
▁맡고	-6639
▁보존	-6640
▁선원	-6641
▁섭취	-6642
▁수립	-6643
▁않게	-6644
▁연쇄	-6645
▁영양	-6646
▁예전	-6647
▁요원	-6648
▁우울	-6649
▁일시	-6650
▁종종	-6651
▁주에	-6652
▁탈북	-6653
▁투쟁	-6654
관에서	-6655
당국이	-6656
법원은	-6657
시에서	-6658
식에서	-6659
arty	-6660
ence	-6661
▁가족이	-6662
▁거리를	-6663
▁경기가	-6664
▁나오지	-6665
▁다큐멘	-6666
▁단체의	-6667
▁당국에	-6668
▁돌아다	-6669
▁목표를	-6670
▁불가피	-6671
▁소규모	-6672
▁안정을	-6673
▁여러분	-6674
▁여론조	-6675
▁자신과	-6676
▁절차를	-6677
▁정책에	-6678
▁조종사	-6679
▁주장한	-6680
▁참석할	-6681
▁최대의	-6682
▁패배를	-6683
▁하면서	-6684
▁활주로	-6685
겠습니다	-6686
▁1993	-6687
▁것이었다	-6688
▁긍정적인	-6689
▁대의원을	-6690
▁비난하는	-6691
▁아메리카	-6692
▁아메리칸	-6693
▁오바마를	-6694
▁월요일에	-6695
▁표명했다	-6696
▁행정부가	-6697
▁후진타오	-6698
▁미국인들이	-6699
▁백악관에서	-6700
▁알카에다와	-6701
▁프라이머리	-6702
26	-6703
VD	-6704
▁까	-6705
▁닥	-6706
글로	-6707
나무	-6708
더스	-6709
만장	-6710
복선	-6711
비상	-6712
아는	-6713
야는	-6714
유로	-6715
의회	-6716
이에	-6717
조를	-6718
종의	-6719
팀을	-6720
행한	-6721
혹한	-6722
화와	-6723
▁Sh	-6724
▁가벼	-6725
▁가을	-6726
▁감옥	-6727
▁공을	-6728
▁관중	-6729
▁그것	-6730
▁글을	-6731
▁마사	-6732
▁마친	-6733
▁말이	-6734
▁반복	-6735
▁보일	-6736
▁소리	-6737
▁소위	-6738
▁손에	-6739
▁송환	-6740
▁스톤	-6741
▁시나	-6742
▁쓰레	-6743
▁않기	-6744
▁에릭	-6745
▁예멘	-6746
▁일에	-6747
▁적대	-6748
▁적발	-6749
▁전복	-6750
▁전환	-6751
▁지붕	-6752
▁진화	-6753
▁참모	-6754
▁축소	-6755
▁침공	-6756
▁태운	-6757
▁통계	-6758
▁포럼	-6759
▁플래	-6760
▁횡령	-6761
기라이	-6762
라에서	-6763
시스템	-6764
역에서	-6765
자이자	-6766
했음을	-6767
▁감독의	-6768
▁개발을	-6769
▁경험이	-6770
▁곳이다	-6771
▁그레이	-6772
▁근거로	-6773
▁기회가	-6774
▁달리고	-6775
▁무슬림	-6776
▁뭄바이	-6777
▁부시의	-6778
▁상태를	-6779
▁아기를	-6780
▁아이가	-6781
▁아이디	-6782
▁아이폰	-6783
▁요청을	-6784
▁의원의	-6785
▁인용해	-6786
▁인질을	-6787
▁잘못된	-6788
▁재검토	-6789
▁제작한	-6790
▁조사가	-6791
▁주도한	-6792
▁지원할	-6793
▁최근에	-6794
▁충돌이	-6795
▁키바키	-6796
▁후보인	-6797
▁1991	-6798
▁근처에서	-6799
▁다시한번	-6800
▁보여주고	-6801
▁북쪽으로	-6802
▁연방준비	-6803
▁오바마에	-6804
▁의미한다	-6805
▁이용하는	-6806
▁지도자가	-6807
uclear	-6808
▁China	-6809
▁경찰서장은	-6810
▁성공적으로	-6811
▁세계적으로	-6812
▁지역에서는	-6813
-6	-6814
90	-6815
GA	-6816
▁`	-6817
▁폰	-6818
교통	-6819
느냐	-6820
니까	-6821
니티	-6822
등을	-6823
라로	-6824
바르	-6825
사령	-6826
안의	-6827
율로	-6828
임이	-6829
직에	-6830
진과	-6831
질이	-6832
코는	-6833
터가	-6834
ive	-6835
▁65	-6836
▁88	-6837
▁Sp	-6838
▁Un	-6839
▁갑작	-6840
▁공포	-6841
▁그레	-6842
▁마비	-6843
▁많아	-6844
▁모니	-6845
▁뮤지	-6846
▁반박	-6847
▁발휘	-6848
▁베어	-6849
▁수비	-6850
▁신규	-6851
▁쓰고	-6852
▁얘기	-6853
▁이륙	-6854
▁정의	-6855
▁정찰	-6856
▁짧은	-6857
▁차별	-6858
▁책을	-6859
▁캐릭	-6860
▁프라	-6861
▁호흡	-6862
베니아	-6863
폴리스	-6864
▁DVD	-6865
▁IOC	-6866
▁갖추고	-6867
▁검찰이	-6868
▁것임을	-6869
▁계속될	-6870
▁광범위	-6871
▁남서부	-6872
▁남성은	-6873
▁도착한	-6874
▁동맹국	-6875
▁된다는	-6876
▁마음을	-6877
▁메르켈	-6878
▁미치는	-6879
▁반군의	-6880
▁발표를	-6881
▁비교적	-6882
▁상태다	-6883
▁상황은	-6884
▁세인트	-6885
▁수상한	-6886
▁시위는	-6887
▁원주민	-6888
▁이브라	-6889
▁인간의	-6890
▁인기를	-6891
▁정권을	-6892
▁주었다	-6893
▁중단할	-6894
▁차이가	-6895
▁총재는	-6896
▁충격을	-6897
▁파나마	-6898
▁하나로	-6899
▁합의한	-6900
▁했었다	-6901
▁혼란을	-6902
▁확인할	-6903
▁희망을	-6904
▁힐튼은	-6905
▁가택연금	-6906
▁뉴햄프셔	-6907
▁비행기를	-6908
▁소식통이	-6909
▁아이들의	-6910
▁제조업체	-6911
▁주둔하고	-6912
▁차지하고	-6913
▁치명적인	-6914
▁항공우주	-6915
▁안전보장이	-6916
▁체포됐다고	-6917
▁한나라당은	-6918
▁2008.12	-6919
▁사우스캐롤라이나	-6920
BM	-6921
IC	-6922
MF	-6923
PA	-6924
ai	-6925
▁꼬	-6926
▁숲	-6927
▁옛	-6928
▁팝	-6929
급을	-6930
널드	-6931
니에	-6932
데스	-6933
려진	-6934
밀히	-6935
받은	-6936
버리	-6937
비스	-6938
생물	-6939
시와	-6940
실은	-6941
연한	-6942
일으	-6943
접한	-6944
천만	-6945
펠드	-6946
프랑	-6947
학적	-6948
ank	-6949
ays	-6950
oll	-6951
out	-6952
▁5%	-6953
▁걸린	-6954
▁관측	-6955
▁구단	-6956
▁동생	-6957
▁되돌	-6958
▁리더	-6959
▁리드	-6960
▁말할	-6961
▁모래	-6962
▁무게	-6963
▁부산	-6964
▁부양	-6965
▁북동	-6966
▁수여	-6967
▁스콜	-6968
▁식료	-6969
▁아는	-6970
▁옹호	-6971
▁와이	-6972
▁이식	-6973
▁인민	-6974
▁제목	-6975
▁제트	-6976
▁조언	-6977
▁조용	-6978
▁출두	-6979
▁탱크	-6980
▁폭설	-6981
▁표준	-6982
▁하미	-6983
▁화려	-6984
▁회장	-6985
공화국	-6986
관들이	-6987
된다면	-6988
드리게	-6989
문에서	-6990
주의자	-6991
tive	-6992
▁New	-6993
▁관련한	-6994
▁규정을	-6995
▁그렇지	-6996
▁나에게	-6997
▁난민촌	-6998
▁대상이	-6999
▁도로를	-7000
▁등으로	-7001
▁만들기	-7002
▁미군과	-7003
▁미시간	-7004
▁발견한	-7005
▁방법은	-7006
▁법무부	-7007
▁벨기에	-7008
▁별다른	-7009
▁사고는	-7010
▁사드르	-7011
▁속도로	-7012
▁실시할	-7013
▁언급을	-7014
▁영국인	-7015
▁영화에	-7016
▁우리를	-7017
▁이름이	-7018
▁일어날	-7019
▁일어났	-7020
▁있어야	-7021
▁직원이	-7022
▁탑승객	-7023
▁투표에	-7024
▁했으나	-7025
▁행사를	-7026
▁헬기가	-7027
▁협상에	-7028
▁1995	-7029
▁over	-7030
▁가족들은	-7031
▁국제공항	-7032
▁남부에서	-7033
▁발표하고	-7034
▁변호사인	-7035
▁불러일으	-7036
▁수준으로	-7037
▁운영하고	-7038
▁쿠웨이트	-7039
▁해리포터	-7040
▁알카에다의	-7041
▁외교통상부	-7042
▁월스트리트	-7043
inister	-7044
▁nuclear	-7045
ex	-7046
▁닉	-7047
▁링	-7048
▁핀	-7049
교를	-7050
교육	-7051
레인	-7052
바스	-7053
소속	-7054
오고	-7055
주지	-7056
티오	-7057
협력	-7058
확실	-7059
800	-7060
ret	-7061
tit	-7062
▁62	-7063
▁63	-7064
▁66	-7065
▁AT	-7066
▁급락	-7067
▁나은	-7068
▁낙관	-7069
▁낮추	-7070
▁눈을	-7071
▁당초	-7072
▁당황	-7073
▁듣고	-7074
▁따돌	-7075
▁떠난	-7076
▁루아	-7077
▁방사	-7078
▁벌금	-7079
▁벗어	-7080
▁보게	-7081
▁본격	-7082
▁상영	-7083
▁성추	-7084
▁수리	-7085
▁신중	-7086
▁아난	-7087
▁얻고	-7088
▁없게	-7089
▁없고	-7090
▁에콰	-7091
▁완료	-7092
▁자제	-7093
▁정교	-7094
▁종결	-7095
▁친척	-7096
▁코끼	-7097
▁행진	-7098
▁후지	-7099
라스틱	-7100
메이트	-7101
올리언	-7102
적이다	-7103
7000	-7104
ound	-7105
▁가족은	-7106
▁결혼을	-7107
▁경찰청	-7108
▁고위관	-7109
▁공습을	-7110
▁교육을	-7111
▁나타난	-7112
▁남자는	-7113
▁노력이	-7114
▁뉴욕의	-7115
▁문제와	-7116
▁미디어	-7117
▁사용해	-7118
▁생각이	-7119
▁생명을	-7120
▁선수가	-7121
▁수감자	-7122
▁않았던	-7123
▁압박을	-7124
▁원인이	-7125
▁은행의	-7126
▁촬영한	-7127
▁케이트	-7128
▁테러에	-7129
▁하루에	-7130
인들에게	-7131
했었다고	-7132
▁계속되는	-7133
▁교도소에	-7134
▁국가들은	-7135
▁받아들여	-7136
▁방문하는	-7137
▁성관계를	-7138
▁애리조나	-7139
▁에드워즈	-7140
▁이산화탄	-7141
▁인근에서	-7142
▁조건으로	-7143
▁주장한다	-7144
▁해안에서	-7145
▁매사추세츠	-7146
▁전문가들이	-7147
▁한나라당의	-7148
2009.06	-7149
▁200806	-7150
▁스타디움에서	-7151
▁국제원자력기구	-7152
▁마이크로소프트	-7153
▁싫	-7154
▁윔	-7155
남미	-7156
도우	-7157
래스	-7158
량은	-7159
리어	-7160
마는	-7161
마이	-7162
모스	-7163
발전	-7164
블던	-7165
소한	-7166
식은	-7167
였고	-7168
자료	-7169
점은	-7170
타르	-7171
프를	-7172
향을	-7173
.2%	-7174
.3%	-7175
ese	-7176
▁3,	-7177
▁59	-7178
▁곳은	-7179
▁관료	-7180
▁금연	-7181
▁기여	-7182
▁끝날	-7183
▁내보	-7184
▁다행	-7185
▁달린	-7186
▁부활	-7187
▁불이	-7188
▁상륙	-7189
▁선물	-7190
▁선제	-7191
▁설문	-7192
▁세부	-7193
▁세비	-7194
▁수배	-7195
▁알지	-7196
▁어깨	-7197
▁연금	-7198
▁용납	-7199
▁재임	-7200
▁코카	-7201
▁탄생	-7202
▁팀이	-7203
▁허커	-7204
▁혁명	-7205
▁호르	-7206
▁환호	-7207
▁황금	-7208
라이브	-7209
명에서	-7210
미국은	-7211
사태를	-7212
스트는	-7213
은행은	-7214
지수가	-7215
해야만	-7216
land	-7217
▁Sec	-7218
▁가치를	-7219
▁결정할	-7220
▁교황은	-7221
▁국가로	-7222
▁대표가	-7223
▁마라톤	-7224
▁마리아	-7225
▁만났다	-7226
▁목표는	-7227
▁미성년	-7228
▁민감한	-7229
▁바라는	-7230
▁법안은	-7231
▁부부가	-7232
▁사상자	-7233
▁생방송	-7234
▁시신이	-7235
▁식료품	-7236
▁양국의	-7237
▁음악을	-7238
▁일본과	-7239
▁일으킬	-7240
▁작업에	-7241
▁정권이	-7242
▁종류의	-7243
▁증시가	-7244
▁진정한	-7245
▁처벌을	-7246
▁철수를	-7247
▁파업을	-7248
▁포인트	-7249
▁하락한	-7250
▁호주의	-7251
적이라고	-7252
▁1960	-7253
▁from	-7254
▁국방장관	-7255
▁뉴올리언	-7256
▁들어갔다	-7257
▁로드리게	-7258
▁비난하며	-7259
▁사용하지	-7260
▁상태이다	-7261
▁아이들은	-7262
▁의사들은	-7263
▁지점에서	-7264
▁카스트로	-7265
▁헌법재판	-7266
▁분석가들은	-7267
▁샌디에이고	-7268
TS	-7269
mb	-7270
▁j	-7271
▁널	-7272
격히	-7273
그녀	-7274
니와	-7275
당을	-7276
름을	-7277
병이	-7278
사무	-7279
사이	-7280
세와	-7281
식의	-7282
실로	-7283
톨릭	-7284
판이	-7285
호르	-7286
.04	-7287
.9%	-7288
mit	-7289
ous	-7290
ree	-7291
▁77	-7292
▁En	-7293
▁Ob	-7294
▁ab	-7295
▁as	-7296
▁가상	-7297
▁갔다	-7298
▁개장	-7299
▁계좌	-7300
▁나눴	-7301
▁느낄	-7302
▁담은	-7303
▁돕기	-7304
▁로딕	-7305
▁만일	-7306
▁본부	-7307
▁빌딩	-7308
▁샘플	-7309
▁선임	-7310
▁습격	-7311
▁신조	-7312
▁앞둔	-7313
▁약화	-7314
▁왼쪽	-7315
▁원래	-7316
▁정지	-7317
▁케리	-7318
▁탐험	-7319
▁태어	-7320
▁특징	-7321
▁파이	-7322
▁향상	-7323
▁협회	-7324
▁휩쓸	-7325
당했다	-7326
되거나	-7327
만으로	-7328
면에서	-7329
위에서	-7330
지역을	-7331
타나모	-7332
파운드	-7333
학자인	-7334
IAEA	-7335
▁MBC	-7336
▁dis	-7337
▁new	-7338
▁가족을	-7339
▁기쁘다	-7340
▁다리를	-7341
▁당신의	-7342
▁돌고래	-7343
▁돌아오	-7344
▁동일한	-7345
▁밝혀진	-7346
▁성명은	-7347
▁소식은	-7348
▁아들을	-7349
▁앤드류	-7350
▁양측은	-7351
▁여부에	-7352
▁영국군	-7353
▁우주선	-7354
▁이용할	-7355
▁자리에	-7356
▁죽음을	-7357
▁출연한	-7358
▁충돌로	-7359
▁팬들은	-7360
▁학교에	-7361
▁후보와	-7362
▁2500	-7363
▁거주하고	-7364
▁공개됐다	-7365
▁국가들이	-7366
▁동티모르	-7367
▁드러냈다	-7368
▁마드리드	-7369
▁밝혔지만	-7370
▁부정적인	-7371
▁부통령은	-7372
▁소유하고	-7373
▁않는다는	-7374
▁원자로를	-7375
▁자카르타	-7376
▁지시했다	-7377
▁천연가스	-7378
▁클린턴의	-7379
▁평화유지	-7380
▁해당하는	-7381
▁화요일에	-7382
oreign	-7383
▁대선후보로	-7384
▁아프간에서	-7385
▁유권자들이	-7386
▁지지자들이	-7387
▁크라이슬러	-7388
▁폭력사태가	-7389
▁블라고예비치	-7390
▁프리미어리그	-7391
eg	-7392
▁첩	-7393
▁템	-7394
관인	-7395
나를	-7396
디스	-7397
로코	-7398
마자	-7399
보건	-7400
슨과	-7401
영국	-7402
용이	-7403
인도	-7404
입어	-7405
클로	-7406
타를	-7407
토늄	-7408
파라	-7409
학과	-7410
화한	-7411
.6%	-7412
▁69	-7413
▁갖는	-7414
▁개편	-7415
▁계열	-7416
▁공약	-7417
▁기차	-7418
▁대대	-7419
▁떠올	-7420
▁맞는	-7421
▁매달	-7422
▁멤버	-7423
▁몰고	-7424
▁발포	-7425
▁백인	-7426
▁부유	-7427
▁불쾌	-7428
▁빨간	-7429
▁사설	-7430
▁선호	-7431
▁손님	-7432
▁스카	-7433
▁아시	-7434
▁안타	-7435
▁암컷	-7436
▁앤더	-7437
▁양의	-7438
▁열고	-7439
▁유도	-7440
▁유인	-7441
▁잇따	-7442
▁재직	-7443
▁전사	-7444
▁정거	-7445
▁종료	-7446
▁좌절	-7447
▁줄어	-7448
▁줄일	-7449
▁직전	-7450
▁창출	-7451
▁처해	-7452
▁철군	-7453
▁캐롤	-7454
▁쿠퍼	-7455
▁테네	-7456
▁포로	-7457
▁포착	-7458
▁푸에	-7459
▁혼자	-7460
▁화합	-7461
▁활약	-7462
▁회계	-7463
▁효율	-7464
냈다고	-7465
당에서	-7466
리프는	-7467
왔으며	-7468
이것은	-7469
일에는	-7470
자로서	-7471
장관이	-7472
정부의	-7473
토니오	-7474
6000	-7475
NASA	-7476
▁FRB	-7477
▁HIV	-7478
▁건물이	-7479
▁격렬한	-7480
▁경제의	-7481
▁구호를	-7482
▁기업의	-7483
▁단체인	-7484
▁도시의	-7485
▁두번째	-7486
▁마흐디	-7487
▁무고한	-7488
▁민병대	-7489
▁보도가	-7490
▁보이며	-7491
▁북부에	-7492
▁브리핑	-7493
▁비서실	-7494
▁상승한	-7495
▁소식에	-7496
▁시드의	-7497
▁신고를	-7498
▁애완견	-7499
▁원하고	-7500
▁위대한	-7501
▁윔블던	-7502
▁유엔의	-7503
▁일본인	-7504
▁일이다	-7505
▁장군은	-7506
▁조사한	-7507
▁주의를	-7508
▁차이로	-7509
▁크레이	-7510
▁페이스	-7511
▁푸틴은	-7512
▁힘입어	-7513
아일랜드	-7514
아프리카	-7515
축구연맹	-7516
티오피아	-7517
▁1500	-7518
▁4000	-7519
▁NATO	-7520
▁남자친구	-7521
▁밝혔다고	-7522
▁밝혔으며	-7523
▁브라운은	-7524
▁상태에서	-7525
▁선포했다	-7526
▁심각하게	-7527
▁않았으나	-7528
▁예를들어	-7529
▁인질들을	-7530
▁있었다는	-7531
▁자택에서	-7532
▁지도자는	-7533
▁직접적인	-7534
▁추정된다	-7535
▁하마스가	-7536
15	-7537
AS	-7538
PP	-7539
ft	-7540
▁닫	-7541
▁댄	-7542
▁썼	-7543
▁퀸	-7544
경은	-7545
기기	-7546
끔찍	-7547
단히	-7548
돼야	-7549
란을	-7550
렸고	-7551
물은	-7552
법원	-7553
법은	-7554
봉사	-7555
생산	-7556
심이	-7557
얼리	-7558
작전	-7559
정의	-7560
정치	-7561
즈와	-7562
진압	-7563
체제	-7564
타이	-7565
품에	-7566
할지	-7567
ave	-7568
erv	-7569
oci	-7570
▁고급	-7571
▁고유	-7572
▁군대	-7573
▁군이	-7574
▁금액	-7575
▁길이	-7576
▁남겨	-7577
▁동남	-7578
▁되길	-7579
▁딸을	-7580
▁마돈	-7581
▁복역	-7582
▁본토	-7583
▁부적	-7584
▁불에	-7585
▁소련	-7586
▁시대	-7587
▁여섯	-7588
▁영상	-7589
▁오스	-7590
▁위스	-7591
▁의도	-7592
▁주주	-7593
▁축출	-7594
▁출구	-7595
▁침략	-7596
▁카터	-7597
▁탈락	-7598
▁폭스	-7599
▁피살	-7600
▁현장	-7601
▁힌두	-7602
경기를	-7603
앞으로	-7604
있으며	-7605
1000	-7606
ilit	-7607
onom	-7608
▁30%	-7609
▁Pro	-7610
▁his	-7611
▁tal	-7612
▁교도소	-7613
▁뉴저지	-7614
▁데이빗	-7615
▁들어간	-7616
▁라파엘	-7617
▁매니저	-7618
▁모양의	-7619
▁빠져나	-7620
▁사과를	-7621
▁사실에	-7622
▁사항을	-7623
▁상당히	-7624
▁성장을	-7625
▁손실을	-7626
▁수도인	-7627
▁실수를	-7628
▁않았고	-7629
▁역사적	-7630
▁인도의	-7631
▁투자가	-7632
▁펠로시	-7633
▁평화와	-7634
▁피라미	-7635
▁하나는	-7636
이지애나	-7637
ution	-7638
▁1992	-7639
▁곤잘레스	-7640
▁공산주의	-7641
▁국무부는	-7642
▁마을에서	-7643
▁못하도록	-7644
▁바란다고	-7645
▁발표됐다	-7646
▁방향으로	-7647
▁아버지가	-7648
▁않는다면	-7649
▁없습니다	-7650
▁영화배우	-7651
▁용의자로	-7652
▁우리에게	-7653
▁위치하고	-7654
▁인도주의	-7655
▁전망했다	-7656
▁지원하는	-7657
▁결정했다고	-7658
▁이스라엘에	-7659
▁전국적으로	-7660
▁government	-7661
'(	-7662
ML	-7663
la	-7664
▁깃	-7665
▁띄	-7666
▁컬	-7667
▁햄	-7668
경영	-7669
그로	-7670
당국	-7671
도상	-7672
라드	-7673
린은	-7674
마디	-7675
슬리	-7676
승희	-7677
역에	-7678
연히	-7679
책이	-7680
트북	-7681
페이	-7682
하르	-7683
향이	-7684
iti	-7685
rou	-7686
ton	-7687
▁BA	-7688
▁NK	-7689
▁ar	-7690
▁가속	-7691
▁낙태	-7692
▁내고	-7693
▁넘겨	-7694
▁농업	-7695
▁놓여	-7696
▁당사	-7697
▁데에	-7698
▁딸이	-7699
▁러닝	-7700
▁말에	-7701
▁메디	-7702
▁미스	-7703
▁방위	-7704
▁번의	-7705
▁벌써	-7706
▁불어	-7707
▁선전	-7708
▁수면	-7709
▁신분	-7710
▁실린	-7711
▁양육	-7712
▁억제	-7713
▁에넹	-7714
▁울포	-7715
▁의뢰	-7716
▁일상	-7717
▁일축	-7718
▁자동	-7719
▁저희	-7720
▁점검	-7721
▁처한	-7722
▁투르	-7723
▁퍼거	-7724
▁하에	-7725
▁해서	-7726
나에서	-7727
때까지	-7728
마리를	-7729
분만에	-7730
서에서	-7731
세에서	-7732
시리즈	-7733
원들의	-7734
젤레스	-7735
주년을	-7736
태평양	-7737
판결을	-7738
해지고	-7739
ates	-7740
▁감사의	-7741
▁결의안	-7742
▁경쟁을	-7743
▁광고를	-7744
▁군사적	-7745
▁논쟁을	-7746
▁논쟁이	-7747
▁놀라운	-7748
▁도시인	-7749
▁떠났다	-7750
▁베스트	-7751
▁보도에	-7752
▁복잡한	-7753
▁소속의	-7754
▁않기로	-7755
▁영국은	-7756
▁우주왕	-7757
▁은행에	-7758
▁이뤄진	-7759
▁이용한	-7760
▁정신적	-7761
▁제공한	-7762
▁주가는	-7763
▁중이던	-7764
▁지지자	-7765
▁참여할	-7766
▁통일부	-7767
▁파바로	-7768
▁페더러	-7769
▁평화적	-7770
▁포함된	-7771
▁프랭크	-7772
▁하미드	-7773
▁행사에	-7774
▁회장이	-7775
▁5000	-7776
▁7000	-7777
▁UEFA	-7778
▁개인적인	-7779
▁공습으로	-7780
▁관타나모	-7781
▁교통사고	-7782
▁법원에서	-7783
▁보입니다	-7784
▁외무부는	-7785
▁요구하며	-7786
▁유지하고	-7787
▁이뤄졌다	-7788
▁전통적인	-7789
▁지원하고	-7790
▁지지하고	-7791
▁직원들이	-7792
▁캠페인을	-7793
▁페더러는	-7794
▁플라스틱	-7795
▁행정부의	-7796
▁다이아몬드	-7797
▁상원의원과	-7798
▁상원의원의	-7799
▁예정이었다	-7800
▁정상회담을	-7801
▁펜실베니아	-7802
OR	-7803
ob	-7804
▁곰	-7805
▁떼	-7806
▁럼	-7807
▁밟	-7808
▁뱀	-7809
▁탔	-7810
경에	-7811
내며	-7812
마의	-7813
문은	-7814
바오	-7815
법에	-7816
사항	-7817
음악	-7818
정상	-7819
클럽	-7820
터스	-7821
편의	-7822
폴리	-7823
ile	-7824
own	-7825
▁2%	-7826
▁가고	-7827
▁갇혀	-7828
▁건너	-7829
▁고무	-7830
▁공룡	-7831
▁국토	-7832
▁기금	-7833
▁나선	-7834
▁나설	-7835
▁녹음	-7836
▁느낀	-7837
▁도요	-7838
▁되며	-7839
▁면담	-7840
▁몸에	-7841
▁벽돌	-7842
▁북서	-7843
▁세속	-7844
▁식민	-7845
▁아닙	-7846
▁연간	-7847
▁옐친	-7848
▁오리	-7849
▁잡혀	-7850
▁점거	-7851
▁제리	-7852
▁제압	-7853
▁조절	-7854
▁주기	-7855
▁주유	-7856
▁진보	-7857
▁징후	-7858
▁처방	-7859
▁천문	-7860
▁카리	-7861
▁탄광	-7862
▁함유	-7863
기까지	-7864
았지만	-7865
자이너	-7866
차례에	-7867
탈레반	-7868
프라임	-7869
하마드	-7870
혐의로	-7871
회의에	-7872
4000	-7873
▁140	-7874
▁160	-7875
▁PKK	-7876
▁가벼운	-7877
▁건강이	-7878
▁경기침	-7879
▁경선을	-7880
▁기소된	-7881
▁노래를	-7882
▁높다고	-7883
▁다쳤다	-7884
▁대다수	-7885
▁또다른	-7886
▁루아얄	-7887
▁뮤지컬	-7888
▁미국측	-7889
▁받았던	-7890
▁범인이	-7891
▁부분을	-7892
▁살아남	-7893
▁상당의	-7894
▁생산을	-7895
▁성향의	-7896
▁세계적	-7897
▁시라크	-7898
▁시장을	-7899
▁아테네	-7900
▁영국과	-7901
▁오클라	-7902
▁왕자가	-7903
▁원인은	-7904
▁위험을	-7905
▁조사는	-7906
▁준결승	-7907
▁지역인	-7908
▁총상을	-7909
▁카트리	-7910
▁테러는	-7911
▁투자를	-7912
▁포르노	-7913
▁필요로	-7914
▁한국을	-7915
▁행위에	-7916
▁활동에	-7917
▁회사를	-7918
▁회의에	-7919
▁효과가	-7920
선거에서	-7921
았습니다	-7922
▁고려하고	-7923
▁기소됐다	-7924
▁당했다고	-7925
▁무장대원	-7926
▁민주당이	-7927
▁불가리아	-7928
▁비행기가	-7929
▁아니었다	-7930
▁올림픽을	-7931
▁외무장관	-7932
▁이와같이	-7933
▁인터넷에	-7934
▁일이라고	-7935
▁자유롭게	-7936
▁좋아하는	-7937
▁클린턴에	-7938
▁확인됐다	-7939
자들로부터	-7940
▁1,000	-7941
▁때문이라고	-7942
▁있었습니다	-7943
▁발표했습니다	-7944
▁2005.10	-7945
~2	-7946
▁겁	-7947
▁쏘	-7948
▁얀	-7949
▁핸	-7950
검찰	-7951
과학	-7952
구에	-7953
그의	-7954
니야	-7955
당과	-7956
두는	-7957
락을	-7958
리코	-7959
받아	-7960
사관	-7961
세대	-7962
스쿠	-7963
아직	-7964
았을	-7965
어질	-7966
에미	-7967
우기	-7968
이한	-7969
제르	-7970
진의	-7971
체는	-7972
체에	-7973
카트	-7974
행위	-7975
.4%	-7976
orn	-7977
ves	-7978
▁4%	-7979
▁72	-7980
▁간부	-7981
▁간에	-7982
▁갈라	-7983
▁개성	-7984
▁검증	-7985
▁공원	-7986
▁괴한	-7987
▁교전	-7988
▁금메	-7989
▁대로	-7990
▁도청	-7991
▁떠날	-7992
▁맞고	-7993
▁멀리	-7994
▁멈추	-7995
▁물고	-7996
▁미첼	-7997
▁발발	-7998
▁보급	-7999
▁쉽지	-8000
▁실무	-8001
▁심문	-8002
▁아틀	-8003
▁알레	-8004
▁알제	-8005
▁양곤	-8006
▁어두	-8007
▁연계	-8008
▁우고	-8009
▁윤리	-8010
▁의문	-8011
▁자발	-8012
▁잡아	-8013
▁즐길	-8014
▁지고	-8015
▁카메	-8016
▁커뮤	-8017
▁콜린	-8018
▁쿠즈	-8019
▁클라	-8020
▁탄도	-8021
▁통상	-8022
▁파라	-8023
▁하여	-8024
▁휴가	-8025
베르토	-8026
월에는	-8027
이즈미	-8028
진으로	-8029
쳤으며	-8030
행위를	-8031
tern	-8032
▁WHO	-8033
▁not	-8034
▁vis	-8035
▁가족의	-8036
▁건강한	-8037
▁국민의	-8038
▁그녀를	-8039
▁나달은	-8040
▁나이가	-8041
▁남부에	-8042
▁남성의	-8043
▁남편인	-8044
▁늘어나	-8045
▁됐으며	-8046
▁디스크	-8047
▁막대한	-8048
▁반대로	-8049
▁방송에	-8050
▁법안에	-8051
▁보이콧	-8052
▁보호를	-8053
▁쓰촨성	-8054
▁않으며	-8055
▁양국은	-8056
▁언론의	-8057
▁얼마전	-8058
▁연합군	-8059
▁열렸다	-8060
▁완벽한	-8061
▁이끌고	-8062
▁이란과	-8063
▁이익을	-8064
▁일으켰	-8065
▁제출한	-8066
▁조사할	-8067
▁증가할	-8068
▁최선을	-8069
▁폭우로	-8070
▁해병대	-8071
▁핵개발	-8072
▁cont	-8073
▁결선투표	-8074
▁국가에서	-8075
▁대학에서	-8076
▁보여준다	-8077
▁사용하고	-8078
▁아니라는	-8079
▁아닙니다	-8080
▁에어버스	-8081
▁에콰도르	-8082
▁오클라호	-8083
▁위협하고	-8084
▁유럽에서	-8085
▁조지아주	-8086
▁준비하고	-8087
▁중동평화	-8088
▁중이었다	-8089
▁지지선언	-8090
▁참석하지	-8091
▁챔피언십	-8092
▁타임즈가	-8093
▁탈레반이	-8094
▁포함하여	-8095
▁호소했다	-8096
▁확산되고	-8097
▁Obama	-8098
▁루이지애나	-8099
▁상원의원을	-8100
▁시작했다고	-8101
LA	-8102
ah	-8103
ts	-8104
▁뜨	-8105
▁앵	-8106
개로	-8107
거를	-8108
기금	-8109
날드	-8110
다란	-8111
단과	-8112
라면	-8113
령이	-8114
매매	-8115
문제	-8116
세한	-8117
스파	-8118
아가	-8119
어떤	-8120
에이	-8121
예비	-8122
요한	-8123
유를	-8124
제네	-8125
졌을	-8126
종을	-8127
커가	-8128
키로	-8129
타의	-8130
판에	-8131
피스	-8132
100	-8133
are	-8134
ash	-8135
ite	-8136
▁68	-8137
▁He	-8138
▁가짜	-8139
▁군의	-8140
▁기숙	-8141
▁냈다	-8142
▁놀이	-8143
▁느꼈	-8144
▁단행	-8145
▁당해	-8146
▁데려	-8147
▁따뜻	-8148
▁래리	-8149
▁매출	-8150
▁무승	-8151
▁미네	-8152
▁미주	-8153
▁부탁	-8154
▁빼앗	-8155
▁서서	-8156
▁서양	-8157
▁세탁	-8158
▁술을	-8159
▁술집	-8160
▁숨을	-8161
▁실직	-8162
▁씨가	-8163
▁양키	-8164
▁업계	-8165
▁여권	-8166
▁연례	-8167
▁영업	-8168
▁옆에	-8169
▁오렌	-8170
▁유가	-8171
▁유기	-8172
▁있은	-8173
▁주립	-8174
▁중의	-8175
▁직업	-8176
▁차베	-8177
▁차이	-8178
▁채취	-8179
▁크레	-8180
▁터널	-8181
▁테이	-8182
▁통행	-8183
▁퇴원	-8184
▁팀을	-8185
▁팀의	-8186
▁풍부	-8187
▁하자	-8188
▁학대	-8189
년으로	-8190
되기도	-8191
레스는	-8192
머니는	-8193
비치는	-8194
사태가	-8195
지역의	-8196
회의를	-8197
▁NBA	-8198
▁강제로	-8199
▁건강에	-8200
▁건물에	-8201
▁계속된	-8202
▁공격한	-8203
▁국가에	-8204
▁권리가	-8205
▁뉴욕주	-8206
▁다음주	-8207
▁달러가	-8208
▁대책을	-8209
▁대회를	-8210
▁들어갈	-8211
▁모르는	-8212
▁목사는	-8213
▁방문은	-8214
▁베네딕	-8215
▁부토의	-8216
▁사진이	-8217
▁살해된	-8218
▁서장은	-8219
▁수입을	-8220
▁스크린	-8221
▁심장마	-8222
▁알렸다	-8223
▁앞서고	-8224
▁연구소	-8225
▁열대성	-8226
▁오른쪽	-8227
▁오스카	-8228
▁유명인	-8229
▁이제는	-8230
▁이후에	-8231
▁인터폴	-8232
▁일련의	-8233
▁자리잡	-8234
▁전하고	-8235
▁제외한	-8236
▁중에서	-8237
▁지구에	-8238
▁최첨단	-8239
▁피닉스	-8240
▁한국군	-8241
▁향하는	-8242
강전에서	-8243
ition	-8244
▁1989	-8245
▁군인들이	-8246
▁극단주의	-8247
▁러시아가	-8248
▁법정에서	-8249
▁사망자는	-8250
▁언급하며	-8251
▁움직임은	-8252
▁이루어진	-8253
▁이브라힘	-8254
▁일어나는	-8255
▁탈레반은	-8256
▁milit	-8257
▁에티오피아	-8258
▁여론조사에서	-8259
▁2008.10	-8260
▁프라이머리에서	-8261
?”	-8262
IS	-8263
ug	-8264
▁넬	-8265
▁롱	-8266
골로	-8267
나에	-8268
드베	-8269
마르	-8270
마를	-8271
분께	-8272
브를	-8273
블로	-8274
세트	-8275
세프	-8276
심히	-8277
어요	-8278
어져	-8279
지방	-8280
체로	-8281
치와	-8282
카는	-8283
크라	-8284
통을	-8285
통합	-8286
티가	-8287
편이	-8288
평균	-8289
380	-8290
ife	-8291
ome	-8292
oul	-8293
ris	-8294
▁67	-8295
▁76	-8296
▁개를	-8297
▁계산	-8298
▁교섭	-8299
▁귀환	-8300
▁낮아	-8301
▁노인	-8302
▁느낌	-8303
▁돼지	-8304
▁루이	-8305
▁망원	-8306
▁맥캔	-8307
▁모금	-8308
▁모아	-8309
▁무덤	-8310
▁미니	-8311
▁미리	-8312
▁밀려	-8313
▁바탕	-8314
▁바티	-8315
▁박탈	-8316
▁반도	-8317
▁발행	-8318
▁부검	-8319
▁부사	-8320
▁붙여	-8321
▁사절	-8322
▁수류	-8323
▁아지	-8324
▁압력	-8325
▁요리	-8326
▁유감	-8327
▁일치	-8328
▁조약	-8329
▁취한	-8330
▁타밀	-8331
▁퇴임	-8332
▁판다	-8333
▁허드	-8334
▁형제	-8335
▁활발	-8336
▁흥미	-8337
들이다	-8338
상태에	-8339
스트라	-8340
시간을	-8341
에게도	-8342
졌지만	-8343
총리는	-8344
투표를	-8345
트레이	-8346
olog	-8347
ouse	-8348
reat	-8349
roop	-8350
▁are	-8351
▁att	-8352
▁out	-8353
▁경매에	-8354
▁경험을	-8355
▁고위급	-8356
▁남편이	-8357
▁내려진	-8358
▁노트북	-8359
▁느끼고	-8360
▁도미니	-8361
▁마스터	-8362
▁메드베	-8363
▁무엇을	-8364
▁발표는	-8365
▁방문해	-8366
▁불능화	-8367
▁불확실	-8368
▁뿐이다	-8369
▁사진은	-8370
▁사형을	-8371
▁성공한	-8372
▁수행할	-8373
▁엄격한	-8374
▁왕자는	-8375
▁위하여	-8376
▁일하고	-8377
▁조승희	-8378
▁증언을	-8379
▁탑승한	-8380
▁터키의	-8381
▁테네시	-8382
▁판결이	-8383
▁팬들이	-8384
▁평화협	-8385
▁하거나	-8386
▁효과를	-8387
들에게는	-8388
시키려는	-8389
▁plan	-8390
▁가능성도	-8391
▁계획하고	-8392
▁고이즈미	-8393
▁나타내는	-8394
▁대법원은	-8395
▁동영상이	-8396
▁디자이너	-8397
▁매케인이	-8398
▁모른다고	-8399
▁보고서가	-8400
▁시작으로	-8401
▁실시했다	-8402
▁아니지만	-8403
▁아프간에	-8404
▁예상하고	-8405
▁용의자는	-8406
▁전반적인	-8407
▁전역에서	-8408
▁제출했다	-8409
▁추정하고	-8410
▁카메라를	-8411
▁타이틀을	-8412
▁테러조직	-8413
▁텍사스주	-8414
▁플레이를	-8415
▁again	-8416
▁결승전에서	-8417
▁요구했다고	-8418
merican	-8419
▁안전보장이사회	-8420
▁National	-8421
&#	-8422
▁몽	-8423
▁붐	-8424
▁써	-8425
▁엠	-8426
▁턱	-8427
괴한	-8428
근혜	-8429
넬라	-8430
노조	-8431
는가	-8432
단계	-8433
력은	-8434
보안	-8435
부모	-8436
비넨	-8437
석에	-8438
세이	-8439
시대	-8440
심의	-8441
쓰고	-8442
씨의	-8443
어와	-8444
연료	-8445
파가	-8446
혁명	-8447
PPP	-8448
lic	-8449
one	-8450
rac	-8451
▁Is	-8452
▁가중	-8453
▁거론	-8454
▁교외	-8455
▁그만	-8456
▁기계	-8457
▁기원	-8458
▁남용	-8459
▁내지	-8460
▁높게	-8461
▁뉴델	-8462
▁다수	-8463
▁달아	-8464
▁도디	-8465
▁때는	-8466
▁마케	-8467
▁맞은	-8468
▁맥도	-8469
▁모술	-8470
▁밀어	-8471
▁법무	-8472
▁블록	-8473
▁살모	-8474
▁스토	-8475
▁신발	-8476
▁신호	-8477
▁아담	-8478
▁애니	-8479
▁음성	-8480
▁전형	-8481
▁정리	-8482
▁정전	-8483
▁제약	-8484
▁종식	-8485
▁준수	-8486
▁중태	-8487
▁증강	-8488
▁펼친	-8489
▁하버	-8490
▁현금	-8491
▁형사	-8492
▁후송	-8493
거래소	-8494
등학교	-8495
스럽다	-8496
시키며	-8497
시하고	-8498
아프간	-8499
에게서	-8500
원들을	-8501
이사회	-8502
자금을	-8503
정으로	-8504
타에서	-8505
ical	-8506
▁Con	-8507
▁국가인	-8508
▁국립공	-8509
▁근로자	-8510
▁나이로	-8511
▁남학생	-8512
▁내리는	-8513
▁대서양	-8514
▁도착할	-8515
▁동물원	-8516
▁방문에	-8517
▁방법에	-8518
▁보고를	-8519
▁보내고	-8520
▁성공을	-8521
▁신속히	-8522
▁안으로	-8523
▁야후의	-8524
▁위스콘	-8525
▁유죄를	-8526
▁의견이	-8527
▁이곳은	-8528
▁이내에	-8529
▁자르다	-8530
▁작업이	-8531
▁폭력을	-8532
▁하와이	-8533
▁하이브	-8534
▁할머니	-8535
▁행동에	-8536
▁허가를	-8537
▁현재는	-8538
▁히틀러	-8539
해리포터	-8540
▁1987	-8541
▁lead	-8542
▁가족들과	-8543
▁거절했다	-8544
▁국제우주	-8545
▁남아있는	-8546
▁높아지고	-8547
▁대피했다	-8548
▁보냈다고	-8549
▁빅토리아	-8550
▁상황이다	-8551
▁숨졌으며	-8552
▁아버지는	-8553
▁않았다는	-8554
▁알바니아	-8555
▁연구소의	-8556
▁위원장이	-8557
▁의원들이	-8558
▁이름으로	-8559
▁일어났다	-8560
▁제시했다	-8561
▁플루토늄	-8562
▁행정부는	-8563
▁talks	-8564
▁무샤라프는	-8565
▁무장세력이	-8566
▁우주비행사	-8567
▁통과시켰다	-8568
45	-8569
CC	-8570
FL	-8571
▁[	-8572
▁갔	-8573
▁뚫	-8574
▁웰	-8575
▁팽	-8576
▁햇	-8577
그래	-8578
념을	-8579
노스	-8580
되길	-8581
미군	-8582
미는	-8583
사업	-8584
이런	-8585
이제	-8586
입을	-8587
차는	-8588
최근	-8589
췄다	-8590
카드	-8591
킥을	-8592
티에	-8593
파의	-8594
플루	-8595
해의	-8596
호주	-8597
300	-8598
IFA	-8599
duc	-8600
igh	-8601
man	-8602
ven	-8603
▁MD	-8604
▁pe	-8605
▁up	-8606
▁고안	-8607
▁교사	-8608
▁권총	-8609
▁금속	-8610
▁급습	-8611
▁널리	-8612
▁넘게	-8613
▁달간	-8614
▁담고	-8615
▁대전	-8616
▁도살	-8617
▁동계	-8618
▁매매	-8619
▁모양	-8620
▁모욕	-8621
▁산책	-8622
▁실려	-8623
▁실현	-8624
▁심의	-8625
▁안내	-8626
▁얻게	-8627
▁염려	-8628
▁원내	-8629
▁원정	-8630
▁웨인	-8631
▁유사	-8632
▁이슈	-8633
▁이적	-8634
▁임대	-8635
▁잇는	-8636
▁자전	-8637
▁자행	-8638
▁잡지	-8639
▁장려	-8640
▁잭슨	-8641
▁조심	-8642
▁지는	-8643
▁진지	-8644
▁초에	-8645
▁총에	-8646
▁치를	-8647
▁카드	-8648
▁토로	-8649
▁통보	-8650
▁트로	-8651
▁폭동	-8652
▁해저	-8653
▁했고	-8654
▁호송	-8655
겼다고	-8656
국들은	-8657
은행이	-8658
자와히	-8659
크리트	-8660
▁193	-8661
▁20%	-8662
▁60%	-8663
▁Roh	-8664
▁its	-8665
▁가난한	-8666
▁감바리	-8667
▁강진이	-8668
▁게릴라	-8669
▁견해를	-8670
▁결정이	-8671
▁경기는	-8672
▁계속할	-8673
▁공개한	-8674
▁공항을	-8675
▁글로벌	-8676
▁금리를	-8677
▁기사를	-8678
▁남자를	-8679
▁납치범	-8680
▁너무나	-8681
▁데리고	-8682
▁데이터	-8683
▁동안의	-8684
▁미래에	-8685
▁받는다	-8686
▁부대를	-8687
▁비행을	-8688
▁사용된	-8689
▁사임을	-8690
▁사퇴를	-8691
▁상처를	-8692
▁수사에	-8693
▁아마존	-8694
▁알리는	-8695
▁약간의	-8696
▁연기를	-8697
▁영화가	-8698
▁원한다	-8699
▁의사는	-8700
▁의회를	-8701
▁이뤄질	-8702
▁인구의	-8703
▁인사를	-8704
▁일본을	-8705
▁잃어버	-8706
▁전체가	-8707
▁전투기	-8708
▁제치고	-8709
▁중남미	-8710
▁중이며	-8711
▁지역이	-8712
▁차관은	-8713
▁커다란	-8714
▁테일러	-8715
▁합의에	-8716
됨에따라	-8717
▁광범위한	-8718
▁국가비상	-8719
▁국제적인	-8720
▁담당자는	-8721
▁매케인의	-8722
▁메드베데	-8723
▁보고서에	-8724
▁비디오를	-8725
▁사용했다	-8726
▁선거관리	-8727
▁아웅산수	-8728
▁앞으로도	-8729
▁연구원은	-8730
▁울포위츠	-8731
▁이메일을	-8732
▁중단했다	-8733
▁치러지는	-8734
▁카를로스	-8735
▁학교에서	-8736
▁핵실험을	-8737
▁국제유가가	-8738
▁대통령으로	-8739
▁민주주의를	-8740
▁발견되었다	-8741
▁않았습니다	-8742
▁상승했습니다	-8743
17	-8744
HC	-8745
In	-8746
UN	-8747
ix	-8748
pe	-8749
to	-8750
▁옳	-8751
검사	-8752
공급	-8753
당에	-8754
라바	-8755
렸을	-8756
먼트	-8757
성근	-8758
성화	-8759
시로	-8760
시오	-8761
시한	-8762
아노	-8763
아를	-8764
았고	-8765
었기	-8766
우며	-8767
인다	-8768
인민	-8769
절한	-8770
지대	-8771
크쇼	-8772
탈린	-8773
테르	-8774
파울	-8775
해가	-8776
▁AS	-8777
▁Ex	-8778
▁가즈	-8779
▁강행	-8780
▁교토	-8781
▁구류	-8782
▁깨끗	-8783
▁다룬	-8784
▁단독	-8785
▁당의	-8786
▁데뷔	-8787
▁동북	-8788
▁동참	-8789
▁먹고	-8790
▁모건	-8791
▁모임	-8792
▁무렵	-8793
▁무슨	-8794
▁미드	-8795
▁바꿀	-8796
▁방출	-8797
▁불교	-8798
▁비가	-8799
▁소장	-8800
▁솔직	-8801
▁아나	-8802
▁안드	-8803
▁양쪽	-8804
▁완성	-8805
▁워너	-8806
▁원인	-8807
▁위생	-8808
▁유적	-8809
▁자바	-8810
▁재고	-8811
▁재무	-8812
▁전격	-8813
▁좀더	-8814
▁찾지	-8815
▁치솟	-8816
▁택시	-8817
▁파월	-8818
▁포장	-8819
▁포트	-8820
▁행렬	-8821
▁향한	-8822
고에서	-8823
단체인	-8824
달러로	-8825
럼비아	-8826
렀다고	-8827
병으로	-8828
북한이	-8829
어졌다	-8830
일하게	-8831
2000	-8832
8000	-8833
▁IBM	-8834
▁IMF	-8835
▁exp	-8836
▁것인가	-8837
▁공정한	-8838
▁규모를	-8839
▁나라를	-8840
▁납치한	-8841
▁다르다	-8842
▁대선에	-8843
▁돌아와	-8844
▁디스커	-8845
▁런던의	-8846
▁맡았다	-8847
▁목적을	-8848
▁바티칸	-8849
▁법원의	-8850
▁변화에	-8851
▁병력이	-8852
▁부족한	-8853
▁상파울	-8854
▁서신을	-8855
▁성과를	-8856
▁수반은	-8857
▁시신은	-8858
▁신원이	-8859
▁실험을	-8860
▁심하게	-8861
▁알렉스	-8862
▁얼굴을	-8863
▁여지가	-8864
▁역사를	-8865
▁연구가	-8866
▁영국에	-8867
▁오렌지	-8868
▁왕자의	-8869
▁이처럼	-8870
▁일간지	-8871
▁자녀를	-8872
▁전략을	-8873
▁정치인	-8874
▁진전이	-8875
▁치러질	-8876
▁캠페인	-8877
▁테니스	-8878
▁텔레비	-8879
▁투표가	-8880
▁파이프	-8881
▁파파라	-8882
▁해수면	-8883
▁화려한	-8884
▁활동이	-8885
에미리트	-8886
위원장은	-8887
istan	-8888
▁Cent	-8889
▁cons	-8890
▁prot	-8891
▁가능하다	-8892
▁거부권을	-8893
▁결정적인	-8894
▁공개하지	-8895
▁관계자의	-8896
▁국가들의	-8897
▁기대한다	-8898
▁내려졌다	-8899
▁내렸다고	-8900
▁당부했다	-8901
▁되었다고	-8902
▁메릴랜드	-8903
▁목소리를	-8904
▁민주당은	-8905
▁벌어졌다	-8906
▁베네딕토	-8907
▁분리주의	-8908
▁분위기를	-8909
▁살모넬라	-8910
▁생각하지	-8911
▁시위대를	-8912
▁아름다운	-8913
▁아버지인	-8914
▁영화에서	-8915
▁위스콘신	-8916
▁일으켰다	-8917
▁주민들을	-8918
▁주민들의	-8919
▁직원들은	-8920
▁차지하는	-8921
▁출연했다	-8922
▁홈페이지	-8923
▁다우지수는	-8924
▁무장세력의	-8925
▁미국인들은	-8926
▁서브프라임	-8927
▁시위자들은	-8928
▁용의자들을	-8929
▁적극적으로	-8930
▁하이브리드	-8931
▁국제우주정거	-8932
▁아마디네자드	-8933
95	-8934
AR	-8935
ph	-8936
▁Z	-8937
▁굳	-8938
▁꽃	-8939
▁덜	-8940
▁컵	-8941
▁펭	-8942
가격	-8943
것도	-8944
도와	-8945
려야	-8946
받는	-8947
방이	-8948
범한	-8949
본부	-8950
색을	-8951
수감	-8952
스포	-8953
연을	-8954
용의	-8955
유엔	-8956
자르	-8957
지노	-8958
지다	-8959
지수	-8960
차량	-8961
토는	-8962
파인	-8963
피를	-8964
해튼	-8965
히는	-8966
emp	-8967
ern	-8968
▁De	-8969
▁by	-8970
▁각국	-8971
▁것일	-8972
▁곳이	-8973
▁공대	-8974
▁국세	-8975
▁군과	-8976
▁꺾고	-8977
▁끔찍	-8978
▁남쪽	-8979
▁내다	-8980
▁도난	-8981
▁막아	-8982
▁모리	-8983
▁모집	-8984
▁무자	-8985
▁묻는	-8986
▁박사	-8987
▁박스	-8988
▁보스	-8989
▁봤다	-8990
▁부러	-8991
▁비아	-8992
▁산맥	-8993
▁상의	-8994
▁성격	-8995
▁수족	-8996
▁수컷	-8997
▁숙박	-8998
▁시점	-8999
▁앨런	-9000
▁약혼	-9001
▁언덕	-9002
▁엔터	-9003
▁역임	-9004
▁요한	-9005
▁유산	-9006
▁유행	-9007
▁장교	-9008
▁저렴	-9009
▁전범	-9010
▁정유	-9011
▁주거	-9012
▁줄리	-9013
▁체류	-9014
▁총통	-9015
▁포셋	-9016
▁표결	-9017
▁해체	-9018
▁협약	-9019
경기에	-9020
까지도	-9021
내에서	-9022
문제를	-9023
사항을	-9024
으려고	-9025
졌으나	-9026
통신이	-9027
하려던	-9028
ount	-9029
▁AIG	-9030
▁감정을	-9031
▁건물을	-9032
▁긴장이	-9033
▁남성을	-9034
▁내용에	-9035
▁누구도	-9036
▁다니는	-9037
▁달러로	-9038
▁돌아갈	-9039
▁레이건	-9040
▁메이저	-9041
▁못한다	-9042
▁범죄를	-9043
▁생각해	-9044
▁생존자	-9045
▁세력을	-9046
▁소년이	-9047
▁아스날	-9048
▁앞섰다	-9049
▁업무를	-9050
▁에르도	-9051
▁연락을	-9052
▁왔다고	-9053
▁원자력	-9054
▁위협에	-9055
▁윈도우	-9056
▁유대인	-9057
▁유력한	-9058
▁이란을	-9059
▁이유가	-9060
▁일자리	-9061
▁장관과	-9062
▁재무부	-9063
▁적합한	-9064
▁전에는	-9065
▁제시한	-9066
▁존스턴	-9067
▁주식을	-9068
▁중단을	-9069
▁진행될	-9070
▁총기를	-9071
▁최우선	-9072
▁취하고	-9073
▁크기의	-9074
▁클레이	-9075
▁피하기	-9076
▁해안에	-9077
▁현상이	-9078
▁형태의	-9079
▁호텔에	-9080
달러까지	-9081
대통령은	-9082
렸습니다	-9083
차전에서	-9084
▁1950	-9085
▁1986	-9086
▁elec	-9087
▁관련하여	-9088
▁당선인이	-9089
▁못했지만	-9090
▁미얀마의	-9091
▁반대하고	-9092
▁받아왔다	-9093
▁사이트를	-9094
▁선고했다	-9095
▁선수들이	-9096
▁세속주의	-9097
▁승인했다	-9098
▁시나리오	-9099
▁시티그룹	-9100
▁않습니다	-9101
▁위원회의	-9102
▁윌리엄스	-9103
▁의심되는	-9104
▁재판에서	-9105
▁전해졌다	-9106
▁정부에서	-9107
▁창기라이	-9108
▁프로젝트	-9109
▁확인되지	-9110
▁troop	-9111
▁동영상에서	-9112
▁연구원들은	-9113
▁유죄판결을	-9114
▁정기적으로	-9115
▁프랑스에서	-9116
▁학생들에게	-9117
▁자살폭탄테러가	-9118
27	-9119
gh	-9120
▁굉	-9121
▁깔	-9122
▁봐	-9123
▁춤	-9124
▁콰	-9125
▁펄	-9126
개에	-9127
기부	-9128
놓고	-9129
니를	-9130
대책	-9131
독한	-9132
런스	-9133
렌은	-9134
력과	-9135
로에	-9136
마라	-9137
만년	-9138
말라	-9139
보의	-9140
빌리	-9141
세르	-9142
아의	-9143
여행	-9144
올로	-9145
조약	-9146
조한	-9147
청이	-9148
커스	-9149
해주	-9150
허가	-9151
eet	-9152
ish	-9153
ond	-9154
ook	-9155
ute	-9156
▁71	-9157
▁Ar	-9158
▁가끔	-9159
▁간호	-9160
▁강간	-9161
▁결합	-9162
▁고의	-9163
▁기아	-9164
▁기획	-9165
▁끊임	-9166
▁내리	-9167
▁내전	-9168
▁마찰	-9169
▁만화	-9170
▁물가	-9171
▁물어	-9172
▁믿을	-9173
▁박격	-9174
▁부결	-9175
▁부속	-9176
▁북측	-9177
▁불만	-9178
▁세운	-9179
▁소니	-9180
▁스노	-9181
▁스페	-9182
▁신사	-9183
▁실적	-9184
▁싶지	-9185
▁약탈	-9186
▁양성	-9187
▁없애	-9188
▁여당	-9189
▁연극	-9190
▁연말	-9191
▁연출	-9192
▁우편	-9193
▁유수	-9194
▁유통	-9195
▁음료	-9196
▁이득	-9197
▁이정	-9198
▁일고	-9199
▁잠수	-9200
▁즐기	-9201
▁측이	-9202
▁치매	-9203
▁터뜨	-9204
▁포획	-9205
▁플라	-9206
▁헬리	-9207
▁회동	-9208
권성근	-9209
까지는	-9210
들보다	-9211
랜드는	-9212
어지는	-9213
으므로	-9214
irst	-9215
▁FDA	-9216
▁has	-9217
▁가져올	-9218
▁간단한	-9219
▁개발한	-9220
▁경고를	-9221
▁구호물	-9222
▁기능을	-9223
▁긴장을	-9224
▁남부의	-9225
▁돌아올	-9226
▁반군은	-9227
▁부분이	-9228
▁분쟁을	-9229
▁서울시	-9230
▁선수로	-9231
▁수감된	-9232
▁수치는	-9233
▁스타벅	-9234
▁안보를	-9235
▁없다며	-9236
▁여러번	-9237
▁열심히	-9238
▁예정이	-9239
▁올라가	-9240
▁위치해	-9241
▁유럽과	-9242
▁음주운	-9243
▁일제히	-9244
▁자격이	-9245
▁자세히	-9246
▁조직을	-9247
▁조치로	-9248
▁주요한	-9249
▁줄이기	-9250
▁참가한	-9251
▁출신인	-9252
▁출전할	-9253
▁켄터키	-9254
▁클라크	-9255
▁토크쇼	-9256
▁특사는	-9257
▁퍼거슨	-9258
▁편지를	-9259
▁피랍된	-9260
▁하도록	-9261
▁학생이	-9262
▁환자가	-9263
시장에서	-9264
▁결혼식을	-9265
▁계속하고	-9266
▁국가정보	-9267
▁권고했다	-9268
▁노르웨이	-9269
▁누군가가	-9270
▁대표하는	-9271
▁보좌관은	-9272
▁뿐이라고	-9273
▁사과했다	-9274
▁수십명이	-9275
▁아시아의	-9276
▁연구결과	-9277
▁자동차업	-9278
▁자원봉사	-9279
▁주한미군	-9280
▁최고경영	-9281
▁출신으로	-9282
▁출전하지	-9283
▁테이프를	-9284
▁파리에서	-9285
▁평화적인	-9286
▁포함됐다	-9287
▁항의하는	-9288
▁헤럴드는	-9289
▁2-0(6	-9290
▁Seoul	-9291
▁교도소에서	-9292
▁알카에다가	-9293
▁오클라호마	-9294
▁유나이티드	-9295
▁지속적으로	-9296
▁Minister	-9297
-4	-9298
CI	-9299
ci	-9300
mm	-9301
sh	-9302
wo	-9303
▁융	-9304
▁쟁	-9305
▁쳐	-9306
▁츠	-9307
▁큐	-9308
관광	-9309
나게	-9310
뉴욕	-9311
당시	-9312
력의	-9313
름이	-9314
만간	-9315
모를	-9316
백을	-9317
법이	-9318
서치	-9319
석은	-9320
스마	-9321
시즌	-9322
업자	-9323
여성	-9324
인터	-9325
자스	-9326
자원	-9327
적의	-9328
전략	-9329
제이	-9330
주와	-9331
층에	-9332
타다	-9333
타운	-9334
티의	-9335
프롬	-9336
학을	-9337
호에	-9338
FBI	-9339
ime	-9340
ron	-9341
▁86	-9342
▁su	-9343
▁각종	-9344
▁갤런	-9345
▁거친	-9346
▁고어	-9347
▁내일	-9348
▁다소	-9349
▁대우	-9350
▁던져	-9351
▁던진	-9352
▁델타	-9353
▁만료	-9354
▁매입	-9355
▁먹는	-9356
▁미셸	-9357
▁발급	-9358
▁발령	-9359
▁발매	-9360
▁부처	-9361
▁사인	-9362
▁삭감	-9363
▁상위	-9364
▁상처	-9365
▁소아	-9366
▁손해	-9367
▁수락	-9368
▁쓰는	-9369
▁아빠	-9370
▁에너	-9371
▁영구	-9372
▁오를	-9373
▁외계	-9374
▁유괴	-9375
▁유람	-9376
▁인형	-9377
▁전년	-9378
▁절약	-9379
▁점유	-9380
▁접수	-9381
▁제정	-9382
▁진상	-9383
▁찍은	-9384
▁카스	-9385
▁통근	-9386
▁투명	-9387
▁피신	-9388
▁한달	-9389
▁항생	-9390
▁해상	-9391
▁해소	-9392
▁화면	-9393
▁회수	-9394
구에서	-9395
단체의	-9396
시키지	-9397
일에서	-9398
중이다	-9399
프랑스	-9400
▁거부한	-9401
▁교전을	-9402
▁기분이	-9403
▁기지를	-9404
▁남자의	-9405
▁넣었다	-9406
▁대비해	-9407
▁대테러	-9408
▁맨해튼	-9409
▁머레이	-9410
▁모여들	-9411
▁무장한	-9412
▁미래를	-9413
▁박근혜	-9414
▁보다는	-9415
▁보유한	-9416
▁분노를	-9417
▁분량의	-9418
▁사고의	-9419
▁사용을	-9420
▁사이버	-9421
▁사회에	-9422
▁상대방	-9423
▁선거가	-9424
▁세웠다	-9425
▁소리를	-9426
▁소유한	-9427
▁슈퍼볼	-9428
▁실패한	-9429
▁아이들	-9430
▁안전에	-9431
▁언급한	-9432
▁열었다	-9433
▁외무성	-9434
▁우울증	-9435
▁위치를	-9436
▁의문을	-9437
▁의원을	-9438
▁의장이	-9439
▁이곳을	-9440
▁인상을	-9441
▁있기를	-9442
▁자국의	-9443
▁작품을	-9444
▁전쟁이	-9445
▁전투를	-9446
▁접촉을	-9447
▁제품을	-9448
▁조직의	-9449
▁죽음에	-9450
▁즐기는	-9451
▁집회에	-9452
▁평가를	-9453
▁한다면	-9454
▁행동이	-9455
▁협력을	-9456
▁회사에	-9457
경기에서	-9458
위원회에	-9459
▁Bush	-9460
▁개발도상	-9461
▁거리에서	-9462
▁남쪽으로	-9463
▁동성애자	-9464
▁방송에서	-9465
▁병사들이	-9466
▁불법으로	-9467
▁브레이크	-9468
▁샤리프는	-9469
▁수요일에	-9470
▁수천명이	-9471
▁시인했다	-9472
▁에드워드	-9473
▁예상되고	-9474
▁예측했다	-9475
▁용의자를	-9476
▁전달했다	-9477
▁정부군이	-9478
▁줄기세포	-9479
▁증가하는	-9480
▁최고치를	-9481
▁출구조사	-9482
▁클린턴과	-9483
▁하마스의	-9484
▁확신한다	-9485
▁활동하고	-9486
retary	-9487
▁노대통령은	-9488
▁러닝메이트	-9489
▁소비자들이	-9490
▁수사관들은	-9491
▁유권자들은	-9492
▁이스라엘을	-9493
▁폭력사태로	-9494
▁프로그램이	-9495
▁지지자들에게	-9496
14	-9497
MS	-9498
ON	-9499
ik	-9500
▁y	-9501
▁깁	-9502
▁짝	-9503
가디	-9504
괜찮	-9505
길을	-9506
까요	-9507
내려	-9508
널티	-9509
년전	-9510
니고	-9511
니언	-9512
되던	-9513
만여	-9514
무드	-9515
미한	-9516
본을	-9517
분야	-9518
브레	-9519
색의	-9520
심한	-9521
애틀	-9522
어트	-9523
우석	-9524
있을	-9525
제품	-9526
조건	-9527
착륙	-9528
층이	-9529
크를	-9530
클리	-9531
ory	-9532
▁3%	-9533
▁Le	-9534
▁가깝	-9535
▁고수	-9536
▁기분	-9537
▁나섰	-9538
▁노던	-9539
▁당일	-9540
▁덴버	-9541
▁도덕	-9542
▁동굴	-9543
▁드는	-9544
▁들이	-9545
▁딜러	-9546
▁라우	-9547
▁라울	-9548
▁럼스	-9549
▁모의	-9550
▁반미	-9551
▁반전	-9552
▁벌이	-9553
▁벌일	-9554
▁베탕	-9555
▁보증	-9556
▁복원	-9557
▁복합	-9558
▁불황	-9559
▁생겨	-9560
▁소총	-9561
▁송금	-9562
▁씨의	-9563
▁예언	-9564
▁왜곡	-9565
▁워렌	-9566
▁위축	-9567
▁장벽	-9568
▁정밀	-9569
▁종사	-9570
▁줄을	-9571
▁지점	-9572
▁진실	-9573
▁진전	-9574
▁차가	-9575
▁처형	-9576
▁첫날	-9577
▁체계	-9578
▁추천	-9579
▁취급	-9580
▁치른	-9581
▁코너	-9582
▁티벳	-9583
▁파크	-9584
▁피추	-9585
▁피트	-9586
▁하드	-9587
▁호전	-9588
갔으며	-9589
거리는	-9590
그것은	-9591
그들이	-9592
달라는	-9593
만개의	-9594
센터는	-9595
스러워	-9596
시킨다	-9597
아티아	-9598
인에게	-9599
제네거	-9600
지역인	-9601
플루엔	-9602
화되고	-9603
▁70%	-9604
▁war	-9605
▁감독을	-9606
▁경계를	-9607
▁급격히	-9608
▁기술이	-9609
▁뉴욕에	-9610
▁느끼는	-9611
▁늘어날	-9612
▁단순히	-9613
▁대선주	-9614
▁대회에	-9615
▁데일리	-9616
▁된다면	-9617
▁들어와	-9618
▁디트로	-9619
▁명백한	-9620
▁무죄를	-9621
▁방향을	-9622
▁베이루	-9623
▁보여준	-9624
▁본부를	-9625
▁부인인	-9626
▁분야에	-9627
▁브리트	-9628
▁브리티	-9629
▁비공식	-9630
▁새롭게	-9631
▁선박이	-9632
▁선택할	-9633
▁수사가	-9634
▁시작될	-9635
▁실시될	-9636
▁아니며	-9637
▁억만장	-9638
▁영상을	-9639
▁외쳤다	-9640
▁유엔이	-9641
▁은신처	-9642
▁의미가	-9643
▁인도분	-9644
▁재판에	-9645
▁재판이	-9646
▁최고위	-9647
▁크루즈	-9648
▁토대로	-9649
▁파업에	-9650
▁판결에	-9651
▁행위는	-9652
▁행진을	-9653
▁헬리콥	-9654
대회에서	-9655
명이라고	-9656
학자들이	-9657
▁거래됐다	-9658
▁검토하고	-9659
▁공격했다	-9660
▁그들에게	-9661
▁대표단은	-9662
▁레이스를	-9663
▁목요일에	-9664
▁발견되지	-9665
▁법적으로	-9666
▁부상자가	-9667
▁북한과의	-9668
▁분석했다	-9669
▁사용되는	-9670
▁샤라포바	-9671
▁선수들은	-9672
▁스페인의	-9673
▁아라비아	-9674
▁요르단강	-9675
▁움직임이	-9676
▁워싱턴의	-9677
▁이들에게	-9678
▁자동차를	-9679
▁전합니다	-9680
▁정부군과	-9681
▁징역형을	-9682
▁호주오픈	-9683
팔레스타인	-9684
▁디스커버리	-9685
▁디트로이트	-9686
▁재무장관은	-9687
▁지도자들을	-9688
▁프로그램의	-9689
▁라스베이거스	-9690
▁아랍에미리트	-9691
▁연방준비제도	-9692
▁인도네시아의	-9693
16	-9694
NC	-9695
oy	-9696
~3	-9697
▁댈	-9698
▁램	-9699
▁킨	-9700
▁킬	-9701
▁흩	-9702
건강	-9703
건설	-9704
과정	-9705
관과	-9706
데버	-9707
돌이	-9708
두가	-9709
두를	-9710
드러	-9711
례를	-9712
로로	-9713
물인	-9714
받침	-9715
병은	-9716
복지	-9717
분경	-9718
워터	-9719
장애	-9720
주택	-9721
처리	-9722
천억	-9723
크로	-9724
퍼드	-9725
평가	-9726
프에	-9727
해도	-9728
해에	-9729
ade	-9730
amp	-9731
ber	-9732
ele	-9733
ict	-9734
orm	-9735
▁74	-9736
▁82	-9737
▁CD	-9738
▁“2	-9739
▁가동	-9740
▁게리	-9741
▁결심	-9742
▁교과	-9743
▁규칙	-9744
▁깊이	-9745
▁나빠	-9746
▁남서	-9747
▁내의	-9748
▁놀랄	-9749
▁느껴	-9750
▁다비	-9751
▁대폭	-9752
▁도울	-9753
▁독도	-9754
▁매도	-9755
▁무산	-9756
▁무효	-9757
▁반등	-9758
▁발렌	-9759
▁배포	-9760
▁버냉	-9761
▁브랜	-9762
▁산하	-9763
▁수년	-9764
▁스콧	-9765
▁시골	-9766
▁실수	-9767
▁아라	-9768
▁아민	-9769
▁양자	-9770
▁양측	-9771
▁얻지	-9772
▁유조	-9773
▁이외	-9774
▁입어	-9775
▁자사	-9776
▁작곡	-9777
▁중반	-9778
▁집필	-9779
▁참전	-9780
▁첩보	-9781
▁취해	-9782
▁친선	-9783
▁침묵	-9784
▁케르	-9785
▁크리	-9786
▁피부	-9787
▁피할	-9788
▁필수	-9789
▁해방	-9790
▁했을	-9791
▁협정	-9792
공격을	-9793
국들이	-9794
냈으며	-9795
대학교	-9796
만명에	-9797
웨스트	-9798
작으로	-9799
정적인	-9800
클린턴	-9801
토니아	-9802
할만한	-9803
uman	-9804
▁180	-9805
▁90%	-9806
▁CDC	-9807
▁강화할	-9808
▁개발에	-9809
▁겨냥한	-9810
▁공화국	-9811
▁과정에	-9812
▁교전이	-9813
▁국민을	-9814
▁국회에	-9815
▁남성과	-9816
▁노력할	-9817
▁다수의	-9818
▁담배를	-9819
▁도시를	-9820
▁리조트	-9821
▁마이스	-9822
▁못했던	-9823
▁물건을	-9824
▁바하마	-9825
▁반체제	-9826
▁밝히며	-9827
▁방식을	-9828
▁보도한	-9829
▁부르는	-9830
▁브래드	-9831
▁사생활	-9832
▁사회의	-9833
▁산불이	-9834
▁서울에	-9835
▁세계를	-9836
▁스탈린	-9837
▁스파이	-9838
▁애틀란	-9839
▁약속한	-9840
▁연기가	-9841
▁우간다	-9842
▁유감을	-9843
▁유세를	-9844
▁이스트	-9845
▁임기를	-9846
▁입수한	-9847
▁자금이	-9848
▁전력을	-9849
▁정상화	-9850
▁취하지	-9851
▁친환경	-9852
▁캐릭터	-9853
▁태우고	-9854
▁파운드	-9855
▁포스트	-9856
▁하는데	-9857
▁항공은	-9858
▁협정을	-9859
▁휴스턴	-9860
시키는데	-9861
아메리칸	-9862
에서부터	-9863
왔습니다	-9864
▁거짓말을	-9865
▁국방부가	-9866
▁뉴욕타임	-9867
▁동의했다	-9868
▁둘러싸고	-9869
▁모두에게	-9870
▁문제들을	-9871
▁보였다고	-9872
▁부인하고	-9873
▁북한에서	-9874
▁사상자가	-9875
▁수백명이	-9876
▁스튜디오	-9877
▁아무것도	-9878
▁안토니오	-9879
▁여성들은	-9880
▁연구에서	-9881
▁이라크로	-9882
▁이어졌다	-9883
▁인명피해	-9884
▁인질들이	-9885
▁일으키는	-9886
▁전쟁으로	-9887
▁제외하고	-9888
▁증언했다	-9889
▁총리에게	-9890
▁코소보의	-9891
▁테러와의	-9892
▁표시했다	-9893
▁확인하고	-9894
▁확인하기	-9895
▁가족들에게	-9896
▁받아들이지	-9897
▁상원의원에	-9898
▁우주왕복선	-9899
▁이탈리아의	-9900
▁파키스탄에	-9901
▁프로그램은	-9902
▁200809	-9903
18	-9904
AC	-9905
ER	-9906
PS	-9907
St	-9908
US	-9909
ox	-9910
▁닭	-9911
▁슛	-9912
▁쪽	-9913
▁촛	-9914
▁험	-9915
결혼	-9916
고가	-9917
곳의	-9918
권은	-9919
덩어	-9920
들인	-9921
디가	-9922
라리	-9923
리야	-9924
림을	-9925
무기	-9926
법의	-9927
보로	-9928
보장	-9929
보좌	-9930
서의	-9931
석의	-9932
션을	-9933
예를	-9934
인권	-9935
임에	-9936
조정	-9937
치인	-9938
카르	-9939
클린	-9940
타가	-9941
che	-9942
ral	-9943
row	-9944
ung	-9945
▁8%	-9946
▁im	-9947
▁가구	-9948
▁가한	-9949
▁고장	-9950
▁공사	-9951
▁광장	-9952
▁괜찮	-9953
▁군함	-9954
▁그라	-9955
▁급진	-9956
▁기뻐	-9957
▁나눠	-9958
▁날이	-9959
▁도심	-9960
▁도핑	-9961
▁독감	-9962
▁돈이	-9963
▁돌을	-9964
▁리오	-9965
▁매몰	-9966
▁모으	-9967
▁물건	-9968
▁물품	-9969
▁믿는	-9970
▁배가	-9971
▁버크	-9972
▁번호	-9973
▁부실	-9974
▁사면	-9975
▁생태	-9976
▁세웠	-9977
▁손실	-9978
▁쉬운	-9979
▁슬로	-9980
▁시일	-9981
▁암호	-9982
▁앞선	-9983
▁엔지	-9984
▁연안	-9985
▁영광	-9986
▁영장	-9987
▁예배	-9988
▁예약	-9989
▁요즘	-9990
▁울프	-9991
▁음란	-9992
▁전임	-9993
▁전파	-9994
▁절도	-9995
▁제니	-9996
▁제일	-9997
▁제프	-9998
▁조짐	-9999
▁주류	-10000
▁중도	-10001
▁집회	-10002
▁카디	-10003
▁카자	-10004
▁토마	-10005
▁퇴역	-10006
▁트라	-10007
▁호날	-10008
▁화가	-10009
▁화염	-10010
▁히트	-10011
객들이	-10012
관계가	-10013
만명을	-10014
말리키	-10015
메이션	-10016
사건에	-10017
시키려	-10018
었는데	-10019
었는지	-10020
자였던	-10021
작업이	-10022
주일에	-10023
협정을	-10024
3000	-10025
enti	-10026
ings	-10027
port	-10028
rest	-10029
▁1-0	-10030
▁170	-10031
▁Ass	-10032
▁pol	-10033
▁강타한	-10034
▁개선을	-10035
▁거리로	-10036
▁기자의	-10037
▁기준금	-10038
▁끝까지	-10039
▁내리고	-10040
▁내셔널	-10041
▁노동당	-10042
▁노력의	-10043
▁뉴욕시	-10044
▁다리가	-10045
▁단체를	-10046
▁답변을	-10047
▁돌아온	-10048
▁뒷받침	-10049
▁들어온	-10050
▁라모스	-10051
▁마케팅	-10052
▁명확히	-10053
▁무소속	-10054
▁무장대	-10055
▁미군에	-10056
▁미시건	-10057
▁바닥에	-10058
▁박사가	-10059
▁부모가	-10060
▁부분은	-10061
▁부토는	-10062
▁분쟁이	-10063
▁비난한	-10064
▁사라진	-10065
▁사례가	-10066
▁석방된	-10067
▁선거는	-10068
▁센터의	-10069
▁속도를	-10070
▁손상을	-10071
▁스프링	-10072
▁시위로	-10073
▁신뢰를	-10074
▁신호를	-10075
▁쌍둥이	-10076
▁안보리	-10077
▁않겠다	-10078
▁압바스	-10079
▁야당의	-10080
▁여사가	-10081
▁연료를	-10082
▁요구에	-10083
▁우리당	-10084
▁운동가	-10085
▁원숭이	-10086
▁유전자	-10087
▁유지할	-10088
▁인기가	-10089
▁임기가	-10090
▁재개할	-10091
▁전체에	-10092
▁주장이	-10093
▁줄이는	-10094
▁중심에	-10095
▁철저히	-10096
▁총리로	-10097
▁추락한	-10098
▁형태로	-10099
▁확보할	-10100
▁회의가	-10101
억달러의	-10102
하였으며	-10103
▁경쟁자인	-10104
▁그곳에서	-10105
▁당선자는	-10106
▁대사관은	-10107
▁데이비스	-10108
▁들어가는	-10109
▁라이벌인	-10110
▁밝혀냈다	-10111
▁밝혔었다	-10112
▁밝혔으나	-10113
▁벌였다고	-10114
▁사망자를	-10115
▁생산하는	-10116
▁에르도간	-10117
▁영국으로	-10118
▁예정되어	-10119
▁이라크내	-10120
▁이슬람교	-10121
▁인정하지	-10122
▁인질들의	-10123
▁일어나고	-10124
▁일어나지	-10125
▁장소에서	-10126
▁취소했다	-10127
▁테러단체	-10128
▁호주에서	-10129
▁회견에서	-10130
▁휴대전화	-10131
▁힐러리가	-10132
▁가자지구를	-10133
▁되었습니다	-10134
▁때문입니다	-10135
▁상원의원인	-10136
▁오하이오주	-10137
▁지지선언을	-10138
▁플로리다주	-10139
▁하락했습니다	-10140
▁military	-10141
MA	-10142
NP	-10143
fe	-10144
ho	-10145
▁뮌	-10146
▁팜	-10147
게도	-10148
듯이	-10149
론을	-10150
롭고	-10151
메르	-10152
바흐	-10153
박한	-10154
밴드	-10155
번에	-10156
비한	-10157
선과	-10158
소득	-10159
스텔	-10160
습을	-10161
신문	-10162
아르	-10163
인데	-10164
자지	-10165
절을	-10166
종이	-10167
주기	-10168
주전	-10169
채가	-10170
청의	-10171
총장	-10172
켓을	-10173
크가	-10174
하러	-10175
ING	-10176
PGA	-10177
ise	-10178
▁Ad	-10179
▁An	-10180
▁qu	-10181
▁가죽	-10182
▁감기	-10183
▁개설	-10184
▁개표	-10185
▁거둔	-10186
▁권리	-10187
▁기증	-10188
▁남녀	-10189
▁내로	-10190
▁내세	-10191
▁대니	-10192
▁대략	-10193
▁딸의	-10194
▁리우	-10195
▁말로	-10196
▁머무	-10197
▁명에	-10198
▁모험	-10199
▁몸값	-10200
▁바쿠	-10201
▁반환	-10202
▁발레	-10203
▁방화	-10204
▁삶의	-10205
▁상담	-10206
▁세트	-10207
▁숨어	-10208
▁슈워	-10209
▁승점	-10210
▁신원	-10211
▁아칸	-10212
▁안나	-10213
▁얼룩	-10214
▁오프	-10215
▁운반	-10216
▁워터	-10217
▁유용	-10218
▁저택	-10219
▁적응	-10220
▁전부	-10221
▁제네	-10222
▁제도	-10223
▁조항	-10224
▁종파	-10225
▁지낸	-10226
▁칼라	-10227
▁칼리	-10228
▁편안	-10229
▁품목	-10230
▁플레	-10231
▁하트	-10232
▁현상	-10233
▁혈액	-10234
▁확장	-10235
▁흘러	-10236
가디슈	-10237
돼있다	-10238
민주당	-10239
바에서	-10240
상태를	-10241
세력을	-10242
스타인	-10243
시간이	-10244
시했다	-10245
하자는	-10246
▁가량의	-10247
▁개표가	-10248
▁공급이	-10249
▁근처에	-10250
▁글래스	-10251
▁기대를	-10252
▁기반을	-10253
▁끝나는	-10254
▁나와즈	-10255
▁남한의	-10256
▁노력에	-10257
▁달라고	-10258
▁동물을	-10259
▁때마다	-10260
▁떨어질	-10261
▁라호르	-10262
▁머리에	-10263
▁모두를	-10264
▁목적이	-10265
▁문서를	-10266
▁미끄러	-10267
▁미주리	-10268
▁바람이	-10269
▁베탕쿠	-10270
▁보상을	-10271
▁복귀할	-10272
▁북극곰	-10273
▁분위기	-10274
▁붕괴된	-10275
▁선출된	-10276
▁성직자	-10277
▁수업을	-10278
▁시애틀	-10279
▁쓰레기	-10280
▁아이는	-10281
▁않아도	-10282
▁야당은	-10283
▁야당이	-10284
▁여왕의	-10285
▁올리고	-10286
▁외교관	-10287
▁요청할	-10288
▁이래로	-10289
▁이름의	-10290
▁인근서	-10291
▁일으켜	-10292
▁자격을	-10293
▁자살을	-10294
▁자살한	-10295
▁자신에	-10296
▁작성한	-10297
▁장기간	-10298
▁제작된	-10299
▁조건을	-10300
▁존스는	-10301
▁종교적	-10302
▁주장은	-10303
▁지방의	-10304
▁차지한	-10305
▁취했다	-10306
▁코스피	-10307
▁테러의	-10308
▁통해서	-10309
▁판매를	-10310
▁패리스	-10311
▁페이지	-10312
▁하나가	-10313
▁행사가	-10314
▁행사할	-10315
▁확인된	-10316
▁환경에	-10317
되었지만	-10318
만달러를	-10319
사람들이	-10320
▁1988	-10321
▁Show	-10322
▁가즈프롬	-10323
▁강화하고	-10324
▁경제성장	-10325
▁골든글로	-10326
▁근본주의	-10327
▁기록하며	-10328
▁명단에서	-10329
▁무승부를	-10330
▁반박했다	-10331
▁본선에서	-10332
▁부통령이	-10333
▁북부에서	-10334
▁분야에서	-10335
▁스미스의	-10336
▁시민들은	-10337
▁실질적인	-10338
▁야생동물	-10339
▁엘리베이	-10340
▁연방수사	-10341
▁온실가스	-10342
▁입었으며	-10343
▁저항세력	-10344
▁전쟁에서	-10345
▁제공하고	-10346
▁지도부는	-10347
▁책임자인	-10348
▁클린턴을	-10349
▁테러지원	-10350
▁필요성을	-10351
▁해결책을	-10352
▁행사에서	-10353
▁확신했다	-10354
▁회사들이	-10355
트레이어스	-10356
ration	-10357
▁관광객들이	-10358
▁국무장관이	-10359
▁애니메이션	-10360
▁정치적으로	-10361
▁주장했지만	-10362
▁against	-10363
',	-10364
84	-10365
FO	-10366
ok	-10367
▁́	-10368
▁닐	-10369
▁엉	-10370
▁챙	-10371
▁했	-10372
▁헝	-10373
가장	-10374
감시	-10375
감은	-10376
견을	-10377
냄새	-10378
누엘	-10379
동생	-10380
동성	-10381
란색	-10382
로우	-10383
론의	-10384
르며	-10385
리한	-10386
만일	-10387
미널	-10388
부족	-10389
브가	-10390
브리	-10391
성한	-10392
섹스	-10393
소시	-10394
쉬는	-10395
악한	-10396
야만	-10397
열에	-10398
의원	-10399
이들	-10400
이면	-10401
적은	-10402
조에	-10403
조치	-10404
증권	-10405
집행	-10406
층을	-10407
치기	-10408
타와	-10409
행정	-10410
화될	-10411
.13	-10412
=27	-10413
aid	-10414
eek	-10415
irl	-10416
ock	-10417
urn	-10418
vel	-10419
▁81	-10420
▁Be	-10421
▁Cl	-10422
▁겨우	-10423
▁격돌	-10424
▁고민	-10425
▁구간	-10426
▁구경	-10427
▁끌고	-10428
▁내는	-10429
▁뇌물	-10430
▁뒤집	-10431
▁듣지	-10432
▁따를	-10433
▁라시	-10434
▁레빈	-10435
▁로맨	-10436
▁로버	-10437
▁마침	-10438
▁매주	-10439
▁맥주	-10440
▁메리	-10441
▁면제	-10442
▁명칭	-10443
▁무대	-10444
▁미셀	-10445
▁바꿔	-10446
▁발달	-10447
▁발효	-10448
▁배급	-10449
▁배상	-10450
▁본다	-10451
▁분실	-10452
▁불평	-10453
▁상어	-10454
▁성사	-10455
▁세우	-10456
▁소화	-10457
▁수수	-10458
▁슬픔	-10459
▁실은	-10460
▁싸움	-10461
▁안락	-10462
▁야구	-10463
▁역대	-10464
▁역설	-10465
▁역전	-10466
▁오고	-10467
▁오케	-10468
▁유입	-10469
▁유타	-10470
▁유해	-10471
▁은하	-10472
▁이룩	-10473
▁인내	-10474
▁입력	-10475
▁잡은	-10476
▁장비	-10477
▁정식	-10478
▁제의	-10479
▁조속	-10480
▁존경	-10481
▁좋다	-10482
▁줄여	-10483
▁진흙	-10484
▁집무	-10485
▁착취	-10486
▁창설	-10487
▁청년	-10488
▁추종	-10489
▁충족	-10490
▁취득	-10491
▁침수	-10492
▁칭찬	-10493
▁칸다	-10494
▁코피	-10495
▁키드	-10496
▁털어	-10497
▁펀드	-10498
▁펭귄	-10499
▁포터	-10500
▁하산	-10501
▁하얀	-10502
▁한층	-10503
▁핸드	-10504
▁행성	-10505
▁현행	-10506
▁흰색	-10507
대부분	-10508
대의원	-10509
대표는	-10510
되지만	-10511
면으로	-10512
미국의	-10513
버그는	-10514
베리아	-10515
역으로	-10516
연구소	-10517
이트를	-10518
총장은	-10519
테니스	-10520
해에서	-10521
해주는	-10522
회장은	-10523
able	-10524
ency	-10525
ople	-10526
ourt	-10527
▁15%	-10528
▁Res	-10529
▁sec	-10530
▁검찰의	-10531
▁경기장	-10532
▁경영진	-10533
▁공공장	-10534
▁공급을	-10535
▁국가들	-10536
▁그곳에	-10537
▁나눴다	-10538
▁나오고	-10539
▁나타났	-10540
▁높이의	-10541
▁뉴스의	-10542
▁대한민	-10543
▁덕분에	-10544
▁동유럽	-10545
▁들어오	-10546
▁머리카	-10547
▁메모리	-10548
▁목소리	-10549
▁무엇이	-10550
▁미국산	-10551
▁범인은	-10552
▁보안관	-10553
▁브로드	-10554
▁사람과	-10555
▁사원을	-10556
▁사태의	-10557
▁선거의	-10558
▁수류탄	-10559
▁신문에	-10560
▁실업수	-10561
▁싶다고	-10562
▁양측이	-10563
▁어려움	-10564
▁언제나	-10565
▁연구의	-10566
▁영감을	-10567
▁오늘밤	-10568
▁올리는	-10569
▁요청한	-10570
▁원하지	-10571
▁위기가	-10572
▁위안부	-10573
▁의미를	-10574
▁의석을	-10575
▁이어질	-10576
▁이해할	-10577
▁있거나	-10578
▁있었기	-10579
▁자이언	-10580
▁장거리	-10581
▁장비를	-10582
▁정보가	-10583
▁제출할	-10584
▁조치에	-10585
▁주가가	-10586
▁진전을	-10587
▁차량은	-10588
▁차이나	-10589
▁출연해	-10590
▁트라볼	-10591
▁티셔츠	-10592
▁폭발물	-10593
▁하버드	-10594
▁해왔다	-10595
▁헬기를	-10596
▁협력할	-10597
▁호랑이	-10598
▁혼란에	-10599
▁환경을	-10600
▁회견을	-10601
만달러의	-10602
버지니아	-10603
앤젤레스	-10604
지역으로	-10605
▁OPEC	-10606
▁같습니다	-10607
▁관점에서	-10608
▁교전으로	-10609
▁국회에서	-10610
▁국회의사	-10611
▁기자들이	-10612
▁남아있다	-10613
▁도로에서	-10614
▁드립니다	-10615
▁러시아와	-10616
▁목격자는	-10617
▁받았지만	-10618
▁방지하기	-10619
▁베어스턴	-10620
▁보호하고	-10621
▁보호하는	-10622
▁사라졌다	-10623
▁사무실을	-10624
▁상공에서	-10625
▁상승세를	-10626
▁스트레스	-10627
▁시달리고	-10628
▁여객기는	-10629
▁조사하기	-10630
▁주최측은	-10631
▁중단하고	-10632
▁지도자로	-10633
▁지속적인	-10634
▁지지율을	-10635
▁진출했다	-10636
▁참여하는	-10637
▁추산했다	-10638
▁추정했다	-10639
▁크리스마	-10640
▁폭풍으로	-10641
▁프랑스와	-10642
▁피츠버그	-10643
▁하마스는	-10644
▁헤즈볼라	-10645
econom	-10646
ission	-10647
▁2,000	-10648
▁가자지구에	-10649
▁감소했다고	-10650
▁미국에서는	-10651
▁사무총장이	-10652
▁에스토니아	-10653
▁지지한다고	-10654
▁항공우주국	-10655
▁troops	-10656
▁가자지구에서	-10657
▁2005.09	-10658
▁2008.11	-10659
ternational	-10660
0)	-10661
67	-10662
97	-10663
DS	-10664
ES	-10665
TI	-10666
WC	-10667
my	-10668
▁꼽	-10669
▁닌	-10670
▁뚜	-10671
경비	-10672
경이	-10673
금은	-10674
나귀	-10675
너럴	-10676
동영	-10677
란히	-10678
론은	-10679
마트	-10680
받지	-10681
범을	-10682
베리	-10683
병에	-10684
병의	-10685
부대	-10686
부인	-10687
선한	-10688
수준	-10689
숙한	-10690
스프	-10691
운을	-10692
위와	-10693
있고	-10694
재를	-10695
지면	-10696
참모	-10697
츠의	-10698
캐슬	-10699
팀의	-10700
히고	-10701
ach	-10702
air	-10703
ner	-10704
org	-10705
ove	-10706
rol	-10707
urg	-10708
▁7%	-10709
▁en	-10710
▁가축	-10711
▁가할	-10712
▁거머	-10713
▁관절	-10714
▁균형	-10715
▁기습	-10716
▁내비	-10717
▁다녀	-10718
▁도주	-10719
▁독자	-10720
▁되풀	-10721
▁드물	-10722
▁득점	-10723
▁떠오	-10724
▁러드	-10725
▁레오	-10726
▁롬니	-10727
▁맞붙	-10728
▁매력	-10729
▁매머	-10730
▁모터	-10731
▁무크	-10732
▁뮌헨	-10733
▁밝힐	-10734
▁밤새	-10735
▁버진	-10736
▁블룸	-10737
▁비유	-10738
▁사카	-10739
▁선진	-10740
▁설계	-10741
▁소실	-10742
▁솔로	-10743
▁숫자	-10744
▁승부	-10745
▁신의	-10746
▁싶은	-10747
▁안젤	-10748
▁앞당	-10749
▁여부	-10750
▁열려	-10751
▁영원	-10752
▁요새	-10753
▁우방	-10754
▁원치	-10755
▁위태	-10756
▁유시	-10757
▁이바	-10758
▁일로	-10759
▁자크	-10760
▁전송	-10761
▁전원	-10762
▁점이	-10763
▁정오	-10764
▁주미	-10765
▁중계	-10766
▁중산	-10767
▁출국	-10768
▁콘텐	-10769
▁크고	-10770
▁타계	-10771
▁타협	-10772
▁패한	-10773
▁포위	-10774
▁포츠	-10775
▁폭등	-10776
▁폴리	-10777
▁피의	-10778
▁할지	-10779
▁해를	-10780
▁호화	-10781
▁회부	-10782
▁힘이	-10783
년에도	-10784
디아나	-10785
방에서	-10786
블랜드	-10787
새로운	-10788
스쿠니	-10789
스페인	-10790
시까지	-10791
실리아	-10792
지기도	-10793
테리아	-10794
하기는	-10795
하다며	-10796
해서는	-10797
흐스탄	-10798
ited	-10799
rans	-10800
ther	-10801
▁1/4	-10802
▁3-0	-10803
▁900	-10804
▁AFP	-10805
▁BDA	-10806
▁USA	-10807
▁pre	-10808
▁것이기	-10809
▁경우가	-10810
▁계획의	-10811
▁계획한	-10812
▁관계는	-10813
▁국가주	-10814
▁군대가	-10815
▁기간을	-10816
▁나가는	-10817
▁다행히	-10818
▁단계에	-10819
▁단순한	-10820
▁대주교	-10821
▁도시로	-10822
▁동반한	-10823
▁되돌아	-10824
▁라이브	-10825
▁런던에	-10826
▁레이저	-10827
▁로켓포	-10828
▁로한은	-10829
▁말라고	-10830
▁맞았다	-10831
▁명단에	-10832
▁목적은	-10833
▁무너져	-10834
▁미래의	-10835
▁바다로	-10836
▁박격포	-10837
▁반군을	-10838
▁발사를	-10839
▁버냉키	-10840
▁버스를	-10841
▁병원을	-10842
▁보여줄	-10843
▁북부의	-10844
▁비판을	-10845
▁사항은	-10846
▁손해를	-10847
▁수치다	-10848
▁시간에	-10849
▁시설에	-10850
▁알제리	-10851
▁어두운	-10852
▁없었던	-10853
▁엘바라	-10854
▁여왕은	-10855
▁영향력	-10856
▁우리베	-10857
▁의지를	-10858
▁일정이	-10859
▁임무는	-10860
▁자세를	-10861
▁재확인	-10862
▁재활용	-10863
▁접전을	-10864
▁정책이	-10865
▁제조업	-10866
▁조만간	-10867
▁주인이	-10868
▁줄이고	-10869
▁지수가	-10870
▁차례의	-10871
▁참석해	-10872
▁찾았다	-10873
▁친구가	-10874
▁카라치	-10875
▁케이시	-10876
▁타임스	-10877
▁투표할	-10878
▁판단을	-10879
▁판매할	-10880
▁필요할	-10881
▁하나를	-10882
▁행사는	-10883
▁향하고	-10884
▁황우석	-10885
▁히드로	-10886
▁힐튼이	-10887
자회담에	-10888
퍼센트의	-10889
▁1200	-10890
▁1981	-10891
▁2011	-10892
▁have	-10893
▁국민들을	-10894
▁금지하고	-10895
▁네바다주	-10896
▁대대적인	-10897
▁럼스펠드	-10898
▁말하면서	-10899
▁모가디슈	-10900
▁백악관에	-10901
▁브리티시	-10902
▁사람들도	-10903
▁상관없이	-10904
▁수상자인	-10905
▁시스템이	-10906
▁시작되는	-10907
▁않겠다는	-10908
▁어머니가	-10909
▁어머니와	-10910
▁예상보다	-10911
▁유일하게	-10912
▁이라크는	-10913
▁이라크인	-10914
▁재무장관	-10915
▁전국적인	-10916
▁지역사회	-10917
▁지지율이	-10918
▁총격으로	-10919
▁티베트의	-10920
▁프랑스는	-10921
▁헤럴드가	-10922
▁개인적으로	-10923
▁관계자들과	-10924
▁다큐멘터리	-10925
▁스피어스는	-10926
▁아시아에서	-10927
▁엘바라데이	-10928
▁웹사이트는	-10929
▁이르기까지	-10930
▁짐바브웨의	-10931
▁크로아티아	-10932
▁폭력사태를	-10933
▁폭탄테러를	-10934
▁프로젝트를	-10935
▁econom	-10936
▁경찰에따르면	-10937
▁로스앤젤레스	-10938
▁파키스탄에서	-10939
▁팔레스타인의	-10940
▁Secretary	-10941
Ch	-10942
EW	-10943
GH	-10944
pl	-10945
▁.	-10946
▁는	-10947
▁렉	-10948
▁렌	-10949
▁류	-10950
▁줬	-10951
▁짜	-10952
개혁	-10953
공사	-10954
길에	-10955
년도	-10956
노는	-10957
놓은	-10958
놨다	-10959
능한	-10960
다코	-10961
락은	-10962
론이	-10963
린이	-10964
린트	-10965
미가	-10966
분한	-10967
사우	-10968
살인	-10969
수술	-10970
스토	-10971
액은	-10972
오염	-10973
욕을	-10974
우로	-10975
월과	-10976
웨어	-10977
유의	-10978
일인	-10979
저널	-10980
주인	-10981
직한	-10982
질유	-10983
카스	-10984
트맨	-10985
티드	-10986
티를	-10987
폭력	-10988
ble	-10989
sec	-10990
▁Ac	-10991
▁IS	-10992
▁가기	-10993
▁거세	-10994
▁검시	-10995
▁격리	-10996
▁광우	-10997
▁근교	-10998
▁김선	-10999
▁네이	-11000
▁녹색	-11001
▁단일	-11002
▁대가	-11003
▁대지	-11004
▁로빈	-11005
▁로페	-11006
▁막고	-11007
▁만났	-11008
▁말리	-11009
▁메인	-11010
▁면접	-11011
▁몸무	-11012
▁반란	-11013
▁발이	-11014
▁방치	-11015
▁배를	-11016
▁배아	-11017
▁베리	-11018
▁부른	-11019
▁부작	-11020
▁비영	-11021
▁사드	-11022
▁사탕	-11023
▁생성	-11024
▁서안	-11025
▁설정	-11026
▁신장	-11027
▁아우	-11028
▁알렌	-11029
▁언어	-11030
▁연휴	-11031
▁오키	-11032
▁원화	-11033
▁유효	-11034
▁응원	-11035
▁이례	-11036
▁인계	-11037
▁입학	-11038
▁잠을	-11039
▁재벌	-11040
▁절감	-11041
▁조명	-11042
▁주교	-11043
▁줄이	-11044
▁지닌	-11045
▁징계	-11046
▁추출	-11047
▁침투	-11048
▁크다	-11049
▁클루	-11050
▁타결	-11051
▁탄소	-11052
▁페이	-11053
▁포괄	-11054
▁폭로	-11055
▁헤이	-11056
▁호킹	-11057
▁회색	-11058
▁후퇴	-11059
▁휴양	-11060
기간을	-11061
기적인	-11062
는지에	-11063
대사는	-11064
된다는	-11065
사건을	-11066
선으로	-11067
시위를	-11068
었다는	-11069
우리의	-11070
으려는	-11071
의사를	-11072
인들과	-11073
일에도	-11074
하는지	-11075
(25)	-11076
,500	-11077
FARC	-11078
atch	-11079
ital	-11080
roup	-11081
▁ins	-11082
▁감사를	-11083
▁거래가	-11084
▁경기도	-11085
▁경제는	-11086
▁경제와	-11087
▁고향인	-11088
▁군대를	-11089
▁그룹의	-11090
▁끔찍한	-11091
▁논의가	-11092
▁누르고	-11093
▁뉴스는	-11094
▁느낀다	-11095
▁당국과	-11096
▁당나귀	-11097
▁대기업	-11098
▁대만의	-11099
▁대표인	-11100
▁마라도	-11101
▁마련할	-11102
▁말아야	-11103
▁모로코	-11104
▁모았다	-11105
▁미드필	-11106
▁발전을	-11107
▁발표에	-11108
▁버마의	-11109
▁범죄에	-11110
▁보호할	-11111
▁본사를	-11112
▁빠졌다	-11113
▁사임할	-11114
▁사태는	-11115
▁서울의	-11116
▁성추행	-11117
▁소녀가	-11118
▁소리가	-11119
▁쇠고기	-11120
▁쇼핑몰	-11121
▁수준의	-11122
▁아내와	-11123
▁아들인	-11124
▁아이돌	-11125
▁아칸소	-11126
▁야후는	-11127
▁양국간	-11128
▁양국이	-11129
▁언급은	-11130
▁열차가	-11131
▁오딩가	-11132
▁운행을	-11133
▁의혹에	-11134
▁자산을	-11135
▁전망이	-11136
▁제프리	-11137
▁증시의	-11138
▁지구의	-11139
▁지나지	-11140
▁지속될	-11141
▁지키고	-11142
▁차례로	-11143
▁카지노	-11144
▁터키군	-11145
▁토론을	-11146
▁특별히	-11147
▁판결은	-11148
▁할아버	-11149
▁합의가	-11150
▁합의는	-11151
▁호텔을	-11152
▁화상을	-11153
▁환자의	-11154
▁회동을	-11155
▁후지모	-11156
▁힘들다	-11157
단체들은	-11158
되었다는	-11159
사람들은	-11160
tions	-11161
▁경찰서에	-11162
▁공동으로	-11163
▁국방위원	-11164
▁군인들은	-11165
▁기록하고	-11166
▁기상청은	-11167
▁니콜라스	-11168
▁대답했다	-11169
▁리처드슨	-11170
▁명령했다	-11171
▁모습으로	-11172
▁무장괴한	-11173
▁벌어지고	-11174
▁부문에서	-11175
▁비밀리에	-11176
▁비행기에	-11177
▁사임했다	-11178
▁상파울루	-11179
▁세계보건	-11180
▁승객들이	-11181
▁시점에서	-11182
▁아버지의	-11183
▁애완동물	-11184
▁야스쿠니	-11185
▁예상되는	-11186
▁우주정거	-11187
▁원자바오	-11188
▁위협하는	-11189
▁유명하다	-11190
▁이용하고	-11191
▁인종차별	-11192
▁일정으로	-11193
▁장난감을	-11194
▁정해지지	-11195
▁제공했다	-11196
▁중요성을	-11197
▁지구에서	-11198
▁차원에서	-11199
▁착수했다	-11200
▁참여하지	-11201
▁추가적인	-11202
▁추진하고	-11203
▁커뮤니티	-11204
▁컴퓨터가	-11205
▁쿠데타로	-11206
▁쿠르드족	-11207
▁크리스티	-11208
▁탈레반과	-11209
▁탈레반의	-11210
▁판결했다	-11211
▁하더라도	-11212
▁학생들의	-11213
▁확실하지	-11214
▁회사들은	-11215
▁후보들은	-11216
▁시상식에서	-11217
▁시카고에서	-11218
▁의원들에게	-11219
▁인도주의적	-11220
▁지도자들과	-11221
▁카자흐스탄	-11222
▁한나라당이	-11223
▁2005.12	-11224
▁2009.01	-11225
▁Foreign	-11226
▁아프가니스탄에	-11227
▁연방준비제도이사회	-11228
(8	-11229
DP	-11230
EX	-11231
▁끈	-11232
▁밸	-11233
▁빗	-11234
▁튀	-11235
고의	-11236
구간	-11237
그라	-11238
그린	-11239
극을	-11240
기상	-11241
냈던	-11242
너스	-11243
대사	-11244
데일	-11245
두에	-11246
들리	-11247
디의	-11248
려면	-11249
르바	-11250
머스	-11251
문화	-11252
발의	-11253
베르	-11254
브로	-11255
비엘	-11256
사진	-11257
석방	-11258
시경	-11259
야의	-11260
양이	-11261
연설	-11262
열을	-11263
인가	-11264
인수	-11265
일째	-11266
자민	-11267
작업	-11268
장일	-11269
장치	-11270
재가	-11271
종일	-11272
죄로	-11273
중계	-11274
줘야	-11275
채의	-11276
층의	-11277
턴은	-11278
포트	-11279
호한	-11280
26;	-11281
CIA	-11282
ech	-11283
ind	-11284
ran	-11285
tle	-11286
▁85	-11287
▁89	-11288
▁93	-11289
▁Af	-11290
▁가결	-11291
▁가던	-11292
▁가라	-11293
▁가서	-11294
▁각자	-11295
▁개가	-11296
▁개별	-11297
▁격려	-11298
▁결함	-11299
▁계곡	-11300
▁곳의	-11301
▁공기	-11302
▁공판	-11303
▁구형	-11304
▁끌려	-11305
▁놓은	-11306
▁단식	-11307
▁당원	-11308
▁당혹	-11309
▁도메	-11310
▁둘째	-11311
▁뒤따	-11312
▁들을	-11313
▁듯한	-11314
▁디에	-11315
▁라왈	-11316
▁만찬	-11317
▁맞게	-11318
▁맺고	-11319
▁면역	-11320
▁몰래	-11321
▁문자	-11322
▁바에	-11323
▁밴드	-11324
▁뱅크	-11325
▁복사	-11326
▁부품	-11327
▁빛을	-11328
▁빠뜨	-11329
▁서쪽	-11330
▁속옷	-11331
▁속한	-11332
▁수업	-11333
▁승용	-11334
▁시판	-11335
▁실어	-11336
▁쓰여	-11337
▁아끼	-11338
▁아닐	-11339
▁아사	-11340
▁악영	-11341
▁연령	-11342
▁예수	-11343
▁옥스	-11344
▁의석	-11345
▁의식	-11346
▁이내	-11347
▁인신	-11348
▁일단	-11349
▁일할	-11350
▁임상	-11351
▁자백	-11352
▁잔디	-11353
▁저널	-11354
▁제패	-11355
▁종신	-11356
▁죽어	-11357
▁즐거	-11358
▁차로	-11359
▁차림	-11360
▁채워	-11361
▁촛불	-11362
▁취약	-11363
▁측에	-11364
▁코네	-11365
▁타지	-11366
▁테마	-11367
▁통증	-11368
▁틀림	-11369
▁평론	-11370
▁평소	-11371
▁폴란	-11372
▁피로	-11373
▁피셔	-11374
▁피플	-11375
▁하리	-11376
▁해킹	-11377
▁허블	-11378
▁화해	-11379
▁회피	-11380
년형을	-11381
레스타	-11382
렸지만	-11383
번이나	-11384
사건이	-11385
서비스	-11386
스트롱	-11387
시간에	-11388
시설을	-11389
시켜야	-11390
에서만	-11391
연상을	-11392
였다는	-11393
이라면	-11394
자리에	-11395
장치를	-11396
&#82	-11397
UEFA	-11398
ally	-11399
▁25%	-11400
▁350	-11401
▁Day	-11402
▁For	-11403
▁Kim	-11404
▁tra	-11405
▁겪었다	-11406
▁경기의	-11407
▁경찰을	-11408
▁구하기	-11409
▁국가는	-11410
▁국제사	-11411
▁군부가	-11412
▁권한을	-11413
▁규모는	-11414
▁기간에	-11415
▁기도를	-11416
▁나토군	-11417
▁남편은	-11418
▁눈물을	-11419
▁뉴캐슬	-11420
▁다음과	-11421
▁대사가	-11422
▁대중의	-11423
▁던졌다	-11424
▁되풀이	-11425
▁라이프	-11426
▁마약을	-11427
▁마을에	-11428
▁매코맥	-11429
▁맥코맥	-11430
▁무너진	-11431
▁물었다	-11432
▁방문이	-11433
▁버몬트	-11434
▁부상당	-11435
▁불렀다	-11436
▁사고에	-11437
▁사업에	-11438
▁사이언	-11439
▁산불로	-11440
▁생산할	-11441
▁생일을	-11442
▁선언한	-11443
▁설치된	-11444
▁수십억	-11445
▁수용할	-11446
▁시즌을	-11447
▁식량을	-11448
▁심문을	-11449
▁아기의	-11450
▁아스널	-11451
▁양측의	-11452
▁얼음이	-11453
▁여파로	-11454
▁오마르	-11455
▁요구할	-11456
▁위에서	-11457
▁유수프	-11458
▁이름은	-11459
▁인정한	-11460
▁인정할	-11461
▁입국을	-11462
▁있었을	-11463
▁장소로	-11464
▁장치를	-11465
▁재정적	-11466
▁전기가	-11467
▁전하며	-11468
▁정도가	-11469
▁정신과	-11470
▁제니퍼	-11471
▁존드로	-11472
▁주말에	-11473
▁중국인	-11474
▁중상을	-11475
▁지키기	-11476
▁진술을	-11477
▁차이를	-11478
▁참가할	-11479
▁총기난	-11480
▁축구팬	-11481
▁출마할	-11482
▁출전한	-11483
▁커지고	-11484
▁크라우	-11485
▁태국의	-11486
▁투표는	-11487
▁페널티	-11488
▁풍부한	-11489
▁프레드	-11490
▁필요는	-11491
되었는데	-11492
센터에서	-11493
적이었다	-11494
카에다는	-11495
ights	-11496
ublic	-11497
▁가족에게	-11498
▁개최되는	-11499
▁결의안에	-11500
▁구조대원	-11501
▁기반으로	-11502
▁단체들은	-11503
▁당국자는	-11504
▁대통령도	-11505
▁데이터를	-11506
▁동쪽으로	-11507
▁말했지만	-11508
▁미드필더	-11509
▁받았으나	-11510
▁부상자는	-11511
▁부족으로	-11512
▁브리트니	-11513
▁사망하는	-11514
▁사용되고	-11515
▁사이트에	-11516
▁상승으로	-11517
▁상원에서	-11518
▁수사관은	-11519
▁시스템은	-11520
▁시위대와	-11521
▁아이들과	-11522
▁암스트롱	-11523
▁어린이를	-11524
▁연구팀은	-11525
▁연기했다	-11526
▁위협했다	-11527
▁유세에서	-11528
▁이재민이	-11529
▁일반적인	-11530
▁일축했다	-11531
▁자신감을	-11532
▁재정경제	-11533
▁전세계에	-11534
▁정상들은	-11535
▁중단됐다	-11536
▁지나치게	-11537
▁차베스는	-11538
▁참가했다	-11539
▁참여했다	-11540
▁촉구하는	-11541
▁활동하는	-11542
▁후보들이	-11543
▁후세인의	-11544
▁힐러리는	-11545
위원회에서	-11546
▁Party	-11547
▁국제유가는	-11548
▁대통령과의	-11549
▁동계올림픽	-11550
▁버지니아주	-11551
▁보도합니다	-11552
▁소식입니다	-11553
▁수감자들을	-11554
▁아이디어를	-11555
▁어린이들이	-11556
▁중요하다고	-11557
▁테러지원국	-11558
▁투자자들이	-11559
▁확인했다고	-11560
&#8226;	-11561
2006.08	-11562
2008.06	-11563
▁모스크바에서	-11564
▁사망했습니다	-11565
▁세계보건기구	-11566
▁정상회담에서	-11567
▁protest	-11568
▁아프가니스탄의	-11569
-7	-11570
85	-11571
BN	-11572
MP	-11573
MW	-11574
ax	-11575
▁”	-11576
▁▶	-11577
▁댓	-11578
▁릭	-11579
▁빵	-11580
▁앗	-11581
▁앰	-11582
▁웬	-11583
▁즈	-11584
▁툴	-11585
▁핑	-11586
가리	-11587
강에	-11588
거는	-11589
게는	-11590
겔라	-11591
그러	-11592
긴다	-11593
돌프	-11594
되게	-11595
디언	-11596
라노	-11597
로지	-11598
뤘다	-11599
망이	-11600
머는	-11601
문과	-11602
문의	-11603
바른	-11604
바일	-11605
보면	-11606
살이	-11607
상승	-11608
식과	-11609
심은	-11610
얄라	-11611
엄한	-11612
여러	-11613
오로	-11614
오프	-11615
올해	-11616
와이	-11617
요원	-11618
위안	-11619
일라	-11620
일즈	-11621
조로	-11622
좋은	-11623
지나	-11624
카를	-11625
크의	-11626
테인	-11627
통화	-11628
편에	-11629
형에	-11630
FRB	-11631
ief	-11632
▁79	-11633
▁ad	-11634
▁“1	-11635
▁개월	-11636
▁건립	-11637
▁경신	-11638
▁고마	-11639
▁고정	-11640
▁공략	-11641
▁교내	-11642
▁구할	-11643
▁군용	-11644
▁그럼	-11645
▁기조	-11646
▁길에	-11647
▁나쁘	-11648
▁냄새	-11649
▁넣어	-11650
▁노왁	-11651
▁대면	-11652
▁도구	-11653
▁두개	-11654
▁딸인	-11655
▁때가	-11656
▁라틴	-11657
▁로라	-11658
▁리브	-11659
▁리치	-11660
▁마스	-11661
▁마호	-11662
▁매수	-11663
▁몸이	-11664
▁미망	-11665
▁미친	-11666
▁미하	-11667
▁바나	-11668
▁병에	-11669
▁브로	-11670
▁비준	-11671
▁비즈	-11672
▁산소	-11673
▁생일	-11674
▁선생	-11675
▁세균	-11676
▁섹스	-11677
▁싫어	-11678
▁않자	-11679
▁애도	-11680
▁얻는	-11681
▁에버	-11682
▁연대	-11683
▁예보	-11684
▁오차	-11685
▁완공	-11686
▁요하	-11687
▁우호	-11688
▁운하	-11689
▁월터	-11690
▁일방	-11691
▁잃고	-11692
▁잃지	-11693
▁장갑	-11694
▁장치	-11695
▁전과	-11696
▁전비	-11697
▁정통	-11698
▁조셉	-11699
▁좌파	-11700
▁지중	-11701
▁진단	-11702
▁집어	-11703
▁창조	-11704
▁첨단	-11705
▁초과	-11706
▁총알	-11707
▁추격	-11708
▁출장	-11709
▁치고	-11710
▁침착	-11711
▁침팬	-11712
▁카우	-11713
▁켈리	-11714
▁콜레	-11715
▁키스	-11716
▁타입	-11717
▁티모	-11718
▁파르	-11719
▁펼칠	-11720
▁합참	-11721
▁해석	-11722
▁흥행	-11723
▁히스	-11724
계획을	-11725
기록을	-11726
달러의	-11727
되지는	-11728
력으로	-11729
문제에	-11730
방송의	-11731
법원에	-11732
시키다	-11733
에이커	-11734
였으나	-11735
위기에	-11736
장에게	-11737
적이지	-11738
조사를	-11739
혔다고	-11740
화하는	-11741
(32)	-11742
ward	-11743
▁110	-11744
▁787	-11745
▁FTS	-11746
▁Ind	-11747
▁app	-11748
▁가격에	-11749
▁가정에	-11750
▁가져다	-11751
▁가하고	-11752
▁개최된	-11753
▁갤런당	-11754
▁걸렸다	-11755
▁경보를	-11756
▁경향이	-11757
▁경호원	-11758
▁고려해	-11759
▁공격의	-11760
▁공항은	-11761
▁과거의	-11762
▁국민이	-11763
▁국세청	-11764
▁국왕은	-11765
▁그런가	-11766
▁기술의	-11767
▁나란히	-11768
▁네덜란	-11769
▁뇌물을	-11770
▁니케이	-11771
▁단어를	-11772
▁단체에	-11773
▁대선을	-11774
▁도널드	-11775
▁독일인	-11776
▁뒤에서	-11777
▁맡았던	-11778
▁맥케인	-11779
▁명으로	-11780
▁모니터	-11781
▁미네소	-11782
▁방사능	-11783
▁방송의	-11784
▁보안을	-11785
▁부부의	-11786
▁불안한	-11787
▁비교해	-11788
▁살해할	-11789
▁석방할	-11790
▁수위가	-11791
▁시도한	-11792
▁신발을	-11793
▁아기가	-11794
▁아흐메	-11795
▁않았을	-11796
▁어디서	-11797
▁어려워	-11798
▁여사와	-11799
▁역사가	-11800
▁영국이	-11801
▁영장을	-11802
▁위기로	-11803
▁유니버	-11804
▁유리한	-11805
▁음모를	-11806
▁의약품	-11807
▁이것을	-11808
▁이사는	-11809
▁이틀간	-11810
▁일정은	-11811
▁있을지	-11812
▁잡았다	-11813
▁장관을	-11814
▁장악한	-11815
▁재개될	-11816
▁재배치	-11817
▁잭슨은	-11818
▁전쟁의	-11819
▁정치에	-11820
▁제안한	-11821
▁주목을	-11822
▁준장은	-11823
▁지원에	-11824
▁지진은	-11825
▁질환을	-11826
▁총선에	-11827
▁코끼리	-11828
▁코커스	-11829
▁타이완	-11830
▁터미널	-11831
▁토론토	-11832
▁특이한	-11833
▁파병을	-11834
▁패스를	-11835
▁페리노	-11836
▁폐쇄를	-11837
▁프로듀	-11838
▁학대를	-11839
▁한다며	-11840
▁협의를	-11841
▁호르몬	-11842
▁화장실	-11843
▁활성화	-11844
▁후에도	-11845
▁휴대용	-11846
억달러를	-11847
urity	-11848
▁1982	-11849
▁거부하고	-11850
▁경찰관은	-11851
▁글래스고	-11852
▁금메달을	-11853
▁금지하는	-11854
▁기본적인	-11855
▁기소했다	-11856
▁도미니카	-11857
▁돌아왔다	-11858
▁동영상은	-11859
▁라이스는	-11860
▁모르겠다	-11861
▁무시하고	-11862
▁미얀마를	-11863
▁민주당과	-11864
▁비즈니스	-11865
▁상태라고	-11866
▁선정됐다	-11867
▁성폭행을	-11868
▁스미스는	-11869
▁스피어스	-11870
▁알자와히	-11871
▁오픈에서	-11872
▁왔습니다	-11873
▁용의자의	-11874
▁움직임에	-11875
▁유권자의	-11876
▁이상으로	-11877
▁자리잡고	-11878
▁전문가인	-11879
▁조선중앙	-11880
▁주도하는	-11881
▁중심으로	-11882
▁중앙정보	-11883
▁지역이다	-11884
▁착용하고	-11885
▁칸다하르	-11886
▁페이스북	-11887
▁표현했다	-11888
▁피추시킨	-11889
▁하겠다고	-11890
▁하나이다	-11891
▁하락세를	-11892
▁하락하며	-11893
▁학생들과	-11894
▁확인하는	-11895
▁환영했다	-11896
으로부터의	-11897
illion	-11898
▁House	-11899
▁plans	-11900
▁경기부양책	-11901
▁관광객들은	-11902
▁무샤라프의	-11903
▁살해했다고	-11904
▁시위자들이	-11905
▁아이들에게	-11906
▁이라크전에	-11907
▁이산화탄소	-11908
▁체포되었다	-11909
▁크리스티나	-11910
▁투자자들은	-11911
▁파키스탄이	-11912
▁유럽축구연맹	-11913
▁자유무역협정	-11914
American	-11915
24	-11916
FC	-11917
HS	-11918
PC	-11919
WF	-11920
ov	-11921
▁굶	-11922
▁꽤	-11923
▁닷	-11924
▁닿	-11925
▁딘	-11926
▁랄	-11927
▁칩	-11928
▁캥	-11929
▁탓	-11930
가량	-11931
개인	-11932
거루	-11933
계관	-11934
냐고	-11935
달간	-11936
등한	-11937
레아	-11938
레즈	-11939
류가	-11940
멘토	-11941
물질	-11942
봉을	-11943
사절	-11944
센은	-11945
속에	-11946
수수	-11947
스위	-11948
시바	-11949
알라	-11950
역사	-11951
오가	-11952
이저	-11953
있지	-11954
자고	-11955
작을	-11956
잡을	-11957
재로	-11958
쟁을	-11959
전선	-11960
질러	-11961
집이	-11962
총리	-11963
쿼터	-11964
퍼스	-11965
해로	-11966
해져	-11967
헤드	-11968
der	-11969
loy	-11970
uss	-11971
way	-11972
▁83	-11973
▁92	-11974
▁Bl	-11975
▁IT	-11976
▁LG	-11977
▁al	-11978
▁간섭	-11979
▁갈등	-11980
▁감추	-11981
▁강의	-11982
▁갤럭	-11983
▁걷는	-11984
▁격추	-11985
▁경보	-11986
▁공통	-11987
▁구름	-11988
▁구사	-11989
▁기초	-11990
▁김경	-11991
▁꿈을	-11992
▁나노	-11993
▁남미	-11994
▁내장	-11995
▁넓은	-11996
▁농부	-11997
▁농작	-11998
▁누드	-11999
▁다녔	-12000
▁다뤄	-12001
▁다짐	-12002
▁닥터	-12003
▁달에	-12004
▁동점	-12005
▁두뇌	-12006
▁땅을	-12007
▁로한	-12008
▁많지	-12009
▁말은	-12010
▁맹세	-12011
▁밀림	-12012
▁방한	-12013
▁백화	-12014
▁범행	-12015
▁복부	-12016
▁불공	-12017
▁불매	-12018
▁색깔	-12019
▁서버	-12020
▁서신	-12021
▁선을	-12022
▁세대	-12023
▁셔츠	-12024
▁식이	-12025
▁아미	-12026
▁악어	-12027
▁안겨	-12028
▁알파	-12029
▁앗아	-12030
▁양보	-12031
▁에디	-12032
▁에미	-12033
▁여유	-12034
▁오징	-12035
▁와지	-12036
▁웨이	-12037
▁유골	-12038
▁이겨	-12039
▁이스	-12040
▁이탈	-12041
▁인지	-12042
▁자서	-12043
▁재경	-12044
▁전미	-12045
▁정규	-12046
▁정한	-12047
▁조장	-12048
▁죄수	-12049
▁주당	-12050
▁죽을	-12051
▁지내	-12052
▁지침	-12053
▁지킬	-12054
▁차에	-12055
▁찾은	-12056
▁책정	-12057
▁최후	-12058
▁침범	-12059
▁캠벨	-12060
▁크기	-12061
▁테리	-12062
▁통일	-12063
▁특사	-12064
▁하반	-12065
▁확고	-12066
▁후계	-12067
▁후쿠	-12068
▁휴먼	-12069
겼으며	-12070
계에서	-12071
관으로	-12072
그녀는	-12073
렸다는	-12074
명이다	-12075
문제가	-12076
미얀마	-12077
세포를	-12078
스탄불	-12079
슬러는	-12080
이란은	-12081
층에서	-12082
편으로	-12083
프라이	-12084
피니언	-12085
NATO	-12086
alth	-12087
ants	-12088
▁125	-12089
▁Mar	-12090
▁NEW	-12091
▁all	-12092
▁tri	-12093
▁각국의	-12094
▁감옥에	-12095
▁걸었다	-12096
▁검찰에	-12097
▁겁니다	-12098
▁고려할	-12099
▁고립된	-12100
▁고문을	-12101
▁곧바로	-12102
▁공격할	-12103
▁과도한	-12104
▁과반수	-12105
▁구체적	-12106
▁국왕이	-12107
▁규제를	-12108
▁그루지	-12109
▁그쳤다	-12110
▁기술은	-12111
▁기준을	-12112
▁김선일	-12113
▁남편과	-12114
▁달한다	-12115
▁도시에	-12116
▁뛰어난	-12117
▁뛰어들	-12118
▁레이더	-12119
▁로딕은	-12120
▁만남을	-12121
▁만장일	-12122
▁메시지	-12123
▁모르고	-12124
▁목격한	-12125
▁믿는다	-12126
▁바바라	-12127
▁반군에	-12128
▁받았고	-12129
▁법정에	-12130
▁봤다고	-12131
▁부근에	-12132
▁비무장	-12133
▁비영리	-12134
▁비자를	-12135
▁사랑에	-12136
▁사적인	-12137
▁생중계	-12138
▁선거법	-12139
▁성관계	-12140
▁세계에	-12141
▁수용소	-12142
▁수치를	-12143
▁스피처	-12144
▁시도를	-12145
▁시작해	-12146
▁시장과	-12147
▁식민지	-12148
▁아이슬	-12149
▁아틀란	-12150
▁악화될	-12151
▁암살된	-12152
▁어려울	-12153
▁언제든	-12154
▁여배우	-12155
▁연합은	-12156
▁열렸던	-12157
▁오리건	-12158
▁우승한	-12159
▁유럽을	-12160
▁응답자	-12161
▁의료진	-12162
▁의식을	-12163
▁이씨는	-12164
▁이의를	-12165
▁임명된	-12166
▁장관급	-12167
▁재산을	-12168
▁재판은	-12169
▁저렴한	-12170
▁전망을	-12171
▁전화로	-12172
▁정권은	-12173
▁정당이	-12174
▁정책은	-12175
▁정치범	-12176
▁제공해	-12177
▁제품에	-12178
▁주민이	-12179
▁주석은	-12180
▁주어진	-12181
▁주치의	-12182
▁진단을	-12183
▁진행할	-12184
▁초래할	-12185
▁총리에	-12186
▁최대한	-12187
▁출동한	-12188
▁취임한	-12189
▁캔자스	-12190
▁캥거루	-12191
▁탈라바	-12192
▁파견된	-12193
▁페트로	-12194
▁피아노	-12195
▁하여금	-12196
▁행동은	-12197
▁행위가	-12198
▁헌법을	-12199
▁협조를	-12200
▁확인한	-12201
▁확인해	-12202
▁회장의	-12203
으로서의	-12204
under	-12205
▁8000	-12206
▁comm	-12207
▁year	-12208
▁건물에서	-12209
▁것이지만	-12210
▁공원에서	-12211
▁국영방송	-12212
▁그루지아	-12213
▁기자들의	-12214
▁끊임없이	-12215
▁뉴멕시코	-12216
▁다음으로	-12217
▁대부분을	-12218
▁독일에서	-12219
▁들어있는	-12220
▁떨어지는	-12221
▁매케인을	-12222
▁모르지만	-12223
▁모하마드	-12224
▁목소리로	-12225
▁민주변화	-12226
▁박테리아	-12227
▁발생했던	-12228
▁부총리는	-12229
▁브라질의	-12230
▁사회주의	-12231
▁산사태로	-12232
▁신용카드	-12233
▁싶어한다	-12234
▁아버지와	-12235
▁악영향을	-12236
▁알베르토	-12237
▁오토바이	-12238
▁올랐으며	-12239
▁워싱턴에	-12240
▁이스탄불	-12241
▁이용하여	-12242
▁자선단체	-12243
▁전적으로	-12244
▁정상적인	-12245
▁좋아한다	-12246
▁지원하기	-12247
▁진행중인	-12248
▁충격으로	-12249
▁케르비엘	-12250
▁팬들에게	-12251
▁평양에서	-12252
▁포기하지	-12253
▁포함하고	-12254
▁프리메라	-12255
▁하원의원	-12256
▁해외에서	-12257
▁협상에서	-12258
▁후보에게	-12259
자회담에서	-12260
eneral	-12261
▁교통사고로	-12262
▁기록했다고	-12263
▁내무장관은	-12264
▁메사추세츠	-12265
▁바이러스에	-12266
▁사망자수가	-12267
▁생각합니다	-12268
▁생방송으로	-12269
▁샤라포바는	-12270
▁선거운동을	-12271
▁수색작업을	-12272
▁슈워제네거	-12273
▁월드시리즈	-12274
▁이슬람교도	-12275
▁클리블랜드	-12276
▁평화적으로	-12277
▁한국인들이	-12278
▁베네수엘라의	-12279
▁사이클론으로	-12280
▁퍼트레이어스	-12281
titution	-12282
23	-12283
AX	-12284
BO	-12285
UV	-12286
ke	-12287
ms	-12288
▁겐	-12289
▁굿	-12290
▁람	-12291
▁섞	-12292
▁첨	-12293
▁쾌	-12294
▁톱	-12295
▁틸	-12296
▁픽	-12297
강한	-12298
게임	-12299
과를	-12300
군사	-12301
년째	-12302
능을	-12303
데르	-12304
류에	-12305
리케	-12306
산이	-12307
서도	-12308
세요	-12309
수출	-12310
시민	-12311
시위	-12312
식량	-12313
여야	-12314
열차	-12315
였을	-12316
예방	-12317
운트	-12318
웠던	-12319
자치	-12320
잡지	-12321
장암	-12322
주며	-12323
주한	-12324
줄기	-12325
지길	-12326
지스	-12327
지않	-12328
처음	-12329
체와	-12330
특별	-12331
튼의	-12332
티컷	-12333
CTV	-12334
ORK	-12335
ces	-12336
ool	-12337
the	-12338
uro	-12339
▁9%	-12340
▁99	-12341
▁BB	-12342
▁KT	-12343
▁SK	-12344
▁cl	-12345
▁ra	-12346
▁we	-12347
▁가리	-12348
▁가뭄	-12349
▁감량	-12350
▁감정	-12351
▁걸프	-12352
▁검출	-12353
▁고심	-12354
▁과잉	-12355
▁과테	-12356
▁구타	-12357
▁그때	-12358
▁그로	-12359
▁기권	-12360
▁낭비	-12361
▁냉동	-12362
▁넣은	-12363
▁닉슨	-12364
▁당뇨	-12365
▁도서	-12366
▁독점	-12367
▁돕고	-12368
▁뒤로	-12369
▁러셀	-12370
▁레논	-12371
▁마닐	-12372
▁마주	-12373
▁맞을	-12374
▁맡게	-12375
▁맺은	-12376
▁메뉴	-12377
▁무리	-12378
▁무어	-12379
▁미트	-12380
▁밀리	-12381
▁밀집	-12382
▁바가	-12383
▁바퀴	-12384
▁발을	-12385
▁방북	-12386
▁백신	-12387
▁복지	-12388
▁본드	-12389
▁부각	-12390
▁비싼	-12391
▁성경	-12392
▁수마	-12393
▁수만	-12394
▁수지	-12395
▁스케	-12396
▁심슨	-12397
▁아크	-12398
▁악성	-12399
▁안고	-12400
▁야간	-12401
▁없기	-12402
▁에탄	-12403
▁열쇠	-12404
▁예로	-12405
▁올릴	-12406
▁왕자	-12407
▁요인	-12408
▁위법	-12409
▁위장	-12410
▁유포	-12411
▁육상	-12412
▁이것	-12413
▁이벤	-12414
▁자매	-12415
▁저작	-12416
▁제가	-12417
▁조코	-12418
▁종말	-12419
▁좋게	-12420
▁좌익	-12421
▁준다	-12422
▁증진	-12423
▁지분	-12424
▁지저	-12425
▁지폐	-12426
▁참배	-12427
▁초고	-12428
▁캐리	-12429
▁터치	-12430
▁토양	-12431
▁톰슨	-12432
▁폭도	-12433
▁폴슨	-12434
▁해가	-12435
▁허위	-12436
▁호수	-12437
▁혼합	-12438
거리가	-12439
경찰은	-12440
대학의	-12441
떨어진	-12442
로서는	-12443
미국이	-12444
미사일	-12445
민주신	-12446
버렸다	-12447
변인은	-12448
사고가	-12449
상태가	-12450
소시에	-12451
수술을	-12452
월에도	-12453
이트는	-12454
일만에	-12455
정책을	-12456
행위에	-12457
혁명군	-12458
ense	-12459
form	-12460
rime	-12461
▁101	-12462
▁190	-12463
▁80%	-12464
▁ETA	-12465
▁acc	-12466
▁감소를	-12467
▁건강을	-12468
▁경관은	-12469
▁공개할	-12470
▁공군기	-12471
▁공장을	-12472
▁공항의	-12473
▁과학자	-12474
▁교수가	-12475
▁구스마	-12476
▁그래미	-12477
▁그린피	-12478
▁근소한	-12479
▁기온이	-12480
▁나타낸	-12481
▁날씨가	-12482
▁남편을	-12483
▁노리에	-12484
▁뉴욕증	-12485
▁대체할	-12486
▁대학은	-12487
▁도로에	-12488
▁돌려보	-12489
▁마리가	-12490
▁마을을	-12491
▁마침내	-12492
▁맨유는	-12493
▁명백히	-12494
▁모델을	-12495
▁문제다	-12496
▁물질을	-12497
▁미치지	-12498
▁발견돼	-12499
▁베컴이	-12500
▁벨몬트	-12501
▁부상한	-12502
▁부인과	-12503
▁부인이	-12504
▁브루스	-12505
▁비롯해	-12506
▁비행사	-12507
▁빠르면	-12508
▁사태로	-12509
▁새겨진	-12510
▁샘플을	-12511
▁셰이크	-12512
▁소수의	-12513
▁수요가	-12514
▁시기를	-12515
▁신청을	-12516
▁실종자	-12517
▁아끼지	-12518
▁아니고	-12519
▁아들은	-12520
▁아들의	-12521
▁아이티	-12522
▁알았다	-12523
▁애쓰고	-12524
▁에넹은	-12525
▁엔데버	-12526
▁여동생	-12527
▁여진이	-12528
▁열렬한	-12529
▁예산을	-12530
▁운전을	-12531
▁위치에	-12532
▁유가족	-12533
▁은행이	-12534
▁이른바	-12535
▁이베이	-12536
▁이상한	-12537
▁자메이	-12538
▁작품은	-12539
▁장소를	-12540
▁장착된	-12541
▁전원이	-12542
▁정동영	-12543
▁정보부	-12544
▁제도를	-12545
▁제안에	-12546
▁주도의	-12547
▁주식은	-12548
▁지원한	-12549
▁철저한	-12550
▁최선의	-12551
▁출전을	-12552
▁크로커	-12553
▁터키는	-12554
▁토론회	-12555
▁판사가	-12556
▁판정을	-12557
▁헤럴드	-12558
▁홍수가	-12559
개월간의	-12560
과정에서	-12561
대통령이	-12562
이었으며	-12563
적으로는	-12564
투표에서	-12565
해달라고	-12566
ision	-12567
▁Comm	-12568
▁YORK	-12569
▁work	-12570
▁가능하게	-12571
▁결의안은	-12572
▁공격하는	-12573
▁국가대표	-12574
▁국가보안	-12575
▁국민에게	-12576
▁규정하고	-12577
▁논의하고	-12578
▁논의했다	-12579
▁다운로드	-12580
▁담당하고	-12581
▁대표들은	-12582
▁마흐무드	-12583
▁말했으며	-12584
▁매케인에	-12585
▁민간인이	-12586
▁배제하지	-12587
▁백악관의	-12588
▁보수주의	-12589
▁본격적인	-12590
▁부사장은	-12591
▁북한으로	-12592
▁사람들에	-12593
▁사랑하는	-12594
▁사용하기	-12595
▁사용한다	-12596
▁사원에서	-12597
▁선수들의	-12598
▁세실리아	-12599
▁수만명의	-12600
▁수하르토	-12601
▁승려들이	-12602
▁앞으로의	-12603
▁애틀랜타	-12604
▁엔지니어	-12605
▁여성들을	-12606
▁예정대로	-12607
▁오키나와	-12608
▁움직이고	-12609
▁유지하는	-12610
▁응답자의	-12611
▁의료진은	-12612
▁의원들의	-12613
▁인플루엔	-12614
▁재판관은	-12615
▁주지사의	-12616
▁줄어들고	-12617
▁지목했다	-12618
▁지방에서	-12619
▁참석하기	-12620
▁카트리나	-12621
▁코미디언	-12622
▁쿠데타를	-12623
▁폭발물을	-12624
▁학생들을	-12625
▁확보했다	-12626
▁환경보호	-12627
▁희망하고	-12628
▁희망한다	-12629
▁first	-12630
▁visit	-12631
▁관계당국은	-12632
▁바그다드에	-12633
▁바이러스가	-12634
▁사살했다고	-12635
▁스피어스가	-12636
▁시작되었다	-12637
▁아웅산수치	-12638
▁알카에다를	-12639
▁엘리베이터	-12640
▁일부에서는	-12641
▁Associ	-12642
▁Center	-12643
▁결과에따르면	-12644
▁구조대원들이	-12645
▁미국인들에게	-12646
▁살해하겠다고	-12647
▁웹사이트에서	-12648
AP	-12649
GS	-12650
IT	-12651
az	-12652
io	-12653
ru	-12654
ty	-12655
we	-12656
▁前	-12657
▁댐	-12658
▁룰	-12659
▁룸	-12660
▁옵	-12661
▁웅	-12662
▁을	-12663
▁팩	-12664
▁횟	-12665
각한	-12666
건에	-12667
국과	-12668
권의	-12669
그런	-12670
놀드	-12671
담한	-12672
당신	-12673
덩이	-12674
독립	-12675
동의	-12676
등급	-12677
라나	-12678
란다	-12679
만인	-12680
무니	-12681
무라	-12682
바가	-12683
방위	-12684
병원	-12685
비오	-12686
비용	-12687
살된	-12688
살상	-12689
상업	-12690
수산	-12691
슈퍼	-12692
슬램	-12693
씨를	-12694
온난	-12695
의약	-12696
이전	-12697
익을	-12698
인당	-12699
인치	-12700
인한	-12701
인해	-12702
일자	-12703
있게	-12704
자연	-12705
조각	-12706
조의	-12707
즈에	-12708
차전	-12709
채를	-12710
테랑	-12711
테이	-12712
패로	-12713
포로	-12714
폭발	-12715
피크	-12716
학년	-12717
혐오	-12718
New	-12719
app	-12720
lam	-12721
tor	-12722
▁87	-12723
▁95	-12724
▁AK	-12725
▁IC	-12726
▁go	-12727
▁ro	-12728
▁결렬	-12729
▁결별	-12730
▁고아	-12731
▁곤돌	-12732
▁국적	-12733
▁군수	-12734
▁그날	-12735
▁기둥	-12736
▁꾸준	-12737
▁나치	-12738
▁낙찰	-12739
▁녹아	-12740
▁단백	-12741
▁도발	-12742
▁동쪽	-12743
▁들은	-12744
▁라크	-12745
▁레인	-12746
▁막는	-12747
▁말고	-12748
▁명인	-12749
▁미들	-12750
▁밀매	-12751
▁바위	-12752
▁밖의	-12753
▁발부	-12754
▁밝은	-12755
▁배럭	-12756
▁번역	-12757
▁번영	-12758
▁베니	-12759
▁별로	-12760
▁부추	-12761
▁브란	-12762
▁브레	-12763
▁비싸	-12764
▁빠질	-12765
▁뿌리	-12766
▁사직	-12767
▁삼림	-12768
▁서약	-12769
▁선적	-12770
▁수잔	-12771
▁시의	-12772
▁심판	-12773
▁썼다	-12774
▁애국	-12775
▁앤디	-12776
▁앨라	-12777
▁어울	-12778
▁연립	-12779
▁연임	-12780
▁오락	-12781
▁오직	-12782
▁와서	-12783
▁요격	-12784
▁윈프	-12785
▁유물	-12786
▁유예	-12787
▁유혹	-12788
▁이룬	-12789
▁인력	-12790
▁입지	-12791
▁입찰	-12792
▁재발	-12793
▁재생	-12794
▁제임	-12795
▁종업	-12796
▁주관	-12797
▁주를	-12798
▁주일	-12799
▁중소	-12800
▁체스	-12801
▁측의	-12802
▁컨퍼	-12803
▁크누	-12804
▁탐지	-12805
▁통역	-12806
▁퇴직	-12807
▁파울	-12808
▁편지	-12809
▁피어	-12810
▁하려	-12811
▁한쪽	-12812
▁행한	-12813
▁헤르	-12814
▁혁신	-12815
▁홀리	-12816
▁화석	-12817
개국이	-12818
객들은	-12819
국들의	-12820
났지만	-12821
는지를	-12822
됐는지	-12823
라이프	-12824
레스테	-12825
레이션	-12826
레이트	-12827
르에서	-12828
리스탄	-12829
면서도	-12830
범으로	-12831
법안을	-12832
선고를	-12833
성에서	-12834
스트를	-12835
심으로	-12836
여명을	-12837
연승을	-12838
월드컵	-12839
으로의	-12840
은행의	-12841
자들로	-12842
지수도	-12843
카드를	-12844
텍사스	-12845
필요한	-12846
하려면	-12847
해진다	-12848
회담을	-12849
회사가	-12850
ator	-12851
ents	-12852
ting	-12853
▁1-1	-12854
▁1/3	-12855
▁95%	-12856
▁BMW	-12857
▁Eng	-12858
▁dec	-12859
▁def	-12860
▁rec	-12861
▁강경한	-12862
▁갖는다	-12863
▁거라고	-12864
▁건설을	-12865
▁격차로	-12866
▁결혼식	-12867
▁경우에	-12868
▁공군은	-12869
▁공무원	-12870
▁구멍을	-12871
▁그린스	-12872
▁극적인	-12873
▁급속히	-12874
▁기간이	-12875
▁끝났다	-12876
▁나가고	-12877
▁남편의	-12878
▁논란을	-12879
▁높이고	-12880
▁뉴스를	-12881
▁달러화	-12882
▁당분간	-12883
▁당수는	-12884
▁대결을	-12885
▁대사를	-12886
▁대학살	-12887
▁동물의	-12888
▁동안에	-12889
▁되면서	-12890
▁라왈핀	-12891
▁리얼리	-12892
▁마호메	-12893
▁면담을	-12894
▁명성을	-12895
▁무기한	-12896
▁미국발	-12897
▁밀란은	-12898
▁발표가	-12899
▁범행을	-12900
▁변화의	-12901
▁보고는	-12902
▁보내기	-12903
▁부대가	-12904
▁부딪혀	-12905
▁부토가	-12906
▁분석가	-12907
▁비핵화	-12908
▁사람도	-12909
▁사전에	-12910
▁상승을	-12911
▁상승할	-12912
▁상품을	-12913
▁생물학	-12914
▁선데이	-12915
▁세력의	-12916
▁세상을	-12917
▁소년의	-12918
▁수준을	-12919
▁숨지게	-12920
▁승부를	-12921
▁식으로	-12922
▁신속한	-12923
▁싱가폴	-12924
▁안타까	-12925
▁않다는	-12926
▁알리기	-12927
▁앙겔라	-12928
▁얘기를	-12929
▁어렵다	-12930
▁업체인	-12931
▁영화로	-12932
▁오르며	-12933
▁오스틴	-12934
▁외치며	-12935
▁요구가	-12936
▁우려로	-12937
▁우즈는	-12938
▁위반한	-12939
▁유엔과	-12940
▁은행은	-12941
▁의무를	-12942
▁이메일	-12943
▁이정인	-12944
▁이하의	-12945
▁인권을	-12946
▁인도와	-12947
▁인식을	-12948
▁일기로	-12949
▁입원한	-12950
▁작업은	-12951
▁저질렀	-12952
▁전역의	-12953
▁전체를	-12954
▁점에서	-12955
▁접근을	-12956
▁정보는	-12957
▁정상에	-12958
▁제기한	-12959
▁제너럴	-12960
▁제이미	-12961
▁주장해	-12962
▁지니고	-12963
▁지명을	-12964
▁지원이	-12965
▁질병을	-12966
▁집행유	-12967
▁창문을	-12968
▁카리스	-12969
▁카톨릭	-12970
▁토마토	-12971
▁퍼레이	-12972
▁펼치고	-12973
▁평범한	-12974
▁평화상	-12975
▁포스터	-12976
▁폭발은	-12977
▁프랑크	-12978
▁피난민	-12979
▁피해는	-12980
▁하기로	-12981
▁하원은	-12982
▁학교의	-12983
▁항소할	-12984
▁해결에	-12985
▁해군은	-12986
▁해안을	-12987
▁해주는	-12988
▁향하던	-12989
▁허커비	-12990
▁협상은	-12991
▁홍콩의	-12992
▁확률이	-12993
▁후보자	-12994
세트에서	-12995
예비선거	-12996
잉글랜드	-12997
자회담이	-12998
했는지는	-12999
arket	-13000
▁1800	-13001
▁1979	-13002
▁1984	-13003
▁2014	-13004
▁FTSE	-13005
▁says	-13006
▁가자시티	-13007
▁강조하고	-13008
▁것인지에	-13009
▁게임에서	-13010
▁결승에서	-13011
▁경제적인	-13012
▁공개되지	-13013
▁교회에서	-13014
▁기록적인	-13015
▁기업들이	-13016
▁기울이고	-13017
▁나머지는	-13018
▁나타내고	-13019
▁내무부가	-13020
▁노력으로	-13021
▁담겨있다	-13022
▁도착했을	-13023
▁보건복지	-13024
▁보여주기	-13025
▁부정선거	-13026
▁사망했고	-13027
▁살해했다	-13028
▁서명했다	-13029
▁석방됐다	-13030
▁선수들을	-13031
▁소개했다	-13032
▁승리하며	-13033
▁여기에는	-13034
▁연합군은	-13035
▁외교부는	-13036
▁우주선이	-13037
▁유지하기	-13038
▁유혈사태	-13039
▁이끌었던	-13040
▁이라크가	-13041
▁이란에서	-13042
▁이자율을	-13043
▁인도에서	-13044
▁자신들을	-13045
▁장악하고	-13046
▁전형적인	-13047
▁정보기관	-13048
▁지지율로	-13049
▁초등학교	-13050
▁총격전이	-13051
▁콘서트를	-13052
▁탈라바니	-13053
▁포함된다	-13054
▁플레이어	-13055
▁항공사는	-13056
▁핵시설을	-13057
▁휴대폰을	-13058
들에따르면	-13059
minist	-13060
▁3,000	-13061
▁Court	-13062
▁World	-13063
▁고위관리는	-13064
▁구체적으로	-13065
▁동남아시아	-13066
▁만장일치로	-13067
▁무샤라프가	-13068
▁바그다드의	-13069
▁살모넬라균	-13070
▁상태입니다	-13071
▁생각한다고	-13072
▁어린이들을	-13073
▁유권자들의	-13074
▁정부로부터	-13075
▁크리스티아	-13076
▁파키스탄을	-13077
▁희생자들을	-13078
2006.01	-13079
▁Americ	-13080
▁유권자들에게	-13081
▁2007.11	-13082
▁웨스트버지니아	-13083
)”	-13084
63	-13085
65	-13086
=3	-13087
NY	-13088
PF	-13089
▁닮	-13090
▁쉐	-13091
▁싣	-13092
▁팰	-13093
▁힉	-13094
가게	-13095
고문	-13096
곳은	-13097
느라	-13098
달라	-13099
뤼셀	-13100
르카	-13101
리히	-13102
마가	-13103
마에	-13104
모는	-13105
바리	-13106
박을	-13107
범이	-13108
볍게	-13109
빌에	-13110
샤는	-13111
세탁	-13112
소연	-13113
시다	-13114
아리	-13115
야드	-13116
어느	-13117
어드	-13118
연대	-13119
정말	-13120
제인	-13121
주재	-13122
척이	-13123
츠를	-13124
치료	-13125
컨드	-13126
타로	-13127
탕카	-13128
파르	-13129
편을	-13130
폰을	-13131
합의	-13132
행동	-13133
화학	-13134
)’,	-13135
IOC	-13136
WHO	-13137
arg	-13138
ety	-13139
ick	-13140
ino	-13141
oft	-13142
yst	-13143
▁DC	-13144
▁감면	-13145
▁감안	-13146
▁감원	-13147
▁갤러	-13148
▁검정	-13149
▁계절	-13150
▁고백	-13151
▁고생	-13152
▁고집	-13153
▁공조	-13154
▁과다	-13155
▁구역	-13156
▁군복	-13157
▁군을	-13158
▁궁극	-13159
▁궁금	-13160
▁금년	-13161
▁기쁨	-13162
▁나간	-13163
▁나뉘	-13164
▁낙하	-13165
▁날개	-13166
▁남지	-13167
▁노선	-13168
▁농산	-13169
▁농촌	-13170
▁뇌졸	-13171
▁닌텐	-13172
▁돕는	-13173
▁두목	-13174
▁두자	-13175
▁뒤덮	-13176
▁드문	-13177
▁디아	-13178
▁땅에	-13179
▁라인	-13180
▁레젭	-13181
▁리트	-13182
▁링컨	-13183
▁마가	-13184
▁맥코	-13185
▁메일	-13186
▁뮤직	-13187
▁받던	-13188
▁배터	-13189
▁버린	-13190
▁범람	-13191
▁보드	-13192
▁보류	-13193
▁볼리	-13194
▁분출	-13195
▁붙어	-13196
▁뽑아	-13197
▁사제	-13198
▁산유	-13199
▁산토	-13200
▁상정	-13201
▁세이	-13202
▁속해	-13203
▁술에	-13204
▁얀코	-13205
▁억압	-13206
▁엔진	-13207
▁올드	-13208
▁용인	-13209
▁월경	-13210
▁유네	-13211
▁유태	-13212
▁의구	-13213
▁이길	-13214
▁이끈	-13215
▁이데	-13216
▁이브	-13217
▁인원	-13218
▁일명	-13219
▁임산	-13220
▁자격	-13221
▁자라	-13222
▁저격	-13223
▁전례	-13224
▁정체	-13225
▁종이	-13226
▁줬다	-13227
▁지뢰	-13228
▁지수	-13229
▁지칭	-13230
▁직장	-13231
▁짝짓	-13232
▁창립	-13233
▁채권	-13234
▁체제	-13235
▁카나	-13236
▁칼로	-13237
▁코트	-13238
▁클래	-13239
▁타는	-13240
▁타운	-13241
▁터진	-13242
▁테크	-13243
▁퇴장	-13244
▁팔루	-13245
▁페퍼	-13246
▁펼쳤	-13247
▁평생	-13248
▁포유	-13249
▁폴라	-13250
▁피델	-13251
▁피오	-13252
▁항복	-13253
▁헌신	-13254
▁호위	-13255
▁홈런	-13256
▁황교	-13257
가스를	-13258
내용을	-13259
년동안	-13260
되도록	-13261
들에서	-13262
마니아	-13263
방으로	-13264
보다도	-13265
상황을	-13266
성으로	-13267
센터의	-13268
스에게	-13269
안으로	-13270
연하게	-13271
웠다고	-13272
이란이	-13273
작업에	-13274
전부터	-13275
지거나	-13276
지었다	-13277
차례나	-13278
차례의	-13279
크에서	-13280
하기에	-13281
(23)	-13282
acks	-13283
oldi	-13284
ourn	-13285
▁230	-13286
▁43%	-13287
▁750	-13288
▁NFL	-13289
▁SUV	-13290
▁rel	-13291
▁가톨릭	-13292
▁강에서	-13293
▁같았다	-13294
▁결정될	-13295
▁경력을	-13296
▁고래를	-13297
▁공습이	-13298
▁구매할	-13299
▁국정원	-13300
▁긴밀한	-13301
▁김계관	-13302
▁날짜를	-13303
▁남자아	-13304
▁논쟁의	-13305
▁다하고	-13306
▁대답을	-13307
▁대도시	-13308
▁대통합	-13309
▁데니스	-13310
▁도로가	-13311
▁동부에	-13312
▁동원해	-13313
▁린제이	-13314
▁마을의	-13315
▁만나는	-13316
▁물러날	-13317
▁바람직	-13318
▁바이오	-13319
▁발견은	-13320
▁발사된	-13321
▁발사한	-13322
▁방송이	-13323
▁배터리	-13324
▁베테랑	-13325
▁보고가	-13326
▁복용한	-13327
▁부당한	-13328
▁부모는	-13329
▁부족을	-13330
▁블로거	-13331
▁비율이	-13332
▁빨간색	-13333
▁사인을	-13334
▁사카쉬	-13335
▁새끼를	-13336
▁생각은	-13337
▁생활에	-13338
▁서로를	-13339
▁세워진	-13340
▁소감을	-13341
▁소방관	-13342
▁소유의	-13343
▁수단을	-13344
▁시한을	-13345
▁신경을	-13346
▁싸움을	-13347
▁앞에서	-13348
▁야후가	-13349
▁업체가	-13350
▁에이미	-13351
▁에탄올	-13352
▁연관된	-13353
▁연이어	-13354
▁올바른	-13355
▁원장은	-13356
▁이들에	-13357
▁이라고	-13358
▁이유에	-13359
▁인접한	-13360
▁임신한	-13361
▁작전에	-13362
▁전기를	-13363
▁점수를	-13364
▁접근할	-13365
▁정권의	-13366
▁제조사	-13367
▁조언을	-13368
▁중서부	-13369
▁중점을	-13370
▁증거로	-13371
▁지구로	-13372
▁지위를	-13373
▁지점에	-13374
▁지지율	-13375
▁진실을	-13376
▁첼시의	-13377
▁초대형	-13378
▁촬영을	-13379
▁최우수	-13380
▁추수감	-13381
▁충돌을	-13382
▁치르는	-13383
▁콘서트	-13384
▁쿠바의	-13385
▁탈북자	-13386
▁태양열	-13387
▁터키가	-13388
▁통과한	-13389
▁포기할	-13390
▁폭발해	-13391
▁표적이	-13392
▁학교를	-13393
▁합참의	-13394
▁해제할	-13395
▁협정에	-13396
▁협회는	-13397
▁활용할	-13398
기때문에	-13399
리우드의	-13400
알카에다	-13401
오바마는	-13402
▁1600	-13403
▁APEC	-13404
▁comp	-13405
▁more	-13406
▁take	-13407
▁공급하는	-13408
▁공장에서	-13409
▁국토안보	-13410
▁근무하는	-13411
▁금융제재	-13412
▁기념하기	-13413
▁기다리는	-13414
▁나타나고	-13415
▁내전으로	-13416
▁대중교통	-13417
▁대처하기	-13418
▁대표단이	-13419
▁도움으로	-13420
▁득표율을	-13421
▁말입니다	-13422
▁미네소타	-13423
▁반대했다	-13424
▁발생한지	-13425
▁벌어지는	-13426
▁보수적인	-13427
▁사건에서	-13428
▁사상자는	-13429
▁상태였다	-13430
▁선택했다	-13431
▁소수민족	-13432
▁수행하고	-13433
▁승리하는	-13434
▁시작하는	-13435
▁아흐마디	-13436
▁앤더슨은	-13437
▁어머니는	-13438
▁없었지만	-13439
▁엔터테인	-13440
▁여객기를	-13441
▁연속으로	-13442
▁연합군이	-13443
▁원한다고	-13444
▁의료진이	-13445
▁이데올로	-13446
▁인용하여	-13447
▁인정하고	-13448
▁일자리가	-13449
▁잃었다고	-13450
▁전설적인	-13451
▁조사했다	-13452
▁주지사와	-13453
▁지도자를	-13454
▁최저치를	-13455
▁추구하는	-13456
▁추락했다	-13457
▁친구들과	-13458
▁컬럼비아	-13459
▁킬로미터	-13460
▁타임스가	-13461
▁터키군은	-13462
▁테스트를	-13463
▁특파원이	-13464
▁판매하는	-13465
▁팔레스타	-13466
▁페르난도	-13467
▁푸에르토	-13468
▁풀려났다	-13469
▁해변에서	-13470
▁행동으로	-13471
▁국방장관이	-13472
▁도착했다고	-13473
▁러시아에서	-13474
▁메드베데프	-13475
▁무장단체가	-13476
▁발견했으며	-13477
▁사무실에서	-13478
▁스피어스의	-13479
▁용의자들이	-13480
▁이루어지고	-13481
▁이스라엘군	-13482
▁전반적으로	-13483
▁정상적으로	-13484
▁참가자들은	-13485
▁토네이도가	-13486
▁필요하다는	-13487
▁희생자들이	-13488
2007.09	-13489
2007.11	-13490
akistan	-13491
▁달라이라마는	-13492
▁대통합민주신	-13493
▁이스라엘군은	-13494
▁천문학자들은	-13495
▁프리메라리가	-13496
National	-13497
▁2006.01	-13498
13	-13499
22	-13500
49	-13501
7-	-13502
GM	-13503
MD	-13504
My	-13505
Sp	-13506
▁Q	-13507
▁갓	-13508
▁깜	-13509
▁꿀	-13510
▁뭉	-13511
▁삽	-13512
▁쉴	-13513
▁쏜	-13514
▁젖	-13515
▁족	-13516
▁컸	-13517
▁펌	-13518
▁휠	-13519
감과	-13520
객이	-13521
그리	-13522
글리	-13523
네트	-13524
노프	-13525
다르	-13526
델라	-13527
됐기	-13528
둘러	-13529
라서	-13530
락이	-13531
렐은	-13532
로써	-13533
마드	-13534
마켓	-13535
맨은	-13536
먼이	-13537
배나	-13538
법과	-13539
변을	-13540
세스	-13541
센티	-13542
스케	-13543
시스	-13544
씨와	-13545
액이	-13546
연상	-13547
우가	-13548
월말	-13549
웰은	-13550
유권	-13551
전인	-13552
조는	-13553
직원	-13554
질환	-13555
차이	-13556
처에	-13557
철도	-13558
청을	-13559
탄과	-13560
통이	-13561
팍스	-13562
700	-13563
ECD	-13564
ext	-13565
gra	-13566
tig	-13567
▁&#	-13568
▁2/	-13569
▁98	-13570
▁Ge	-13571
▁HD	-13572
▁Or	-13573
▁it	-13574
▁no	-13575
▁간첩	-13576
▁걸고	-13577
▁공부	-13578
▁공안	-13579
▁공직	-13580
▁공학	-13581
▁권유	-13582
▁그냥	-13583
▁그랜	-13584
▁글렌	-13585
▁급파	-13586
▁기번	-13587
▁깨달	-13588
▁날을	-13589
▁남을	-13590
▁납세	-13591
▁내게	-13592
▁냉각	-13593
▁농구	-13594
▁누설	-13595
▁대조	-13596
▁덩어	-13597
▁동요	-13598
▁동일	-13599
▁됐던	-13600
▁랜드	-13601
▁리타	-13602
▁마오	-13603
▁맡아	-13604
▁매체	-13605
▁모닝	-13606
▁무려	-13607
▁민감	-13608
▁밀러	-13609
▁발자	-13610
▁벽에	-13611
▁보아	-13612
▁볼튼	-13613
▁부의	-13614
▁불태	-13615
▁비치	-13616
▁사장	-13617
▁상임	-13618
▁새해	-13619
▁생기	-13620
▁생후	-13621
▁샤론	-13622
▁서해	-13623
▁섬에	-13624
▁성당	-13625
▁쇼에	-13626
▁수염	-13627
▁시체	-13628
▁시키	-13629
▁신설	-13630
▁싱글	-13631
▁싸울	-13632
▁애널	-13633
▁앵커	-13634
▁얼어	-13635
▁에밀	-13636
▁여야	-13637
▁영입	-13638
▁올랜	-13639
▁외각	-13640
▁요금	-13641
▁요소	-13642
▁우드	-13643
▁원격	-13644
▁유아	-13645
▁의지	-13646
▁일곱	-13647
▁잃을	-13648
▁임박	-13649
▁임원	-13650
▁자부	-13651
▁잡기	-13652
▁잡을	-13653
▁잡힌	-13654
▁적힌	-13655
▁접한	-13656
▁제국	-13657
▁조달	-13658
▁조카	-13659
▁지미	-13660
▁지에	-13661
▁지표	-13662
▁질식	-13663
▁집이	-13664
▁쫓겨	-13665
▁청원	-13666
▁체인	-13667
▁추도	-13668
▁클로	-13669
▁토끼	-13670
▁퇴진	-13671
▁투기	-13672
▁팀에	-13673
▁펠리	-13674
▁평창	-13675
▁표면	-13676
▁헤드	-13677
▁환수	-13678
개국의	-13679
거래를	-13680
고했다	-13681
기에는	-13682
뉴스는	-13683
들간의	-13684
라이트	-13685
릴랜드	-13686
북한의	-13687
사들의	-13688
사진을	-13689
석에서	-13690
센트럴	-13691
시간의	-13692
았으나	-13693
어지고	-13694
연패를	-13695
운드를	-13696
이들은	-13697
인터넷	-13698
임이사	-13699
자마자	-13700
조사에	-13701
주의를	-13702
터바흐	-13703
한나라	-13704
회사는	-13705
ated	-13706
mitt	-13707
ower	-13708
reak	-13709
reen	-13710
▁1.5	-13711
▁103	-13712
▁240	-13713
▁3-1	-13714
▁911	-13715
▁Rep	-13716
▁Sci	-13717
▁dem	-13718
▁get	-13719
▁was	-13720
▁가속화	-13721
▁가스를	-13722
▁거머쥐	-13723
▁건물로	-13724
▁결정한	-13725
▁경사는	-13726
▁경선이	-13727
▁경우는	-13728
▁경의를	-13729
▁계기가	-13730
▁공동성	-13731
▁관리를	-13732
▁광장에	-13733
▁교수인	-13734
▁국기를	-13735
▁군복을	-13736
▁그림을	-13737
▁기관의	-13738
▁기술에	-13739
▁끌어들	-13740
▁끌어올	-13741
▁끝나지	-13742
▁끝내고	-13743
▁나라가	-13744
▁노조는	-13745
▁높였다	-13746
▁늘어난	-13747
▁다르게	-13748
▁더이상	-13749
▁들어보	-13750
▁등에서	-13751
▁때로는	-13752
▁리서치	-13753
▁마르코	-13754
▁마음이	-13755
▁말았다	-13756
▁맥도날	-13757
▁면에서	-13758
▁목표가	-13759
▁몸무게	-13760
▁못하면	-13761
▁무차별	-13762
▁무책임	-13763
▁문화를	-13764
▁반군과	-13765
▁발전소	-13766
▁버시바	-13767
▁법적인	-13768
▁벤자민	-13769
▁별도로	-13770
▁병력은	-13771
▁보도된	-13772
▁브뤼셀	-13773
▁사냥꾼	-13774
▁사이로	-13775
▁산업이	-13776
▁서부의	-13777
▁석방에	-13778
▁선택한	-13779
▁설립한	-13780
▁설명을	-13781
▁성범죄	-13782
▁세우고	-13783
▁센터는	-13784
▁소방대	-13785
▁소방서	-13786
▁속으로	-13787
▁수반이	-13788
▁수행한	-13789
▁스카이	-13790
▁스타일	-13791
▁승객을	-13792
▁시기가	-13793
▁시대에	-13794
▁식사를	-13795
▁실수로	-13796
▁실험에	-13797
▁앨라배	-13798
▁어디에	-13799
▁어렵게	-13800
▁억류된	-13801
▁여권을	-13802
▁여사의	-13803
▁여자아	-13804
▁열린다	-13805
▁왔으며	-13806
▁우주로	-13807
▁운행이	-13808
▁원조를	-13809
▁의견에	-13810
▁의원과	-13811
▁이동할	-13812
▁이소연	-13813
▁이어진	-13814
▁자신도	-13815
▁자유의	-13816
▁자이툰	-13817
▁작용할	-13818
▁장면은	-13819
▁저녁식	-13820
▁저희는	-13821
▁전달한	-13822
▁주변을	-13823
▁줄어든	-13824
▁증거는	-13825
▁지나친	-13826
▁지명에	-13827
▁지속된	-13828
▁지정된	-13829
▁지켜보	-13830
▁지키지	-13831
▁직면한	-13832
▁직면해	-13833
▁진출에	-13834
▁차지할	-13835
▁첼시는	-13836
▁추진할	-13837
▁취해야	-13838
▁친구인	-13839
▁터키를	-13840
▁하기도	-13841
▁합의된	-13842
▁해결책	-13843
▁행위로	-13844
▁향했다	-13845
▁허드슨	-13846
▁확신을	-13847
▁확실시	-13848
레스테롤	-13849
민주당은	-13850
아메리카	-13851
항공우주	-13852
했음에도	-13853
▁1985	-13854
▁6000	-13855
▁LPGA	-13856
▁said	-13857
▁가했다고	-13858
▁강력하게	-13859
▁강화했다	-13860
▁결승전에	-13861
▁경고하고	-13862
▁경쟁에서	-13863
▁공항으로	-13864
▁관광객이	-13865
▁관광산업	-13866
▁구호품을	-13867
▁그린스펀	-13868
▁내비쳤다	-13869
▁내용이다	-13870
▁다국적군	-13871
▁답변했다	-13872
▁대량살상	-13873
▁대변인의	-13874
▁대한민국	-13875
▁도쿄에서	-13876
▁돌아가는	-13877
▁동물들이	-13878
▁동부에서	-13879
▁들어오는	-13880
▁러시아를	-13881
▁루마니아	-13882
▁리얼리티	-13883
▁마련했다	-13884
▁무크타다	-13885
▁무하메드	-13886
▁받았다는	-13887
▁발표하지	-13888
▁방콕에서	-13889
▁변호사를	-13890
▁보스니아	-13891
▁보였지만	-13892
▁불가능한	-13893
▁불과하다	-13894
▁불과했다	-13895
▁블룸버그	-13896
▁상징적인	-13897
▁서쪽으로	-13898
▁선관위는	-13899
▁선보였다	-13900
▁소지하고	-13901
▁수마트라	-13902
▁시민들의	-13903
▁시스템에	-13904
▁식품의약	-13905
▁신고했다	-13906
▁악화되고	-13907
▁어려움이	-13908
▁여겨지는	-13909
▁여러가지	-13910
▁여성에게	-13911
▁연결하는	-13912
▁움직이는	-13913
▁원인으로	-13914
▁의료보험	-13915
▁이끌었다	-13916
▁이루어질	-13917
▁이뤄지지	-13918
▁이야기는	-13919
▁입장이다	-13920
▁자메이카	-13921
▁자살폭탄	-13922
▁전투기가	-13923
▁전해지고	-13924
▁정식으로	-13925
▁주도하고	-13926
▁줄리아니	-13927
▁중앙은행	-13928
▁증권거래	-13929
▁진행됐다	-13930
▁참가하는	-13931
▁컴퓨터와	-13932
▁콘크리트	-13933
▁클럽에서	-13934
▁탑승하고	-13935
▁태국에서	-13936
▁파업으로	-13937
▁파파라치	-13938
▁페일린은	-13939
▁한국전쟁	-13940
▁허용하는	-13941
▁환자들이	-13942
▁효과적인	-13943
▁희생자가	-13944
라운드에서	-13945
해리포터와	-13946
▁국경지역에	-13947
▁국제사회가	-13948
▁노동자들이	-13949
▁대선주자인	-13950
▁목격했다고	-13951
▁미국인들의	-13952
▁바이러스는	-13953
▁받아들였다	-13954
▁받았습니다	-13955
▁부상했으며	-13956
▁실종됐다고	-13957
▁아웅산수지	-13958
▁에드워즈는	-13959
▁여론조사를	-13960
▁연방수사국	-13961
▁오바마에게	-13962
▁요청했다고	-13963
▁이라크전을	-13964
▁콜레스테롤	-13965
▁파키스탄과	-13966
▁파키스탄은	-13967
▁프로그램과	-13968
▁프로젝트에	-13969
ization	-13970
▁보도했습니다	-13971
▁2007.12	-13972
▁관계자에따르면	-13973
▁인도네시아에서	-13974
▁남아프리카공화국	-13975
%,	-13976
21	-13977
68	-13978
91	-13979
99	-13980
AT	-13981
GB	-13982
NL	-13983
PL	-13984
ae	-13985
ef	-13986
ev	-13987
~4	-13988
▁곁	-13989
▁낡	-13990
▁딴	-13991
▁멘	-13992
▁솜	-13993
▁숭	-13994
▁왈	-13995
▁젠	-13996
▁짙	-13997
▁켐	-13998
▁틈	-13999
▁펴	-14000
▁훈	-14001
강을	-14002
고는	-14003
기념	-14004
낸셜	-14005
년은	-14006
델타	-14007
등의	-14008
레드	-14009
렬히	-14010
리즘	-14011
링턴	-14012
막을	-14013
모어	-14014
몬드	-14015
물과	-14016
바의	-14017
반응	-14018
받게	-14019
방한	-14020
배에	-14021
버는	-14022
벌리	-14023
보이	-14024
셀러	-14025
슬로	-14026
시께	-14027
시미	-14028
시픽	-14029
아무	-14030
애를	-14031
액을	-14032
여명	-14033
오밍	-14034
워즈	-14035
이익	-14036
작가	-14037
잡이	-14038
전과	-14039
전시	-14040
전한	-14041
점의	-14042
제작	-14043
조가	-14044
중독	-14045
중력	-14046
중을	-14047
지오	-14048
측과	-14049
카라	-14050
카이	-14051
코트	-14052
쿠버	-14053
퀘어	-14054
크레	-14055
타스	-14056
투스	-14057
트만	-14058
파이	-14059
폰테	-14060
피는	-14061
해준	-14062
헤란	-14063
협상	-14064
FTA	-14065
leg	-14066
tim	-14067
▁Fr	-14068
▁가금	-14069
▁가두	-14070
▁개념	-14071
▁객실	-14072
▁건의	-14073
▁극장	-14074
▁극히	-14075
▁나르	-14076
▁납부	-14077
▁내야	-14078
▁농장	-14079
▁다룰	-14080
▁다툼	-14081
▁단축	-14082
▁달할	-14083
▁당장	-14084
▁당첨	-14085
▁데비	-14086
▁라자	-14087
▁로열	-14088
▁롱고	-14089
▁마텔	-14090
▁맞출	-14091
▁맨하	-14092
▁먹을	-14093
▁명명	-14094
▁모자	-14095
▁목에	-14096
▁몬테	-14097
▁몰디	-14098
▁무관	-14099
▁무서	-14100
▁미치	-14101
▁발송	-14102
▁법에	-14103
▁병역	-14104
▁보르	-14105
▁보행	-14106
▁본래	-14107
▁부당	-14108
▁부수	-14109
▁비로	-14110
▁빈번	-14111
▁상속	-14112
▁서류	-14113
▁서열	-14114
▁선동	-14115
▁성전	-14116
▁수습	-14117
▁스틸	-14118
▁시범	-14119
▁신종	-14120
▁십대	-14121
▁안심	-14122
▁약품	-14123
▁언색	-14124
▁에바	-14125
▁역을	-14126
▁영부	-14127
▁예일	-14128
▁온건	-14129
▁온천	-14130
▁옮기	-14131
▁육성	-14132
▁이반	-14133
▁인천	-14134
▁일기	-14135
▁일대	-14136
▁일삼	-14137
▁잊지	-14138
▁자위	-14139
▁잡스	-14140
▁장군	-14141
▁전세	-14142
▁전의	-14143
▁제라	-14144
▁제보	-14145
▁제어	-14146
▁진공	-14147
▁진원	-14148
▁채로	-14149
▁초콜	-14150
▁키우	-14151
▁탑재	-14152
▁토지	-14153
▁투항	-14154
▁팀은	-14155
▁팔을	-14156
▁퍼져	-14157
▁편의	-14158
▁푸켓	-14159
▁해명	-14160
▁해협	-14161
▁현수	-14162
▁황박	-14163
▁휴일	-14164
감으로	-14165
대서양	-14166
렸으나	-14167
로서의	-14168
리면서	-14169
법으로	-14170
부들이	-14171
스트리	-14172
시장의	-14173
자들도	-14174
주었다	-14175
하기가	-14176
협회는	-14177
(21)	-14178
(27)	-14179
ange	-14180
arth	-14181
head	-14182
ious	-14183
reet	-14184
umer	-14185
▁...	-14186
▁2~3	-14187
▁42%	-14188
▁450	-14189
▁BBK	-14190
▁Lee	-14191
▁MDC	-14192
▁Med	-14193
▁iss	-14194
▁one	-14195
▁sum	-14196
▁가방을	-14197
▁가볍게	-14198
▁가이드	-14199
▁거두며	-14200
▁게임에	-14201
▁결정된	-14202
▁경기후	-14203
▁경로를	-14204
▁경보가	-14205
▁경우를	-14206
▁계획과	-14207
▁고어는	-14208
▁관여한	-14209
▁구조를	-14210
▁궤도를	-14211
▁균형을	-14212
▁그룹은	-14213
▁급상승	-14214
▁기리기	-14215
▁기업에	-14216
▁기자를	-14217
▁기존의	-14218
▁꾸준히	-14219
▁남겼다	-14220
▁내리지	-14221
▁논평을	-14222
▁놓았다	-14223
▁능력이	-14224
▁니스텔	-14225
▁대단히	-14226
▁대신해	-14227
▁대출을	-14228
▁대표와	-14229
▁도전을	-14230
▁도착해	-14231
▁독일은	-14232
▁돈세탁	-14233
▁되어야	-14234
▁따뜻한	-14235
▁뜨거운	-14236
▁라일라	-14237
▁로맨틱	-14238
▁리더십	-14239
▁마련된	-14240
▁만나고	-14241
▁말하지	-14242
▁몬타나	-14243
▁못하다	-14244
▁물러난	-14245
▁미국내	-14246
▁미하일	-14247
▁바스크	-14248
▁방안에	-14249
▁벌이던	-14250
▁병원의	-14251
▁보낸다	-14252
▁부모의	-14253
▁부상은	-14254
▁부시가	-14255
▁부시와	-14256
▁부정부	-14257
▁분명한	-14258
▁불길이	-14259
▁비정부	-14260
▁비틀즈	-14261
▁빙하가	-14262
▁사랑을	-14263
▁선박에	-14264
▁선수는	-14265
▁성적을	-14266
▁세번째	-14267
▁소니는	-14268
▁손해배	-14269
▁솔로몬	-14270
▁수익이	-14271
▁슈나이	-14272
▁시점에	-14273
▁신행정	-14274
▁심슨은	-14275
▁아내가	-14276
▁아놀드	-14277
▁아직은	-14278
▁안타깝	-14279
▁애플은	-14280
▁앨범을	-14281
▁엄마가	-14282
▁역사의	-14283
▁역할에	-14284
▁열리고	-14285
▁열차는	-14286
▁오르는	-14287
▁요인이	-14288
▁운영을	-14289
▁운전사	-14290
▁위성을	-14291
▁이른다	-14292
▁이틀째	-14293
▁일정에	-14294
▁자금은	-14295
▁자사의	-14296
▁작전이	-14297
▁장례식	-14298
▁저자인	-14299
▁전문의	-14300
▁전에도	-14301
▁전통을	-14302
▁접어들	-14303
▁정보에	-14304
▁정부청	-14305
▁주유소	-14306
▁중단된	-14307
▁증가로	-14308
▁지구를	-14309
▁지난밤	-14310
▁지불할	-14311
▁지중해	-14312
▁차량의	-14313
▁찬사를	-14314
▁처음에	-14315
▁철수할	-14316
▁체제를	-14317
▁총으로	-14318
▁취임식	-14319
▁커피를	-14320
▁크기가	-14321
▁크리켓	-14322
▁통과할	-14323
▁투쟁을	-14324
▁파업은	-14325
▁파티를	-14326
▁페인트	-14327
▁폭동이	-14328
▁표한다	-14329
▁하에서	-14330
▁한번도	-14331
▁해준다	-14332
▁화재는	-14333
▁확산을	-14334
▁회장과	-14335
▁휴식을	-14336
그로폰테	-14337
리스트인	-14338
블로이드	-14339
시간으로	-14340
pport	-14341
▁Cons	-14342
▁FIFA	-14343
▁down	-14344
▁into	-14345
▁가졌다고	-14346
▁가족들을	-14347
▁결의안이	-14348
▁고조되고	-14349
▁공격하기	-14350
▁국제사면	-14351
▁그렇다면	-14352
▁기념하는	-14353
▁나오면서	-14354
▁내다봤다	-14355
▁노력했다	-14356
▁높아졌다	-14357
▁뉴욕상업	-14358
▁다큐멘터	-14359
▁당선자가	-14360
▁돌아갔다	-14361
▁돌입했다	-14362
▁롱고리아	-14363
▁마련하기	-14364
▁말했었다	-14365
▁무너졌다	-14366
▁미국인의	-14367
▁미얀마에	-14368
▁발생하자	-14369
▁발언으로	-14370
▁방침이다	-14371
▁법무장관	-14372
▁베이징에	-14373
▁분명하다	-14374
▁분석가는	-14375
▁불법적인	-14376
▁비행기는	-14377
▁사람으로	-14378
▁사령관이	-14379
▁사무총장	-14380
▁사실이다	-14381
▁산타클로	-14382
▁살아있는	-14383
▁삼성그룹	-14384
▁서식하는	-14385
▁선거캠프	-14386
▁수행하는	-14387
▁시위대에	-14388
▁신속하게	-14389
▁싶어하는	-14390
▁아이디어	-14391
▁안보리의	-14392
▁어머니인	-14393
▁에너지를	-14394
▁여객기에	-14395
▁여겨지고	-14396
▁여성으로	-14397
▁오케스트	-14398
▁요하네스	-14399
▁용의자인	-14400
▁우주에서	-14401
▁위원회가	-14402
▁은신처를	-14403
▁이송됐다	-14404
▁있겠지만	-14405
▁장기적인	-14406
▁중태라고	-14407
▁직원들을	-14408
▁진행하는	-14409
▁총격전을	-14410
▁총기난사	-14411
▁컴퓨터에	-14412
▁탈레반에	-14413
▁텔레비전	-14414
▁피라미드	-14415
▁하원에서	-14416
▁한국으로	-14417
▁한반도에	-14418
▁항공기가	-14419
▁해결하는	-14420
▁헬리콥터	-14421
▁확실하다	-14422
ustral	-14423
▁가자지구의	-14424
▁결과에따라	-14425
▁골든글로브	-14426
▁노대통령의	-14427
▁떨어졌다고	-14428
▁리히터규모	-14429
▁바르셀로나	-14430
▁발견됐으며	-14431
▁발표하면서	-14432
▁상대적으로	-14433
▁선거캠프는	-14434
▁아파트에서	-14435
▁여론조사는	-14436
▁예상된다고	-14437
▁올림픽에서	-14438
▁일시적으로	-14439
▁자발적으로	-14440
▁전문가들의	-14441
▁전통적으로	-14442
▁주식시장이	-14443
▁주차장에서	-14444
▁중앙일보가	-14445
▁하원의장은	-14446
▁한국인들은	-14447
▁현지경찰이	-14448
▁홈페이지에	-14449
▁희생자들의	-14450
eration	-14451
▁로드리게스는	-14452
▁이라크에서의	-14453
▁크라이슬러는	-14454
▁프라이머리를	-14455
▁2006.02	-14456
▁America	-14457
▁England	-14458
▁election	-14459
ministration	-14460
▁Association	-14461
.’	-14462
64	-14463
:0	-14464
AE	-14465
AI	-14466
GO	-14467
RA	-14468
RI	-14469
Th	-14470
aj	-14471
be	-14472
ne	-14473
oe	-14474
oh	-14475
”,	-14476
▁:	-14477
▁낫	-14478
▁놔	-14479
▁샀	-14480
▁샬	-14481
▁션	-14482
▁첸	-14483
▁췌	-14484
▁퀴	-14485
가자	-14486
강산	-14487
개는	-14488
건물	-14489
건희	-14490
경색	-14491
경의	-14492
과이	-14493
귀한	-14494
꺼이	-14495
끼를	-14496
나드	-14497
나르	-14498
대출	-14499
레오	-14500
리학	-14501
모델	-14502
문서	-14503
방의	-14504
버스	-14505
변에	-14506
보나	-14507
봐야	-14508
브스	-14509
수퍼	-14510
악의	-14511
없다	-14512
에트	-14513
외교	-14514
운영	-14515
원도	-14516
자키	-14517
제한	-14518
지요	-14519
차에	-14520
투자	-14521
튼을	-14522
파에	-14523
펀드	-14524
폴로	-14525
함에	-14526
합을	-14527
햄은	-14528
황을	-14529
ASH	-14530
MEX	-14531
TON	-14532
als	-14533
ich	-14534
ned	-14535
ony	-14536
ues	-14537
urm	-14538
▁97	-14539
▁Al	-14540
▁Wh	-14541
▁fl	-14542
▁op	-14543
▁se	-14544
▁각기	-14545
▁간접	-14546
▁강아	-14547
▁개조	-14548
▁갱신	-14549
▁경유	-14550
▁경주	-14551
▁곡물	-14552
▁공표	-14553
▁굉장	-14554
▁구급	-14555
▁기름	-14556
▁난폭	-14557
▁낡은	-14558
▁남측	-14559
▁납북	-14560
▁내달	-14561
▁넬슨	-14562
▁녹화	-14563
▁놀랍	-14564
▁단기	-14565
▁대공	-14566
▁대원	-14567
▁더블	-14568
▁데는	-14569
▁동해	-14570
▁동행	-14571
▁들며	-14572
▁등급	-14573
▁레노	-14574
▁레저	-14575
▁리사	-14576
▁린다	-14577
▁맞춘	-14578
▁매트	-14579
▁메가	-14580
▁면허	-14581
▁모토	-14582
▁물려	-14583
▁반짝	-14584
▁발의	-14585
▁방코	-14586
▁배달	-14587
▁법의	-14588
▁보트	-14589
▁본거	-14590
▁볼드	-14591
▁분양	-14592
▁불거	-14593
▁사로	-14594
▁사촌	-14595
▁살펴	-14596
▁상무	-14597
▁상세	-14598
▁세기	-14599
▁세라	-14600
▁스필	-14601
▁신생	-14602
▁쓰지	-14603
▁아로	-14604
▁아리	-14605
▁아유	-14606
▁알카	-14607
▁양은	-14608
▁여덟	-14609
▁연맹	-14610
▁연상	-14611
▁예금	-14612
▁완수	-14613
▁왕궁	-14614
▁외신	-14615
▁외출	-14616
▁우익	-14617
▁운이	-14618
▁울머	-14619
▁유언	-14620
▁은폐	-14621
▁이성	-14622
▁인적	-14623
▁있길	-14624
▁자고	-14625
▁자란	-14626
▁장성	-14627
▁재단	-14628
▁재차	-14629
▁전념	-14630
▁점은	-14631
▁접경	-14632
▁정글	-14633
▁정비	-14634
▁졌다	-14635
▁조세	-14636
▁조차	-14637
▁졸릭	-14638
▁종양	-14639
▁주력	-14640
▁진료	-14641
▁쫓아	-14642
▁차고	-14643
▁청중	-14644
▁출간	-14645
▁치르	-14646
▁카림	-14647
▁탄약	-14648
▁탄원	-14649
▁파고	-14650
▁판명	-14651
▁팔려	-14652
▁패널	-14653
▁평방	-14654
▁포옹	-14655
▁풍자	-14656
▁하비	-14657
▁행방	-14658
▁행해	-14659
▁혼다	-14660
▁화폐	-14661
▁후속	-14662
▁후안	-14663
▁흡수	-14664
개월이	-14665
나갔다	-14666
내셔널	-14667
년대에	-14668
다니는	-14669
되기를	-14670
라인을	-14671
렌스탐	-14672
바이를	-14673
분기에	-14674
살짜리	-14675
상황이	-14676
시부터	-14677
시한을	-14678
야당인	-14679
▁	-14680
이	-14681
다	-14682
에	-14683
.	-14684
는	-14685
의	-14686
고	-14687
을	-14688
지	-14689
은	-14690
가	-14691
한	-14692
로	-14693
하	-14694
했	-14695
사	-14696
인	-14697
서	-14698
대	-14699
를	-14700
기	-14701
시	-14702
리	-14703
자	-14704
라	-14705
0	-14706
들	-14707
스	-14708
해	-14709
국	-14710
있	-14711
부	-14712
아	-14713
으	-14714
,	-14715
일	-14716
도	-14717
수	-14718
전	-14719
1	-14720
정	-14721
2	-14722
주	-14723
그	-14724
장	-14725
보	-14726
나	-14727
것	-14728
미	-14729
상	-14730
원	-14731
과	-14732
어	-14733
위	-14734
명	-14735
e	-14736
제	-14737
관	-14738
며	-14739
만	-14740
경	-14741
니	-14742
“	-14743
러	-14744
”	-14745
마	-14746
게	-14747
적	-14748
중	-14749
비	-14750
a	-14751
(	-14752
)	-14753
통	-14754
드	-14755
동	-14756
구	-14757
회	-14758
간	-14759
공	-14760
소	-14761
o	-14762
와	-14763
t	-14764
발	-14765
i	-14766
성	-14767
말	-14768
조	-14769
유	-14770
트	-14771
오	-14772
무	-14773
선	-14774
당	-14775
우	-14776
n	-14777
할	-14778
신	-14779
r	-14780
계	-14781
화	-14782
여	-14783
5	-14784
3	-14785
문	-14786
바	-14787
치	-14788
안	-14789
년	-14790
었	-14791
세	-14792
s	-14793
방	-14794
르	-14795
난	-14796
밝	-14797
프	-14798
진	-14799
연	-14800
행	-14801
후	-14802
생	-14803
영	-14804
거	-14805
모	-14806
되	-14807
크	-14808
터	-14809
된	-14810
6	-14811
개	-14812
9	-14813
4	-14814
내	-14815
면	-14816
현	-14817
요	-14818
혔	-14819
8	-14820
용	-14821
군	-14822
타	-14823
실	-14824
레	-14825
재	-14826
령	-14827
파	-14828
반	-14829
결	-14830
포	-14831
않	-14832
7	-14833
차	-14834
번	-14835
l	-14836
단	-14837
"	-14838
체	-14839
표	-14840
운	-14841
민	-14842
교	-14843
달	-14844
월	-14845
던	-14846
역	-14847
려	-14848
호	-14849
카	-14850
분	-14851
c	-14852
야	-14853
입	-14854
예	-14855
금	-14856
물	-14857
북	-14858
A	-14859
작	-14860
력	-14861
됐	-14862
최	-14863
식	-14864
건	-14865
산	-14866
노	-14867
습	-14868
데	-14869
임	-14870
키	-14871
감	-14872
출	-14873
속	-14874
법	-14875
학	-14876
받	-14877
격	-14878
총	-14879
피	-14880
린	-14881
매	-14882
알	-14883
남	-14884
았	-14885
m	-14886
변	-14887
직	-14888
찰	-14889
두	-14890
설	-14891
약	-14892
업	-14893
h	-14894
불	-14895
d	-14896
없	-14897
C	-14898
디	-14899
강	-14900
람	-14901
베	-14902
코	-14903
’	-14904
버	-14905
더	-14906
음	-14907
N	-14908
탄	-14909
망	-14910
승	-14911
폭	-14912
테	-14913
였	-14914
u	-14915
심	-14916
까	-14917
토	-14918
히	-14919
살	-14920
올	-14921
태	-14922
근	-14923
각	-14924
른	-14925
S	-14926
언	-14927
합	-14928
'	-14929
질	-14930
브	-14931
티	-14932
권	-14933
외	-14934
처	-14935
본	-14936
편	-14937
양	-14938
추	-14939
때	-14940
담	-14941
석	-14942
함	-14943
판	-14944
또	-14945
루	-14946
란	-14947
열	-14948
병	-14949
투	-14950
배	-14951
될	-14952
‘	-14953
독	-14954
항	-14955
p	-14956
록	-14957
등	-14958
래	-14959
집	-14960
증	-14961
졌	-14962
확	-14963
g	-14964
메	-14965
급	-14966
협	-14967
견	-14968
저	-14969
같	-14970
즈	-14971
T	-14972
따	-14973
날	-14974
종	-14975
련	-14976
P	-14977
론	-14978
목	-14979
청	-14980
I	-14981
많	-14982
점	-14983
-	-14984
네	-14985
클	-14986
%	-14987
f	-14988
료	-14989
B	-14990
평	-14991
복	-14992
페	-14993
돌	-14994
엘	-14995
환	-14996
박	-14997
케	-14998
초	-14999
든	-15000
새	-15001
송	-15002
존	-15003
악	-15004
뉴	-15005
락	-15006
검	-15007
벌	-15008
y	-15009
참	-15010
핵	-15011
측	-15012
형	-15013
못	-15014
책	-15015
억	-15016
워	-15017
턴	-15018
F	-15019
량	-15020
탈	-15021
앞	-15022
E	-15023
필	-15024
k	-15025
애	-15026
랑	-15027
준	-15028
D	-15029
족	-15030
백	-15031
활	-15032
머	-15033
M	-15034
술	-15035
능	-15036
향	-15037
획	-15038
황	-15039
품	-15040
험	-15041
친	-15042
쟁	-15043
온	-15044
절	-15045
런	-15046
범	-15047
너	-15048
붙	-15049
퍼	-15050
곳	-15051
광	-15052
O	-15053
왔	-15054
울	-15055
립	-15056
엔	-15057
객	-15058
슬	-15059
천	-15060
규	-15061
축	-15062
플	-15063
랜	-15064
U	-15065
취	-15066
침	-15067
b	-15068
논	-15069
줄	-15070
막	-15071
패	-15072
슨	-15073
착	-15074
녀	-15075
럽	-15076
w	-15077
혐	-15078
블	-15079
움	-15080
K	-15081
압	-15082
접	-15083
길	-15084
져	-15085
류	-15086
특	-15087
뒤	-15088
밀	-15089
겠	-15090
림	-15091
덧	-15092
v	-15093
렸	-15094
/	-15095
W	-15096
몇	-15097
허	-15098
채	-15099
손	-15100
쿠	-15101
팔	-15102
커	-15103
R	-15104
께	-15105
택	-15106
츠	-15107
및	-15108
늘	-15109
째	-15110
웨	-15111
색	-15112
왕	-15113
L	-15114
센	-15115
콜	-15116
욕	-15117
숨	-15118
충	-15119
철	-15120
혀	-15121
혼	-15122
극	-15123
걸	-15124
G	-15125
났	-15126
례	-15127
샤	-15128
V	-15129
름	-15130
씨	-15131
누	-15132
팀	-15133
맞	-15134
징	-15135
별	-15136
골	-15137
완	-15138
순	-15139
높	-15140
돼	-15141
잡	-15142
글	-15143
H	-15144
떨	-15145
찾	-15146
긴	-15147
휴	-15148
폐	-15149
힐	-15150
갖	-15151
럼	-15152
죄	-15153
희	-15154
틀	-15155
좋	-15156
겨	-15157
큰	-15158
램	-15159
육	-15160
갈	-15161
볼	-15162
김	-15163
릴	-15164
응	-15165
캐	-15166
쇄	-15167
냈	-15168
잘	-15169
엄	-15170
쪽	-15171
암	-15172
얼	-15173
빠	-15174
촉	-15175
빈	-15176
납	-15177
첫	-15178
끝	-15179
느	-15180
폴	-15181
헤	-15182
컴	-15183
봉	-15184
싱	-15185
J	-15186
퇴	-15187
익	-15188
괴	-15189
율	-15190
얻	-15191
귀	-15192
염	-15193
맥	-15194
픽	-15195
푸	-15196
농	-15197
넘	-15198
떠	-15199
홍	-15200
융	-15201
둔	-15202
몰	-15203
십	-15204
쳐	-15205
슈	-15206
풍	-15207
쳤	-15208
빌	-15209
텔	-15210
뷰	-15211
득	-15212
넷	-15213
놓	-15214
밖	-15215
델	-15216
앙	-15217
죽	-15218
창	-15219
&	-15220
쓰	-15221
힘	-15222
렌	-15223
켰	-15224
먼	-15225
얀	-15226
헌	-15227
킬	-15228
좌	-15229
둘	-15230
답	-15231
벨	-15232
:	-15233
맨	-15234
갔	-15235
끌	-15236
션	-15237
찬	-15238
틴	-15239
킨	-15240
널	-15241
잠	-15242
낸	-15243
떤	-15244
?	-15245
켜	-15246
튼	-15247
끼	-15248
률	-15249
콘	-15250
쇼	-15251
맹	-15252
밤	-15253
돈	-15254
풀	-15255
써	-15256
싸	-15257
몬	-15258
삼	-15259
휘	-15260
힌	-15261
롬	-15262
층	-15263
퓨	-15264
냐	-15265
균	-15266
칸	-15267
웹	-15268
덴	-15269
릭	-15270
혹	-15271
칠	-15272
뿐	-15273
굴	-15274
톤	-15275
효	-15276
랐	-15277
짐	-15278
눈	-15279
흐	-15280
앤	-15281
캘	-15282
싶	-15283
념	-15284
캠	-15285
곤	-15286
윌	-15287
놀	-15288
롤	-15289
~	-15290
폰	-15291
잃	-15292
칼	-15293
륙	-15294
잔	-15295
킹	-15296
헬	-15297
혁	-15298
팬	-15299
쉬	-15300
럴	-15301
링	-15302
몸	-15303
즉	-15304
템	-15305
콩	-15306
̋	-15307
훈	-15308
렇	-15309
섬	-15310
뤄	-15311
_	-15312
닌	-15313
벽	-15314
딸	-15315
켓	-15316
랍	-15317
뜻	-15318
낮	-15319
셀	-15320
윈	-15321
혈	-15322
액	-15323
잉	-15324
펜	-15325
x	-15326
탑	-15327
탐	-15328
먹	-15329
략	-15330
룹	-15331
맡	-15332
탁	-15333
셔	-15334
욱	-15335
섰	-15336
숙	-15337
=	-15338
펠	-15339
펼	-15340
붕	-15341
뇌	-15342
텍	-15343
핀	-15344
j	-15345
멕	-15346
믿	-15347
컵	-15348
#	-15349
탕	-15350
겼	-15351
롭	-15352
벤	-15353
겪	-15354
즐	-15355
핑	-15356
옥	-15357
짜	-15358
곡	-15359
홀	-15360
헨	-15361
웠	-15362
곧	-15363
끄	-15364
웃	-15365
갑	-15366
렀	-15367
척	-15368
떻	-15369
찍	-15370
롯	-15371
샌	-15372
엇	-15373
컨	-15374
멘	-15375
빨	-15376
큼	-15377
넣	-15378
즌	-15379
흑	-15380
깨	-15381
낼	-15382
짓	-15383
럭	-15384
렉	-15385
앨	-15386
촬	-15387
궁	-15388
닥	-15389
픈	-15390
뢰	-15391
듯	-15392
벗	-15393
솔	-15394
챔	-15395
칭	-15396
흔	-15397
닉	-15398
Y	-15399
줬	-15400
흥	-15401
쉽	-15402
딩	-15403
튜	-15404
흡	-15405
뜨	-15406
랭	-15407
낙	-15408
젊	-15409
뛰	-15410
녹	-15411
랄	-15412
빙	-15413
꾸	-15414
봤	-15415
덕	-15416
텐	-15417
춘	-15418
q	-15419
렬	-15420
묘	-15421
캔	-15422
멸	-15423
웅	-15424
첼	-15425
삭	-15426
냉	-15427
덜	-15428
혜	-15429
털	-15430
햄	-15431
졸	-15432
홈	-15433
랙	-15434
섭	-15435
젤	-15436
켈	-15437
깊	-15438
냥	-15439
옮	-15440
늄	-15441
값	-15442
z	-15443
딕	-15444
컬	-15445
밴	-15446
옷	-15447
쥐	-15448
닝	-15449
빅	-15450
랫	-15451
븐	-15452
촌	-15453
넬	-15454
왜	-15455
X	-15456
팅	-15457
빛	-15458
쿄	-15459
렵	-15460
멜	-15461
슷	-15462
앉	-15463
윤	-15464
잭	-15465
딘	-15466
맺	-15467
젠	-15468
늦	-15469
닐	-15470
땅	-15471
묻	-15472
둥	-15473
젝	-15474
님	-15475
뮤	-15476
삶	-15477
셰	-15478
틱	-15479
첨	-15480
톰	-15481
렘	-15482
씩	-15483
갤	-15484
됩	-15485
잇	-15486
끊	-15487
춰	-15488
걱	-15489
딜	-15490
좀	-15491
듣	-15492
롱	-15493
싼	-15494
칙	-15495
;	-15496
녁	-15497
켄	-15498
펀	-15499
겐	-15500
옹	-15501
웰	-15502
큐	-15503
컷	-15504
돕	-15505
멀	-15506
섯	-15507
긍	-15508
쁜	-15509
쇠	-15510
흘	-15511
닷	-15512
묵	-15513
얄	-15514
덮	-15515
뒀	-15516
룬	-15517
쌍	-15518
꺼	-15519
섹	-15520
휩	-15521
쓸	-15522
봇	-15523
곽	-15524
몽	-15525
쁘	-15526
룩	-15527
쯤	-15528
낳	-15529
듀	-15530
캄	-15531
꿈	-15532
렛	-15533
므	-15534
짝	-15535
톨	-15536
꺾	-15537
끔	-15538
멋	-15539
밍	-15540
씬	-15541
첩	-15542
州	-15543
덩	-15544
Z	-15545
곰	-15546
빼	-15547
옆	-15548
넓	-15549
엑	-15550
룸	-15551
얘	-15552
콤	-15553
앓	-15554
콰	-15555
넨	-15556
훌	-15557
붉	-15558
뼈	-15559
`	-15560
뿌	-15561
숭	-15562
꾼	-15563
륭	-15564
쾌	-15565
밑	-15566
뽑	-15567
낭	-15568
릿	-15569
콧	-15570
릎	-15571
빚	-15572
죠	-15573
훨	-15574
흉	-15575
!	-15576
룰	-15577
앗	-15578
즘	-15579
틸	-15580
횡	-15581
美	-15582
샘	-15583
슴	-15584
콕	-15585
겁	-15586
봄	-15587
빗	-15588
걷	-15589
덤	-15590
뒷	-15591
훼	-15592
[	-15593
셉	-15594
첸	-15595
멍	-15596
뭄	-15597
]	-15598
멈	-15599
봐	-15600
퀴	-15601
쏟	-15602
촨	-15603
떼	-15604
렐	-15605
숫	-15606
짧	-15607
쫓	-15608
똑	-15609
쌓	-15610
옐	-15611
탠	-15612
탱	-15613
궤	-15614
왈	-15615
깔	-15616
듭	-15617
슐	-15618
읽	-15619
렴	-15620
맛	-15621
뀌	-15622
뱀	-15623
왼	-15624
웬	-15625
닫	-15626
셋	-15627
꼭	-15628
댄	-15629
뱅	-15630
헐	-15631
겸	-15632
깃	-15633
묶	-15634
쓴	-15635
췄	-15636
끈	-15637
좁	-15638
춤	-15639
갇	-15640
밥	-15641
쌀	-15642
엠	-15643
꼬	-15644
꽃	-15645
셜	-15646
숀	-15647
팽	-15648
훔	-15649
흰	-15650
룡	-15651
벅	-15652
벼	-15653
갱	-15654
꿀	-15655
멤	-15656
Q	-15657
겔	-15658
됨	-15659
퀸	-15660
*	-15661
깝	-15662
잊	-15663
킥	-15664
뷔	-15665
왓	-15666
턱	-15667
놈	-15668
콥	-15669
흙	-15670
랩	-15671
줘	-15672
딪	-15673
벳	-15674
핸	-15675
숲	-15676
낀	-15677
낄	-15678
썼	-15679
탔	-15680
톱	-15681
솟	-15682
옛	-15683
퀘	-15684
셸	-15685
슛	-15686
툼	-15687
팝	-15688
괄	-15689
꼈	-15690
윔	-15691
싫	-15692
눴	-15693
밟	-15694
앵	-15695
쿨	-15696
톡	-15697
껴	-15698
넌	-15699
쏘	-15700
햇	-15701
붐	-15702
팩	-15703
社	-15704
넹	-15705
띄	-15706
툴	-15707
펄	-15708
낌	-15709
놨	-15710
닙	-15711
딴	-15712
쿼	-15713
킴	-15714
펴	-15715
밸	-15716
픔	-15717
뚫	-15718
셨	-15719
툰	-15720
끗	-15721
샬	-15722
옳	-15723
찮	-15724
칩	-15725
뇨	-15726
찌	-15727
펭	-15728
·	-15729
곱	-15730
뉘	-15731
댈	-15732
랬	-15733
믹	-15734
벡	-15735
녔	-15736
눌	-15737
굉	-15738
굳	-15739
굿	-15740
꼽	-15741
렁	-15742
엉	-15743
팍	-15744
팜	-15745
귄	-15746
깁	-15747
껏	-15748
눠	-15749
둑	-15750
뻐	-15751
섞	-15752
왁	-15753
튀	-15754
궐	-15755
냄	-15756
닭	-15757
뤘	-15758
쉐	-15759
헝	-15760
괜	-15761
꿔	-15762
닛	-15763
뿔	-15764
잎	-15765
헴	-15766
前	-15767
뚜	-15768
뤼	-15769
뮌	-15770
빵	-15771
촛	-15772
펙	-15773
흩	-15774
뚱	-15775
맘	-15776
펌	-15777
긋	-15778
닿	-15779
륜	-15780
셈	-15781
앰	-15782
쩌	-15783
챙	-15784
풋	-15785
́	-15786
댐	-15787
붓	-15788
썩	-15789
홉	-15790
댓	-15791
돋	-15792
쉴	-15793
쯔	-15794
폼	-15795
핏	-15796
윗	-15797
틈	-15798
넥	-15799
돔	-15800
엽	-15801
옵	-15802
췌	-15803
횟	-15804
•	-15805
▶	-15806
꽤	-15807
릇	-15808
뮬	-15809
뻔	-15810
팟	-15811
갓	-15812
굶	-15813
깜	-15814
둬	-15815
띠	-15816
볍	-15817
삽	-15818
웍	-15819
캥	-15820
탓	-15821
팰	-15822
겹	-15823
궈	-15824
놔	-15825
릅	-15826
쁨	-15827
젖	-15828
퉁	-15829
푼	-15830
낫	-15831
닮	-15832
듬	-15833
딱	-15834
룽	-15835
맵	-15836
멧	-15837
찔	-15838
탬	-15839
힉	-15840
뭇	-15841
뭉	-15842
솜	-15843
싣	-15844
젭	-15845
츨	-15846
캣	-15847
켐	-15848
쿤	-15849
탤	-15850
펫	-15851
휠	-15852
쏜	-15853
옌	-15854
짙	-15855
캡	-15856
컸	-15857
튠	-15858
곁	-15859
낡	-15860
덱	-15861
둠	-15862
밭	-15863
샀	-15864
쥬	-15865
짖	-15866
쳇	-15867
츄	-15868
덟	-15869
몫	-15870
볕	-15871
봅	-15872
윙	-15873
핍	-15874
핫	-15875
굽	-15876
맑	-15877
맙	-15878
뭔	-15879
샴	-15880
숍	-15881
엎	-15882
잦	-15883
쩔	-15884
콴	-15885
$	-15886
꼼	-15887
낚	-15888
늬	-15889
뜯	-15890
럿	-15891
렷	-15892
벵	-15893
빔	-15894
뻗	-15895
씻	-15896
긱	-15897
뱃	-15898
쐈	-15899
얹	-15900
캇	-15901
흠	-15902
反	-15903
英	-15904
깅	-15905
깐	-15906
꾀	-15907
꿨	-15908
댕	-15909
뚝	-15910
띤	-15911
뭐	-15912
샨	-15913
쉘	-15914
팻	-15915
퐁	-15916
±	-15917
市	-15918
꽂	-15919
꽉	-15920
뀔	-15921
늑	-15922
랏	-15923
룻	-15924
셴	-15925
쑤	-15926
씀	-15927
얇	-15928
윅	-15929
챌	-15930
킷	-15931
텀	-15932
팡	-15933
펑	-15934
뎌	-15935
둡	-15936
슭	-15937
썹	-15938
쏴	-15939
옴	-15940
쟈	-15941
줌	-15942
콸	-15943
깎	-15944
뀐	-15945
눕	-15946
뜰	-15947
랴	-15948
맷	-15949
뭘	-15950
샵	-15951
샹	-15952
셍	-15953
씌	-15954
쿡	-15955
헥	-15956
性	-15957
故	-15958
꼴	-15959
뎀	-15960
륨	-15961
몹	-15962
샷	-15963
싹	-15964
쏠	-15965
쥔	-15966
쪼	-15967
챈	-15968
팸	-15969
퍽	-15970
新	-15971
겉	-15972
깥	-15973
넛	-15974
랠	-15975
벙	-15976
삐	-15977
샐	-15978
싯	-15979
엣	-15980
엿	-15981
웸	-15982
잰	-15983
젼	-15984
줍	-15985
찢	-15986
찼	-15987
칫	-15988
쾰	-15989
쿵	-15990
핼	-15991
갚	-15992
궂	-15993
끓	-15994
녕	-15995
렝	-15996
