<unk>	0
<s>	0
</s>	0
.	-3.35897
▁	-3.6533
을	-3.80825
의	-3.89017
를	-4.25383
에	-4.28444
는	-4.31636
이	-4.38122
가	-4.4563
은	-4.54092
,	-4.57053
고	-4.63812
에서	-5.03071
로	-5.14947
한	-5.16787
▁“	-5.19514
”	-5.24083
인	-5.32087
일	-5.32579
)	-5.38423
(	-5.40977
▁이	-5.48384
과	-5.48469
으로	-5.57681
▁있다	-5.59553
와	-5.61302
▁수	-5.73804
도	-5.75836
할	-5.79719
지	-5.80815
▁밝혔다	-5.82374
▁말했다	-5.84349
년	-5.92132
했다	-6.01451
▁있는	-6.02637
다	-6.05801
하고	-6.07457
하는	-6.08703
며	-6.13983
▁그	-6.14635
▁전	-6.18705
▁2	-6.2337
▁그는	-6.2341
▁1	-6.28091
만	-6.31433
▁대한	-6.32925
해	-6.33621
기	-6.3378
▁위해	-6.3472
월	-6.39644
자	-6.41013
▁전했다	-6.41334
▁한	-6.43179
스	-6.43991
▁미국	-6.44359
▁3	-6.47639
▁이번	-6.48659
▁미	-6.50133
된	-6.50291
▁지난	-6.51119
현지시간	-6.52144
▁중	-6.55982
▁대해	-6.60232
"	-6.62605
리	-6.66434
에게	-6.66637
▁것으로	-6.67299
▁‘	-6.68278
나	-6.72539
▁것이라고	-6.72916
▁것	-6.72938
명이	-6.73025
▁"	-6.74412
이라고	-6.75956
s	-6.76439
시	-6.78004
▁있다고	-6.7929
▁4	-6.81619
▁것을	-6.82609
게	-6.84983
라	-6.86643
’	-6.87895
▁6	-6.89303
▁이라크	-6.8977
히	-6.9232
▁5	-6.92982
▁그러나	-6.93019
사	-6.94243
주	-6.94303
▁더	-6.94692
들이	-6.95665
하기	-6.95906
어	-6.97207
▁다른	-6.97214
▁대통령	-6.99746
하게	-7.02418
운	-7.02814
하지	-7.02846
▁주	-7.03103
대	-7.03737
▁중국	-7.0405
▁한편	-7.062
▁10	-7.06446
적인	-7.0716
라고	-7.07503
드	-7.07825
트	-7.08919
▁북한	-7.09605
아	-7.12383
▁후	-7.12444
명의	-7.13774
던	-7.14648
▁내	-7.15105
들은	-7.16137
서	-7.16497
-	-7.17094
▁정부	-7.18168
명	-7.18794
▁이후	-7.20901
르	-7.21392
수	-7.23123
세	-7.23293
▁통해	-7.24017
▁많은	-7.24958
▁바	-7.2503
▁또	-7.25382
▁위한	-7.25924
▁두	-7.26082
▁영국	-7.26113
상	-7.26155
▁대통령은	-7.26301
적	-7.27271
▁부시	-7.2817
▁8	-7.28968
▁가장	-7.30417
비	-7.30946
▁7	-7.31135
▁한국	-7.31336
▁동안	-7.31685
까지	-7.32441
▁같은	-7.33043
▁것이다	-7.3309
▁등	-7.33196
했다고	-7.33732
됐다	-7.34431
▁대변인은	-7.34545
될	-7.36122
성	-7.3767
이다	-7.39033
부	-7.39062
치	-7.39896
개	-7.40454
미	-7.40915
▁알	-7.41233
e	-7.41253
▁일	-7.41609
니	-7.43203
소	-7.43596
▁주장했다	-7.4379
크	-7.44264
▁될	-7.45487
보	-7.46085
했으며	-7.46525
▁것은	-7.4745
▁약	-7.47541
▁영화	-7.4782
▁세계	-7.47918
▁할	-7.47969
원	-7.48026
하며	-7.4808
▁한다	-7.48133
야	-7.48582
▁또한	-7.49381
▁때	-7.50283
▁오바마	-7.50416
선	-7.50635
전	-7.51035
에는	-7.51035
▁현재	-7.51152
▁말	-7.51181
▁12	-7.51333
진	-7.51634
▁아	-7.5276
▁경우	-7.53858
▁보도했다	-7.53939
▁관련	-7.54524
들을	-7.54706
면	-7.54737
▁덧붙였다	-7.55054
▁이상	-7.55073
마	-7.55442
▁9	-7.55793
▁않았다	-7.55918
▁있었다	-7.55953
및	-7.56188
▁비	-7.5619
▁문제	-7.57017
▁최근	-7.57076
화	-7.58613
▁뒤	-7.61693
했던	-7.61798
▁했다	-7.61895
▁일부	-7.62972
▁것이	-7.63341
▁자신의	-7.63445
정	-7.6365
▁11	-7.63692
▁경제	-7.64621
▁조사	-7.65099
▁시	-7.65363
▁마	-7.65432
'	-7.65445
파	-7.65833
▁지	-7.65839
장	-7.65879
▁제	-7.6633
▁함께	-7.66447
당	-7.67205
▁20	-7.67718
▁19	-7.68062
에서는	-7.68232
▁새로	-7.68264
적으로	-7.68357
▁'	-7.68623
▁당시	-7.68783
하	-7.68926
한다	-7.69194
▁일본	-7.69693
차	-7.69794
제	-7.70179
▁오	-7.70656
▁모든	-7.71175
▁그리고	-7.71328
바	-7.72753
▁때문에	-7.73026
디	-7.73173
▁국가	-7.73501
프	-7.73795
타	-7.74265
▁공격	-7.7524
▁예정이다	-7.75434
▁수도	-7.75653
즈	-7.75696
▁나	-7.758
여	-7.76086
▁없다	-7.76245
▁사	-7.76634
들	-7.77024
▁프랑스	-7.77033
분	-7.77075
▁있습니다	-7.77338
▁설명했다	-7.77497
해야	-7.77554
약	-7.78199
오	-7.78298
▁몇	-7.7838
d	-7.78426
하다	-7.78792
▁파키스탄	-7.7886
▁있으며	-7.79528
▁거	-7.7968
▁반	-7.80303
레	-7.80417
국	-7.80526
▁경찰은	-7.80699
조	-7.8105
▁대	-7.81119
▁모두	-7.8112
위	-7.82528
그	-7.82883
▁부	-7.82916
▁미군	-7.82968
▁계속	-7.83201
우	-7.83471
▁유엔	-7.83845
억	-7.83872
▁정부는	-7.84233
용	-7.84855
보다	-7.84965
구	-7.84968
▁러시아	-7.85256
신	-7.85463
간	-7.85971
▁지역	-7.86339
▁이스라엘	-7.86344
▁큰	-7.86374
▁사고	-7.86784
러	-7.87354
카	-7.87574
2	-7.87605
▁계획	-7.87637
▁민주당	-7.88145
▁30	-7.88781
내	-7.88951
었다	-7.89361
티	-7.90178
▁클린턴	-7.90587
▁지난해	-7.90882
o	-7.90916
1	-7.91315
▁이들	-7.91318
노	-7.91607
▁않을	-7.91986
▁다	-7.9219
▁경찰	-7.92507
명을	-7.92581
▁하는	-7.92778
계	-7.92873
▁열린	-7.93224
▁무	-7.93733
코	-7.94123
▁대통령이	-7.94346
▁정	-7.94579
실	-7.94686
▁테러	-7.95105
▁유	-7.95494
▁자	-7.95751
▁경기	-7.95766
▁기	-7.9604
▁올해	-7.96086
▁해	-7.96476
▁(	-7.96628
▁우리	-7.9667
모	-7.96767
▁안	-7.97062
▁발생한	-7.97848
m	-7.97898
▁이날	-7.98084
y	-7.98116
려	-7.98259
▁총리는	-7.98393
▁핵	-7.98821
▁지원	-7.98959
▁후보	-7.9915
▁the	-7.99354
▁발표했다	-7.99899
브	-7.99934
▁신	-8.0018
▁조	-8.00556
단	-8.00624
▁달러	-8.00794
했습니다	-8.00835
▁발표	-8.0105
▁15	-8.01339
에도	-8.01574
▁하	-8.01805
S	-8.01855
산	-8.01929
▁받고	-8.02406
▁결정	-8.02478
▁세	-8.03002
▁결과	-8.03253
▁보	-8.03315
라는	-8.034
▁초	-8.03579
▁있을	-8.03686
질	-8.04164
시간	-8.04357
권	-8.04389
린	-8.04401
무	-8.04526
▁파	-8.047
a	-8.0495
에따르면	-8.05026
점	-8.06094
▁모	-8.06251
▁연구	-8.06277
▁데	-8.06344
▁국제	-8.07308
▁여성	-8.07484
이나	-8.07485
▁선거	-8.07697
A	-8.07729
▁가운데	-8.07946
관	-8.08367
▁달	-8.08555
호	-8.08714
▁미국의	-8.08756
토	-8.08958
▁존	-8.09098
길	-8.09141
▁to	-8.0916
▁16	-8.09361
하면서	-8.09552
▁성	-8.10124
▁총리	-8.10233
되는	-8.10342
▁하고	-8.10624
▁군	-8.10727
법	-8.10878
들의	-8.11207
▁이란	-8.11343
안	-8.1147
▁의해	-8.11815
물	-8.1208
더	-8.12105
루	-8.12239
▁회담	-8.1226
▁된다	-8.12509
▁시작	-8.12608
▁사건	-8.12722
부터	-8.1278
▁주요	-8.12851
▁노	-8.13076
▁사람들이	-8.131
▁카	-8.13159
▁총	-8.13193
▁불	-8.1334
▁정부가	-8.13579
식	-8.13736
▁채	-8.13757
▁방문	-8.13828
▁18	-8.14314
으며	-8.14378
▁다시	-8.14657
)’	-8.14681
공	-8.14835
면서	-8.14949
▁관계	-8.15197
▁인해	-8.15214
▁보고	-8.15363
입니다	-8.16278
회	-8.16353
.”	-8.16588
▁차	-8.16663
▁줄	-8.16732
유	-8.17145
▁않은	-8.17161
피	-8.1718
▁of	-8.17501
▁조치	-8.1773
▁아프간	-8.18243
▁인도	-8.18442
체	-8.18717
▁됐다	-8.18828
중	-8.18959
▁13	-8.19104
▁시위	-8.1918
▁강	-8.1946
▁첫	-8.19666
▁혐의로	-8.1967
▁피	-8.1967
하여	-8.19932
▁스	-8.20038
▁당	-8.20297
▁있다는	-8.20339
▁시간	-8.20641
직	-8.21336
살	-8.21777
▁재	-8.22024
동	-8.22248
C	-8.22544
▁공	-8.2255
▁S	-8.22611
▁구	-8.22693
되어	-8.22854
▁소	-8.23081
되고	-8.23294
▁도	-8.23852
▁활동	-8.23893
▁원	-8.24124
▁프로그램	-8.24172
▁14	-8.24186
▁이미	-8.24283
▁타	-8.2432
▁승리	-8.24729
돼	-8.24745
▁기록	-8.24871
심	-8.24994
종	-8.25283
▁양	-8.25351
i	-8.25367
▁위치한	-8.25455
km	-8.25473
력	-8.25494
▁받았다	-8.25515
번	-8.25588
▁대선	-8.25801
▁감독	-8.26226
▁탈레반	-8.26355
군	-8.26355
감	-8.26386
▁우려	-8.26547
3	-8.26619
▁회사	-8.2668
▁팔레스타인	-8.27058
▁매	-8.27761
▁어	-8.27764
▁없는	-8.27768
재	-8.27813
방	-8.28035
지만	-8.28145
▁피해	-8.28255
n	-8.28593
▁뉴욕	-8.28706
▁간	-8.28821
▁아이	-8.29045
란	-8.29081
로부터	-8.29096
▁아직	-8.29653
▁W	-8.29697
▁내용	-8.29766
▁독일	-8.2986
▁TV	-8.2994
▁지지	-8.30302
연	-8.3043
ing	-8.30706
터	-8.3079
▁소속	-8.30892
/	-8.31026
이라며	-8.31144
c	-8.31209
▁잘	-8.31419
▁추가	-8.31501
u	-8.31764
▁사실을	-8.3195
▁상	-8.32167
▁유럽	-8.32722
▁25	-8.32759
▁관리	-8.32772
5	-8.32801
▁혐의	-8.33186
ed	-8.33215
요	-8.33296
▁매케인	-8.33397
▁관계자는	-8.33506
▁리	-8.33512
데	-8.33716
▁시장	-8.33871
▁않고	-8.3399
였다	-8.34356
경	-8.34474
학	-8.34604
▁라	-8.34939
포	-8.34945
든	-8.35098
▁A	-8.35245
▁인터넷	-8.35342
▁지적했다	-8.35467
▁''	-8.35516
▁전쟁	-8.35615
▁한다고	-8.35629
▁17	-8.35732
▁차량	-8.35881
▁최고	-8.36028
달러	-8.36065
▁개	-8.36361
▁지금	-8.36419
t	-8.3654
난	-8.36711
▁주장	-8.36734
▁새	-8.36853
▁호주	-8.36874
▁포함	-8.36961
▁배	-8.37033
년간	-8.3717
▁협상	-8.37207
▁상원의원	-8.373
되지	-8.37481
▁우주	-8.37562
▁비난	-8.37627
문	-8.37676
▁조지	-8.37724
▁사람	-8.3773
▁매우	-8.37936
P	-8.38236
al	-8.38388
버	-8.38477
습니다	-8.38875
▁올림픽	-8.3898
▁이슬람	-8.3911
▁당국은	-8.39194
▁명의	-8.39237
▁개발	-8.39305
네	-8.39375
▁예정	-8.39383
▁많	-8.39936
▁대부분	-8.40063
▁대학	-8.40349
▁in	-8.4038
▁사망	-8.40652
▁부상	-8.40925
개월	-8.41214
r	-8.41228
했고	-8.41326
▁판매	-8.4144
▁없다고	-8.41634
▁반대	-8.41804
▁서	-8.41965
▁방송	-8.42035
▁코	-8.42084
석	-8.42137
거	-8.42283
▁투표	-8.42534
▁자동차	-8.42686
▁받은	-8.42745
들과	-8.42882
▁여러	-8.4289
▁이는	-8.43016
처럼	-8.43172
▁않는다	-8.43223
발	-8.43236
▁못했다	-8.43286
▁석방	-8.43325
▁노력	-8.43828
▁100	-8.44019
교	-8.44083
▁선	-8.44245
▁합의	-8.4445
형	-8.44495
▁입장	-8.44515
6	-8.44685
▁중단	-8.44924
▁점	-8.45302
p	-8.45356
▁24	-8.45391
▁도시	-8.45513
?	-8.45516
M	-8.45647
▁2006	-8.4592
행	-8.4599
임	-8.46004
▁어떤	-8.46084
▁실	-8.46087
들에게	-8.46106
▁동	-8.46425
▁오늘	-8.46552
했으나	-8.46735
▁외	-8.46895
▁산	-8.46932
▁기자	-8.46949
에따라	-8.47132
▁폭탄	-8.47417
▁하지만	-8.47475
워	-8.47592
▁발	-8.47646
▁물	-8.47757
반	-8.47822
▁날	-8.4799
온	-8.48219
▁있던	-8.48223
▁21	-8.48346
▁해결	-8.48415
▁이에	-8.48482
▁오후	-8.4849
이었다	-8.48515
▁기술	-8.48754
키	-8.48807
급	-8.49049
▁장	-8.49139
7	-8.49251
▁생각	-8.49379
▁50	-8.49407
개의	-8.4942
er	-8.49515
▁하지	-8.49548
릴	-8.49719
명은	-8.49984
했었다	-8.50025
▁포	-8.50041
▁폭발	-8.50536
됐다고	-8.50704
▁검찰	-8.50865
l	-8.5088
▁김	-8.51175
되었다	-8.51418
▁발생	-8.51581
▁27	-8.51597
▁미얀마	-8.51757
▁변화	-8.51979
▁위	-8.52037
하는데	-8.52405
▁안전	-8.52547
▁정책	-8.52733
▁이어	-8.52751
%	-8.52907
▁23	-8.53077
▁저	-8.5308
판	-8.53207
▁있어	-8.53284
▁의사	-8.53438
▁생산	-8.53467
▁사이	-8.53512
E	-8.53688
▁보도	-8.537
이며	-8.53815
▁22	-8.5392
▁적	-8.53923
위원회	-8.54243
▁준비	-8.54393
▁병원	-8.54419
▁인터뷰에서	-8.54425
▁치료	-8.54619
▁집	-8.54694
지는	-8.5488
▁위협	-8.5494
▁살	-8.54971
너	-8.55027
▁컴퓨터	-8.55151
츠	-8.55159
했지만	-8.55276
:	-8.55316
▁강조했다	-8.55397
▁다음	-8.55456
류	-8.5551
▁갖고	-8.55786
▁이러	-8.55966
T	-8.55982
▁그들은	-8.56091
▁이용	-8.56187
g	-8.56273
장은	-8.56348
하기로	-8.56431
론	-8.56441
▁공화당	-8.5646
▁것에	-8.56581
▁사용	-8.56696
▁처음	-8.56706
▁2005	-8.56795
▁명	-8.56916
▁볼	-8.56969
▁떨어진	-8.57228
▁앞서	-8.57288
I	-8.57422
품	-8.57486
▁정치	-8.57788
▁힐러리	-8.57816
저	-8.57905
▁원문기사보기	-8.57954
▁있도록	-8.57959
▁건물	-8.58006
▁반군	-8.58032
▁오전	-8.58129
하도록	-8.58292
▁대표	-8.58349
작	-8.58387
▁남부	-8.58442
설	-8.587
▁마지막	-8.58766
래	-8.58969
건	-8.59093
▁레	-8.59124
▁여행	-8.59157
속	-8.5917
▁된	-8.59235
▁비난했다	-8.59309
or	-8.59466
▁루	-8.59486
▁B	-8.59805
스트	-8.59855
▁터키	-8.59956
▁북한이	-8.60065
▁증가	-8.602
▁지구	-8.6022
▁가진	-8.60312
▁경찰이	-8.60645
▁우	-8.61146
▁금융	-8.61184
통	-8.61308
▁a	-8.61368
금	-8.61373
▁오는	-8.61388
량	-8.61443
▁연방	-8.61679
▁열	-8.61807
▁미국과	-8.62151
▁요구	-8.62292
▁경	-8.62361
▁장관은	-8.62482
▁인근	-8.62642
거나	-8.62752
이라는	-8.62913
▁당국	-8.62947
▁처음으로	-8.63086
▁상황	-8.63124
▁이를	-8.63168
▁자신이	-8.6318
▁연기	-8.63355
▁치	-8.63412
팀	-8.63436
▁필요	-8.63453
▁그녀	-8.63535
된다	-8.63594
▁평화	-8.63681
▁그녀는	-8.63766
N	-8.63777
와의	-8.63798
▁방	-8.64337
▁규모	-8.644
▁남자	-8.64421
▁발견	-8.64448
강	-8.64478
▁버락	-8.64491
으로부터	-8.645
▁행사	-8.64587
▁입	-8.648
▁지난달	-8.6485
▁불법	-8.65052
▁아시아	-8.65069
▁없었다	-8.65158
▁성명	-8.65234
됐으며	-8.65327
▁26	-8.6541
친	-8.65502
▁행동	-8.65539
▁이탈리아	-8.65562
▁자금	-8.65716
▁최소	-8.65768
출	-8.65814
▁40	-8.65817
울	-8.66004
병	-8.66316
스는	-8.66508
in	-8.66534
▁지역에서	-8.66679
배	-8.66687
F	-8.66705
▁앞으로	-8.66737
▁있지만	-8.66939
▁영향	-8.67039
▁자신	-8.67043
두	-8.67056
▁발사	-8.67074
▁CNN	-8.67113
▁여	-8.67119
▁야당	-8.67363
▁없이	-8.67376
날	-8.67547
편	-8.67679
▁보인다	-8.67769
▁상승	-8.67802
는데	-8.67833
ar	-8.67874
▁법	-8.67945
▁̋	-8.6818
B	-8.6823
▁관한	-8.68308
▁논의	-8.68328
▁사망했다	-8.68384
하자	-8.68422
▁보호	-8.68704
and	-8.68733
an	-8.68814
4	-8.69107
D	-8.69163
슨	-8.69441
▁스페인	-8.69487
▁살해	-8.69787
천	-8.69961
▁수사	-8.70004
민	-8.70183
▁않다	-8.70205
▁사망자	-8.70343
▁좋은	-8.70357
▁서울	-8.70547
▁의회	-8.70565
▁공식	-8.70635
▁만에	-8.70812
▁연	-8.70927
번째	-8.71009
▁C	-8.71024
▁29	-8.71054
▁미사일	-8.71098
▁이름	-8.71152
청	-8.71201
▁미국이	-8.71247
▁현지	-8.71263
양	-8.71282
▁가격	-8.71298
▁사람들	-8.71313
8	-8.71336
▁메	-8.71358
_	-8.71466
▁돈	-8.71553
en	-8.71798
▁무샤라프	-8.71892
▁상태	-8.72173
R	-8.72244
층	-8.72293
우리는	-8.72295
▁은행	-8.72399
▁올	-8.72638
▁T	-8.72779
▁비행기	-8.72941
▁런던	-8.73018
▁사태	-8.73058
▁단	-8.73069
색	-8.7307
▁언론	-8.73251
▁가능성	-8.73285
▁확인	-8.73384
▁금지	-8.73553
▁M	-8.73661
▁밤	-8.73681
기를	-8.73713
▁사람들은	-8.7372
▁호	-8.73929
▁거래	-8.74102
▁팀	-8.74184
▁28	-8.74295
▁국민	-8.74483
article	-8.74574
▁백악관	-8.74584
▁주둔	-8.74806
O	-8.74843
▁최대	-8.7487
▁이들은	-8.74924
▁지도자	-8.74929
▁무기	-8.74952
생	-8.74969
▁알려졌다	-8.75163
▁정보	-8.75253
▁공급	-8.75414
▁심	-8.75608
f	-8.75667
▁조직	-8.75803
▁AP	-8.75907
영	-8.76006
▁공동	-8.76063
▁군사	-8.76263
▁벌이	-8.76283
▁정치적	-8.764
▁베	-8.76706
▁투자	-8.76792
▁속	-8.76799
▁불구하고	-8.76925
▁중요한	-8.77057
▁오바마는	-8.7752
▁통	-8.77549
▁나라	-8.77698
▁발언	-8.77742
▁말했습니다	-8.77896
▁바그다드	-8.7796
▁위험	-8.78228
▁이전	-8.78229
▁박사는	-8.78248
▁발생했다	-8.78366
▁충돌	-8.78367
▁대통령과	-8.78573
▁게임	-8.78709
▁사망한	-8.78732
▁고위	-8.78736
다고	-8.78756
후	-8.78895
▁종	-8.78904
▁체포	-8.79073
▁것입니다	-8.79195
▁들	-8.79335
▁용의자	-8.79357
▁교	-8.79405
▁시도	-8.79412
▁분	-8.7949
▁앞	-8.7951
▁손	-8.79513
▁통과	-8.79675
▁미국은	-8.79709
▁막	-8.79727
▁이런	-8.79883
▁역할	-8.79977
▁정도	-8.8006
▁반면	-8.80323
▁관심	-8.80363
▁보안	-8.80576
▁병력	-8.80739
▁환경	-8.80796
▁코리아	-8.80805
▁법원	-8.80851
▁F	-8.80916
▁남	-8.80963
▁만	-8.81069
▁공개	-8.81125
▁인질	-8.81318
▁2008	-8.8132
▁건강	-8.81385
▁표	-8.81672
▁이야기	-8.81717
▁역사	-8.81778
▁부토	-8.81792
▁학교	-8.82029
’’	-8.82156
측	-8.82173
▁사회	-8.82241
해서	-8.82342
▁부족	-8.82347
▁범죄	-8.82366
메	-8.82486
간의	-8.82519
립	-8.82802
▁북부	-8.82963
한다고	-8.83119
▁진행	-8.83271
▁N	-8.83471
처	-8.83517
2005.08	-8.83535
▁사망했다고	-8.83553
테	-8.83779
▁회장	-8.83903
▁서비스	-8.83939
h	-8.84022
▁골	-8.84226
▁문	-8.84303
▁기간	-8.84355
▁의원	-8.84404
함	-8.8441
▁H	-8.84493
마리	-8.84547
▁하나	-8.84683
▁인정	-8.84723
초	-8.84745
▁D	-8.84827
CNN	-8.84831
포인트	-8.84834
▁의하면	-8.84889
▁알카에다	-8.85006
▁모습을	-8.85035
하면	-8.85085
▁보다	-8.85213
▁워싱턴	-8.85281
▁버	-8.85424
▁자신들	-8.85463
▁요청	-8.85504
업	-8.85508
▁2005.08	-8.85513
▁단체	-8.85564
▁동영상	-8.85569
만명	-8.85601
▁난	-8.8564
▁뉴스	-8.85744
▁길	-8.85806
▁사업	-8.85824
▁납치	-8.85849
시킬	-8.85891
▁것이라는	-8.85916
▁힘	-8.86001
▁감소	-8.86009
▁공항	-8.86047
▁우승	-8.86124
on	-8.86173
▁자살	-8.86187
탄	-8.86217
▁출신	-8.86472
▁생	-8.86577
▁행위	-8.86643
▁가능성이	-8.86724
▁높은	-8.86763
▁더욱	-8.86769
하겠다고	-8.86983
▁뜻	-8.87109
▁지난주	-8.87156
▁전체	-8.87172
역	-8.87202
▁국경	-8.87204
▁인용	-8.8742
G	-8.87439
복	-8.87452
긴	-8.87457
▁진	-8.87483
▁왔다	-8.87499
’(	-8.87822
it	-8.87851
▁친	-8.87857
있는	-8.88038
투	-8.88046
▁성명에서	-8.88236
베	-8.88309
▁아버지	-8.88374
졌다	-8.88486
▁하마스	-8.88566
▁P	-8.88592
▁위기	-8.88648
져	-8.88677
본	-8.88743
절	-8.88869
▁&	-8.88963
증	-8.89011
▁폐쇄	-8.89049
▁의견	-8.89088
▁구조	-8.89287
▁비행	-8.8929
합	-8.89314
▁독립	-8.8939
▁팔	-8.89523
만달러	-8.89537
▁신문	-8.89575
▁맥	-8.89592
▁호텔	-8.89616
▁지역에	-8.8966
▁가족	-8.89743
▁본	-8.89975
미국	-8.90009
세의	-8.9009
▁아니다	-8.90176
▁애	-8.90208
차례	-8.90219
쳐	-8.90341
▁것이며	-8.9035
▁인쇄	-8.90393
L	-8.90505
이번	-8.90512
▁이와	-8.90581
▁전화	-8.90615
매	-8.90634
▁베이징	-8.90668
▁알고	-8.90688
▁2004	-8.90751
됐	-8.9079
▁판결	-8.90825
▁되는	-8.90859
▁검사	-8.90869
▁말을	-8.90914
▁for	-8.90956
▁총리가	-8.90992
▁않는	-8.91245
▁아이들	-8.91322
▁성공	-8.91337
결	-8.91585
였던	-8.91605
▁페	-8.91607
▁제안	-8.91639
▁전에	-8.91661
하던	-8.91745
케	-8.91758
▁못	-8.91825
▁하락	-8.92056
▁석유	-8.92096
머	-8.92121
▁않았다고	-8.92124
▁들어	-8.9213
나는	-8.92169
▁드	-8.92259
▁폭탄테러	-8.92362
▁주택	-8.92398
▁캘리포니아	-8.92438
▁각	-8.92514
먼	-8.92694
▁철수	-8.9285
▁직접	-8.92932
▁부인	-8.93024
▁시신	-8.93267
▁온	-8.93287
▁기자회견에서	-8.93393
독	-8.93423
▁핵무기	-8.93466
▁개인	-8.93485
▁어제	-8.93579
퍼	-8.93856
▁폴	-8.93861
예	-8.93896
▁하루	-8.93915
▁보였다	-8.94089
▁보내	-8.94389
▁아침	-8.94534
▁돌	-8.94567
▁필요한	-8.94583
▁별	-8.94589
▁라이스	-8.94655
▁관련된	-8.9477
▁맞	-8.94794
설명	-8.94879
▁아니라	-8.94885
달	-8.94886
▁여부	-8.95042
▁키	-8.95104
▁결혼	-8.95116
▁추	-8.95151
▁확보	-8.95312
▁곳	-8.9535
▁생활	-8.95399
억원	-8.95404
▁방법	-8.95494
▁증거	-8.95596
▁국방부	-8.95598
▁사람이	-8.95741
▁지방	-8.95767
았다	-8.95822
▁회의	-8.95903
▁해외	-8.95957
▁재개	-8.96004
목	-8.96015
“	-8.96222
도록	-8.96248
▁건설	-8.96263
▁결	-8.96391
▁우리는	-8.96415
년대	-8.96543
추	-8.96545
JO	-8.96646
커	-8.96702
▁사르코지	-8.96771
▁시설	-8.96844
▁G	-8.97047
▁정상	-8.97166
▁타고	-8.97301
그러나	-8.97338
▁협력	-8.97353
료	-8.97357
인한	-8.97431
INS	-8.97717
위를	-8.97765
했을	-8.97771
▁있고	-8.97911
▁이동	-8.97946
▁L	-8.97973
▁받을	-8.98053
▁작전	-8.98125
▁원문	-8.98127
단체	-8.98279
▁티베트	-8.98281
▁기업	-8.98286
자들은	-8.983
▁도로	-8.98337
▁아들	-8.98402
K	-8.98412
▁예상	-8.985
▁시위대	-8.98524
▁재판	-8.98586
년까지	-8.98588
▁아프가니스탄	-8.98613
언	-8.98636
▁노무현	-8.98805
▁결국	-8.98851
▁콜롬비아	-8.98954
▁상원	-8.99047
지역	-8.99149
년에	-8.99166
시켰다	-8.99278
▁헤	-8.99406
▁역시	-8.99585
▁현	-8.99785
▁야	-8.99812
▁c	-8.99895
▁사진	-8.99903
▁딸	-8.99936
현	-8.99976
으나	-9.00023
▁번째	-9.00121
▁변	-9.00135
하려	-9.00316
▁에너지	-9.00516
▁s	-9.00517
렌	-9.00539
정부	-9.00708
le	-9.00807
▁내년	-9.00812
▁마련	-9.00867
▁친구	-9.00936
▁얻	-9.01009
▁빌	-9.01027
▁2003	-9.01047
▁열리는	-9.0107
▁곧	-9.01106
v	-9.01117
에서도	-9.01166
▁이유로	-9.012
▁숨졌다	-9.01485
w	-9.01629
▁인권	-9.01826
▁유지	-9.01827
▁언급	-9.01879
▁수준	-9.01887
리아	-9.01903
▁산업	-9.02058
▁출전	-9.02093
▁60	-9.02149
▁사건에	-9.02162
▁국무부	-9.02167
▁눈	-9.02227
&	-9.02251
▁타임즈	-9.02556
▁Korea	-9.02698
음	-9.02744
독해	-9.02773
▁문제에	-9.02808
▁경쟁	-9.03195
▁운동	-9.03234
▁예	-9.0334
남	-9.03348
▁이제	-9.03448
▁전망	-9.03566
k	-9.03581
▁연설	-9.03604
박	-9.03674
▁강화	-9.03917
말	-9.04006
표	-9.04278
▁예정이라고	-9.04283
▁토	-9.04438
▁어떻게	-9.04445
상을	-9.04511
▁최초	-9.04646
하라	-9.0467
ch	-9.0473
▁훈련	-9.05032
락	-9.05123
▁시스템	-9.05389
▁회복	-9.05623
▁경선	-9.05627
등	-9.05691
▁알리	-9.05714
▁대회	-9.05722
▁체	-9.05796
▁같다	-9.05804
범	-9.05919
▁주변	-9.06064
▁경고	-9.06229
▁레바논	-9.06356
▁제작	-9.06375
하려는	-9.06479
▁번	-9.0655
태	-9.06568
▁선수	-9.06574
▁성장	-9.06661
▁승인	-9.06748
▁지명	-9.06792
일간	-9.06851
▁한국인	-9.06864
▁시작했다	-9.06867
이자	-9.06886
▁전문가들은	-9.06893
집	-9.06899
▁태	-9.06978
승	-9.07144
30	-9.07206
▁임무	-9.07209
▁까지	-9.0736
▁천	-9.07469
▁방안	-9.07497
▁또는	-9.07508
▁200	-9.07533
▁일정	-9.07548
▁요구했다	-9.07574
▁정보를	-9.07578
외	-9.07637
▁인구	-9.07643
▁태국	-9.07666
성을	-9.07667
로서	-9.07772
▁있기	-9.07802
각	-9.07848
▁국회	-9.07918
만원	-9.07976
▁있게	-9.08056
▁음악	-9.08069
▁마을	-9.08123
열	-9.08127
▁이같	-9.08272
0	-9.0829
▁박	-9.08292
▁데이비드	-9.0839
▁대선후보	-9.08397
▁멕시코	-9.08501
명과	-9.08726
▁2000	-9.08862
▁대신	-9.0894
▁디	-9.09183
▁보고서	-9.09186
▁관	-9.09311
com	-9.09334
▁발견했다	-9.09343
▁과학자들	-9.09361
기도	-9.0938
~	-9.09385
▁선택	-9.09509
▁아프리카	-9.09587
▁주말	-9.09701
▁비디오	-9.10013
▁앞두고	-9.10013
▁수술	-9.10034
▁네	-9.10084
▁대변인	-9.10292
하거나	-9.10383
▁한나라당	-9.10393
▁비롯	-9.10428
b	-9.10471
▁사망하고	-9.10473
플	-9.1057
▁여객기	-9.10579
장을	-9.10678
▁어린이	-9.10699
▁너무	-9.10715
렸다	-9.10753
▁생각한다	-9.10758
씨는	-9.10766
▁학생	-9.10815
▁교육	-9.10863
림	-9.10959
있다	-9.11005
▁배우	-9.11248
▁나타났다	-9.1131
자가	-9.11409
▁운영	-9.11584
입	-9.11847
▁개최	-9.11954
▁관할	-9.11991
▁대사관	-9.12014
▁민간인	-9.12214
▁패	-9.12271
▁항공	-9.12362
▁폭력	-9.12543
리는	-9.12589
▁전투	-9.12767
re	-9.12807
▁장관	-9.12859
▁있었던	-9.12945
▁전세계	-9.12969
▁정당	-9.13261
▁포함한	-9.13279
▁주도	-9.13293
▁담	-9.1336
▁행정부	-9.13494
되기	-9.13639
▁용	-9.13662
▁도움	-9.13698
혀	-9.13741
▁대규모	-9.13776
H	-9.13993
▁받아	-9.14061
▁가지	-9.14107
▁참가	-9.14194
▁바로	-9.14205
자인	-9.14239
▁판사	-9.14321
업체	-9.14325
망	-9.14329
억달러	-9.14378
▁화재	-9.14569
▁아닌	-9.14634
▁감	-9.14778
록	-9.14813
스타	-9.14882
ri	-9.14963
▁여전	-9.15139
▁편	-9.15183
▁인도네시아	-9.15211
들에	-9.15329
▁로버트	-9.1548
▁살고	-9.15577
▁동물	-9.15683
▁브라운	-9.15696
▁남편	-9.15715
▁연합	-9.15926
채	-9.15928
자들이	-9.16
▁교수는	-9.16125
▁찾아	-9.16137
▁출연	-9.1627
▁무장세력	-9.16348
톤	-9.16373
▁주민	-9.16408
▁안에	-9.16447
▁가지고	-9.16499
▁의원은	-9.16536
합니다	-9.16573
▁촉구했다	-9.16681
▁벌	-9.16769
▁밝혀졌다	-9.16791
퍼센트	-9.16803
주의	-9.16943
▁무장	-9.16994
50	-9.17024
불	-9.17193
▁온라인	-9.1722
▁계약	-9.17246
▁갈	-9.17261
▁2002	-9.17262
)'	-9.17557
▁규정	-9.17662
▁입은	-9.17732
▁31	-9.17764
우리	-9.17778
▁총선	-9.17921
▁수단	-9.17929
▁구성	-9.17999
엔	-9.18149
▁특히	-9.18173
▁요	-9.18207
▁입었다	-9.18329
▁안보	-9.18348
▁인간	-9.18362
▁빈	-9.18383
▁그들의	-9.18544
▁연료	-9.18568
▁앤	-9.18705
해왔다	-9.18775
▁수입	-9.18891
▁건	-9.18993
▁국내	-9.19037
▁스타	-9.19046
▁제재	-9.19108
갈	-9.19376
▁경기에서	-9.19422
▁암	-9.19518
st	-9.19543
자회담	-9.19584
▁통신	-9.1966
▁LA	-9.19686
▁말한다	-9.19814
▁제품	-9.19843
▁U	-9.19879
링	-9.19886
▁부통령	-9.19893
▁잡	-9.19908
▁이상이	-9.19999
▁해안	-9.20006
센터	-9.20026
W	-9.20058
▁만나	-9.20098
블	-9.2024
▁홍콩	-9.20346
▁직원	-9.20381
탈	-9.20411
골	-9.20421
▁여자	-9.20499
▁작은	-9.20509
▁수치	-9.20522
▁파괴	-9.20629
▁관계자가	-9.20704
▁re	-9.20763
▁웹사이트	-9.20809
▁최종	-9.2082
▁했다고	-9.21181
▁심각한	-9.21254
▁푸틴	-9.21258
▁일이	-9.21305
▁열차	-9.21355
▁담당	-9.21409
es	-9.21511
▁일을	-9.21575
at	-9.21679
회사	-9.21698
격	-9.21776
▁인기	-9.21779
▁필요하다	-9.21963
▁왕	-9.22134
곳	-9.22141
▁메시지	-9.22177
▁밝힌	-9.2218
▁대의원	-9.22199
▁경고했다	-9.22206
백	-9.22238
▁걸	-9.22247
▁사임	-9.22255
▁넘	-9.22316
▁없을	-9.22639
un	-9.22651
▁파업	-9.22687
ra	-9.22689
▁가치	-9.2269
▁중인	-9.22718
▁개선	-9.22778
누	-9.22844
5%	-9.22904
▁플로리다	-9.22912
줄	-9.22929
▁올라	-9.23056
▁사실	-9.23079
▁과거	-9.23128
하겠다	-9.23191
▁만들어	-9.23252
▁아무	-9.23278
쿠	-9.23344
▁환자	-9.23362
▁반응	-9.23376
▁f	-9.23384
월에	-9.23429
▁부대	-9.23442
▁주식	-9.23634
▁잠	-9.23833
른	-9.23972
▁캐나다	-9.24041
▁발표한	-9.24045
▁광고	-9.24162
환	-9.24435
▁관리들	-9.24469
▁아기	-9.24557
▁다양	-9.24584
한다는	-9.24587
▁마이클	-9.24668
▁벌였다	-9.24776
▁동부	-9.24849
▁변호사	-9.25025
▁라디오	-9.25155
▁지나	-9.25323
▁총격	-9.25381
ation	-9.25393
▁얼마	-9.25405
▁원인	-9.25437
▁외국인	-9.25448
▁b	-9.25492
▁시험	-9.25497
▁K	-9.25513
▁비해	-9.25595
▁기대	-9.25718
▁대만	-9.25851
▁기록했다	-9.2622
▁자유	-9.2627
샤	-9.26277
▁화요일	-9.26352
▁미국인	-9.26561
▁서로	-9.2658
▁커	-9.26673
▁통제	-9.26685
사는	-9.26732
▁내려	-9.26796
▁이라크에서	-9.26856
▁힐	-9.26933
▁문화	-9.27035
▁강제	-9.27039
▁지역의	-9.27066
사건	-9.27104
▁책임	-9.27117
▁중동	-9.27331
년부터	-9.27351
▁이유	-9.27371
▁브라질	-9.27391
▁식량	-9.27411
▁위반	-9.27437
▁진압	-9.27515
▁가스	-9.27545
▁헬기	-9.2758
▁작품	-9.27661
▁감시	-9.27731
ic	-9.27868
▁스미스	-9.27879
▁여름	-9.27893
ro	-9.279
▁영	-9.28016
이었던	-9.28067
쉬	-9.2827
▁실시	-9.2836
▁제한	-9.28364
▁케냐	-9.28373
▁실험	-9.28384
▁북	-9.28594
▁외국	-9.28721
랑	-9.28775
▁사과	-9.28794
▁머리	-9.28869
▁국무장관	-9.28902
▁그런	-9.28952
▁명이	-9.28967
▁국영	-9.28976
▁수출	-9.2898
▁짐바브웨	-9.28984
▁내렸다	-9.29064
▁누	-9.29078
▁후보가	-9.29166
힌	-9.29351
▁수행	-9.29359
거리	-9.29366
▁각각	-9.29373
▁비용	-9.29486
▁거리	-9.29695
▁같이	-9.29767
▁양국	-9.29812
▁시아파	-9.29854
▁소송	-9.2987
▁쓰	-9.29957
▁미국에서	-9.30031
▁청	-9.30127
▁나는	-9.30172
광	-9.30245
▁해군	-9.30261
▁밖에	-9.30263
▁축구	-9.30295
장이	-9.30299
▁대변인이	-9.3032
액	-9.30337
▁평균	-9.30358
시키는	-9.30487
▁권리	-9.30501
▁특별	-9.30522
▁금	-9.30601
▁행	-9.3062
▁차례	-9.30679
▁부분	-9.30782
▁시즌	-9.30836
▁하원	-9.30878
▁샤	-9.30891
▁남성	-9.30923
=2	-9.31007
율	-9.31042
▁배치	-9.31055
▁쇼	-9.31096
▁인상	-9.31116
▁목표	-9.31164
20	-9.31188
▁접근	-9.31366
▁목적	-9.31377
▁전달	-9.31473
▁놓	-9.31904
▁여론조사	-9.31913
▁과정에서	-9.31925
회의	-9.31956
▁나온	-9.31975
▁삼	-9.32022
▁않아	-9.32076
▁일본의	-9.32092
ur	-9.32096
▁엘	-9.32268
▁발견됐다	-9.32328
▁US	-9.32331
▁텍사스	-9.32369
▁차이	-9.32371
시켜	-9.32378
▁약속	-9.3262
▁병	-9.32671
▁정권	-9.32764
▁버스	-9.3277
▁선정	-9.3277
랜드	-9.32771
▁국민들	-9.32836
▁처리	-9.32843
▁구속	-9.3295
▁파병	-9.32956
▁사원	-9.33056
레이	-9.33147
▁귀	-9.333
▁경찰에	-9.33346
튼	-9.33363
일까지	-9.33423
▁공연	-9.33484
▁몸	-9.33484
▁무역	-9.33504
▁사건이	-9.33512
▁쿠	-9.33535
이란	-9.33682
책	-9.3371
때	-9.33735
▁책	-9.33812
것	-9.33833
▁극	-9.33858
▁당신	-9.33861
▁위성	-9.33895
▁걸쳐	-9.33941
왔다	-9.34137
▁가자지구	-9.34138
▁퍼	-9.34324
▁설치	-9.34337
▁다리	-9.34365
▁위원회	-9.34535
대로	-9.3455
▁자료	-9.34584
씨	-9.34666
개국	-9.3467
▁설명	-9.34712
▁수상	-9.34743
▁사이에	-9.34779
▁센터	-9.34789
▁항공사	-9.34894
▁부상했다	-9.34916
▁의미	-9.34937
▁테	-9.34987
페	-9.35009
▁2007	-9.35259
관계	-9.35261
▁도착	-9.35317
▁/	-9.35337
▁500	-9.35386
▁평	-9.3543
▁음식	-9.35544
▁제공	-9.35584
▁사실이	-9.35619
is	-9.35673
▁살인	-9.35699
▁주재	-9.35762
▁헌법	-9.35819
▁평가	-9.35839
▁투	-9.35976
▁설립	-9.36034
▁허용	-9.36064
▁사랑	-9.36074
▁집중	-9.36088
▁E	-9.36126
▁발전	-9.36154
▁안정	-9.36247
▁대상으로	-9.36257
▁섬	-9.36309
▁J	-9.36383
흐	-9.36492
▁이에앞서	-9.36557
▁논쟁	-9.36558
▁허	-9.36575
▁수요일	-9.36598
엘	-9.3669
▁선고	-9.367
▁결정했다	-9.36741
령	-9.3677
세기	-9.36775
▁기소	-9.36796
은행	-9.368
▁촬영	-9.36834
▁주지사	-9.3687
500	-9.36975
▁기관	-9.36981
▁되	-9.37009
▁것과	-9.3704
향	-9.37068
▁바이러스	-9.37094
▁사퇴	-9.37114
▁그룹	-9.37139
창	-9.37219
▁질	-9.3731
여명	-9.37399
▁관계자들은	-9.37434
▁칼	-9.3746
▁유일	-9.37511
기로	-9.37558
하였다	-9.37561
▁외교	-9.37573
움	-9.37587
술	-9.37609
▁성폭행	-9.37629
▁공습	-9.37656
▁거부	-9.37694
자들	-9.37783
▁The	-9.37869
▁참석	-9.37901
하다고	-9.37972
▁희망	-9.38042
▁암살	-9.3805
자는	-9.38067
▁부모	-9.38076
▁주민들	-9.38163
▁알려진	-9.38182
동안	-9.38184
▁나이	-9.38188
▁교수	-9.38195
▁서부	-9.38211
▁대해서는	-9.38238
▁인물	-9.38282
빈	-9.38326
가지	-9.38348
▁발견된	-9.38378
▁되어	-9.38682
▁한다는	-9.38688
▁받는	-9.38703
▁차베스	-9.38719
▁혼란	-9.38725
▁압력	-9.38736
▁후세인	-9.38752
▁임명	-9.38807
▁집회	-9.38922
▁단계	-9.38971
▁전국	-9.39011
중인	-9.39138
규	-9.3915
▁완전	-9.39265
▁요청했다	-9.39307
라며	-9.3943
시키기	-9.39468
▁교회	-9.3947
▁EU	-9.39499
▁on	-9.39555
습	-9.39676
▁상대로	-9.39806
▁기지	-9.39809
▁바란다	-9.39811
평	-9.39826
▁당선	-9.3987
▁교전	-9.39976
협회	-9.40015
▁그들이	-9.40051
▁마약	-9.40054
명으로	-9.40214
▁신원	-9.40256
▁변호사는	-9.40267
▁익명	-9.40495
▁감염	-9.40662
▁I	-9.4077
▁후보는	-9.40878
했	-9.40902
▁대응	-9.40929
▁야후	-9.40943
▁제기	-9.41026
▁집단	-9.41038
▁예상된다	-9.41044
▁근	-9.4113
▁기사	-9.41137
총	-9.4115
사를	-9.41164
이라크	-9.41222
▁왕자	-9.41232
▁질문	-9.41447
▁복귀	-9.41479
런	-9.41483
▁시리아	-9.41552
▁게	-9.41685
▁접	-9.41761
▁불만	-9.41799
▁이명박	-9.42038
▁밝혔습니다	-9.42043
▁구매	-9.42084
9	-9.42085
▁크게	-9.42153
▁로마	-9.42218
▁있지	-9.42237
▁아직까지	-9.42241
시키고	-9.42277
▁끝	-9.42472
▁남한	-9.42538
▁탑승	-9.42585
▁북핵	-9.42606
▁고용	-9.42723
례	-9.42756
et	-9.42792
▁추락	-9.42854
▁항의	-9.42903
기구	-9.42912
▁받지	-9.42912
항	-9.42917
▁붕괴	-9.42976
▁죽	-9.42978
빌	-9.43278
▁사형	-9.43291
▁판	-9.4335
▁이곳	-9.43373
애	-9.434
되었습니다	-9.43498
하기도	-9.43566
▁사는	-9.43584
▁인터뷰	-9.43617
앙	-9.43628
▁저장	-9.43668
▁목	-9.43833
▁임시	-9.43852
▁허가	-9.43866
▁사람은	-9.43959
하지만	-9.43994
▁중국은	-9.44019
킨	-9.44103
리스	-9.44108
일부터	-9.44213
측은	-9.44246
▁이집트	-9.44318
▁연결	-9.44346
▁베네수엘라	-9.44446
▁인수	-9.44497
▁어머니	-9.44497
▁추진	-9.44753
▁슈	-9.44761
드는	-9.44778
▁합니다	-9.44807
▁아니라고	-9.44819
▁따른	-9.44905
▁따	-9.44955
▁적이	-9.44955
▁사람들을	-9.45076
as	-9.45126
▁민주주의	-9.45138
▁세력	-9.45227
▁글	-9.45325
▁위해서는	-9.45334
경기	-9.45463
▁때까지	-9.45486
▁여론	-9.45515
▁정부와	-9.45616
받	-9.45661
축	-9.45671
▁부부	-9.45696
견	-9.457
▁밀	-9.45708
▁사이트	-9.4574
▁시민	-9.45816
▁마크	-9.45841
▁크	-9.4605
▁검토	-9.46062
▁최악	-9.46068
까	-9.46093
▁권력	-9.46095
변	-9.4612
▁쿠바	-9.46122
▁일반	-9.46125
▁받게	-9.46143
▁모델	-9.46397
▁임기	-9.46521
▁하기	-9.46561
름	-9.46704
▁움직임	-9.46766
▁2001	-9.46792
▁나가	-9.46797
북	-9.46873
▁되고	-9.46949
▁비판	-9.46963
▁장면	-9.47174
▁높이	-9.47241
▁무장단체	-9.47258
담	-9.47326
▁명령	-9.47333
▁상원의원이	-9.47338
만이	-9.47415
▁가졌다	-9.47439
수가	-9.47464
▁지불	-9.4748
▁매년	-9.47547
▁못하고	-9.47583
되었다고	-9.47636
▁선출	-9.4765
▁유명	-9.47684
▁내부	-9.47688
▁과정	-9.47695
▁수십	-9.4771
▁신고	-9.47713
그는	-9.47852
▁진출	-9.47871
했다는	-9.47905
▁유권자들	-9.47905
▁수색	-9.47919
▁남북	-9.48075
▁최	-9.48076
▁긴장	-9.48078
▁뿐	-9.48204
▁공격으로	-9.48217
sp	-9.48279
▁계획이다	-9.48291
el	-9.48369
▁일요일	-9.48437
▁사무실	-9.48449
▁두고	-9.48483
▁언급했다	-9.48507
▁들어가	-9.48516
se	-9.48523
▁중앙	-9.4855
▁자체	-9.48579
▁보냈다	-9.48664
▁달리	-9.48669
▁주가	-9.48704
폭	-9.48742
스터	-9.48774
▁분쟁	-9.48814
별	-9.48832
▁강력한	-9.48909
안을	-9.48912
▁동료	-9.49028
▁필리핀	-9.49038
▁이끄는	-9.49039
▁R	-9.49042
▁탄	-9.49077
▁수많은	-9.49146
글	-9.49154
▁도움이	-9.49169
▁나왔다	-9.49223
이라	-9.49322
▁밝혀	-9.49334
냈다	-9.49392
▁장소	-9.49439
손	-9.49474
▁못한	-9.49488
▁파견	-9.49526
▁사항	-9.49533
장에서	-9.49644
▁브	-9.4966
▁월요일	-9.49712
▁선수들	-9.49735
▁밝히지	-9.49757
▁병사	-9.49783
▁개혁	-9.49842
▁보고서는	-9.49861
▁확인했다	-9.49894
▁캐	-9.4992
▁강한	-9.49946
▁의장	-9.50021
리자	-9.50077
▁바다	-9.50087
▁의료	-9.50287
▁오른	-9.50295
▁거대	-9.50373
▁향해	-9.50376
겠다	-9.50403
▁파리	-9.5061
▁위치	-9.50623
▁전시	-9.50631
악	-9.50667
10	-9.50688
‘	-9.50777
▁한반도	-9.50868
▁전력	-9.50892
▁떠나	-9.5101
▁항공기	-9.51049
▁정부에	-9.51301
▁상대	-9.51334
▁수익	-9.51378
▁군대	-9.51452
▁p	-9.51573
다른	-9.51718
▁않	-9.51731
되면서	-9.51744
대가	-9.51809
롭	-9.52072
▁비슷	-9.52105
▁흑인	-9.52112
▁긴급	-9.52121
▁관해	-9.52139
▁누구	-9.52176
▁작년	-9.52322
ion	-9.52415
▁80	-9.52418
▁칸	-9.52436
▁대사	-9.52489
▁제거	-9.5256
▁고려	-9.52635
▁참여	-9.52698
▁특	-9.52713
▁종교	-9.52724
▁증시	-9.52724
▁나머지	-9.52731
ID	-9.52848
▁관광객	-9.52974
▁상황이	-9.53021
▁지진	-9.53028
▁주지사는	-9.53045
▁사우디	-9.53376
▁포기	-9.53486
▁올랐다	-9.53506
슬	-9.53553
▁부상자	-9.53702
▁막기	-9.53705
이지만	-9.53785
▁소리	-9.53865
냐	-9.5393
혈	-9.53949
▁백	-9.53953
▁목숨	-9.53993
▁숨지고	-9.53995
클	-9.53996
▁프로	-9.54058
▁소재	-9.54092
문제	-9.54155
족	-9.54213
ate	-9.54276
op	-9.5442
만한	-9.54468
존	-9.54482
▁be	-9.54526
▁도쿄	-9.54629
▁국립	-9.54644
▁다음달	-9.54664
▁되었다	-9.54694
▁있	-9.54714
▁오르	-9.54771
▁취	-9.54777
ir	-9.5481
▁1000	-9.5482
틀	-9.54863
▁대중	-9.54871
▁북한에	-9.54959
▁가정	-9.5498
밀	-9.55094
▁감사	-9.55136
▁순	-9.55167
▁유권자	-9.55198
▁희생자	-9.55207
볼	-9.5529
맨	-9.55306
▁뇌	-9.55324
▁국방장관	-9.55358
▁중심	-9.55525
▁중에	-9.55618
▁비밀	-9.55627
국가	-9.55642
랜	-9.55691
▁세금	-9.55698
성이	-9.55776
▁올리	-9.5589
랄	-9.55911
▁제임스	-9.55916
▁UN	-9.55927
▁어느	-9.55935
분기	-9.55942
▁O	-9.55985
▁주장하고	-9.56027
▁수감	-9.56052
▁아내	-9.56176
us	-9.56245
▁받았다고	-9.56295
▁사람들에게	-9.56332
대의	-9.56332
▁직원들	-9.56385
▁따라	-9.5652
▁동의	-9.56659
▁총기	-9.56693
▁가능한	-9.56702
▁되지	-9.56734
▁만큼	-9.56894
il	-9.56898
▁있다며	-9.56995
으로서	-9.57012
▁제출	-9.57041
ist	-9.57074
착	-9.57076
▁이라크전	-9.57122
▁넘는	-9.57147
▁착륙	-9.57173
▁싶다	-9.57218
▁외무부	-9.57218
▁충격	-9.57226
▁출발	-9.57237
▁질문에	-9.57299
철	-9.573
▁전기	-9.57339
▁처	-9.57501
▁업체	-9.57571
▁만들	-9.57617
▁씨	-9.57811
욕	-9.57828
▁정도로	-9.57843
▁적어도	-9.57877
돌	-9.5788
▁학생들	-9.57932
허	-9.57936
▁작업을	-9.58013
▁대비	-9.58106
▁악	-9.58126
40	-9.58206
▁노조	-9.58258
▁공장	-9.58294
▁끝에	-9.58303
▁것이라	-9.58417
▁후에	-9.58535
지도	-9.58586
취	-9.58586
▁기념	-9.58624
▁여당	-9.58661
3%	-9.5874
▁합	-9.58756
▁곳에서	-9.58785
여명이	-9.58813
▁가까	-9.58976
▁해리	-9.58997
올	-9.59075
기간	-9.59079
▁약물	-9.59149
▁어떠한	-9.59205
▁허리케인	-9.59205
▁의혹	-9.59227
▁패배	-9.59233
▁선두	-9.59262
▁제시	-9.59376
트는	-9.59517
슈	-9.5955
되	-9.59667
▁고통	-9.59673
능	-9.59699
센	-9.59865
▁접촉	-9.5988
▁시기	-9.59895
▁동결	-9.59936
준	-9.59944
▁보장	-9.59945
▁공공	-9.60024
▁여성이	-9.60214
기가	-9.60225
▁시행	-9.60234
▁보여주	-9.60239
▁발생했다고	-9.60258
▁수천명	-9.60272
▁주의	-9.60278
▁입고	-9.60407
▁이래	-9.60511
x	-9.6054
씩	-9.60552
▁유로	-9.60552
▁일자리	-9.60591
▁출마	-9.60619
▁교통	-9.60641
▁자국	-9.60662
▁이달	-9.60732
▁선언	-9.6078
▁마리	-9.60966
▁전문가	-9.61022
▁관계자	-9.6104
▁수천	-9.6111
▁방문한	-9.61112
이어	-9.61157
패	-9.61191
▁유명한	-9.61205
▁없어	-9.61232
▁확대	-9.61232
▁압박	-9.61239
갔다	-9.61299
▁제조	-9.61301
▁삶	-9.61313
였습니다	-9.61338
▁숨	-9.61444
5000	-9.61457
▁발생해	-9.61608
시키	-9.6162
▁소비자	-9.61649
▁승객	-9.61717
▁측	-9.61728
▁합의했다	-9.61759
▁전자	-9.61837
▁300	-9.61889
ol	-9.61906
컵	-9.61912
딘	-9.61917
▁사진을	-9.61968
▁부정	-9.6199
▁자리	-9.62031
▁미군이	-9.62167
▁노동	-9.62175
▁팬들	-9.62213
▁폭	-9.62249
▁사상	-9.62279
ck	-9.62315
▁벤	-9.6233
▁슬	-9.62385
▁35	-9.62396
험	-9.62424
▁보건	-9.62424
칠	-9.62447
겠다고	-9.62499
엄	-9.62595
▁오바마가	-9.62597
▁어려움	-9.6261
▁w	-9.62635
▁찰스	-9.6266
▁피해자	-9.62679
▁유죄	-9.62705
▁완화	-9.62722
▁아주	-9.62726
▁구호	-9.6273
▁자연	-9.62755
▁표현	-9.62892
▁등의	-9.62901
▁수백	-9.63002
▁고문	-9.63052
▁독	-9.63136
ut	-9.63158
▁차지	-9.63183
▁인사	-9.63225
▁외무장관	-9.63301
▁관광	-9.63336
▁지배	-9.63448
인지	-9.63461
J	-9.63507
▁듯	-9.6354
▁정신	-9.63636
▁대해서	-9.63643
▁대표는	-9.63684
▁지도자인	-9.63807
▁프리	-9.63901
▁마음	-9.63941
▁존스	-9.63949
▁로켓	-9.63986
▁병원에	-9.63992
▁빠져	-9.63999
▁소말리아	-9.64
▁목소리	-9.64003
▁소녀	-9.64026
▁휴	-9.64083
▁것인지	-9.64174
▁창	-9.64179
검	-9.64233
섬	-9.64262
사가	-9.64269
스러운	-9.64275
▁대화	-9.64306
시장	-9.64339
▁심장	-9.64429
▁체포됐다	-9.64472
몬	-9.64496
션	-9.64533
▁주민들이	-9.64563
▁현장	-9.64609
▁그리스	-9.64632
▁끝나	-9.64649
▁작업	-9.64692
인들은	-9.647
▁않았지만	-9.64705
▁시상식	-9.64705
▁폐	-9.64771
▁가질	-9.64852
해졌다	-9.64925
▁민	-9.64996
▁연장	-9.65039
▁능력	-9.65161
▁시간이	-9.65184
▁울	-9.65209
▁나오	-9.65217
▁공군	-9.65221
▁해제	-9.65262
▁언론은	-9.65269
▁국가들	-9.65311
▁상당	-9.65389
▁신뢰	-9.65418
▁숨진	-9.65472
월부터	-9.65473
▁군인	-9.65516
▁등록	-9.65524
▁적용	-9.65546
▁망명	-9.65663
▁연구소	-9.65669
순	-9.65817
염	-9.65852
▁해야	-9.65909
▁카운티	-9.65964
▁보여	-9.6605
▁취임	-9.66084
▁게이츠	-9.66129
▁머물	-9.66151
▁절차	-9.66171
▁격	-9.6624
▁뉴	-9.66316
▁이라크에	-9.66374
▁폭력사태	-9.66436
▁지도자들	-9.66509
▁카메라	-9.66534
▁유세	-9.66622
▁목표로	-9.6663
7%	-9.66694
▁대법원	-9.66812
▁걱정	-9.66848
▁말레이시아	-9.66848
▁프로젝트	-9.66848
싼	-9.66848
▁사건은	-9.66848
▁휴대폰	-9.66849
▁트럭	-9.66851
벨	-9.66853
▁관련해	-9.66878
▁반대하는	-9.6692
턴	-9.66931
▁0	-9.66952
▁그것은	-9.66971
졌	-9.66971
▁존재	-9.66972
▁아베	-9.67026
▁취소	-9.67059
▁기억	-9.67094
▁강력	-9.67117
이것은	-9.67141
했는데	-9.67206
▁최고의	-9.67252
▁경제적	-9.67467
▁g	-9.67561
다면	-9.67561
▁청와대	-9.67573
▁아무런	-9.67585
▁여왕	-9.67589
▁보이는	-9.67602
▁물론	-9.67638
▁내무부	-9.67678
ment	-9.6769
▁오래	-9.67709
▁사기	-9.6775
▁전문	-9.67848
▁당선인	-9.6787
봉	-9.67882
알	-9.67888
▁받았	-9.6794
쇼	-9.67949
거래	-9.68003
▁시카고	-9.6802
2%	-9.68027
▁넣	-9.68207
▁젊은	-9.68228
갑	-9.68266
6%	-9.68313
▁힐튼	-9.68316
▁뛰어	-9.68337
▁항상	-9.6836
▁순간	-9.68388
▁경찰관	-9.68465
▁탈	-9.68495
▁영어	-9.68542
id	-9.68559
60	-9.68577
▁현대	-9.68717
척	-9.6872
람	-9.6881
▁학	-9.68853
▁목요일	-9.68933
▁등을	-9.6902
▁마드리드	-9.69037
▁신화통신	-9.69039
스가	-9.69078
▁추정	-9.69143
인들이	-9.69205
▁미래	-9.69227
▁법안을	-9.69237
▁옷	-9.69242
중국	-9.69265
▁집행	-9.69304
200	-9.69375
▁들고	-9.69387
The	-9.69448
▁수석	-9.69451
▁자주	-9.69648
▁지역을	-9.69687
▁맺	-9.69694
▁놓고	-9.69745
▁밝혀지지	-9.69779
▁운행	-9.69786
▁투입	-9.69794
▁확산	-9.69861
▁신청	-9.6987
관리	-9.69931
▁관계자들	-9.69958
한다면	-9.69975
▁박물관	-9.7014
▁촉구	-9.70164
찬	-9.70192
방송	-9.70199
▁입원	-9.702
활동	-9.70222
연합	-9.70243
▁오픈	-9.70251
▁선거에서	-9.703
▁효과	-9.70448
▁시작된	-9.70477
지에	-9.70478
▁전략	-9.70534
▁국제사회	-9.70547
▁법률	-9.70554
▁만약	-9.70711
▁도중	-9.70772
▁실패	-9.70859
낸	-9.70894
▁개의	-9.70914
▁도전	-9.71041
▁비상	-9.71135
쳤다	-9.71211
la	-9.71251
▁나타나	-9.71277
▁수니파	-9.71278
▁이수지	-9.71293
▁죽음	-9.71309
▁넘어	-9.71318
▁집권	-9.71334
▁판단	-9.71342
시설	-9.71357
▁좀	-9.71425
ers	-9.71439
▁굴	-9.71523
▁이전에	-9.71556
▁미군은	-9.7165
테러	-9.71771
▁레이	-9.71826
▁있음을	-9.71895
▁회담에서	-9.72001
▁얼굴	-9.72035
▁베컴	-9.72043
▁90	-9.72061
▁연속	-9.72087
▁조건	-9.72106
▁결의안	-9.72117
▁집계	-9.72152
▁형	-9.7219
었습니다	-9.72308
로써	-9.72324
백만	-9.72344
)/	-9.72398
▁수반	-9.72402
▁소식	-9.72419
▁장기	-9.72509
#	-9.72524
▁술	-9.72553
▁농	-9.7258
▁과학	-9.72585
▁콜	-9.72605
▁가수	-9.72641
ent	-9.72725
▁만든	-9.72774
▁전까지	-9.72789
▁올메르트	-9.72797
▁잉글랜드	-9.72797
▁아파트	-9.72798
▁억류	-9.72801
▁물질	-9.72802
▁애플	-9.72823
▁부패	-9.72844
기에	-9.72844
▁구입	-9.72848
▁윌리엄	-9.72901
었다고	-9.72983
겼다	-9.72992
▁h	-9.73109
레스	-9.73115
▁저지	-9.73116
▁기회	-9.73157
녀	-9.73183
▁영상	-9.73204
▁있는지	-9.73208
▁임	-9.73238
U	-9.7326
▁정말	-9.73342
▁당했다	-9.73409
▁연설에서	-9.73444
▁예측	-9.73467
으면	-9.73529
만명이	-9.73551
치는	-9.73554
▁스포츠	-9.73566
▁아랍	-9.73577
▁근무	-9.73582
▁찬성	-9.73656
▁분노	-9.73667
▁차기	-9.73679
▁체포했다	-9.73723
▁사상자	-9.73795
▁연합군	-9.73882
▁수정	-9.73887
드리	-9.73947
▁국	-9.73992
▁대피	-9.7411
▁지지자들	-9.74153
렸	-9.74155
▁자녀	-9.74168
▁받	-9.74226
▁겪고	-9.74342
▁크리스마스	-9.74342
▁직후	-9.74357
▁마무리	-9.74401
▁환영	-9.74419
▁홍보	-9.74431
었으며	-9.74473
▁대형	-9.74498
▁깨	-9.74516
▁소장	-9.7452
▁웨	-9.74584
▁낮	-9.74917
▁한국은	-9.74917
▁버지니아	-9.74937
▁곳에	-9.75024
▁블레어	-9.75123
있	-9.75126
▁분석	-9.75232
▁전통	-9.75232
▁주민들은	-9.75257
▁핵심	-9.75276
▁외교부	-9.75287
▁씨는	-9.75349
th	-9.75383
▁축하	-9.75385
시킨	-9.75404
표를	-9.75507
겨	-9.75579
새	-9.75582
▁영국의	-9.75646
킬	-9.75673
왕	-9.75701
▁절	-9.75842
빙	-9.75863
마일	-9.75893
▁고양이	-9.75911
▁선포	-9.75924
▁임신	-9.75954
▁경계	-9.76026
▁한미	-9.76026
들도	-9.76089
ot	-9.76106
▁시대	-9.76151
▁케	-9.76257
▁마감	-9.76319
▁가능	-9.76362
근	-9.76364
▁악화	-9.76481
▁de	-9.76482
낼	-9.76507
▁성인	-9.76602
▁티	-9.76654
좌	-9.76693
▁때문	-9.76699
▁협의	-9.76704
▁비상사태	-9.76709
▁스스로	-9.76709
▁몇몇	-9.76712
▁원자로	-9.76737
▁산불	-9.76744
▁m	-9.76756
▁나토	-9.76778
▁소지	-9.76784
▁군부	-9.76876
▁약간	-9.76903
▁보이지	-9.7692
▁라이	-9.76968
했는지	-9.76985
▁그러	-9.77015
▁이란이	-9.77047
▁병원에서	-9.77072
▁맞아	-9.77075
cat	-9.77205
▁급	-9.77252
자로	-9.77268
▁유사	-9.77301
놓	-9.77314
▁무사	-9.77318
충	-9.77355
▁풀	-9.77388
통신	-9.77396
▁보이고	-9.77493
▁이밖에	-9.77504
▁빠른	-9.77504
▁빠르	-9.77505
▁탁신	-9.77505
▁처벌	-9.77511
▁BBC	-9.77515
▁감축	-9.7752
▁푸	-9.77645
센트	-9.77659
▁단지	-9.77708
▁돌아가	-9.77818
▁실시된	-9.77931
▁동시	-9.77938
▁광	-9.78019
▁클럽	-9.78066
▁보안관	-9.78179
▁난민	-9.78193
▁차지했다	-9.78259
▁높다	-9.7831
▁떨어져	-9.7831
▁협정	-9.7831
▁할리우드	-9.7831
▁일어난	-9.78311
▁고속도로	-9.78322
함으로써	-9.78332
▁절반	-9.78333
▁조금	-9.78421
▁실수	-9.78442
▁대책	-9.78574
▁문서	-9.78578
이었다고	-9.78654
극	-9.78838
▁거주	-9.78922
▁나무	-9.79017
겐	-9.79123
▁스피어스	-9.79125
joins	-9.79128
70	-9.79166
▁나타냈다	-9.7918
▁오랜	-9.79182
▁알려지	-9.79233
▁조작	-9.79239
▁그들	-9.79284
▁내각	-9.79285
트리	-9.79358
행위	-9.79378
▁의원이	-9.79382
▁소비	-9.79385
▁발생할	-9.79393
▁가량	-9.79405
▁치안	-9.79411
▁코소보	-9.79414
기관	-9.79461
선수	-9.79565
▁북한과	-9.79584
▁받기	-9.79635
▁팬	-9.79658
▁이미지	-9.79663
월까지	-9.79692
필	-9.7972
하길	-9.79728
▁불안	-9.7975
▁아마	-9.7981
▁출	-9.79838
▁중이다	-9.79844
▁소식을	-9.79898
▁공원	-9.79915
▁부인했다	-9.79937
렉	-9.79943
▁찾기	-9.79943
▁크리스토퍼	-9.79943
▁민병대	-9.79944
▁대화를	-9.80013
▁개정	-9.8002
▁고래	-9.80026
장에	-9.80026
▁이와같	-9.8005
▁윌리엄스	-9.80059
▁후보에	-9.80081
▁증가했다	-9.80104
▁70	-9.80118
달러를	-9.80151
▁사망했으며	-9.80185
지르	-9.80205
▁낮은	-9.80246
▁계	-9.80265
▁폭풍	-9.80329
▁놀라	-9.80365
▁실제	-9.80365
▁않겠다	-9.80377
한국	-9.80392
ht	-9.80414
▁그에게	-9.8047
▁초기	-9.80488
▁보기	-9.80498
▁매일	-9.80561
▁보낸	-9.80606
힐	-9.80705
▁프라이머리	-9.80735
cnn	-9.80773
▁보좌관	-9.8079
▁개봉	-9.80798
ce	-9.80804
▁확실히	-9.80813
▁Korean	-9.80825
▁노래	-9.80873
▁홀	-9.8096
▁원조	-9.80976
▁오랫동안	-9.80977
▁의심	-9.80988
▁베이	-9.81034
ive	-9.81043
▁알게	-9.81108
▁소년	-9.81161
▁성적	-9.81179
-1	-9.81205
▁동원	-9.81246
▁소유	-9.81316
▁둔	-9.81338
침	-9.81361
▁제외	-9.81471
▁위기에	-9.81488
벌	-9.815
▁그렇게	-9.81603
명에	-9.81625
▁개입	-9.81653
▁대표팀	-9.81664
▁추방	-9.81665
▁상황에서	-9.8167
▁말하고	-9.8168
▁약속했다	-9.81703
▁고든	-9.8171
니다	-9.81795
▁지지율	-9.81806
▁부르	-9.81831
tp	-9.8186
▁크리스	-9.81864
▁후반	-9.81913
▁집에서	-9.81984
▁소식통은	-9.82035
▁해당	-9.82061
ig	-9.82066
였다고	-9.82108
▁이용해	-9.82219
▁손상	-9.8228
▁나섰다	-9.82443
▁네덜란드	-9.82443
▁다쳤다	-9.82491
▁수백명	-9.82552
▁화성	-9.82568
▁원유	-9.8259
▁민간	-9.82606
▁기자회견	-9.8262
▁필	-9.82707
▁참석한	-9.82737
스크	-9.82752
▁단어	-9.82817
▁이혼	-9.82854
▁하며	-9.82862
▁블로그에	-9.82908
상태	-9.82909
▁붙	-9.8297
▁월드컵	-9.82991
▁후보로	-9.83006
▁경찰과	-9.8302
▁모습	-9.83053
▁전반	-9.83111
▁작	-9.83138
▁깊	-9.83223
셔	-9.83261
▁확정	-9.83291
▁무가베	-9.83292
://	-9.83295
주년	-9.83299
▁먼저	-9.833
▁하워드	-9.83301
▁담배	-9.83326
▁예산	-9.83366
▁즉	-9.83419
▁남성이	-9.83424
였으며	-9.83426
전에	-9.83512
▁몰	-9.83545
4%	-9.83575
▁대통령에게	-9.83605
▁의한	-9.83612
▁45	-9.83659
북한	-9.83688
▁속에	-9.83789
영화	-9.83825
▁중국이	-9.83826
자금	-9.83855
송	-9.83874
ak	-9.8389
▁방해	-9.83897
▁휴가	-9.83995
▁희생	-9.84004
▁기회를	-9.84043
▁150	-9.84047
▁작가	-9.841
▁실종	-9.84105
▁찾는	-9.84145
▁캠프	-9.84145
Total	-9.84147
code	-9.84151
▁배럴	-9.84166
▁철회	-9.8417
▁있었으며	-9.84171
▁사례	-9.84214
자와	-9.84335
▁대체	-9.84369
▁요구한	-9.84401
▁연구진	-9.8447
▁증명	-9.84505
▁세르비아	-9.84518
서는	-9.84598
운동	-9.84602
▁박사	-9.84619
잡	-9.84704
▁구성된	-9.8477
▁날씨	-9.84843
▁못할	-9.84904
▁아니	-9.84912
▁위험한	-9.84933
하려고	-9.84953
▁사용하는	-9.84957
젠	-9.85007
▁펜실베이니아	-9.85007
▁알려져	-9.85013
▁태풍	-9.85015
숙	-9.85044
귀	-9.85068
됐지만	-9.85074
▁이행	-9.85082
▁2009	-9.85086
▁교체	-9.8509
▁연루	-9.85104
▁우크라이나	-9.85155
▁조정	-9.85183
▁법적	-9.85195
줬다	-9.85218
▁지급	-9.85225
▁그것	-9.85251
TV	-9.85252
▁수는	-9.85309
▁#	-9.85313
▁범인	-9.85332
▁면	-9.85337
▁다이애나	-9.85361
들로	-9.854
▁대표단	-9.85466
으	-9.85496
▁벨	-9.85502
▁다수	-9.85505
▁위원장은	-9.85559
▁비자	-9.85645
▁색	-9.85827
▁모하메드	-9.85877
▁스티븐	-9.85877
▁침체	-9.85888
▁1999	-9.85908
▁진입	-9.85909
이드	-9.85915
ap	-9.85975
▁손실	-9.85981
▁기후	-9.8599
▁벌인	-9.86033
▁재산	-9.86051
▁긴	-9.86131
25	-9.86168
▁시작됐다	-9.86177
▁터	-9.86199
▁니콜라	-9.86338
▁홍수	-9.86408
▁400	-9.86471
ve	-9.86542
▁이해	-9.8656
▁그래	-9.86569
▁실시한	-9.86592
▁웹사이트에	-9.86738
롤	-9.86746
팅	-9.86754
▁빨리	-9.86754
▁정확한	-9.86754
▁마이크	-9.86761
▁분위기	-9.86764
▁질병	-9.86786
었고	-9.86797
▁해변	-9.86814
▁충	-9.8685
▁재정	-9.86899
▁경찰서	-9.86936
▁진술	-9.8695
▁인정했다	-9.86983
▁NASA	-9.86995
▁영향력	-9.87
▁조종사	-9.87091
▁어린	-9.87098
▁선박	-9.87309
마다	-9.87356
▁그린	-9.87385
▁본부	-9.87419
둔	-9.87618
쯤	-9.87639
▁부동산	-9.8764
▁엄마	-9.87641
▁규제	-9.87644
▁스티브	-9.87647
▁국왕	-9.87647
조치	-9.87669
막	-9.87682
▁쉬	-9.87722
▁응	-9.87731
베이	-9.87772
▁나와	-9.87819
정책	-9.8783
었던	-9.87886
▁돼	-9.8789
▁현장에	-9.87904
▁그중	-9.87915
▁기자는	-9.87932
▁당선자	-9.87943
▁32	-9.87945
▁테러로	-9.87949
▁않기	-9.87951
▁얻었다	-9.87967
▁하락했다	-9.87974
스코	-9.88039
▁위해서	-9.88084
대표	-9.88092
▁말한	-9.88104
장관	-9.88202
▁환	-9.88218
▁들었다	-9.88225
▁있는데	-9.88295
시아	-9.88317
ies	-9.88358
조사	-9.88397
스키	-9.88425
▁도착했다	-9.88426
대통령	-9.88428
▁사무총장은	-9.88496
닝	-9.88499
▁최신	-9.88529
▁저녁	-9.88532
▁자살폭탄테러	-9.88537
▁콘돌	-9.88537
▁장난감	-9.88538
▁바람	-9.88593
슨은	-9.88662
80	-9.88694
▁통치	-9.88892
▁충분	-9.88905
▁지하	-9.88912
▁왜	-9.88964
세계	-9.8898
▁작성	-9.88986
▁정상회담	-9.88994
▁가격이	-9.89131
▁주에서	-9.89144
▁증언	-9.89199
▁아부	-9.89209
▁태도	-9.89264
버그	-9.89346
▁식	-9.89355
▁상징	-9.89371
▁며칠	-9.8944
▁니	-9.8948
▁예방	-9.89495
▁문제로	-9.89496
▁아바스	-9.89503
궁	-9.89531
▁이웃	-9.89568
▁지도부	-9.89569
라도	-9.89569
▁인식	-9.89617
스와	-9.89742
▁보수	-9.89838
▁법정	-9.89849
웠다	-9.89883
▁여성들	-9.89891
▁시민들	-9.89895
▁황	-9.90012
▁운전	-9.90121
lo	-9.90206
▁항	-9.9022
경제	-9.90245
▁강도	-9.90292
▁살해한	-9.90341
▁토요일	-9.90343
리고	-9.90345
Ch	-9.90349
▁네팔	-9.9035
2009.06	-9.90353
개월간	-9.90354
▁승무원	-9.90364
릭	-9.90403
▁최소한	-9.905
암	-9.90534
잔	-9.90563
화를	-9.90657
all	-9.90658
▁떨어졌다	-9.90704
▁방어	-9.90704
항공	-9.90742
어야	-9.90754
▁생명	-9.90775
▁않으면	-9.90784
위에	-9.90831
같은	-9.90896
▁당한	-9.90912
▁가족들	-9.90956
혼	-9.90969
경찰	-9.90991
위로	-9.90998
▁아직도	-9.91014
▁향	-9.91022
느	-9.91029
▁자신들이	-9.91085
▁휴전	-9.91218
▁FBI	-9.91221
▁피터	-9.91237
▁징역	-9.91238
젤	-9.91247
▁테이프	-9.9126
▁점령	-9.91298
푸	-9.91352
델	-9.91368
수를	-9.91405
▁반발	-9.91442
▁지출	-9.91456
▁일본은	-9.91458
▁직	-9.91469
▁입국	-9.91484
공격	-9.91492
▁서명	-9.916
▁기타	-9.91605
▁시리즈	-9.91758
▁대상	-9.9178
▁땅	-9.91876
▁트	-9.91926
▁가져	-9.91957
▁진정	-9.92076
▁지휘	-9.92097
▁권	-9.9211
웰	-9.92176
▁st	-9.92177
▁쿠르드	-9.92178
황	-9.92207
▁결론	-9.92236
▁평양	-9.92299
▁형성	-9.923
▁사용할	-9.92434
▁만들었다	-9.9245
률	-9.92489
달하는	-9.92523
▁내린	-9.92618
ity	-9.92737
국인	-9.92836
군이	-9.92854
▁인질들	-9.92885
▁살아	-9.92938
▁증	-9.92956
▁교황	-9.92977
주간	-9.93024
렛	-9.9312
▁쉽게	-9.93121
▁타격	-9.93176
▁근거	-9.93183
▁침해	-9.93197
▁상황에	-9.93233
▁즉시	-9.93246
▁통화	-9.93508
브라	-9.93515
▁주로	-9.93526
▁준	-9.93596
▁요구하는	-9.93728
▁복제	-9.93737
▁주는	-9.93818
▁전망이	-9.93841
▁오하이오	-9.93853
▁사령관	-9.94057
V	-9.94062
州	-9.94063
▁한번	-9.94072
▁킹	-9.94075
▁유럽연합	-9.94094
▁연락	-9.94105
▁실망	-9.94112
▁기준	-9.94119
▁직면	-9.94127
당한	-9.94144
▁추측	-9.94251
▁전문가들	-9.94257
15	-9.94301
▁의문	-9.94314
완	-9.94326
▁웹	-9.94349
▁결과가	-9.94353
오바마	-9.94357
▁수용	-9.94394
▁잔	-9.94546
▁것처럼	-9.94609
▁엔	-9.94648
▁한국과	-9.94651
▁끌어	-9.94708
필드	-9.9479
▁노출	-9.94792
▁의장은	-9.94972
▁모른다	-9.9499
멘	-9.95003
니는	-9.95004
덕	-9.95014
;	-9.95016
▁엘리자베스	-9.95016
픽	-9.95016
▁선거운동	-9.95051
회사인	-9.95062
▁복용	-9.95079
▁상품	-9.9512
▁남북한	-9.95194
▁토니	-9.9521
▁설	-9.95214
▁늘	-9.95246
▁중요하다	-9.95279
▁우주선	-9.95283
▁벌금	-9.95287
▁공화당의	-9.95583
▁짐	-9.95769
▁등이	-9.95816
400	-9.95846
▁방식	-9.95877
징	-9.95934
▁심각	-9.95936
▁토론	-9.95943
▁쥐	-9.95976
닉	-9.95976
▁소프트웨어	-9.95977
▁협조	-9.95977
▁회담은	-9.95977
▁활용	-9.95978
▁론스타	-9.95983
▁끝난	-9.96017
▁화산	-9.96018
▁속에서	-9.96018
▁구글	-9.96022
▁육군	-9.96028
ma	-9.96037
▁잭슨	-9.96051
▁가는	-9.9606
▁동맹	-9.96085
▁대출	-9.96135
▁떠	-9.96148
▁현장에서	-9.96201
▁유리	-9.9623
▁자산	-9.96252
▁신용	-9.96257
▁대북	-9.96274
곡	-9.96312
장관은	-9.96359
▁매장	-9.96417
▁지켜	-9.96524
▁스위스	-9.96524
제를	-9.96561
▁이르는	-9.96571
▁관광객들	-9.96579
자들의	-9.96625
▁실제로	-9.96663
▁총선에서	-9.96716
▁""	-9.96787
▁밝	-9.96862
▁대처	-9.96865
효	-9.96875
균	-9.96903
럴	-9.96924
꺼	-9.96947
▁핵실험	-9.96948
▁김정일	-9.96949
▁페르베	-9.9696
▁갖추	-9.96961
십	-9.96976
▁진행되	-9.96984
▁축제	-9.97012
▁장치	-9.97014
▁자격	-9.97032
텔	-9.9705
함에따라	-9.97061
▁되면	-9.97078
치를	-9.97101
▁영국군	-9.97118
▁신경	-9.97124
▁역	-9.97172
▁우선	-9.97177
▁대사는	-9.97223
▁잘못	-9.97283
▁해고	-9.97405
▁조사하고	-9.97504
▁강조	-9.97527
▁회	-9.97534
위원회는	-9.97565
▁찬	-9.97596
19	-9.97607
물을	-9.97717
im	-9.97771
펠	-9.97793
est	-9.97828
▁기구	-9.97866
닐	-9.97872
덴	-9.97901
▁기독교	-9.97929
▁사이클론	-9.97937
▁1997	-9.97947
으로써	-9.9803
▁귀국	-9.98035
우스	-9.98065
▁신속	-9.98067
▁공식적으로	-9.98093
▁아래	-9.98153
▁심리	-9.98171
▁무력	-9.98181
▁결혼식	-9.98215
안에	-9.98252
▁동물원	-9.98255
▁일부는	-9.98273
쪽	-9.98287
▁이틀	-9.98293
▁시위자들	-9.98411
▁모습이	-9.98636
▁갖	-9.98706
▁송	-9.98822
▁지연	-9.98834
▁지지자	-9.98848
▁Iraq	-9.98919
▁North	-9.98919
▁뉴질랜드	-9.98919
▁헤럴드	-9.98919
▁매들린	-9.98919
▁체포된	-9.98924
▁1998	-9.98941
▁힘들	-9.98949
▁국제적	-9.9895
▁법안	-9.98993
ly	-9.98996
원은	-9.99004
학자	-9.99013
▁타이	-9.99023
들어	-9.99102
▁아르헨티나	-9.99141
▁음	-9.99149
▁견	-9.99155
▁구제	-9.99168
▁구체적인	-9.99183
▁지도	-9.9922
린다	-9.99282
▁걸어	-9.99286
▁총리와	-9.99311
▁양측	-9.99446
▁요구를	-9.99507
▁돌아	-9.99523
비아	-9.99655
럼	-9.99658
▁빛	-9.99667
▁is	-9.99722
지수	-9.99785
▁포함되어	-9.99834
니스	-9.99854
▁인하	-9.99916
▁CBS	-9.99919
▁드러났다	-9.99919
▁외곽	-9.99919
▁있으나	-9.99938
▁마치	-9.99952
▁가입	-9.9999
▁의료진	-10.0001
▁수용소	-10.0002
▁올렸다	-10.0005
▁나달	-10.0005
▁압둘라	-10.0005
▁어린이들	-10.0005
▁성공했다	-10.0012
▁주고	-10.0013
600	-10.0014
▁지지하는	-10.0016
▁경험	-10.0022
▁대단	-10.0023
▁영국에서	-10.0024
▁경매	-10.0032
칸	-10.0039
생활	-10.0043
관은	-10.0044
te	-10.0046
대회	-10.0046
▁의도	-10.0053
▁혹	-10.0057
되면	-10.0057
▁중이라고	-10.0059
▁성화	-10.0077
개발	-10.0081
▁길이	-10.009
▁언제	-10.0091
▁중국과	-10.0092
▁얘기	-10.0093
▁캠페인	-10.0093
켄	-10.0093
▁머	-10.0098
▁변경	-10.01
▁벗어나	-10.0104
▁강경	-10.0108
ia	-10.0128
니아	-10.0128
▁이곳에서	-10.0128
산업	-10.013
음을	-10.0136
육	-10.0137
대에	-10.0138
▁좋아	-10.0143
12	-10.0144
만큼	-10.0144
▁포드	-10.0156
▁회담에	-10.0159
주는	-10.0171
라운드	-10.0173
▁달성	-10.018
딩	-10.0194
▁싱가포르	-10.0195
▁좋지	-10.0195
▁케네디	-10.0195
▁리버풀	-10.0195
▁답변	-10.0196
▁루이스	-10.0197
▁불참	-10.0197
▁주인공	-10.0198
▁폭행	-10.0198
▁에이즈	-10.0198
kg	-10.02
▁만드는	-10.0202
▁민주화	-10.0205
▁지진으로	-10.0205
▁실행	-10.0205
▁관여	-10.0206
제도	-10.0213
▁경선에서	-10.0214
▁곳으로	-10.0224
▁대부분은	-10.0225
▁그와	-10.0229
▁학대	-10.0229
리가	-10.023
▁민주	-10.0233
▁포함해	-10.0233
▁소개	-10.0234
▁중요	-10.0245
상의	-10.0251
리그	-10.0264
▁주석	-10.0266
▁안보리	-10.0269
▁지적	-10.0282
탁	-10.029
▁부문	-10.0292
▁맨체스터	-10.0298
▁우라늄	-10.0298
▁드라마	-10.0298
▁DNA	-10.0299
▁벌어진	-10.0299
▁않도록	-10.03
▁음반	-10.03
사고	-10.0301
▁1980	-10.0303
▁반정부	-10.031
▁행진	-10.031
▁지수는	-10.031
▁열린우리당	-10.0318
▁맞서	-10.0325
비치	-10.0342
어진	-10.0343
계획	-10.0356
▁수백만	-10.0357
▁바라	-10.036
부시	-10.0361
▁투자자들	-10.0363
▁터키군	-10.0377
▁주인	-10.0392
▁요구하고	-10.0392
▁테러가	-10.0401
▁포르투갈	-10.0402
▁휘발유	-10.0402
▁페일린	-10.0402
▁첼시	-10.0403
▁가득	-10.0404
▁질환	-10.0404
▁음모	-10.0406
▁덮	-10.0406
▁때문이다	-10.0411
▁장식	-10.0413
▁감정	-10.0418
▁장관이	-10.0421
▁잔해	-10.0422
으려	-10.0425
▁문제는	-10.0429
▁목격	-10.0431
▁완	-10.0433
▁화	-10.0436
▁언급하지	-10.0438
▁회담이	-10.0443
헤	-10.0443
▁중에는	-10.0444
웨이	-10.0448
▁자세	-10.0453
▁끼	-10.0456
▁회원국	-10.0458
검사	-10.0464
EU	-10.0465
▁경기에	-10.0481
▁분리	-10.049
▁유치	-10.0494
▁알아	-10.0503
▁거절	-10.0507
▁무릎	-10.0507
▁훨씬	-10.0507
죠	-10.0507
▁믿고	-10.0507
▁베트남	-10.0507
▁국제유가	-10.0508
▁향후	-10.0509
▁MS	-10.0511
▁1990	-10.0512
▁공개했다	-10.0521
▁승	-10.0522
▁저는	-10.0531
▁장비	-10.0535
▁해결하기	-10.0543
르는	-10.0547
▁전면	-10.0551
였	-10.0553
▁폐지	-10.0555
▁250	-10.0561
47	-10.0562
▁지시	-10.0566
▁광장	-10.0579
▁집에	-10.0581
▁거주하는	-10.0588
해진	-10.0603
▁중부	-10.0606
네스	-10.0612
켈	-10.0613
▁샌프란시스코	-10.0614
▁페더러	-10.0614
몽	-10.0614
▁묘사	-10.0614
▁로봇	-10.0614
▁운항	-10.0614
ess	-10.0617
▁밀란	-10.0619
▁영토	-10.0621
▁예정이며	-10.0626
▁소니	-10.0629
▁추적	-10.0636
▁외부	-10.0646
▁단체는	-10.0646
▁기본	-10.0647
▁미국에	-10.0648
▁계획이	-10.065
익	-10.0652
▁속도	-10.066
▁용의자들	-10.0665
▁생존자	-10.067
▁조사에서	-10.0671
▁파악	-10.0672
▁희생자들	-10.0673
웨	-10.0673
▁학생들이	-10.0677
주의자	-10.0678
▁협회	-10.0681
오늘	-10.0684
ter	-10.0684
▁치르	-10.0685
▁존슨	-10.0691
▁불리는	-10.0694
▁이들이	-10.0695
▁한국군	-10.0699
▁주간	-10.0701
사태	-10.0703
됐고	-10.0707
▁빅	-10.0718
켓	-10.0719
▁주장하는	-10.0719
▁워싱턴에서	-10.072
▁블랙	-10.0721
!	-10.0721
▁밖으로	-10.0721
▁콘서트	-10.0721
도시	-10.0721
▁반기문	-10.0721
▁검색	-10.0721
▁얼음	-10.0723
▁나쁜	-10.0723
▁맨유	-10.0723
▁목격자들	-10.0724
▁폭우	-10.0728
▁편지	-10.0728
▁내용이	-10.0731
▁대결	-10.0735
▁이것이	-10.0738
▁시절	-10.0738
▁노동자	-10.075
67	-10.0751
로운	-10.0757
주일	-10.0759
자들에게	-10.0762
▁행성	-10.0765
▁랭킹	-10.0768
▁도달	-10.0781
▁전개	-10.0804
▁아카데미	-10.0806
퇴	-10.0813
▁방문할	-10.0823
▁무대	-10.0828
▁보이	-10.0829
▁South	-10.083
▁온난화	-10.083
▁세계대전	-10.083
▁금요일	-10.083
▁이메일	-10.0831
▁둘러	-10.0833
▁접속	-10.0834
▁방문했다	-10.0835
▁토론회	-10.0836
▁소환	-10.0837
▁입양	-10.0837
▁방법으로	-10.0838
▁밑	-10.0843
▁놀	-10.0858
▁방지	-10.0858
▁잃었다	-10.0863
▁데이	-10.0863
되며	-10.0869
j	-10.0873
▁솔	-10.0881
▁심슨	-10.0881
▁당선인은	-10.0883
▁꿈	-10.0883
▁십	-10.0885
▁목격자	-10.089
▁바그다드에서	-10.0894
▁충분한	-10.09
듯	-10.0902
▁것보다	-10.0907
▁장애	-10.0911
▁잡지	-10.0926
▁진행된	-10.0928
▁남아	-10.0932
현지시각	-10.094
▁특파원	-10.094
▁9.11	-10.094
▁앨범	-10.0941
▁영변	-10.0942
지역에서	-10.0942
▁평화적	-10.0943
▁생각하고	-10.0944
▁학살	-10.0944
▁리비아	-10.0946
▁성향	-10.0947
▁계획에	-10.0951
▁주식시장	-10.0953
▁말합니다	-10.0954
▁이란은	-10.0954
▁의원들은	-10.0958
▁밖에서	-10.096
▁못하	-10.0962
▁신체	-10.0963
▁시작한	-10.0973
▁참	-10.0975
▁부근	-10.0978
▁선물	-10.0981
▁의무	-10.0981
사회	-10.0985
""	-10.0991
▁취할	-10.0994
트라	-10.0999
스톤	-10.1
드로	-10.1002
▁향하	-10.1002
폴	-10.1017
▁고객	-10.1017
택	-10.1018
▁CIA	-10.1023
▁내전	-10.1026
▁수집	-10.1031
▁기반	-10.1033
▁정부군	-10.1036
ow	-10.1038
모든	-10.1039
▁성과	-10.1042
ver	-10.1045
짜리	-10.105
탑	-10.1051
▁예상했다	-10.1051
▁리콜	-10.1053
▁허락	-10.1054
▁저항	-10.1055
▁사무총장	-10.1055
▁카페	-10.1058
▁분명	-10.106
▁분야	-10.1064
▁특별한	-10.1067
▁출시	-10.1069
▁자기	-10.1071
77	-10.1076
82	-10.1078
달러에	-10.108
▁주목	-10.108
▁체니	-10.1081
▁프	-10.1085
그들은	-10.1095
▁원하는	-10.1096
▁이익	-10.1098
▁다니	-10.1106
▁사살	-10.1107
▁에드	-10.1115
▁흔들	-10.1115
바이	-10.1116
▁레이스	-10.1117
▁복	-10.112
▁논란	-10.1124
년에는	-10.1133
▁생존	-10.1136
원을	-10.1138
금을	-10.1143
▁파타	-10.1145
념	-10.1153
ne	-10.1156
▁경기장	-10.1159
▁유나이티드	-10.1163
▁않았으며	-10.1163
100	-10.1163
법원	-10.1164
▁시청	-10.1169
▁보상	-10.1171
▁예비	-10.1176
▁모양	-10.1177
▁대부분이	-10.1182
▁확신	-10.1186
▁지키	-10.1192
▁철도	-10.1193
지구	-10.1194
▁이번주	-10.1206
▁아일랜드	-10.1213
▁38	-10.1215
스카	-10.1216
▁마시	-10.1218
학교	-10.1231
작업	-10.1244
▁보면	-10.1245
▁사건과	-10.1245
폰	-10.1245
90	-10.1261
▁다우	-10.1265
▁중국에서	-10.1266
▁하다	-10.1267
▁여기	-10.1267
▁총재	-10.1275
▁챔피언	-10.1277
넬	-10.1277
▁붉은	-10.1277
▁찾고	-10.1277
▁쿠데타	-10.1277
▁헤즈볼라	-10.1277
롱	-10.1277
▁대다수	-10.1278
▁봄	-10.1279
▁핵시설	-10.1282
▁기능	-10.1284
▁격차	-10.1285
▁사건으로	-10.129
▁서방	-10.1292
▁나서	-10.1296
이션	-10.1303
▁처음이다	-10.1308
▁바라고	-10.1309
▁회사들	-10.1315
사의	-10.1318
▁내에	-10.1322
조차	-10.134
▁모여	-10.1347
소를	-10.1348
▁수요	-10.1349
▁발표된	-10.1349
칭	-10.1356
cm	-10.137
즈는	-10.1371
▁기업들	-10.1373
▁폭발물	-10.1377
▁차드	-10.1378
▁가까이	-10.1378
▁기도	-10.1387
▁전투기	-10.1391
▁멸종	-10.1392
▁with	-10.1392
▁여자친구	-10.1392
▁장례식	-10.1392
▁아이오와	-10.1392
▁겨울	-10.1393
▁마틴	-10.1396
▁걸릴	-10.1397
▁체결	-10.1399
▁복구	-10.1399
▁만날	-10.14
de	-10.1403
▁이송	-10.1407
드라	-10.141
▁육	-10.142
혔다	-10.1423
▁파티	-10.1423
▁n	-10.1426
▁37	-10.1427
▁불과	-10.1436
▁톰	-10.1437
co	-10.1446
▁경찰서장	-10.1452
▁영화제	-10.1452
300	-10.1454
▁의회의	-10.1464
▁시점	-10.1475
려고	-10.1475
▁업무	-10.1481
▁강타	-10.1482
▁현재까지	-10.1484
85	-10.1486
▁줄어들	-10.1487
▁샤리프	-10.149
탕	-10.1493
▁봉	-10.1497
▁떨어지	-10.1508
▁알래스카	-10.1508
▁일환으로	-10.1508
▁다르푸르	-10.1508
qu	-10.1508
▁통합	-10.1514
▁특정	-10.1517
▁심문	-10.1518
▁나누	-10.152
▁동반	-10.152
객	-10.1523
째	-10.1529
장치	-10.1531
▁다이아몬드	-10.1534
러스	-10.1535
려는	-10.1537
▁답	-10.1539
대학	-10.1542
▁공격이	-10.1543
▁수감자	-10.1546
▁절대	-10.1549
▁신호	-10.1553
▁CEO	-10.1556
▁달라	-10.1556
▁추정되는	-10.1556
왔	-10.1565
해주	-10.1566
▁최초로	-10.1568
업자	-10.1574
▁요원	-10.1574
되어야	-10.1577
▁자치	-10.158
▁기상	-10.1583
찰	-10.1592
▁유가	-10.1595
몰	-10.1602
쓰	-10.1605
▁사인	-10.1608
▁웨스트	-10.1608
했기	-10.1615
괴	-10.1617
▁요인	-10.1619
▁마르	-10.1624
▁다우존스	-10.1626
▁달라이라마	-10.1626
▁설득	-10.1626
▁둘	-10.1629
▁교환	-10.163
our	-10.1631
▁식당	-10.1633
▁오염	-10.1634
▁상점	-10.1635
▁탐사	-10.1636
▁치러진	-10.1638
▁일주일	-10.1641
▁보통	-10.1642
력이	-10.1647
▁사실상	-10.1647
내가	-10.1652
▁현상	-10.1654
▁파산	-10.1655
▁잠시	-10.1655
▁싸	-10.1665
▁행정	-10.1668
▁즐	-10.167
▁통신은	-10.1674
▁니콜	-10.1683
▁이스라엘과	-10.1687
▁FTA	-10.1694
▁윈	-10.1708
▁이스라엘군	-10.1714
ay	-10.1717
▁등장	-10.1722
원제	-10.1723
되자	-10.1723
▁제도	-10.1724
▁증권	-10.1731
주에서	-10.1737
선거	-10.1744
▁아이들이	-10.1745
]	-10.1745
▁더불어	-10.1745
▁쇼핑	-10.1745
▁발굴	-10.1746
▁폭락	-10.1747
▁바꾸	-10.1747
▁광산	-10.1748
▁않지만	-10.175
▁어려운	-10.175
▁제안했다	-10.175
▁커피	-10.1752
▁행복	-10.1753
▁사용되	-10.1756
▁50%	-10.1756
▁묻	-10.1761
▁강요	-10.1763
▁회원	-10.1765
▁업계	-10.1766
▁보고했다	-10.177
▁가자	-10.177
▁경보	-10.1773
▁여사	-10.1779
z	-10.179
▁폐기	-10.1794
▁친구들	-10.1795
원이	-10.1802
▁36	-10.1804
차전	-10.1804
▁된다고	-10.1807
▁밝히고	-10.181
회담	-10.1817
▁전해	-10.182
▁결정은	-10.1827
▁의원들	-10.1831
▁FARC	-10.1838
▁협상이	-10.184
▁목적으로	-10.1846
▁헌	-10.1851
싱	-10.1852
닥	-10.1858
▁내리	-10.1858
▁휘	-10.1859
ry	-10.1864
▁스리랑카	-10.1865
▁에드워즈	-10.1865
▁갑자	-10.1866
▁북극	-10.1867
연맹	-10.1869
▁출석	-10.187
ational	-10.1871
▁r	-10.1872
▁매각	-10.1873
▁도입	-10.1876
▁배출	-10.1876
▁되기	-10.1877
후드	-10.1879
age	-10.1879
▁블	-10.1882
▁거두	-10.1884
▁신임	-10.1885
ill	-10.1887
▁감행	-10.1889
▁계속되고	-10.1894
▁외교적	-10.1894
▁교도소	-10.1895
▁이하	-10.1897
▁고대	-10.1899
▁적절한	-10.1902
▁지상	-10.1924
▁케이	-10.1926
▁벽	-10.1927
▁Re	-10.1932
▁지점	-10.1933
▁망	-10.1934
▁있어서	-10.1936
▁사전	-10.1947
▁일본이	-10.1949
▁시장에서	-10.1952
▁예상되	-10.1954
PA	-10.1956
국이	-10.1961
압	-10.1963
▁결승	-10.1968
▁국회의원	-10.1976
그룹	-10.1977
▁서울에서	-10.1977
뿐	-10.1977
▁의회는	-10.1977
▁투어	-10.1982
멸	-10.1987
▁방글라데시	-10.1987
▁오스트리아	-10.1987
▁칠레	-10.1988
▁스키	-10.1988
▁NBC	-10.1989
▁늘어	-10.199
▁단순	-10.199
▁합동	-10.1993
▁성관계	-10.1995
▁기존	-10.1995
▁넓	-10.1996
▁것이라며	-10.1996
▁윌	-10.1997
▁적은	-10.1997
▁내놓	-10.1998
▁대통령에	-10.2008
▁샌	-10.2012
▁왔	-10.2012
▁일본에서	-10.2014
▁시드	-10.2015
▁보유	-10.2015
▁됩니다	-10.2018
뉴스	-10.2021
▁북측	-10.2022
▁낸	-10.2023
▁의식	-10.2024
▁혼	-10.2024
▁아동	-10.2028
▁호세	-10.2032
▁본사	-10.2035
▁시위에	-10.2035
▁노동자들	-10.2036
▁소식이	-10.2045
었지만	-10.2047
▁소수	-10.2048
ine	-10.2049
시키려	-10.205
▁책임자	-10.2051
▁그림	-10.2052
만약	-10.2055
▁만족	-10.206
▁상승했다	-10.2063
79	-10.207
▁꾸	-10.207
▁48	-10.207
▁부근에서	-10.2075
▁무시	-10.2076
▁대기	-10.2085
▁실시되	-10.2089
최	-10.209
했음	-10.209
폐	-10.2094
국의	-10.2094
▁의지	-10.2095
헌	-10.2098
ha	-10.2098
▁압	-10.2102
맥	-10.2102
둘	-10.2103
이슬람	-10.2104
납	-10.2105
▁야생	-10.2105
잉	-10.2106
▁콘	-10.2108
기술	-10.211
▁노스캐롤라이나	-10.2111
▁봉쇄	-10.2111
▁합류	-10.2115
▁폭동	-10.2116
▁치열	-10.2117
▁수상자	-10.2118
적이고	-10.2119
▁부담	-10.212
건의	-10.2121
▁의존	-10.2121
▁화학	-10.2122
▁노력하고	-10.2123
▁고소	-10.2128
▁해양	-10.2129
▁피난	-10.2129
▁버마	-10.2132
▁세상	-10.2139
▁美	-10.2139
▁공산당	-10.2141
▁지수	-10.2141
시티	-10.2145
세력	-10.2148
부대	-10.2154
▁승리했다	-10.2155
▁후원	-10.2157
▁수송	-10.2158
▁부여	-10.2159
▁각국	-10.216
빠진	-10.2161
▁중독	-10.2162
정부는	-10.2164
스티	-10.217
▁테러리스트	-10.2171
▁해병대	-10.2174
900	-10.2175
됐을	-10.2177
▁많다	-10.2177
냈	-10.2181
뉴	-10.2184
▁부과	-10.2209
정도	-10.2209
▁말까지	-10.221
▁청소년	-10.2216
▁로한	-10.2217
▁순찰	-10.222
▁조성	-10.222
참	-10.2227
▁공항에서	-10.2228
파키스탄	-10.2232
틴	-10.2232
▁없으며	-10.2236
▁나이지리아	-10.2236
▁마카오	-10.2236
▁흡연	-10.2236
▁연관	-10.2236
▁검거	-10.2236
▁카르자이	-10.2236
전에서	-10.2237
▁농축	-10.2237
▁가옥	-10.2238
▁하늘	-10.2238
▁대항	-10.2245
▁재무장관	-10.2246
▁현실	-10.2248
▁얻어	-10.2249
▁보관	-10.225
▁소설	-10.225
국민	-10.2257
▁공중	-10.2257
▁측정	-10.2259
▁세우	-10.2274
▁크기	-10.2275
ab	-10.2275
조원	-10.2282
▁연주	-10.2283
램	-10.2285
▁의회에	-10.2287
18	-10.2287
der	-10.2287
▁잇	-10.2291
▁말라	-10.2294
▁명단	-10.2299
▁모인	-10.2299
▁만화	-10.23
의회	-10.2304
조직	-10.2307
▁오브	-10.2307
63	-10.2308
년이	-10.231
▁식품	-10.2313
츠는	-10.232
▁베르	-10.232
다시	-10.2325
▁북쪽	-10.2325
▁전날	-10.2334
▁일간	-10.2337
▁이끌어	-10.234
걸	-10.2345
셀	-10.2345
세인	-10.2349
▁나갈	-10.235
가격	-10.235
ance	-10.2352
사인	-10.2352
▁증가하고	-10.2353
킹	-10.2354
▁이민	-10.2356
캐	-10.2362
▁네트워크	-10.2362
▁훌륭	-10.2362
▁파예드	-10.2362
▁습격	-10.2362
▁카스트로	-10.2363
▁복잡	-10.2363
더라도	-10.2363
▁건축	-10.2365
▁목록	-10.2365
▁취재	-10.2368
▁인류	-10.2369
▁시드니	-10.237
상황	-10.2371
▁자리에서	-10.2372
▁페루	-10.2374
▁최선	-10.2374
▁구출	-10.2376
로스	-10.2376
▁개방	-10.238
량이	-10.2385
▁보복	-10.2386
당국	-10.2389
분의	-10.2389
된다고	-10.2391
76	-10.2395
관련	-10.2398
▁없었	-10.24
▁고등학교	-10.2401
▁내릴	-10.2408
측에	-10.2409
작전	-10.2409
▁t	-10.2413
지수는	-10.2418
▁야기	-10.2431
▁홈	-10.2431
▁탐	-10.2431
mo	-10.2433
▁기다리고	-10.2436
▁사드르	-10.2442
군의	-10.2447
▁국경지역	-10.2449
78	-10.2453
▁있었고	-10.2453
▁가했다	-10.2455
▁말하는	-10.2456
▁선언했다	-10.2465
▁이유는	-10.2466
▁환자들	-10.2471
▁함	-10.2471
▁왕세자	-10.2484
▁북동부	-10.2491
▁스웨덴	-10.2491
▁훼손	-10.2491
밍	-10.2491
▁거뒀다	-10.2491
▁혜택	-10.2491
▁숫자	-10.2491
New	-10.2491
칼	-10.2491
▁패션	-10.2493
콘	-10.2493
휴	-10.2494
▁태평양	-10.2494
▁남아공	-10.2494
▁순방	-10.2496
국은	-10.2497
▁항소	-10.2498
▁인종	-10.25
▁발병	-10.2501
▁상처	-10.2501
▁움직이	-10.2505
▁모색	-10.2506
물이	-10.2507
▁철	-10.2511
▁삼성	-10.2513
▁털	-10.2514
▁유감	-10.2517
▁해산	-10.2521
▁불러	-10.2523
▁대답	-10.253
▁체제	-10.2534
▁그동안	-10.2542
▁분석가	-10.2546
지난	-10.256
▁방화	-10.2561
▁이루	-10.2566
ain	-10.2579
슬리	-10.2581
▁지도자들은	-10.2592
스턴	-10.2594
▁의회에서	-10.2605
부는	-10.2606
▁지속	-10.261
▁납	-10.261
럽	-10.2613
▁숙	-10.2613
우드	-10.2614
컴	-10.2619
풍	-10.2619
들로부터	-10.2619
▁되찾	-10.2621
▁이렇게	-10.2621
▁정확히	-10.2621
▁펼치	-10.2621
릿	-10.2621
멋진	-10.2621
▁덴마크	-10.2621
특	-10.2621
안전	-10.2623
▁클레	-10.2625
▁고향	-10.2627
▁작동	-10.2628
트로	-10.2629
▁사담	-10.263
▁2010	-10.2631
▁지진이	-10.2632
▁탈출	-10.2633
▁진실	-10.2636
▁사라	-10.2637
▁AC	-10.2639
진다	-10.264
▁라고	-10.2643
▁베이징에서	-10.2645
▁현금	-10.2645
▁로비	-10.2649
▁조사에	-10.2653
▁이뤄지	-10.2654
▁주제	-10.2658
▁올린	-10.2669
▁10%	-10.267
타르	-10.2677
ong	-10.2678
데이	-10.2679
16	-10.2682
▁시내	-10.2687
▁스테	-10.2688
▁특사	-10.2695
▁거부했다	-10.2696
▁비율	-10.27
▁보험	-10.2705
▁본선	-10.2711
▁델	-10.2718
▁했지만	-10.2718
▁목사	-10.2722
▁표시	-10.273
드시	-10.274
▁공격에	-10.2745
▁플레이	-10.2746
▁말리키	-10.2747
ight	-10.2748
뜨	-10.2749
웅	-10.2751
▁마찬가지	-10.2752
▁명확	-10.2752
▁챔피언스리그	-10.2752
▁will	-10.2753
▁셀	-10.2754
▁커플	-10.2755
▁레알	-10.2756
결과	-10.2758
mp	-10.2758
▁자극	-10.2758
▁입증	-10.2759
장인	-10.2761
▁반군이	-10.2761
▁대가로	-10.2764
▁일리노이주	-10.2764
▁만난	-10.2765
▁고발	-10.2768
▁선발	-10.2769
▁제공하는	-10.277
현재	-10.2771
미군	-10.2773
▁유력	-10.2779
▁수영	-10.2781
▁세포	-10.2783
▁워	-10.2786
▁발생했으며	-10.2787
▁말해	-10.2788
▁실패했다	-10.279
▁V	-10.2791
▁형태	-10.2796
정보	-10.281
▁카드	-10.2813
▁조각	-10.2824
▁린	-10.2824
▁앨	-10.2827
ho	-10.2828
쳤	-10.2834
▁시위대는	-10.2842
▁이주	-10.2845
▁궁	-10.2867
명에게	-10.2868
ts	-10.2869
▁공화국	-10.2873
▁군인들	-10.2877
▁방침	-10.2882
▁마치고	-10.2883
▁주최	-10.2885
▁Japan	-10.2885
▁예루살렘	-10.2885
▁청문회	-10.2885
렐	-10.2885
▁남동부	-10.2885
▁plan	-10.2885
▁엄청	-10.2886
얼	-10.2886
▁코커스	-10.2887
▁새끼	-10.2887
▁임금	-10.2896
펜	-10.2897
▁노예	-10.2897
어스	-10.2897
천만	-10.2898
▁배경	-10.2902
연구소	-10.2903
국장은	-10.2903
▁소요	-10.2905
▁권한	-10.2912
▁있다면	-10.2917
지금	-10.292
▁이것	-10.2925
▁IAEA	-10.2926
▁중지	-10.2931
▁초점	-10.2943
▁600	-10.2943
99	-10.2944
▁진화	-10.2945
보다는	-10.2949
▁전통적	-10.2957
▁보안군	-10.2958
▁발생하지	-10.2966
▁이양	-10.2968
▁보인다고	-10.2974
▁외교관	-10.2975
▁주지	-10.2975
점이	-10.2977
ard	-10.2992
▁장군	-10.3001
해줄	-10.3005
▁그것이	-10.3006
▁근처	-10.3008
▁노벨	-10.3009
기업	-10.301
▁얻기	-10.3011
▁기자들	-10.3012
Z	-10.3016
▁사장은	-10.3017
님	-10.3019
▁외교통상부	-10.3021
▁활주로	-10.3021
웬	-10.3021
컬	-10.3021
▁디즈니	-10.3021
▁폴란드	-10.3021
닷컴	-10.3021
▁완벽	-10.3021
▁다니엘	-10.3022
▁수업	-10.3022
▁체계	-10.3024
▁분열	-10.3026
곤	-10.303
▁멀	-10.3031
▁소매	-10.3032
▁진전	-10.3033
▁명은	-10.3033
아야	-10.3034
-3	-10.3036
팔	-10.3036
홍	-10.3037
▁대회에서	-10.3037
▁받아야	-10.3039
군은	-10.3043
▁중순	-10.3048
▁경영	-10.3048
됐었다	-10.3049
▁달려	-10.3053
▁보석	-10.3057
▁열대	-10.3069
이던	-10.307
하고자	-10.3077
텐	-10.3079
▁낙	-10.3082
▁이사	-10.3088
당국은	-10.3091
▁대선에서	-10.3094
▁측근	-10.3096
▁봉사	-10.3103
단은	-10.3105
▁이중	-10.3107
▁납치된	-10.3118
▁인사들	-10.3118
▁폭격	-10.3123
▁있었	-10.3125
▁실적	-10.3127
▁차관	-10.3128
▁안에서	-10.3132
▁군정	-10.3139
▁펜	-10.3145
▁인디애나	-10.3158
▁잃은	-10.3158
▁크루즈	-10.3158
▁아이디어	-10.3158
▁리조트	-10.3158
▁삭제	-10.3158
▁의학	-10.3158
▁싸움	-10.3159
▁타이틀	-10.3159
▁관찰	-10.3159
▁있었지만	-10.3161
▁모기지	-10.3161
▁합병	-10.3161
▁보잉	-10.3161
▁복무	-10.3162
▁관영	-10.3163
▁생긴	-10.3164
▁철군	-10.3164
▁빙하	-10.3166
수록	-10.3166
▁아니면	-10.3166
ood	-10.3168
▁고립	-10.3169
▁무죄	-10.3169
▁PC	-10.3169
▁분명히	-10.317
6000	-10.3173
접	-10.3173
나갔다	-10.3178
▁구금	-10.3179
▁하면	-10.3181
▁대량	-10.3181
▁견해	-10.3183
▁발간	-10.3185
▁드러	-10.3186
▁따르	-10.3191
▁노대통령	-10.3192
▁높아지	-10.3194
▁공유	-10.3196
▁승객들	-10.3199
▁방향	-10.3202
▁유전자	-10.3204
▁위원회는	-10.3205
▁난사	-10.3212
▁사장	-10.3214
▁캘리포니아주	-10.3214
이기	-10.3216
BC	-10.3218
▁모르	-10.322
▁런던에서	-10.3221
안보	-10.3222
▁피해가	-10.3225
▁폭탄이	-10.3227
800	-10.3228
700	-10.3228
자리	-10.3238
▁중간	-10.324
▁원한다	-10.3241
▁뉴욕에서	-10.3244
▁수상했다	-10.3245
▁에이	-10.3246
으면서	-10.3249
피트	-10.325
되었	-10.3255
▁표했다	-10.3258
▁결정에	-10.3262
ell	-10.3273
▁위원장	-10.3274
one	-10.3274
▁지시했다	-10.3277
어져	-10.3277
▁부서	-10.3282
닌	-10.3285
▁수감자들	-10.3287
▁방송국	-10.3288
묘	-10.3295
훈	-10.3296
▁라스베이거스	-10.3296
▁봤다	-10.3296
▁태어난	-10.3296
▁토마스	-10.3296
▁운송	-10.3297
▁은퇴	-10.33
▁같	-10.33
▁채택	-10.33
▁시장에	-10.3301
▁회동	-10.3301
ome	-10.3301
▁계획이라고	-10.3305
▁일반적으로	-10.3307
▁과학자	-10.331
▁보고서에서	-10.331
▁청구	-10.3311
▁갖게	-10.3311
▁돌아오	-10.3312
되었고	-10.3319
시대	-10.3319
영국	-10.332
▁주지사가	-10.3321
▁위조	-10.3323
▁서신	-10.3325
▁총격전	-10.3326
▁제조업체	-10.3327
▁크라이슬러	-10.3328
man	-10.3335
▁세워	-10.3336
▁하이	-10.3343
분간	-10.335
역을	-10.3355
▁누리	-10.3355
대한	-10.3357
▁기대하고	-10.3364
▁안전한	-10.3366
▁고어	-10.3368
성에	-10.3374
오는	-10.3375
11	-10.3385
▁멜	-10.3385
▁재단	-10.3385
왔으며	-10.3388
▁방법이	-10.339
ant	-10.3401
▁의미한다	-10.3403
▁크레	-10.3407
▁성공적	-10.3409
▁프레	-10.3427
▁성화봉송	-10.3429
▁지역으로	-10.3433
캔	-10.3436
▁맞춰	-10.3437
▁사우디아라비아	-10.3437
▁앓고	-10.3437
▁협박	-10.3437
▁심지어	-10.3437
▁보여줬다	-10.3438
▁빈곤	-10.3438
▁면담	-10.3439
▁콩고	-10.3439
▁하원의원	-10.3439
▁an	-10.344
▁응급	-10.3441
▁데이터	-10.3441
▁하던	-10.3442
▁보낼	-10.3443
▁2012	-10.3444
▁바이	-10.3445
▁카불	-10.3447
▁여성의	-10.3448
▁거쳐	-10.3455
▁재난	-10.3457
▁유발	-10.3461
▁실종된	-10.3462
콜	-10.3463
▁보유하고	-10.3464
짐	-10.3464
폭탄	-10.347
▁이루어지	-10.347
객들	-10.3472
▁th	-10.3476
겠지만	-10.3477
▁클라	-10.3488
▁부정적	-10.3494
▁달러에	-10.3496
명도	-10.3498
▁무선	-10.35
▁이사회	-10.3506
▁생물	-10.3507
▁교사	-10.3508
▁싶어	-10.3512
▁자세한	-10.3515
▁값	-10.3519
▁기금	-10.3525
▁승리한	-10.3527
▁혁명	-10.3529
과정	-10.3529
일본	-10.353
▁다가	-10.3534
▁영장	-10.3542
▁뼈	-10.3544
▁착용	-10.3558
▁리그	-10.356
식을	-10.356
▁생각하는	-10.3561
측이	-10.3565
▁나오는	-10.3571
타운	-10.3575
▁계획은	-10.3578
현지	-10.3579
넷	-10.358
▁바르셀로나	-10.358
▁펼쳐	-10.358
▁휴대전화	-10.358
▁엄격	-10.358
▁베를린	-10.358
▁논평	-10.3581
▁케이블	-10.3581
▁태양	-10.3581
▁철저	-10.3582
▁1994	-10.3582
▁획득	-10.3583
▁하와이	-10.3585
▁치러	-10.3586
▁해결책	-10.3586
▁명예	-10.3589
▁마쳤다	-10.3589
▁단속	-10.359
▁형제	-10.3594
▁무료	-10.3595
▁신발	-10.3604
▁트리	-10.3605
▁추정된다	-10.3605
리스트	-10.3607
▁전역	-10.361
놀	-10.3613
카운티	-10.3613
김	-10.3615
▁대학교	-10.3618
▁만들어진	-10.3625
▁누군가	-10.3628
▁선거에	-10.3629
▁호텔에서	-10.3629
간에	-10.3632
▁못하게	-10.3632
▁위로	-10.365
▁요리	-10.3659
▁주기	-10.3667
련	-10.3669
▁조합	-10.3672
▁것이고	-10.3674
장의	-10.3674
브레	-10.3675
17	-10.3678
▁빚	-10.368
▁중재	-10.3682
▁죄	-10.3684
▁했으며	-10.3686
기록	-10.3688
라스	-10.3689
▁책임이	-10.3689
▁한국에서	-10.3695
▁사용한	-10.3707
▁앞에	-10.3708
▁상태에	-10.3709
▁사회적	-10.3715
▁3000	-10.3718
핑	-10.372
시에	-10.3722
콤	-10.3725
▁찾을	-10.3725
엑	-10.3725
▁쓰나미	-10.3725
▁파트너	-10.3725
▁에어버스	-10.3725
▁주한미군	-10.3725
▁외환은행	-10.3726
▁바스라	-10.3726
▁초대	-10.3726
▁과격	-10.3727
▁급등	-10.3727
▁디자인	-10.373
정부가	-10.3733
▁동성애자	-10.3733
▁회의에서	-10.3734
▁두바이	-10.3735
▁보트	-10.3736
▁펼쳤다	-10.3738
▁중심부	-10.3742
▁시각	-10.3743
▁여권	-10.3744
되었던	-10.3745
▁사령관은	-10.3747
▁동티모르	-10.375
▁간단	-10.3753
▁신중	-10.3756
▁골프	-10.3757
▁녹	-10.3767
▁에어	-10.377
▁기계	-10.3771
▁경쟁자	-10.3774
스타인	-10.3775
▁한때	-10.3775
▁비교	-10.3778
아이	-10.3778
▁그리	-10.3778
▁논란이	-10.3779
▁참석했다	-10.3781
▁전쟁에	-10.3787
▁이후로	-10.3795
사항	-10.3798
▁클린턴이	-10.3803
▁공간	-10.3809
베나	-10.3811
▁물가	-10.3815
석을	-10.3821
▁테러범	-10.3825
▁말하며	-10.3825
▁풍	-10.383
▁마비	-10.3831
▁비용이	-10.384
▁못한다	-10.3841
▁도시에서	-10.3843
돼있다	-10.3847
▁발생하는	-10.3848
활	-10.3849
▁당신이	-10.3852
▁운동을	-10.3863
되었으며	-10.3868
룬	-10.3868
95	-10.3868
▁의석	-10.387
첸	-10.3871
핀	-10.3872
킬로미터	-10.3872
▁그렇지	-10.3872
▁불능화	-10.3872
▁일으킨	-10.3872
▁경제에	-10.3873
▁송환	-10.3874
▁저지른	-10.3874
▁(=	-10.3874
▁신부	-10.3879
세가	-10.3879
▁측은	-10.3881
▁기밀	-10.3881
▁이루어졌다	-10.3882
사와	-10.3882
▁나올	-10.3882
28	-10.3889
▁지정	-10.3892
▁공포	-10.3893
▁맛	-10.3898
미니	-10.39
▁존중	-10.39
▁첫번째	-10.39
포드	-10.3902
▁자문	-10.3902
▁점차	-10.3905
짓	-10.391
기지	-10.391
ba	-10.3913
▁케리	-10.3925
▁우리당	-10.3925
▁차관보는	-10.3932
▁응답자	-10.3936
▁지켜보	-10.3941
▁일으키	-10.3948
▁곡	-10.396
▁희	-10.3961
▁물건	-10.3961
▁마감했다	-10.3969
▁이곳에	-10.3969
널	-10.3971
▁높아	-10.398
제대로	-10.3982
▁몰아	-10.3993
▁130	-10.3997
▁지목	-10.3999
차량	-10.4004
▁죽은	-10.4008
▁리처드	-10.4009
▁피트	-10.401
▁감독이	-10.401
▁42	-10.4012
▁못해	-10.4016
이었으며	-10.4018
▁레스토랑	-10.4021
▁선거캠프	-10.4021
▁옆에	-10.4021
▁김대중	-10.4021
▁흥분	-10.4021
▁우리나라	-10.4022
▁자유를	-10.4022
▁검사는	-10.4026
▁검은	-10.4027
▁받았으며	-10.4027
▁종류	-10.4032
▁노동당	-10.4032
▁우주비행사	-10.4034
대사	-10.4035
-2	-10.4036
▁개표	-10.4036
▁세계은행	-10.4038
8000	-10.404
▁특수	-10.4041
▁유출	-10.4042
▁여학생	-10.4044
▁제기했다	-10.4052
▁발전소	-10.4052
보호	-10.4053
▁법안이	-10.4054
윈	-10.4059
▁공약	-10.4059
▁아니었다	-10.4062
▁표명	-10.4062
▁답했다	-10.4065
파운드	-10.4067
이스라엘	-10.4068
규모	-10.4071
▁가구	-10.4088
▁시티	-10.4091
달라고	-10.4096
▁주문	-10.4101
▁상어	-10.411
▁것이었다	-10.4119
번째로	-10.412
▁파손	-10.4122
▁비판했다	-10.4128
▁국방	-10.413
디스	-10.4132
▁방영	-10.4134
▁생일	-10.4135
▁백악관은	-10.4136
35	-10.415
▁압둘	-10.4153
▁일리노이	-10.4159
때문에	-10.4163
구를	-10.4166
라이브	-10.4169
촉	-10.4172
0,000	-10.4173
▁가슴	-10.4173
▁곤잘레스	-10.4173
▁만났다	-10.4173
▁콜로라도	-10.4173
▁헨리	-10.4173
▁핵프로그램	-10.4174
▁숀	-10.4175
▁고위관리	-10.4176
▁강풍	-10.4176
▁테스트	-10.4179
▁경영진	-10.4179
▁인생	-10.418
▁1970	-10.4182
▁불가능	-10.4184
▁그래서	-10.4186
65	-10.4189
▁처해	-10.4192
▁백인	-10.4194
▁보도에따르면	-10.4194
▁예전	-10.4196
▁발언에	-10.4201
▁불길	-10.4203
▁주한	-10.4204
ang	-10.4207
▁기자들에게	-10.4208
▁차단	-10.4211
총리	-10.4212
▁그레	-10.4213
▁다루	-10.4216
▁요소	-10.4217
홀	-10.4222
Y	-10.4223
▁골드	-10.4223
농	-10.4224
▁고객들	-10.4225
▁조기	-10.4233
세트	-10.4237
av	-10.4242
▁사무	-10.4245
▁따라서	-10.4253
바르	-10.4254
▁당수	-10.4255
▁상업	-10.4256
ast	-10.4258
▁사망자수	-10.426
▁총장은	-10.4263
▁뿐만아니라	-10.4268
▁법원에	-10.4274
▁미국측	-10.4277
본부	-10.4277
ens	-10.4282
▁개장	-10.4284
국제	-10.4286
▁800	-10.4287
tor	-10.4288
▁칼리	-10.43
▁곤	-10.4301
▁프로그램에	-10.4305
▁메이	-10.4308
▁Co	-10.4316
튜	-10.4327
▁나스닥	-10.4327
▁북서부	-10.4327
▁와인하우스	-10.4327
▁방콕	-10.4327
▁침입	-10.4328
▁출입	-10.4329
▁자유롭	-10.4329
▁화장실	-10.4329
▁ABC	-10.4329
▁직업	-10.433
▁들어갔다	-10.433
프라	-10.4332
▁사막	-10.4335
▁진영	-10.4335
▁산림	-10.4335
▁화면	-10.4337
▁40%	-10.4339
▁자원	-10.4342
▁쓴	-10.4345
▁올려	-10.4346
▁돌파	-10.4348
▁사용자	-10.4349
▁이라크와	-10.4354
▁해임	-10.4355
45	-10.4364
▁l	-10.4366
▁사용될	-10.4368
혹	-10.4369
▁주장에	-10.4369
▁극복	-10.4369
점으로	-10.4374
▁논의하기	-10.4375
해질	-10.4376
▁두번째	-10.4383
ure	-10.4386
▁In	-10.4386
▁가능하다	-10.4387
러시아	-10.439
플레	-10.4391
▁근로자	-10.4395
▁열어	-10.4397
AN	-10.4399
▁돼지	-10.4401
▁지속적	-10.4409
▁리드	-10.4415
▁재건	-10.4417
▁정전	-10.4417
세로	-10.4418
▁결과는	-10.4419
졌으며	-10.4422
시위	-10.4424
▁집으로	-10.4426
▁선전	-10.4432
▁짓	-10.4438
▁감지	-10.4444
▁경비	-10.4448
▁시민들이	-10.4448
▁역사적	-10.4456
tion	-10.4459
▁걸리	-10.4461
IC	-10.4466
▁아프가니스탄에서	-10.4472
▁중국에	-10.4474
▁해적	-10.4481
▁요르단	-10.4481
▁받아들이	-10.4482
랙	-10.4483
▁President	-10.4483
▁궤도	-10.4483
▁떠났다	-10.4483
▁블라디미	-10.4483
▁스코틀랜드	-10.4483
▁없지만	-10.4483
룸	-10.4483
틱	-10.4483
▁법무부	-10.4483
▁촉발	-10.4483
▁활약	-10.4483
▁둘러싸	-10.4483
▁성직자	-10.4484
▁라이벌	-10.4484
▁언어	-10.4485
▁대륙	-10.4485
▁급증	-10.4486
▁자치정부	-10.4487
▁생각했다	-10.4489
▁맞추	-10.4489
▁환호	-10.449
▁축소	-10.4491
▁성격	-10.4494
▁체중	-10.4495
▁왕실	-10.4495
▁세대	-10.4498
▁돌려	-10.4499
▁불편	-10.4501
▁리치	-10.4504
▁국장	-10.4506
▁다우지수	-10.4507
▁연금	-10.451
▁직전	-10.4511
▁북미	-10.4512
▁꼭	-10.4514
▁자랑	-10.4516
▁공모	-10.4516
페이스	-10.4521
ca	-10.4531
▁연안	-10.4531
▁보지	-10.4534
희	-10.4541
멜	-10.4541
벤	-10.4543
뿐만아니라	-10.4543
▁맥주	-10.4552
▁pro	-10.4555
per	-10.4559
▁독도	-10.4559
▁자신에게	-10.456
▁하게	-10.4562
▁세금을	-10.4563
금지	-10.4563
▁백악관에서	-10.4566
▁출동	-10.4567
▁시기에	-10.4571
48	-10.4573
▁맡은	-10.4575
▁혐의에	-10.4577
▁홍	-10.458
▁보내는	-10.4582
▁일어났	-10.4582
위의	-10.4583
▁나타내	-10.4584
▁주었다	-10.4587
▁개시	-10.4588
▁라이트	-10.4595
▁농장	-10.4607
우주	-10.4608
▁진술했다	-10.4611
▁대치	-10.4614
▁55	-10.4615
me	-10.4618
▁윤	-10.4627
▁즉각	-10.4636
즉각적인	-10.4636
춘	-10.4637
▁후임	-10.4641
▁가택연금	-10.4642
▁샤라포바	-10.4642
넨	-10.4642
렘	-10.4642
▁남서부	-10.4642
▁리차드	-10.4642
▁받아들일	-10.4642
▁겨냥	-10.4642
▁천주교	-10.4642
▁패트릭	-10.4642
▁봉송	-10.4642
▁거듭	-10.4643
▁붙잡	-10.4643
▁수석대표	-10.4643
▁영국인	-10.4647
▁구축	-10.4649
▁압수	-10.4651
▁낸시	-10.4657
▁일어나	-10.4659
▁적극적	-10.4665
▁들여	-10.4666
▁잡고	-10.4672
▁사법	-10.4676
득	-10.4677
oll	-10.4679
▁겨	-10.4679
▁주장하며	-10.4688
▁다르	-10.4689
▁조약	-10.4692
▁날아	-10.4702
▁동쪽	-10.4705
▁가해	-10.4705
값	-10.4709
▁전환	-10.4712
▁모스크바	-10.4715
▁만들고	-10.4719
어로	-10.4721
▁120	-10.4722
▁코트	-10.4723
▁무엇	-10.4725
▁앉아	-10.4727
▁지내	-10.4727
매우	-10.4727
쟁	-10.4728
▁시사	-10.4733
됐으나	-10.4736
▁약화	-10.4744
▁선보	-10.4746
mm	-10.4754
▁일제	-10.4757
투표	-10.4757
후보	-10.4758
▁즐기	-10.4771
▁자사	-10.4772
▁감염된	-10.4778
▁자제	-10.4781
▁도착한	-10.4782
세이	-10.4786
▁결의안을	-10.4786
▁소득	-10.479
▁이재민	-10.4796
▁애도	-10.4797
틸	-10.4802
▁쌍둥이	-10.4803
▁알코올	-10.4803
▁상하이	-10.4804
▁탄핵	-10.4804
▁다섯	-10.4804
▁영웅	-10.4804
▁케빈	-10.4805
▁전역에	-10.4809
▁입법	-10.4812
▁사람에게	-10.4812
▁폭파	-10.4814
▁오사마빈라덴	-10.4818
▁상태로	-10.482
▁스타일	-10.4824
▁초반	-10.4827
▁것인가	-10.4827
더스	-10.4828
▁카터	-10.483
▁비난하고	-10.483
▁대상이	-10.4832
▁가리	-10.4832
▁묵	-10.4835
▁눈에	-10.4837
▁나토군	-10.4838
▁병사들	-10.4838
▁오바마와	-10.484
▁정신적	-10.4841
가족	-10.4844
▁헬	-10.4848
▁예술	-10.4852
▁타임스	-10.4853
▁확실한	-10.4853
▁월드	-10.4854
ail	-10.4854
▁던지	-10.4855
▁보호하기	-10.4857
▁국민들에게	-10.4857
원인	-10.486
▁공항에	-10.4862
▁거리에	-10.4866
▁들어오	-10.4866
답	-10.4869
X	-10.4869
▁-	-10.487
동맹	-10.4875
논	-10.4875
▁여행객	-10.4876
풀	-10.4876
▁공개된	-10.4878
▁폭스	-10.4881
▁전원	-10.4884
lu	-10.4887
▁로스	-10.4888
돼야	-10.4891
▁금리	-10.4895
▁떨어졌	-10.4902
▁평가했다	-10.4907
▁무리	-10.4909
▁하락세	-10.491
버렸다	-10.4913
ear	-10.4915
▁회사가	-10.4917
14	-10.4921
▁시장이	-10.4921
▁증가한	-10.4945
▁이론	-10.4947
▁벌였	-10.4947
▁들어있	-10.4951
해왔	-10.4956
재판소	-10.4962
PS	-10.4962
디아	-10.4964
▁디지털	-10.4967
▁마이애미	-10.4967
▁미시시피	-10.4967
▁애리조나	-10.4967
▁유튜브	-10.4967
▁캄보디아	-10.4967
엠	-10.4967
▁비타민	-10.4967
▁중앙일보	-10.4967
▁오딩가	-10.4967
▁천연가스	-10.4967
▁침몰	-10.4967
▁와인	-10.4968
▁지하철	-10.4968
▁공사	-10.4969
▁로이터	-10.4969
▁날짜	-10.4969
▁급격	-10.4969
▁새벽	-10.4969
▁소련	-10.497
▁채널	-10.497
▁산사태	-10.497
▁사찰단	-10.497
▁완전한	-10.4974
▁감금	-10.4974
▁프레스	-10.4976
▁엔진	-10.4977
▁게재	-10.4977
▁분류	-10.4978
▁취임식	-10.4983
미터	-10.4984
▁전세계적으로	-10.4985
▁연구팀	-10.4987
▁인근에	-10.4988
▁상공	-10.4995
▁맞이	-10.4995
▁쌀	-10.4995
▁미칠	-10.5004
▁논	-10.5005
▁투표에서	-10.5006
▁경력	-10.5011
▁서쪽	-10.5013
나무	-10.5013
▁증상	-10.5019
ti	-10.502
▁전부터	-10.5027
▁장면이	-10.5028
▁원화	-10.503
삼	-10.5035
64	-10.5037
▁예수	-10.5044
▁옮겨	-10.5045
▁위에	-10.5045
장소	-10.505
장으로	-10.5052
▁동기	-10.5052
위기	-10.5058
▁딕	-10.5065
to	-10.5075
▁포로	-10.5075
있었다	-10.5079
▁걸린	-10.5079
▁75	-10.5081
▁상승세	-10.5084
▁합의했다고	-10.5091
▁가상	-10.5092
라드	-10.51
▁열리	-10.5104
라이트	-10.5105
준다	-10.5106
▁경호	-10.5128
Q	-10.5134
▁결선투표	-10.5134
▁뿌리	-10.5134
▁쓰촨성	-10.5134
▁좋다	-10.5134
쌍	-10.5134
▁비핵화	-10.5134
▁호랑이	-10.5134
▁over	-10.5134
▁흥미	-10.5134
▁스파이	-10.5134
▁사냥	-10.5134
▁이뤄졌다	-10.5135
▁근육	-10.5135
▁33	-10.5136
▁at	-10.5137
▁보는	-10.5138
▁부총리	-10.5138
▁다윈	-10.5138
13	-10.5139
▁34	-10.514
▁받으며	-10.514
▁화물	-10.5141
▁유럽의	-10.5143
▁재무부	-10.5144
▁소집	-10.5146
▁포경	-10.5146
▁44	-10.5147
▁끝내	-10.5147
▁오늘날	-10.5147
아나	-10.5147
제품	-10.5148
▁부채	-10.515
받았다	-10.5156
▁대립	-10.5157
년만에	-10.5158
▁공개적으로	-10.5159
장과	-10.5162
▁가동	-10.5163
▁호소	-10.5164
리오	-10.5165
▁칭	-10.5174
▁참여한	-10.5176
버리	-10.5177
▁마무	-10.5179
▁범	-10.5183
께	-10.5183
▁형사	-10.5193
▁당국자	-10.5199
▁방식으로	-10.5201
끼	-10.5203
▁기다리	-10.5206
벽	-10.5211
스케	-10.5212
▁이라크군	-10.5212
▁한국에	-10.5214
핵	-10.5215
컨	-10.5218
버스	-10.524
▁느끼	-10.5242
▁변호인	-10.5247
전문	-10.5249
▁만들기	-10.5253
▁올랐	-10.526
▁나오지	-10.5268
카드	-10.527
68	-10.5282
▁권고	-10.5284
▁월요일에	-10.5284
당신	-10.5284
베리	-10.5286
▁최저	-10.5287
첼	-10.5287
2009.0	-10.5293
▁공정	-10.5295
▁록	-10.5297
둥	-10.5299
얀	-10.53
흑	-10.53
럭	-10.53
롬	-10.5302
[	-10.5303
쁘	-10.5303
▁골키퍼	-10.5303
▁늦게	-10.5303
▁브라이언	-10.5303
▁블라고예비치	-10.5303
▁에베레스트	-10.5303
▁인플레이션	-10.5303
▁토네이도	-10.5303
▁필라델피아	-10.5303
▁알렉산더	-10.5303
▁키바키	-10.5303
▁원숭이	-10.5303
▁리히터	-10.5303
▁오히려	-10.5303
▁스캔들	-10.5303
.8%	-10.5304
▁갖춘	-10.5304
▁합법적	-10.5304
▁탄압	-10.5304
▁무엇보다	-10.5307
▁보스턴	-10.5308
tr	-10.5308
▁영업	-10.5308
▁단체들	-10.5312
▁만남	-10.5312
▁전복	-10.5312
ta	-10.5313
사진	-10.5314
▁이에따라	-10.5314
▁*	-10.5314
▁물품	-10.5318
유로	-10.5319
▁자본	-10.5322
▁들어간	-10.5323
▁반영	-10.5328
▁어디	-10.5341
▁가족과	-10.5347
스럽게	-10.535
▁겸	-10.5351
▁유대인	-10.5359
해야만	-10.5363
▁언론에	-10.5364
▁노선	-10.5366
▁일간지	-10.5367
▁표명했다	-10.5367
▁상상	-10.5372
▁문제들	-10.5373
▁소문	-10.5374
▁그대로	-10.5378
우디	-10.5381
▁주연	-10.5388
솔	-10.5392
▁소위	-10.5398
▁것임	-10.5399
지역에	-10.5403
복을	-10.5405
▁사람들과	-10.541
▁국민들이	-10.5413
▁con	-10.5424
▁차량에	-10.5428
▁입수	-10.5432
▁차량이	-10.5434
여행	-10.5437
▁노인	-10.544
▁호수	-10.5441
▁키스	-10.5442
▁축	-10.5452
▁기소됐다	-10.5453
▁아르	-10.5457
▁정치인	-10.5463
퀴	-10.5468
▁공대	-10.5472
즘	-10.5474
▁마이크로소프트	-10.5476
슐	-10.5476
▁남자친구	-10.5476
▁은신처	-10.5476
▁이슬라마바드	-10.5476
▁아름다	-10.5476
▁통일부	-10.5476
▁화이트	-10.5476
▁벗어	-10.5477
▁있었으나	-10.5478
▁라이언	-10.5478
▁징역형	-10.548
▁블루	-10.548
▁종결	-10.5484
▁이스라엘은	-10.5484
▁로저	-10.5486
▁다음날	-10.5488
▁결심	-10.5489
▁체코	-10.5492
▁기각	-10.5493
▁젊은이들	-10.5493
▁지휘관	-10.5496
port	-10.5496
▁중대한	-10.5496
▁초청	-10.5496
▁보여준다	-10.5498
▁소형	-10.5499
▁투르	-10.5501
▁증시는	-10.5503
▁일본과	-10.5504
▁연구에	-10.5507
▁산타	-10.5512
죄	-10.5515
▁정식	-10.5517
▁밥	-10.5519
▁52	-10.5522
원들은	-10.5523
▁게시	-10.5524
▁기록한	-10.5524
▁알카에다와	-10.5526
46	-10.5527
▁가족들이	-10.5527
▁시체	-10.5529
마자	-10.5531
▁su	-10.5534
▁조사에따르면	-10.5534
▁세계적	-10.5538
▁51	-10.5546
▁문제의	-10.555
▁해병	-10.5552
up	-10.5554
▁러시아는	-10.5556
었으나	-10.556
Ma	-10.556
▁경험이	-10.5562
관이	-10.5562
햄	-10.5569
▁홍수로	-10.5571
민주당	-10.5573
▁근로자들	-10.5575
▁제공할	-10.5577
▁브리	-10.5578
▁X	-10.5579
범죄	-10.5585
▁불어	-10.5592
▁확인됐다	-10.5594
수술	-10.5594
▁가게	-10.5597
▁세력이	-10.5599
▁부상으로	-10.56
위인	-10.5603
▁출판	-10.5604
▁구조대원들	-10.5612
▁아프간에서	-10.5614
▁사태에	-10.5615
명인	-10.5639
▁비행사	-10.5646
▁한국이	-10.5647
▁보고서에	-10.5647
▁얻을	-10.5649
▁코미디	-10.565
흥	-10.565
▁후진타오	-10.5651
▁선관위	-10.5651
▁펀드	-10.5651
▁국제공항	-10.5653
▁원칙	-10.5653
로우	-10.5653
▁남극	-10.5654
▁출생	-10.5655
▁1996	-10.5655
▁소탕	-10.5655
▁황금	-10.5655
수는	-10.5656
na	-10.5656
▁총상	-10.5657
▁가담	-10.566
시킨다	-10.5662
▁공격은	-10.5664
▁배후	-10.5665
▁보고서에따르면	-10.5665
▁브랜드	-10.5666
ee	-10.5667
ke	-10.5669
▁물러나	-10.567
▁진단	-10.5671
▁음주	-10.5674
44	-10.5675
▁화재로	-10.5676
▁성장률	-10.5679
▁일으켰다	-10.5681
분에	-10.5682
▁기온	-10.5683
▁이식	-10.5687
▁했었다	-10.5689
▁법무장관	-10.5691
▁화해	-10.5691
나와	-10.57
▁부산	-10.5704
▁쓸	-10.5705
▁사실은	-10.5709
률이	-10.5713
▁일어났다	-10.5717
▁듀	-10.5719
▁날개	-10.5729
▁일치	-10.573
져야	-10.5733
▁변호사가	-10.5734
▁받는다	-10.5734
▁급속	-10.5736
▁진행자	-10.5738
스테	-10.574
▁화상	-10.5742
시스템	-10.5753
▁구역	-10.5753
▁직장	-10.5755
▁예정인	-10.5764
▁보일	-10.5767
▁양국간	-10.5767
▁하나인	-10.577
▁코스	-10.5774
▁구조대	-10.5776
▁이란과	-10.5789
베르	-10.5789
▁밝히	-10.579
▁남쪽	-10.5794
▁프라	-10.5797
▁내무부는	-10.5803
▁여성과	-10.5804
호가	-10.5804
▁경호원	-10.5814
▁여론조사에서	-10.5816
▁수퍼	-10.5817
▁다이	-10.5822
콩	-10.5826
▁통계	-10.5826
▁신문사	-10.5828
▁뭄바이	-10.583
▁연쇄	-10.583
▁탱크	-10.583
톱	-10.583
▁섭취	-10.583
▁줄리아니	-10.583
▁할머니	-10.583
▁택시	-10.583
▁교통사고	-10.5831
▁구멍	-10.5831
▁플라	-10.5831
▁발생하고	-10.5832
▁기대한다	-10.5832
겠습니다	-10.5832
▁년간	-10.5832
▁소규모	-10.5833
09	-10.5833
▁1993	-10.5833
▁라덴	-10.5834
▁폭설	-10.5835
▁인권단체	-10.5836
▁벨기에	-10.5837
▁사생활	-10.5838
▁보존	-10.5839
▁관측	-10.5843
▁PPP	-10.5846
▁감바리	-10.5847
꾼	-10.5848
▁전용	-10.5849
▁조류	-10.5856
▁가졌	-10.586
▁여사는	-10.586
▁악어	-10.5861
▁웃	-10.5861
▁낼	-10.5866
▁가방	-10.5867
▁위협이	-10.5867
▁결과에	-10.5867
▁시한	-10.5871
75	-10.5875
▁피부	-10.5899
▁뒤에	-10.5902
▁이란에	-10.5904
▁초안	-10.5904
많은	-10.5906
▁사용했다	-10.5907
▁대피했다	-10.5909
▁정치인들	-10.5912
바로	-10.592
▁국적	-10.5924
▁맡고	-10.5925
었는지	-10.5928
▁폭발이	-10.5929
▁근처에서	-10.5931
▁참석할	-10.5932
▁투쟁	-10.5933
▁자신과	-10.5933
▁제작한	-10.5935
▁풀어	-10.5936
▁에도	-10.5936
▁올라가	-10.5939
시켰다고	-10.594
식이	-10.5941
▁자택	-10.5944
▁살아있	-10.5947
담당	-10.5952
▁GM	-10.5953
▁as	-10.5957
▁갔다	-10.5961
▁주장한	-10.5968
▁착수	-10.597
▁공기	-10.5974
씨가	-10.5978
▁1%	-10.598
▁정지	-10.598
▁46	-10.5982
▁700	-10.5984
켜	-10.5985
사업	-10.5989
▁아메리카	-10.599
짜	-10.5992
▁방송사	-10.5993
▁아메리칸	-10.5995
▁남부에서	-10.5998
흉	-10.6003
첨	-10.6008
▁China	-10.6011
▁돕기	-10.6011
▁무슬림	-10.6011
▁밴드	-10.6011
▁재검토	-10.6011
▁횡령	-10.6011
▁기쁘다	-10.6011
▁테일러	-10.6011
▁쓰레기	-10.6011
▁다시한번	-10.6012
▁플래	-10.6012
▁가벼	-10.6012
▁감옥	-10.6012
▁출산	-10.6013
민감한	-10.6013
▁예멘	-10.6014
▁침공	-10.6014
▁지붕	-10.6014
▁농업	-10.6015
▁1991	-10.6015
▁his	-10.6015
▁포럼	-10.6015
▁아이폰	-10.6016
▁비난하는	-10.6018
▁에릭	-10.6018
▁결함	-10.6019
▁수립	-10.602
▁진행되는	-10.602
레나	-10.6024
▁판정	-10.6028
▁선포했다	-10.603
▁적발	-10.603
▁피랍	-10.6031
▁사용하지	-10.6034
▁반복	-10.6035
않게	-10.6035
▁재임	-10.6035
▁미국인들이	-10.6037
▁극장	-10.604
▁개정안	-10.6043
▁생기	-10.6044
▁비교적	-10.6044
에르	-10.6045
▁마친	-10.6046
▁종식	-10.6047
▁상호	-10.605
▁뇌물	-10.6051
▁늘어나	-10.6057
▁하나로	-10.606
▁~	-10.6062
▁곳이다	-10.6065
BA	-10.6066
▁북쪽으로	-10.6068
▁파도	-10.607
▁번째로	-10.6071
쪽으로	-10.6071
마르	-10.6072
디는	-10.6072
▁했습니다	-10.6074
▁부실	-10.6077
▁수사관	-10.6077
만개	-10.6084
▁총회	-10.6087
▁제출했다	-10.6087
ie	-10.6087
▁관계에	-10.6093
74	-10.6095
▁알라	-10.6099
▁클	-10.61
▁통신이	-10.6102
▁민족	-10.6117
싸	-10.6118
조건	-10.6119
▁생각하지	-10.612
▁인원	-10.6123
▁St	-10.6123
▁석	-10.6123
▁근거로	-10.6126
7000	-10.6126
구조	-10.6129
ress	-10.613
▁49	-10.613
▁회견	-10.6132
▁모아	-10.6133
겼	-10.6135
▁재판관	-10.614
▁sh	-10.6141
▁가족이	-10.6145
▁구체적	-10.6149
▁단체가	-10.615
▁해도	-10.6152
▁살았	-10.6152
▁적십자	-10.6156
▁여성들이	-10.6157
▁세계적으로	-10.6158
▁소식통이	-10.6158
신문	-10.6163
▁맡	-10.6163
▁이용하는	-10.6165
▁실업	-10.6176
▁주위	-10.6179
역사적인	-10.6183
▁중이었다	-10.6185
▁신사	-10.6185
▁수상한	-10.6187
▁관계당국	-10.6187
▁해안에서	-10.6191
화된	-10.6193
▁DVD	-10.6197
▁광범위	-10.6197
▁안전보장이사회	-10.6197
▁협약	-10.6197
▁메르켈	-10.6197
▁파나마	-10.6197
▁스트레스	-10.6197
▁월스트리트	-10.6197
▁모리	-10.6197
▁거짓말	-10.6197
▁발휘	-10.6198
▁억제	-10.62
▁정찰	-10.6202
▁싸우	-10.6203
▁차별	-10.6206
▁신규	-10.6208
▁로드	-10.6209
▁순위	-10.6212
▁사우스캐롤라이나	-10.6214
▁반박	-10.6217
▁치명적인	-10.622
▁제목	-10.6222
▁이륙	-10.6227
병원	-10.6227
▁빼	-10.6229
▁뉴햄프셔	-10.6229
▁자행	-10.6231
▁혼자	-10.6236
▁수리	-10.6238
▁미치는	-10.6239
이었습니다	-10.6244
▁여러분	-10.6254
▁확실	-10.6257
▁후보자	-10.6258
▁성당	-10.6258
▁차지하고	-10.626
▁수십명	-10.6261
▁승리로	-10.6264
▁정상화	-10.6265
원들이	-10.6269
▁스톤	-10.6269
▁많아	-10.6271
▁결과로	-10.6272
▁고장	-10.6276
▁레드	-10.628
▁보여주고	-10.6281
되거나	-10.6282
▁이름이	-10.6289
▁제정	-10.6293
▁미디어	-10.6293
▁계속될	-10.6301
▁서안	-10.6305
▁노스	-10.6307
▁물이	-10.6311
▁IOC	-10.6313
구역	-10.6316
앤	-10.6318
데스	-10.632
커스	-10.632
▁미군과	-10.632
잘못된	-10.6321
▁연행	-10.6322
교육	-10.6323
▁운영하	-10.6326
▁지점에서	-10.6328
자유	-10.6331
▁센	-10.6333
에게서	-10.6335
긍정적인	-10.6336
▁적절	-10.634
▁물에	-10.6345
▁결승전	-10.6345
속도로	-10.6347
▁맞는	-10.6356
86	-10.6364
등급	-10.6364
므로	-10.6366
ary	-10.6367
81	-10.6372
킨스	-10.6376
전선	-10.6377
촌	-10.6379
쉽	-10.638
▁61	-10.638
▁쏟아	-10.6384
▁nuclear	-10.6385
왈	-10.6385
▁다큐멘터리	-10.6385
▁식료품	-10.6385
▁왼쪽	-10.6385
▁쿠웨이트	-10.6385
▁전당대회	-10.6385
▁과반수	-10.6385
▁옹호	-10.6385
▁데이비스	-10.6385
▁일어날	-10.6385
▁균형	-10.6385
▁위안부	-10.6385
▁롬니	-10.6386
▁난민촌	-10.6386
자들과	-10.6386
▁완료	-10.6388
▁팝	-10.6388
▁귀환	-10.6389
▁피해자들	-10.6389
▁출두	-10.6389
▁표준	-10.6389
▁탑승객	-10.6391
▁검문소	-10.6391
▁1995	-10.6391
▁경관	-10.6393
▁잭	-10.6393
▁화려	-10.6393
▁인민	-10.6396
▁출연한	-10.6396
▁항구	-10.6397
분만에	-10.6397
▁동생	-10.64
▁공산주의	-10.6402
▁숲	-10.6403
▁조언	-10.6403
▁스타디움에서	-10.6405
380	-10.6406
▁군은	-10.6414
▁모임	-10.6414
▁합의한	-10.6417
▁의사들	-10.6418
▁`	-10.6418
▁사용해	-10.642
▁총재는	-10.642
▁39	-10.6425
ph	-10.6427
▁수배	-10.643
▁있어야	-10.6433
▁조명	-10.6434
um	-10.6435
▁지원할	-10.6438
▁조용	-10.6442
▁나에게	-10.6444
단계	-10.6459
▁최고치	-10.6465
▁중단했다	-10.6466
▁중단할	-10.6467
▁하미	-10.6472
▁컨	-10.6481
▁주장한다	-10.6483
▁선원	-10.6489
▁달러화	-10.6495
▁실시할	-10.6505
▁달린	-10.6507
굴	-10.651
않	-10.6511
▁든	-10.6515
돈	-10.6515
▁흘	-10.6515
▁보냈	-10.652
▁군사적	-10.6523
▁운전자	-10.654
▁얼	-10.6546
겠	-10.6547
▁무게	-10.6549
▁신조	-10.6552
▁후보인	-10.6555
▁손에	-10.6565
동물	-10.6567
▁쓰고	-10.6571
갤	-10.6576
랭	-10.6577
▁듣고	-10.6578
▁먹이	-10.6578
▁않았던	-10.6578
▁어렵다	-10.6578
▁없게	-10.6578
▁없고	-10.6578
▁에콰도르	-10.6578
▁이산화탄소	-10.6578
▁펠로시	-10.6578
▁확장	-10.6578
▁국제원자력기구	-10.6578
▁캐릭터	-10.6578
▁코끼리	-10.6578
▁나타난	-10.6578
▁매니저	-10.6578
▁받아들여	-10.6578
▁퇴임	-10.6578
▁득표율	-10.6578
▁범행	-10.658
▁쉽지	-10.6581
▁급락	-10.6581
▁낮추	-10.6581
▁복역	-10.6582
비용	-10.6582
▁떠난	-10.6582
▁충돌이	-10.6583
▁연구원들	-10.6583
▁레이건	-10.6585
▁나왔	-10.6585
▁일련	-10.6587
이상	-10.659
▁조지아주	-10.659
예비선거	-10.6591
▁케이트	-10.6594
▁운영하고	-10.6595
▁당초	-10.6595
▁상영	-10.6595
▁해리포터	-10.6596
상으로	-10.6599
▁뛰	-10.6601
▁정원	-10.6604
▁남성은	-10.6605
▁어려	-10.6606
▁인력	-10.6607
▁침대	-10.6608
▁매체	-10.6608
▁요금	-10.6612
▁당국에	-10.6613
▁부상당	-10.6613
▁승려들	-10.6615
▁AT	-10.6618
▁후보와	-10.6626
▁폰	-10.6627
▁계속되는	-10.6629
▁아난	-10.6633
▁생산량	-10.6639
▁유대	-10.6642
▁텍사스주	-10.6645
▁조치는	-10.6645
▁창문	-10.6646
▁운전사	-10.6651
지원	-10.6652
▁기차	-10.6652
▁다르다	-10.6654
▁척	-10.6656
▁공개됐다	-10.6664
▁조건으로	-10.6666
▁촬영한	-10.6671
▁데에	-10.6672
▁회담의	-10.6673
37	-10.6683
▁뉴욕시	-10.6684
▁부위	-10.6686
▁확신한다	-10.6687
▁늘리	-10.6691
▁회원국들	-10.6694
84	-10.6694
버린	-10.6695
▁취하	-10.6697
iz	-10.67
▁한나라당은	-10.6702
26	-10.6702
▁발표하고	-10.671
▁입을	-10.6711
▁장악	-10.6713
▁64	-10.6713
IAEA	-10.6714
팬	-10.6714
세대	-10.6716
▁발견되었다	-10.672
▁무어	-10.6725
그녀	-10.6725
▁사용된	-10.6731
▁보게	-10.6733
▁포함돼	-10.6743
▁소식에	-10.6745
노동	-10.6759
전쟁	-10.6761
▁전달했다	-10.6763
아시아	-10.6773
▁우리에게	-10.6773
었을	-10.6773
▁from	-10.6774
▁샌디에이고	-10.6774
▁일으킬	-10.6774
▁외무성	-10.6774
▁마라톤	-10.6774
▁여겨지	-10.6774
▁구제금융	-10.6774
▁어깨	-10.6774
▁졸업	-10.6774
▁드러냈다	-10.6775
▁용납	-10.6775
▁테니스	-10.6775
▁상륙	-10.6775
▁생방송	-10.6777
▁창출	-10.6779
▁탄생	-10.6779
▁끝날	-10.678
▁몰려	-10.6781
▁인근에서	-10.6781
▁발견한	-10.6783
▁거부권	-10.6785
▁분석가들은	-10.6786
▁1960	-10.6786
▁분량	-10.6787
▁작업에	-10.6787
▁이뤄진	-10.6787
▁방출	-10.6788
▁만일	-10.679
▁월가	-10.6792
▁지도자가	-10.6792
▁교도소에	-10.6793
▁음성	-10.6794
▁발포	-10.6796
▁거절했다	-10.6799
▁최저치	-10.6799
행사	-10.68
▁냈다	-10.68
▁밝혀진	-10.6801
▁알렸다	-10.6803
▁모건	-10.6805
▁진보	-10.6812
▁오하이오주	-10.6818
▁상태이다	-10.682
▁마리아	-10.6825
▁무장대원	-10.6828
타임	-10.683
▁비난하며	-10.6831
▁투명	-10.6833
▁예정이었다	-10.6838
▁증세	-10.6838
포트	-10.6842
▁방문하는	-10.6846
▁기여	-10.6847
공사	-10.6848
da	-10.6849
▁미국인들	-10.685
라면	-10.685
▁자택에서	-10.6854
▁세부	-10.6867
56	-10.687
▁깊이	-10.687
▁행사에	-10.6874
▁가르	-10.6875
▁노리	-10.6882
워터	-10.6885
▁식사	-10.6892
ty	-10.6898
시오	-10.6918
NASA	-10.6918
앞으로	-10.6934
변화	-10.694
연방	-10.6947
▁하루에	-10.6959
▁소비자들	-10.6962
min	-10.6963
방위	-10.6969
▁정책에	-10.6972
딜	-10.6973
▁느낄	-10.6974
▁자카르타	-10.6974
▁줄기세포	-10.6974
▁프리미어리그	-10.6974
▁휩쓸	-10.6974
쿨	-10.6974
큐	-10.6974
▁앤드류	-10.6974
▁샘플	-10.6974
▁new	-10.6974
▁돌고래	-10.6974
▁홈페이지	-10.6974
▁유혈사태	-10.6974
▁로딕	-10.6974
▁탐험	-10.6975
▁특징	-10.6975
▁상태에서	-10.6975
▁계좌	-10.6975
▁스턴	-10.6975
▁축출	-10.6976
▁밝혔지만	-10.6976
▁MBC	-10.6976
▁빌딩	-10.6976
▁동일한	-10.6976
▁먼	-10.6976
▁치러지	-10.6978
▁수여	-10.698
▁다국적군	-10.6981
▁실업률	-10.6981
▁처방	-10.6982
▁표결	-10.6983
▁방법은	-10.6984
▁토지	-10.6985
▁유럽에서	-10.6985
상에서	-10.6985
54	-10.6987
▁측면	-10.699
▁법안은	-10.6991
▁서양	-10.6991
위안	-10.6993
▁서울시	-10.6995
▁싱	-10.6995
▁선임	-10.6995
▁원래	-10.6997
▁발행	-10.6999
▁58	-10.7
에이커	-10.7001
▁화요일에	-10.7003
▁하락한	-10.7004
▁교황은	-10.7004
▁문제와	-10.7009
▁벗	-10.701
.9%	-10.7012
ish	-10.7013
▁2-1	-10.7021
▁보조	-10.7021
▁국가들은	-10.7025
▁긍정적	-10.7026
▁해당하는	-10.7029
▁소유하고	-10.703
89	-10.7042
▁여지	-10.7043
▁일본에	-10.7044
21	-10.7046
▁2500	-10.7047
▁불리	-10.7054
▁심의	-10.706
렸으며	-10.7069
▁트레	-10.707
당했다	-10.7071
▁부모들	-10.7073
▁기부	-10.7073
98	-10.7079
▁동의했다	-10.7092
▁뉴욕주	-10.7095
▁외치	-10.7098
▁용기	-10.7098
▁얻고	-10.71
▁국기	-10.7101
▁외국인들	-10.7102
고문	-10.7103
▁53	-10.7105
07	-10.7108
버트	-10.7111
▁유전	-10.7114
▁실종자	-10.7115
직원	-10.7117
bu	-10.7117
▁아들이	-10.7118
▁촉구하	-10.7118
옥	-10.7124
됩니다	-10.7125
힘	-10.7128
4000	-10.7128
1000	-10.7129
유럽	-10.713
▁테러와	-10.7135
진압	-10.7136
감독	-10.7142
▁바르	-10.7143
▁73	-10.7145
▁페이지	-10.7146
프리	-10.7159
평화	-10.716
▁일본인	-10.7161
대책	-10.7162
▁발표됐다	-10.7165
저는	-10.7166
▁틀	-10.7166
미국은	-10.717
봐	-10.7172
쾌	-10.7175
쇠	-10.7176
헨	-10.7177
▁항공우주국	-10.7178
븐	-10.7178
▁HIV	-10.7178
▁노르웨이	-10.7178
▁멤버	-10.7178
▁않았으나	-10.7178
▁애완견	-10.7178
▁윔블던	-10.7178
▁프랭크	-10.7178
넌	-10.7178
▁마흐디	-10.7178
▁힘입어	-10.7178
▁예를들어	-10.7178
▁좌절	-10.7178
▁검증	-10.7178
▁득점	-10.7178
▁잇따	-10.7178
▁정거장	-10.7178
▁브리핑	-10.7178
▁암컷	-10.7178
2006.01	-10.7178
2007.11	-10.7179
▁not	-10.7179
▁최근에	-10.7179
▁밝혔으며	-10.718
▁녹음	-10.7181
▁음료	-10.7181
▁부부가	-10.7181
▁화합	-10.7181
▁영화배우	-10.7181
▁오마르	-10.7183
▁쿠퍼	-10.7183
▁실시했다	-10.7184
▁내려졌다	-10.7184
▁포착	-10.7184
▁학교에	-10.7185
▁외환	-10.7186
▁종료	-10.7187
▁통증	-10.7188
▁선수가	-10.7188
▁매달	-10.7193
▁도망	-10.7194
▁리처드슨	-10.7195
리언	-10.7195
▁개편	-10.7197
통제	-10.7197
▁이슬람교	-10.7198
▁키우	-10.7202
▁격렬한	-10.7202
▁상원의원과	-10.7202
▁자리에	-10.7203
▁양측은	-10.7204
▁품	-10.7206
▁접전	-10.7206
▁열렸다	-10.7209
▁재직	-10.7212
▁해상	-10.7216
▁사설	-10.7216
▁국가로	-10.7218
▁팀이	-10.7219
▁최대의	-10.722
내용	-10.722
▁지지한다	-10.7224
▁가족은	-10.7229
월드	-10.723
39	-10.7233
▁마을에서	-10.7235
대에서	-10.7237
▁화장	-10.7244
▁전사	-10.7245
▁1500	-10.7246
▁전부	-10.7248
▁세트	-10.7254
▁보이며	-10.7254
▁해주	-10.7255
▁바라는	-10.7257
▁알지	-10.7258
▁소식통	-10.7264
▁소식은	-10.7264
▁카리	-10.7267
▁판다	-10.7269
▁정권이	-10.7275
▁잡스	-10.7278
▁론	-10.7282
▁포장	-10.7282
▁법안에	-10.7285
▁추세	-10.7286
하우스	-10.729
이런	-10.7292
▁88	-10.7294
▁청사	-10.7314
▁기울이	-10.7316
▁목표는	-10.7318
▁NATO	-10.7323
▁파운드	-10.7324
▁단체인	-10.7325
응	-10.7327
▁FRB	-10.7329
▁막아	-10.7331
▁지분	-10.7337
프랑스	-10.734
▁못했	-10.734
▁생각이	-10.7343
▁중심가	-10.7345
▁장군은	-10.7347
▁서장	-10.7351
▁장착	-10.7353
▁움직	-10.736
연구	-10.736
▁협상에	-10.7361
▁정의	-10.7362
▁한국인들	-10.7365
▁요청을	-10.7366
때까지	-10.7367
▁소방	-10.7373
▁온도	-10.7377
업자들	-10.7379
▁승무원들	-10.7381
▁위대	-10.7381
▁운명	-10.7383
▁대리	-10.7385
소리	-10.7386
짝	-10.7386
▁government	-10.7386
▁않았고	-10.7386
▁없습니다	-10.7386
▁피라미드	-10.7386
팩	-10.7386
▁비틀즈	-10.7386
드립니다	-10.7386
▁마돈나	-10.7386
▁배터리	-10.7386
▁탈북자	-10.7386
▁침략	-10.7386
▁서식지	-10.7386
▁객실	-10.7386
▁데이빗	-10.7386
▁라파엘	-10.7387
▁여섯	-10.7387
▁자선단체	-10.7387
▁졸리	-10.7387
▁빠지	-10.7388
2005.09	-10.7388
▁1992	-10.7389
▁탈락	-10.739
▁금액	-10.739
▁테러조직	-10.7392
▁세웠다	-10.7394
▁프라이머리에서	-10.7395
▁산책	-10.7395
ence	-10.7395
▁잡아	-10.7396
프레드	-10.7396
▁인형	-10.7399
▁물러	-10.74
▁않는다면	-10.74
▁커지	-10.7401
▁65	-10.7403
▁전국적으로	-10.7404
▁고무	-10.7405
▁본토	-10.7406
▁카라	-10.7409
▁국가에서	-10.7409
▁고급	-10.741
▁제이	-10.7411
▁지질	-10.7413
▁강행	-10.7414
▁아마디	-10.7414
▁상당히	-10.7416
▁불구	-10.7417
▁상승한	-10.7418
▁보급	-10.7419
▁몰고	-10.742
▁30%	-10.7421
▁피살	-10.7422
지방	-10.7424
93	-10.7424
▁남용	-10.7429
▁자동	-10.7431
▁유산	-10.744
▁BA	-10.7441
▁4000	-10.7442
▁방향으로	-10.7445
▁댄	-10.7456
▁퀸	-10.7467
24	-10.747
▁플로리다주	-10.7473
▁회의에	-10.7481
카르	-10.7485
▁등으로	-10.7491
▁이용한	-10.7492
▁일이다	-10.7503
▁약세	-10.7508
▁손해	-10.7513
▁담은	-10.7514
CC	-10.7514
▁청년	-10.7524
22	-10.7529
▁잃었	-10.7534
▁카르	-10.7535
스탄	-10.7536
혔	-10.7539
▁FA	-10.7547
▁사실에	-10.7547
코트	-10.7551
▁투표에	-10.7554
▁제리	-10.7554
▁지지자들이	-10.7555
▁후보들	-10.7556
탈레반	-10.7557
▁수면	-10.7557
털	-10.756
▁거부하	-10.756
▁5%	-10.756
음악	-10.7562
▁배심원	-10.7579
▁딸이	-10.7584
▁포함됐다	-10.759
회를	-10.7592
▁죽음을	-10.7596
달러로	-10.7596
▁강세	-10.7597
▁엘리	-10.7597
▁관타나모	-10.7599
▁오토바이	-10.7599
▁우주왕복선	-10.7599
▁울포위츠	-10.7599
▁준결승	-10.7599
▁파바로티	-10.7599
▁펜실베니아	-10.7599
▁플라스틱	-10.7599
社	-10.7599
툴	-10.7599
OPEC	-10.7599
▁자유무역협정	-10.7599
▁퍼거슨	-10.7599
▁롤링	-10.7599
▁경기부양책	-10.7599
▁벌써	-10.7599
▁헌법재판소	-10.76
▁낙태	-10.7601
▁의뢰	-10.7601
▁넘겨	-10.7601
▁저희	-10.7602
▁드러내	-10.7605
▁오른쪽	-10.7605
▁점검	-10.7606
▁영양	-10.7606
▁상대방	-10.7608
▁NK	-10.7608
▁풀려	-10.7608
▁종합	-10.7609
과학	-10.761
▁집권당	-10.7612
▁백신	-10.7613
▁처한	-10.7614
▁멀리	-10.7619
▁군함	-10.762
▁매출	-10.762
▁고속	-10.762
▁국가들이	-10.7621
▁연계	-10.7628
ite	-10.7629
▁촉진	-10.7631
▁실린	-10.7632
▁존경	-10.7634
▁밀어	-10.7635
▁운동가들	-10.7636
▁표면	-10.7637
▁도심	-10.7642
▁요구하며	-10.7647
▁모금	-10.765
▁흔	-10.7653
▁남자는	-10.7655
▁제시했다	-10.7655
학과	-10.7658
▁지원하는	-10.7658
▁41	-10.7663
▁이틀간	-10.7669
▁내려진	-10.768
▁tr	-10.7681
▁다음주	-10.7687
▁살해했다	-10.7689
▁법원에서	-10.7693
▁중요성	-10.7693
▁대학생	-10.7695
▁유도	-10.7697
▁로브	-10.7699
▁햄	-10.7699
▁기울	-10.7703
▁참여할	-10.7704
▁브라운은	-10.7706
▁갈라	-10.7714
▁대통령직	-10.7717
티스	-10.7717
▁인질들을	-10.7724
▁유인	-10.7724
▁v	-10.7725
▁감소했다	-10.7726
업계	-10.7726
위성	-10.7731
▁제보	-10.7731
▁유지하고	-10.7733
분께	-10.7737
포르	-10.7738
▁각자	-10.7739
기자	-10.7739
96	-10.7741
▁전역에서	-10.7744
ide	-10.7747
줬	-10.7761
▁기소된	-10.7761
▁UEFA	-10.7762
▁밝혔	-10.7767
▁계속된	-10.7769
▁나이트	-10.777
▁건물이	-10.7777
`	-10.7778
▁제공한	-10.778
서비스	-10.7781
▁수위	-10.7781
▁140	-10.7781
▁향상	-10.7794
▁대전	-10.7794
주가	-10.7799
▁여부에	-10.7804
▁용의자로	-10.7806
칙	-10.7813
닷	-10.7816
▁Obama	-10.7816
▁루아얄	-10.7816
▁싶지	-10.7816
▁옮기	-10.7816
▁허커비	-10.7816
펴	-10.7816
▁경기침체	-10.7816
▁뮤지컬	-10.7816
▁아테네	-10.7816
랩	-10.7816
톨	-10.7816
▁게릴라	-10.7816
▁옐친	-10.7816
▁징후	-10.7816
▁포르노	-10.7816
▁시라크	-10.7816
▁불가리아	-10.7816
▁2005.10	-10.7816
▁본격적	-10.7817
▁공룡	-10.7817
▁벽돌	-10.7817
▁살아남	-10.7819
▁관람	-10.7819
▁탄광	-10.782
▁함유	-10.7822
▁있었습니다	-10.7822
▁대학에서	-10.7824
베르토	-10.7824
▁제출한	-10.7826
▁히트	-10.7829
▁승부	-10.7831
▁형식	-10.7832
American	-10.7835
▁국방성	-10.7835
▁자신감	-10.7838
▁조절	-10.7839
▁점거	-10.784
▁공판	-10.7843
ag	-10.7843
▁벌어졌다	-10.7848
59	-10.7848
▁연간	-10.7848
▁포트	-10.7848
▁얼마전	-10.7849
▁실무	-10.7851
▁한국은행	-10.7851
▁접수	-10.7851
사무소	-10.7852
▁소동	-10.7853
▁범위	-10.7858
▁1,000	-10.786
▁통보	-10.786
▁갖는	-10.7861
▁좋아하는	-10.7866
▁호소했다	-10.7866
▁냉	-10.7867
▁희망한다	-10.787
▁발표했습니다	-10.787
▁기분	-10.7872
▁지지하고	-10.7874
▁본다	-10.7875
호프	-10.7875
▁사용하고	-10.7877
▁사체	-10.7877
자료	-10.7879
▁성명은	-10.788
▁동성	-10.7881
아직	-10.7885
▁신분	-10.7885
▁사망했	-10.7888
▁뱀	-10.7895
코프	-10.7895
▁북부에	-10.7897
▁고려하고	-10.7898
▁PKK	-10.7901
▁7000	-10.7903
▁데일리	-10.7903
▁계기	-10.7914
▁남편이	-10.7928
▁지대	-10.7932
▁노력이	-10.7935
▁탄도	-10.7939
▁나선	-10.7939
▁포함된	-10.7942
(1	-10.7951
▁몸에	-10.7957
▁곰	-10.7965
▁도시인	-10.7975
▁지원하고	-10.7977
▁동맹국	-10.7982
▁브로	-10.7986
▁테러리스트들	-10.7986
▁직원이	-10.7987
업체들	-10.7988
▁승인했다	-10.7993
끈	-10.7993
늘	-10.7994
▁해소	-10.7996
IS	-10.7996
▁160	-10.8004
▁우즈	-10.8006
리안	-10.8006
아프간	-10.8007
어떤	-10.8007
▁위원	-10.8008
금융	-10.8009
사령관	-10.801
2000	-10.801
사람	-10.8017
▁떼	-10.8024
코드	-10.8028
▁열고	-10.803
생산	-10.8033
룰	-10.8033
▁매춘	-10.8036
▁덧붙	-10.8036
▁금메달	-10.8038
▁디자이너	-10.8038
▁루이지애나	-10.8038
▁아닙니다	-10.8038
▁지지선언	-10.8038
▁카트리나	-10.8038
▁앤더슨	-10.8038
▁알렉스	-10.8038
▁보이콧	-10.8039
▁징계	-10.8039
▁퇴원	-10.8039
▁이자율	-10.8039
▁멈추	-10.8039
2006.08	-10.804
▁개막	-10.804
▁막대한	-10.8041
강전에서	-10.8042
▁디스크	-10.8042
29	-10.8042
▁떠날	-10.8042
▁Y	-10.8043
▁양곤	-10.8043
▁흘러	-10.8043
▁사이클	-10.8044
인들에게	-10.8044
▁핵개발	-10.8046
▁경향	-10.8046
▁오스카	-10.8048
▁상담	-10.8048
▁러드	-10.8049
▁않으며	-10.8049
▁타임	-10.8049
▁정착	-10.8051
▁인터	-10.8053
way	-10.8053
▁플레이어	-10.8055
▁래리	-10.8056
▁인공	-10.8056
키는	-10.8056
▁준수	-10.8056
▁대법원장	-10.8058
▁미첼	-10.8059
▁쏘	-10.8059
▁셰	-10.806
된다면	-10.806
▁통과시켰다	-10.8061
▁서류	-10.8061
▁발발	-10.8062
▁장교	-10.8062
55	-10.8062
▁도청	-10.8067
res	-10.8068
▁실직	-10.8068
▁포함하여	-10.807
▁취한	-10.8071
▁참석하지	-10.8076
천명	-10.8076
▁탄소	-10.8078
▁선수로	-10.8091
렌스	-10.8094
os	-10.8096
▁챔피언십	-10.8096
▁흔적	-10.8097
▁나아	-10.8102
▁정계	-10.8104
다란	-10.8105
어질	-10.8111
▁맹	-10.8113
▁기상청	-10.8116
▁정보부	-10.8119
▁확산되고	-10.8124
▁경사	-10.8127
pr	-10.8138
▁서서	-10.8141
▁레바논군	-10.8148
▁곳이	-10.815
▁정상회담을	-10.815
con	-10.8157
스런	-10.8158
AM	-10.817
BO	-10.8177
▁원인이	-10.8178
▁WHO	-10.8179
49	-10.8191
▁클리	-10.8196
▁59	-10.82
▁지도자는	-10.8202
용으로	-10.8202
소한	-10.8216
▁건너	-10.8216
▁56	-10.8216
out	-10.8227
58	-10.8229
▁건강이	-10.8229
회전	-10.8237
널리	-10.8239
자동차	-10.8239
야드	-10.8245
▁조사한	-10.8249
old	-10.8249
▁부당	-10.8258
▁준비하고	-10.8263
겁	-10.8265
뒀	-10.8266
World	-10.8266
▁로드리게스	-10.8266
▁베네딕	-10.8266
▁에티오피아	-10.8266
▁오클라호마	-10.8266
▁이브라힘	-10.8266
▁찾지	-10.8266
▁최첨단	-10.8266
▁히틀러	-10.8266
셨	-10.8266
▁심장마비	-10.8266
▁평화유지군	-10.8266
▁의약품	-10.8266
▁압바스	-10.8266
PGA	-10.8266
▁빼앗	-10.8266
▁따뜻	-10.8266
▁아마디네자드	-10.8266
▁중남미	-10.8266
▁2008.10	-10.8266
▁스크린	-10.8266
▁인터폴	-10.8266
▁터널	-10.8267
내내	-10.8267
2007.12	-10.8267
▁품목	-10.8267
▁NBA	-10.8268
▁장관과	-10.8268
요원	-10.8269
▁술집	-10.8269
▁가짜	-10.8269
▁1989	-10.8271
▁거짓	-10.8271
62	-10.8272
▁이루어진	-10.8272
▁들어갈	-10.8273
▁연례	-10.8273
▁세탁	-10.8273
▁새롭	-10.8274
▁부탁	-10.8275
▁풍부	-10.8276
▁채취	-10.8276
▁계산	-10.8277
▁구름	-10.8277
▁일이라고	-10.8278
▁조항	-10.828
▁43	-10.828
▁플로	-10.828
▁게리	-10.8283
▁단행	-10.8284
▁발급	-10.8288
▁테러단체	-10.8288
▁암호	-10.8289
▁뿐이다	-10.8291
▁당해	-10.8291
▁회수	-10.8292
▁대대적	-10.8294
▁휴대	-10.8299
▁메일	-10.8299
▁언급하며	-10.83
mb	-10.8302
91	-10.8307
해지고	-10.8308
▁임대	-10.8315
▁스토	-10.8315
▁변호	-10.8319
교회	-10.832
▁보건부	-10.832
oo	-10.832
▁옥	-10.832
▁해체	-10.8322
위원	-10.8324
▁필요로	-10.8327
▁벌여	-10.833
노조	-10.8333
▁경비원	-10.8342
▁문구	-10.8342
▁취했다	-10.8344
▁유기	-10.8352
▁하나는	-10.8353
▁결승전에서	-10.8357
▁사진이	-10.8358
▁시인	-10.8373
곳에	-10.8374
▁신화	-10.838
▁달간	-10.8383
▁조지아	-10.8395
▁여행객들	-10.8401
해달라	-10.8404
학생	-10.8405
▁불이	-10.8411
▁경매에	-10.8417
▁선거법	-10.8427
▁줄리	-10.8428
▁보도에	-10.8428
▁무고	-10.8428
▁신장	-10.8429
푸르	-10.8431
▁기업의	-10.8432
▁법정에서	-10.8435
▁침	-10.8436
▁되며	-10.8437
▁5000	-10.8444
▁일어나는	-10.8462
▁동물들	-10.8463
▁넘기	-10.8467
▁알려	-10.8469
셰	-10.8476
해리포터	-10.8476
PPP	-10.8476
죽	-10.8477
▁휩싸	-10.8477
▁총장	-10.8478
▁취해	-10.8481
▁요원들	-10.8484
▁지식	-10.8485
▁회장이	-10.8486
달라	-10.8493
▁정상들	-10.8495
여성	-10.8497
▁코치	-10.8497
낭	-10.8498
뷰	-10.8498
5,000	-10.8498
▁고이즈미	-10.8498
▁뉴올리언스	-10.8498
▁느낌	-10.8498
▁망원경	-10.8498
▁불확실	-10.8498
▁성추행	-10.8498
▁우울증	-10.8498
▁조승희	-10.8498
샬	-10.8498
옳	-10.8498
칩	-10.8498
▁노트북	-10.8498
▁두려움	-10.8498
▁무승부	-10.8498
▁쇠고기	-10.8498
▁시나리오	-10.8498
▁again	-10.8498
▁기숙사	-10.8498
▁허드슨	-10.8498
▁수류탄	-10.8498
▁소행성	-10.8498
▁활발	-10.8498
▁무너지	-10.8498
▁당부했다	-10.8499
▁저항세력	-10.8499
▁남아프리카	-10.8499
▁교섭	-10.85
▁맥캔	-10.8501
▁무덤	-10.8501
▁포인트	-10.8501
▁모르는	-10.8502
▁구호단체	-10.8503
▁받아왔다	-10.8503
▁가로	-10.8504
▁박탈	-10.8504
▁아니지만	-10.8505
▁머무	-10.8506
▁사육	-10.8508
▁타밀	-10.8508
▁목사는	-10.8509
▁붙여	-10.851
▁체류	-10.8511
연패	-10.8512
▁밀려	-10.8512
▁모술	-10.8512
▁바탕	-10.8513
▁있을지	-10.8514
▁고위급	-10.8515
▁동료들	-10.8516
▁Ca	-10.8517
▁전반적인	-10.8522
▁낮아	-10.8523
▁저질렀다	-10.8523
▁열심	-10.8523
▁사라졌다	-10.8524
▁경비대	-10.8524
▁빠졌다	-10.8524
▁예약	-10.8525
▁구류	-10.8526
▁동성애	-10.8527
▁위하여	-10.8528
▁모래	-10.853
▁유통	-10.8532
▁신도들	-10.8532
▁미스	-10.8532
▁잠재적	-10.8533
▁작업이	-10.8537
인권	-10.8538
▁모터	-10.854
▁조사할	-10.8541
▁가중	-10.8541
▁양국은	-10.8544
ound	-10.8544
▁학교에서	-10.8544
▁열정	-10.8545
▁경쟁력	-10.8545
27	-10.8548
▁달한다	-10.8549
▁좁	-10.855
▁패스	-10.8551
▁착수했다	-10.8552
po	-10.8557
▁미술	-10.8558
차관	-10.8559
▁모자	-10.8561
83	-10.8566
▁실종됐다	-10.857
곳에서	-10.858
▁경로	-10.8581
▁나타내는	-10.8584
04	-10.8586
▁향한	-10.859
▁우세	-10.8593
게임	-10.8595
▁사면	-10.8599
발전	-10.86
▁군인들이	-10.8602
▁때문이라	-10.8603
▁바위	-10.8606
'(	-10.8611
TA	-10.8611
▁중심지	-10.8616
▁공안	-10.8617
▁공격했다	-10.8618
▁범인이	-10.862
▁가족들과	-10.8623
▁up	-10.8623
▁시인했다	-10.8628
▁부검	-10.8629
▁상금	-10.8632
▁느끼고	-10.8633
▁정리	-10.8636
키로	-10.8636
43	-10.8641
▁66	-10.8641
▁발리	-10.8641
▁수행할	-10.8643
▁악화되	-10.8647
▁힘들다	-10.8648
▁메리	-10.8649
▁슈퍼	-10.8657
▁담당자	-10.8662
▁있은	-10.8667
▁예술가	-10.8669
▁열기	-10.8671
▁의상	-10.8674
▁입지	-10.8677
▁은행에	-10.8682
▁맞고	-10.8688
받고	-10.8688
▁움직임은	-10.8691
▁보인	-10.8694
▁부족하다	-10.8695
▁섹스	-10.8696
▁분야에서	-10.8699
호주	-10.8703
▁출연했다	-10.8709
▁반대로	-10.8714
▁크리스티	-10.8714
▁시작했다고	-10.8715
▁맨	-10.8719
has	-10.872
최근	-10.8723
쥐	-10.8723
▁62	-10.8732
섭	-10.8732
▁방문해	-10.8735
▁talks	-10.8736
▁높게	-10.8736
▁뉴델리	-10.8736
▁비서실장	-10.8736
▁빅토리아	-10.8736
▁위스콘신	-10.8736
▁유죄판결	-10.8736
▁자르다리	-10.8736
▁출구조사	-10.8736
▁펼친	-10.8736
▁플루토늄	-10.8736
▁확률	-10.8736
박근혜	-10.8736
찌	-10.8736
▁1987	-10.8736
▁국립공원	-10.8736
▁도요타	-10.8736
▁대서양	-10.8736
▁삭감	-10.8736
▁알바니아	-10.8737
폭력	-10.8738
▁숨졌으며	-10.8739
▁부사장	-10.8739
리서치	-10.8739
▁중앙은행	-10.874
카를로스	-10.874
주전	-10.874
▁남학생	-10.8741
▁두려워	-10.8741
▁증강	-10.8741
블리	-10.8741
▁물고기	-10.8743
▁모른다고	-10.8743
됐는지	-10.8744
▁취급	-10.8744
▁델타	-10.8745
▁압도적	-10.8745
▁교외	-10.8746
▁are	-10.8747
▁하원의장	-10.8747
▁예배	-10.8748
▁이내에	-10.8749
▁왕세자비	-10.8749
▁For	-10.8752
▁완성	-10.8754
▁복원	-10.8755
▁업적	-10.8756
▁래	-10.8758
▁참가자들	-10.8759
▁후송	-10.8759
▁아담	-10.8759
▁농민들	-10.8763
▁양쪽	-10.8763
▁포터	-10.8764
▁총통	-10.8765
▁맡았다	-10.8765
▁정기	-10.8766
▁성공한	-10.8766
▁묻는	-10.8768
▁물체	-10.8769
▁out	-10.8769
▁추구하	-10.877
▁목격했다	-10.8778
▁남아있다	-10.8783
▁지역인	-10.8783
▁남성들	-10.8784
▁배제	-10.8784
▁제작사	-10.8784
ef	-10.8787
▁차질	-10.8787
▁독일인	-10.8788
▁남자아이	-10.8801
▁2%	-10.8807
▁안내	-10.8807
세포	-10.8813
▁행위에	-10.8814
▁양보	-10.8817
▁도디	-10.8817
▁기아	-10.8819
▁미래에	-10.8824
▁상관	-10.8828
▁써	-10.8833
▁선고했다	-10.8834
번호	-10.8837
▁상당수	-10.884
▁아프	-10.884
▁un	-10.8841
▁남아있는	-10.8844
▁영국과	-10.8844
▁대리인	-10.8846
▁암시	-10.8846
▁점수	-10.8851
크리	-10.8855
▁턱	-10.8855
▁4%	-10.8858
▁도구	-10.8862
리어	-10.8866
▁파리에서	-10.8877
▁도착할	-10.8877
레이크	-10.8882
sh	-10.8884
▁상황이다	-10.889
▁웨인	-10.8894
▁제치	-10.8894
▁당국자들	-10.8897
▁제공했다	-10.8899
▁제시한	-10.8902
▁부분이	-10.8911
▁의원들이	-10.8912
▁당황	-10.8929
▁테리	-10.8932
▁강진이	-10.8941
▁체포되었다	-10.8942
▁나타났	-10.8943
해준	-10.8947
69	-10.8952
일에는	-10.8954
▁Ar	-10.8956
빠	-10.896
ice	-10.8965
▁부지	-10.897
팔레스타인	-10.8972
태평양	-10.8974
눈	-10.8974
올림픽	-10.8974
놈	-10.8979
빗	-10.898
·	-10.898
▁visit	-10.898
▁나눴다	-10.898
▁메드베데프	-10.898
▁않았습니다	-10.898
▁앞섰다	-10.898
▁잃어버	-10.898
▁최루탄	-10.898
▁하이브리드	-10.898
▁글로벌	-10.898
head	-10.898
▁해수면	-10.898
▁우간다	-10.898
▁온실가스	-10.898
▁첩보	-10.898
BDA	-10.898
▁개체수	-10.898
▁염려	-10.8981
▁에드워드	-10.8981
▁교착상태	-10.8981
▁유명인사	-10.8981
됨에따라	-10.8981
▁Roh	-10.8981
▁수색작업	-10.8982
▁아마존	-10.8982
▁초래	-10.8982
오르	-10.8982
▁its	-10.8983
▁권총	-10.8983
벨리	-10.8983
▁급습	-10.8983
▁금융위기	-10.8983
▁이뤄질	-10.8983
▁진지	-10.8984
▁호송	-10.8985
▁갈등	-10.8987
▁추격	-10.8987
▁송금	-10.8988
▁지역사회	-10.8989
▁갑작스	-10.8991
▁데리고	-10.8991
▁줄이기	-10.8991
▁국정원	-10.8992
▁모욕	-10.8993
▁60%	-10.8994
▁정밀	-10.8994
▁실현	-10.8995
▁증진	-10.8996
▁연출	-10.8996
▁뚫	-10.8997
레오	-10.8998
▁톰슨	-10.8999
▁매매	-10.8999
열차	-10.9
▁관객	-10.9001
▁포스트	-10.9002
▁보증	-10.9006
메르	-10.9006
▁익	-10.9008
▁남성의	-10.9009
경찰이	-10.9012
▁부처	-10.9013
▁남부에	-10.9013
▁남부지역	-10.9015
▁군사력	-10.9015
▁건강에	-10.9016
▁고안	-10.9021
▁해저	-10.9021
▁가난한	-10.9021
▁장려	-10.9021
▁실려	-10.9021
▁부품	-10.9023
▁둔화	-10.9027
▁20%	-10.9031
▁도살	-10.9032
MDC	-10.9038
▁경험을	-10.9039
ous	-10.9039
▁씨가	-10.9043
▁사과했다	-10.9043
시장에서	-10.9049
▁얻게	-10.9051
▁공개하지	-10.9053
▁너무나	-10.9053
였고	-10.9053
▁내렸	-10.9054
▁가을	-10.9055
▁관중	-10.9057
▁정기적	-10.9057
▁재미있	-10.906
▁사용자들	-10.9062
▁밝혀내	-10.9066
97	-10.9075
▁열었다	-10.9075
▁이름으로	-10.9076
▁출신으로	-10.9082
▁위원장이	-10.9085
▁상세	-10.9085
▁연구원은	-10.9088
▁시작으로	-10.909
년전	-10.9091
▁MD	-10.9092
▁남측	-10.9095
52	-10.9098
▁화가	-10.9101
▁물어	-10.9102
ese	-10.9102
?”	-10.9105
▁베리	-10.9107
▁오리	-10.9112
▁판결이	-10.9121
▁응답	-10.9123
티아	-10.9126
▁담당자는	-10.9128
▁일대	-10.9129
▁위험성	-10.913
▁석방됐다	-10.913
▁해적들	-10.9137
▁판매량	-10.9145
▁이슈	-10.9148
▁중이며	-10.9155
▁필립	-10.9164
AP	-10.9165
NS	-10.9172
▁토대	-10.9173
해서는	-10.9178
스텔	-10.9183
▁인정하지	-10.9186
31	-10.9188
▁차지하는	-10.9189
▁크다	-10.9197
▁금리를	-10.9201
▁수행하	-10.9207
▁국무	-10.921
▁지위	-10.9214
▁외상	-10.9216
기금	-10.9222
딸	-10.9228
혜	-10.9229
똑	-10.9229
샘	-10.923
▁IMF	-10.923
▁국가비상사태	-10.923
▁국제우주정거장	-10.923
▁메릴랜드	-10.923
▁서브프라임	-10.923
눌	-10.923
FIFA	-10.923
▁IBM	-10.923
▁무장괴한	-10.923
▁바티칸	-10.923
▁파파라치	-10.923
▁미성년자	-10.923
▁깨끗	-10.923
연방수사국	-10.923
▁주유소	-10.923
▁윈도우	-10.923
▁퇴진	-10.9231
▁좌석	-10.9231
▁야생동물	-10.9231
▁자전거	-10.9231
▁똑같	-10.9231
▁치솟	-10.9231
▁바꿀	-10.9231
▁행렬	-10.9231
▁켈리	-10.9231
time	-10.9232
▁데뷔	-10.9232
▁긴밀	-10.9232
▁인접	-10.9233
▁국민투표	-10.9233
▁동참	-10.9235
▁가택	-10.9237
▁다룬	-10.9238
▁유괴	-10.9238
▁서식하	-10.9238
▁각료	-10.9239
언론	-10.924
▁설계	-10.9241
▁재배치	-10.9241
▁단독	-10.9243
▁재무	-10.9244
▁절약	-10.9244
유엔	-10.9245
▁추모	-10.9246
▁통행	-10.9249
▁위생	-10.9249
▁연임	-10.925
성근	-10.9251
▁종교적	-10.9252
▁상병	-10.9256
▁무슨	-10.9265
▁불교	-10.9266
▁진전이	-10.9268
▁야구	-10.9268
▁2008.12	-10.9269
당시	-10.9281
ER	-10.9293
ai	-10.9295
▁입었	-10.93
▁68	-10.9303
▁출장	-10.9303
연승	-10.9306
▁가고	-10.9311
▁권고했다	-10.9314
▁공정한	-10.9316
기때문에	-10.9323
▁이뤄	-10.9323
▁돌아와	-10.9324
▁광부	-10.9327
▁조선	-10.9336
▁절도	-10.9338
북한이	-10.9338
▁양성	-10.9341
▁전격	-10.9346
▁고조	-10.935
▁반전	-10.9357
▁69	-10.9358
▁사라지	-10.9361
▁방법에	-10.9366
▁내정	-10.9372
▁공무원	-10.9381
▁지나가	-10.9382
수사	-10.9385
▁결정적인	-10.9387
월에는	-10.9389
▁일하고	-10.9391
▁준다	-10.9395
받은	-10.9398
마크	-10.9402
▁경주	-10.9404
▁수감된	-10.9409
▁동영상에서	-10.941
치료	-10.9411
▁매수	-10.9412
▁공개한	-10.9412
▁휴일	-10.9413
▁폴리	-10.9415
▁고조되	-10.9422
▁나치	-10.9434
▁안으로	-10.9435
▁경영자	-10.944
받아	-10.9443
▁군과	-10.9445
ame	-10.9447
are	-10.946
▁김치	-10.9465
▁관객들	-10.9469
▁네바다	-10.9472
▁산악	-10.9472
▁미국인들은	-10.9473
▁72	-10.9473
be	-10.9475
졸	-10.9484
렁	-10.9487
▁Minister	-10.9487
▁믿는다	-10.9487
▁버몬트	-10.9487
▁아웅산수치	-10.9487
▁인명피해	-10.9487
▁창기라이	-10.9487
굿	-10.9487
▁국세청	-10.9487
▁선거관리위원회	-10.9487
▁세속주의	-10.9487
▁최우선	-10.9487
▁모니터	-10.9487
▁원자력	-10.9487
▁아스날	-10.9487
▁언덕	-10.9487
▁적합한	-10.9487
▁국무총리	-10.9487
▁내무장관	-10.9487
▁윈프리	-10.9487
▁시티그룹	-10.9487
Center	-10.9488
▁AIG	-10.9488
▁앨런	-10.9488
▁포셋	-10.9488
▁여기에	-10.9488
▁숙박	-10.9489
▁돌아갈	-10.9489
윤	-10.949
▁구조작업	-10.949
▁재활용	-10.949
▁메이저	-10.949
▁산맥	-10.9491
쳤으며	-10.9492
▁거부한	-10.9492
▁교착	-10.9492
▁개막식	-10.9493
▁역임	-10.9493
▁1986	-10.9493
▁창설	-10.9494
바라데이	-10.9494
▁존스턴	-10.9495
▁의심되는	-10.9496
▁않습니다	-10.9496
▁발령	-10.9497
▁회계	-10.9498
▁환율	-10.9498
▁연말	-10.9498
▁현상이	-10.9501
▁시민권	-10.9501
▁던진	-10.9502
환경	-10.9502
▁약혼	-10.9503
▁못했지만	-10.9505
▁수컷	-10.9505
▁심판	-10.9505
▁by	-10.9506
▁모집	-10.9508
▁맞은	-10.9509
▁던졌다	-10.9512
▁시골	-10.9516
▁걸렸다	-10.9517
▁돌아왔다	-10.9518
▁여러번	-10.9519
투데이	-10.9525
05	-10.9527
▁종파	-10.953
▁윌슨	-10.9532
▁도난	-10.9533
▁리버	-10.9538
▁미리	-10.9538
▁진행될	-10.954
었	-10.954
▁주거	-10.9541
▁투표율	-10.9542
분경	-10.9544
▁정유	-10.9546
▁파월	-10.9547
▁출전하지	-10.9549
~2	-10.9549
▁발견되지	-10.9554
▁성지	-10.9555
▁산하	-10.9558
▁54	-10.9559
▁불가능하다	-10.9559
▁주차장	-10.9559
▁해석	-10.9561
트릭	-10.9564
분야	-10.9568
▁파커	-10.957
▁관련하여	-10.9571
ian	-10.9578
▁불과하다	-10.9578
▁학생들에게	-10.9582
▁담고	-10.9584
▁유해	-10.9586
▁주류	-10.9588
▁달아	-10.9588
ial	-10.9588
▁소년이	-10.9593
▁지속되	-10.9593
문화	-10.9593
▁덜	-10.9601
▁상위	-10.9608
▁독재	-10.9609
▁일원	-10.961
▁찾아내	-10.9611
▁꽃	-10.9615
▁과도	-10.9621
son	-10.9621
▁업체들	-10.9623
▁연구에서	-10.9626
▁지원금	-10.9629
▁루니	-10.963
▁납치한	-10.9637
▁pre	-10.9638
▁피하기	-10.9642
▁감기	-10.9646
▁지냈	-10.9649
바리	-10.965
▁간부	-10.9651
▁알바	-10.9653
▁교도소에서	-10.966
▁계속할	-10.9661
▁유물	-10.9662
▁전범	-10.9666
▁참가한	-10.9675
▁매력	-10.9677
정권	-10.9683
▁선호	-10.9686
▁전해지	-10.9686
사이트	-10.9693
까요	-10.9699
▁물리	-10.97
DR	-10.9702
여부	-10.9711
▁취하고	-10.9717
▁라인	-10.9719
체제	-10.972
▁거리에서	-10.9722
하러	-10.9739
부분	-10.9741
중앙	-10.9742
▁대변	-10.9743
▁간주	-10.9744
렬	-10.9747
흡	-10.9748
▁진행중	-10.9749
꼬	-10.9749
왓	-10.975
▁Seoul	-10.975
▁박격포	-10.975
▁스타벅스	-10.975
▁없애	-10.975
▁찾았다	-10.975
▁토크쇼	-10.975
▁호나우두	-10.975
▁후지모리	-10.975
껏	-10.975
둑	-10.975
뻐	-10.975
섞	-10.975
캄	-10.975
▁음주운전	-10.975
▁켄터키	-10.975
WTO	-10.975
▁고유가	-10.975
▁터뜨	-10.9751
▁포획	-10.9751
▁돌아올	-10.9752
▁가져올	-10.9752
▁안드레	-10.9752
▁캐롤	-10.9752
▁기획	-10.9752
▁가끔	-10.9752
▁자동차업계	-10.9753
휘	-10.9753
▁워렌	-10.9753
▁참배	-10.9754
▁자발적	-10.9755
연대	-10.9755
▁연극	-10.9755
▁드레스	-10.9755
▁연구결과	-10.9756
▁포경선	-10.9759
빅	-10.9759
▁카라치	-10.9759
▁로켓포	-10.9759
▁처형	-10.9759
▁맞았다	-10.976
아프리카	-10.976
▁독감	-10.976
▁예선	-10.976
말리키	-10.976
▁결합	-10.976
적이며	-10.9761
FBI	-10.9761
▁클라크	-10.9761
▁마찰	-10.9761
놨다	-10.9761
잘	-10.9762
뉴욕	-10.9763
시즌	-10.9764
▁위치해	-10.9764
▁개헌안	-10.9765
▁설정	-10.9765
보고서	-10.9765
▁던져	-10.9765
▁치매	-10.9765
▁재배	-10.9766
▁매입	-10.9766
▁밀러	-10.9768
▁우편	-10.9769
▁넣었다	-10.9769
▁피랍된	-10.9772
▁유입	-10.9773
▁에스	-10.9773
▁AI	-10.9776
▁코너	-10.9776
▁반등	-10.9778
시키며	-10.9779
▁기증	-10.9782
▁반대하고	-10.9782
▁부결	-10.9783
▁약탈	-10.9784
▁전형적	-10.9787
▁이들에게	-10.9792
▁부속	-10.9795
34	-10.9797
▁서브	-10.9797
정치	-10.9807
▁소유주	-10.9807
▁해방	-10.9809
▁정체	-10.981
▁펄	-10.981
▁일시적	-10.981
있으며	-10.9813
▁의제	-10.9813
▁업무를	-10.9813
▁강간	-10.9814
▁대비해	-10.9824
▁이득	-10.9825
ting	-10.9826
몬드	-10.9829
전략	-10.9829
▁FDA	-10.9831
▁콰	-10.9831
▁호주에서	-10.9837
▁죽이	-10.9842
▁국회에서	-10.9844
▁대우	-10.9849
▁정부군과	-10.9851
▁해안에	-10.9859
53	-10.9873
율이	-10.9879
▁분석했다	-10.9883
▁하비	-10.9885
▁이어지	-10.9892
▁일단	-10.9893
▁출신인	-10.9894
▁표시했다	-10.9896
▁방송에서	-10.9917
▁춤	-10.9917
▁배상	-10.9918
▁주권	-10.9923
죄로	-10.9924
▁크기의	-10.9926
▁상사	-10.9927
ther	-10.993
▁ex	-10.9932
▁세운	-10.9933
감시	-10.9934
▁재정적	-10.9936
▁개성	-10.9942
Con	-10.9946
장비	-10.9948
▁아미	-10.995
▁벌어지	-10.9955
▁사살했다	-10.9957
▁재판에서	-10.9962
▁못하다	-10.9975
▁수락	-10.9977
▁An	-10.9977
▁보유한	-10.9987
▁맡았	-10.9989
▁내리는	-10.9994
▁평화상	-11.0001
▁뉴저지	-11.0003
▁북부에서	-11.0012
냥	-11.0015
덤	-11.0016
▁걸려	-11.002
▁Bush	-11.002
▁개발도상국	-11.002
▁러닝메이트	-11.002
▁맨해튼	-11.002
▁애완동물	-11.002
▁활성화	-11.002
끔찍한	-11.002
쉐	-11.002
▁유람선	-11.002
▁비공식	-11.002
▁라호르	-11.002
▁하버드	-11.002
▁섹시	-11.002
▁라모스	-11.002
▁기다려	-11.002
▁남아프리카공화국	-11.002
▁알제리	-11.002
▁슈퍼볼	-11.0021
2008.0	-11.0021
▁브레이크	-11.0021
▁넬슨	-11.0021
▁미주리	-11.0021
▁머레이	-11.0023
▁기원	-11.0023
▁밝혀냈다	-11.0023
마라	-11.0025
▁통근	-11.0026
▁시민단체	-11.0026
▁아빠	-11.0026
▁미셸	-11.0027
▁외쳤다	-11.0028
▁생명체	-11.0029
▁연령	-11.0029
▁침수	-11.003
▁진료	-11.0032
▁아시아에서	-11.0033
▁특사는	-11.0034
아버지	-11.0034
▁만료	-11.0035
▁대테러	-11.0036
▁불안정	-11.0036
▁승점	-11.0037
떼	-11.0037
▁발매	-11.0038
▁소유한	-11.0038
같이	-11.0039
그것은	-11.0039
착륙	-11.004
3000	-11.0041
▁영구	-11.0043
▁파키스탄군	-11.0043
▁응원	-11.0046
▁케이시	-11.0046
APEC	-11.0048
▁사이버	-11.0048
▁탈레반측	-11.0052
▁기념식	-11.0052
▁교내	-11.0056
▁사라진	-11.0058
▁제작자	-11.0059
▁명성	-11.006
▁위장	-11.006
▁기분이	-11.006
▁사회당	-11.0062
▁거친	-11.0064
▁공직	-11.0065
▁유행	-11.0066
▁총리직	-11.007
▁대로	-11.0072
▁화제	-11.0073
▁먼지	-11.0077
▁있음	-11.0078
▁페르	-11.0078
▁단식	-11.0078
▁지지자들에게	-11.0079
▁이어졌다	-11.0081
문서	-11.0081
▁남쪽으로	-11.0081
유지	-11.0081
▁수사관들은	-11.0083
▁유럽과	-11.0083
▁버지니아주	-11.0085
▁받아들이지	-11.0087
▁피신	-11.0087
▁선택했다	-11.0091
▁인도분	-11.0092
년형	-11.0096
▁war	-11.0097
act	-11.0099
체계	-11.0099
▁실패한	-11.0102
36	-11.0105
▁입어	-11.0106
▁예측했다	-11.0108
▁사안	-11.0108
올해	-11.0113
▁상자	-11.0115
▁템	-11.0119
▁생성	-11.012
▁연대	-11.0121
▁소화	-11.0123
▁즐기는	-11.0126
▁산소	-11.0127
▁성분	-11.0129
▁거래됐다	-11.013
교수	-11.0132
▁성명서	-11.0136
▁그랜드	-11.0137
▁일어나지	-11.0139
▁파크	-11.014
▁강타한	-11.0157
▁확인하기	-11.0167
▁최고위	-11.017
▁근처에	-11.0175
▁폭력사태로	-11.0181
▁눈물	-11.019
▁연구원	-11.0192
방식	-11.0194
▁약속한	-11.0198
▁이민자들	-11.02
ub	-11.02
▁로이	-11.0202
▁이른	-11.0204
▁본드	-11.0215
건설	-11.0215
ise	-11.022
이라면	-11.0225
able	-11.0233
▁명단에	-11.0234
▁노대통령은	-11.0237
▁느끼는	-11.0238
▁은행들	-11.024
MS	-11.0243
륙	-11.0245
▁이라크내	-11.0252
▁가즈니	-11.0264
▁리오	-11.0268
▁철수시키	-11.0271
▁양자	-11.0272
그들이	-11.0273
건물	-11.0275
▁지방에서	-11.0279
▁취소했다	-11.0283
▁57	-11.0292
겔	-11.0298
3,000	-11.0298
▁디트로이트	-11.0298
▁럼스펠드	-11.0298
▁억만장자	-11.0298
▁최고경영자	-11.0298
▁텔레비전	-11.0298
▁피츠버그	-11.0298
▁헬리콥터	-11.0298
닛	-11.0298
잎	-11.0298
▁스탈린	-11.0298
▁아라비아	-11.0298
▁근본주의	-11.0298
▁브루니	-11.0298
▁딜러	-11.0298
▁덴버	-11.0298
▁낭비	-11.0298
▁돌아다니	-11.0298
▁고등법원	-11.0298
▁코카인	-11.0298
▁티벳	-11.0298
2007.09	-11.0298
▁텐트	-11.0299
▁차지한	-11.0299
▁왜곡	-11.0299
▁친환경	-11.0299
▁동굴	-11.0301
▁요르단강	-11.0301
▁장벽	-11.0302
▁복합	-11.0302
▁대선주자	-11.0302
▁생겨	-11.0303
▁계속하고	-11.0303
티드	-11.0304
▁70%	-11.0305
▁구호품	-11.0306
▁불황	-11.0307
밤	-11.0307
▁절감	-11.0308
▁위축	-11.0308
▁없다며	-11.0309
▁치른	-11.031
▁사우스	-11.0311
▁느낀다	-11.0311
▁추천	-11.0312
▁소비자들이	-11.0312
▁소총	-11.0312
▁보수당	-11.0312
▁유혈	-11.0313
▁시청자들	-11.0315
▁기름	-11.0317
▁출국	-11.0319
실질적인	-11.0319
▁유골	-11.032
▁재해	-11.032
▁대안	-11.0322
▁반환	-11.0323
아메리칸	-11.0323
공화국	-11.0324
▁아랍에미리트	-11.0324
▁필수	-11.0325
잠	-11.0325
클린턴	-11.0325
▁비평	-11.0326
▁라울	-11.0327
라니	-11.0327
▁첫날	-11.0327
▁언급한	-11.0328
▁문제점	-11.0328
▁합의문	-11.0329
▁다가오	-11.0331
▁배포	-11.0333
▁파편	-11.0333
▁그곳에서	-11.0334
▁단장	-11.0337
▁목요일에	-11.0338
워드	-11.034
▁샤리프는	-11.0344
건강	-11.0345
▁그들에게	-11.0348
이었지만	-11.0348
폴리스	-11.0349
▁휴식	-11.0353
▁명백한	-11.0354
▁호전	-11.0356
▁과제	-11.0357
▁분야에	-11.0361
▁유명하다	-11.0363
연구원	-11.0363
▁아니며	-11.037
▁구타	-11.0373
▁이른다	-11.0377
NA	-11.0377
헤드	-11.0386
▁심화	-11.0391
▁원주민	-11.0394
▁선적	-11.0398
08	-11.04
▁제프	-11.0401
▁편집	-11.0401
▁구단	-11.0404
▁리비	-11.0406
▁중점	-11.0409
▁인정받	-11.0412
되도록	-11.0415
▁시작될	-11.0415
▁조직원	-11.0417
어졌다	-11.0422
수단	-11.0425
▁무엇이	-11.0428
▁전합니다	-11.0434
▁언론과	-11.0437
▁장성	-11.044
▁확산되	-11.0442
▁군중들	-11.045
▁직접적	-11.0453
소득	-11.0454
▁반미	-11.0455
▁민간인들	-11.0456
▁순례	-11.046
▁입수한	-11.0461
▁취하지	-11.0465
▁법적으로	-11.0476
▁형태로	-11.0492
▁지불하	-11.0504
▁통해서	-11.0511
사실	-11.0512
En	-11.0513
▁페리	-11.0514
▁피고인	-11.0519
▁복장	-11.0524
▁중단됐다	-11.0527
▁항의하	-11.0528
▁남성과	-11.0536
▁명백	-11.0539
였지만	-11.054
2005.1	-11.0544
Pro	-11.0545
▁발생했	-11.0546
마트	-11.0547
▁선박이	-11.0548
▁투기	-11.0553
ick	-11.0558
ern	-11.0567
▁브랜	-11.0568
ease	-11.0573
퍼스	-11.0578
덩	-11.0583
▁끝났다	-11.0584
▁버냉키	-11.0584
▁부양책	-11.0584
▁스튜디오	-11.0584
前	-11.0584
붐	-11.0584
빵	-11.0584
산타클로스	-11.0584
킴	-11.0584
▁느껴	-11.0584
▁브래드	-11.0584
▁규칙	-11.0584
▁침묵	-11.0584
▁유수프	-11.0584
▁바하마	-11.0584
▁take	-11.0584
▁태우고	-11.0584
▁안토니오	-11.0585
▁스콧	-11.0585
▁휴스턴	-11.0585
▁놀랄	-11.0585
▁국방위원장	-11.0588
▁반체제	-11.0588
▁가혹	-11.0589
▁부활	-11.059
▁집필	-11.0591
▁90%	-11.0591
봐야	-11.0592
▁새겨	-11.0592
▁참여했다	-11.0593
▁Ro	-11.0594
▁화석	-11.0595
▁금속	-11.0595
▁장거리	-11.0597
▁CD	-11.0599
▁네바다주	-11.06
▁보조금	-11.0601
▁청소	-11.0601
▁추문	-11.0603
▁처분	-11.0604
▁대령	-11.0607
▁들어와	-11.061
▁모았다	-11.061
▁개설	-11.0614
▁예선전	-11.0616
아메리카	-11.0617
▁밝히며	-11.0619
▁경제학자	-11.0619
▁한달	-11.0621
하드	-11.0621
▁병사들이	-11.0623
▁구경	-11.0626
▁지나치	-11.0629
▁원하지	-11.0631
off	-11.0633
day	-11.0635
▁환수	-11.0636
▁난민들	-11.0642
▁아민	-11.0643
▁가족들에게	-11.0644
▁무산	-11.0661
▁피어	-11.0661
▁증언했다	-11.0663
▁자녀들	-11.0663
▁제외하고	-11.0665
▁나체	-11.0666
▁교육부	-11.067
▁해역	-11.067
▁CDC	-11.0675
▁생각해	-11.0682
터키	-11.0687
▁장소에서	-11.0692
라트	-11.0693
▁바닥에	-11.0696
▁선출된	-11.07
94	-11.0701
▁공무원들	-11.0703
레이트	-11.0719
▁밝히기	-11.0719
▁일으키는	-11.0726
해져	-11.0728
ust	-11.0729
▁들어왔	-11.0733
air	-11.0735
▁된다면	-11.0738
비행기	-11.0751
low	-11.0758
아웃	-11.0758
▁모두에게	-11.076
▁선원들	-11.0764
▁돌입	-11.0766
▁가기	-11.077
보드	-11.0774
▁군중	-11.0775
▁중반	-11.0776
▁부인하고	-11.0784
▁측이	-11.079
▁이송됐다	-11.079
▁대답했다	-11.0795
▁경찰청	-11.0796
위원장	-11.0805
▁Mo	-11.0807
▁강화할	-11.0817
US	-11.0821
▁기본적	-11.0822
▁확인하고	-11.0822
▁유지할	-11.0825
예프	-11.0828
▁비극	-11.083
룩	-11.0832
▁재선	-11.0833
▁명령했다	-11.0843
▁적극	-11.0843
▁상원에서	-11.0845
중이다	-11.0847
▁71	-11.0852
▁갖기	-11.086
▁170	-11.0861
▁고수	-11.0864
▁180	-11.0868
▁조씨	-11.087
하였으며	-11.0873
셉	-11.0874
첩	-11.0875
셋	-11.0876
▁마이스페이스	-11.0878
▁military	-11.0878
▁괜찮	-11.0878
▁끊임없	-11.0878
▁내셔널	-11.0878
▁뒷받침	-11.0878
▁마케팅	-11.0878
▁애틀랜타	-11.0878
▁에르도간	-11.0878
▁엔지니어	-11.0878
▁풀려났다	-11.0878
▁호날두	-11.0878
맘	-11.0878
down	-11.0878
▁기준금리	-11.0878
▁브리트니	-11.0878
덩어리	-11.0878
▁무소속	-11.0878
▁퇴역	-11.0878
▁1-0	-11.0878
▁좌파	-11.0878
▁나눠	-11.0878
▁바바라	-11.0878
▁신용카드	-11.0879
▁소방대원	-11.0879
▁세인트	-11.0879
▁밝혔으나	-11.0879
▁재활	-11.0879
▁요즘	-11.088
▁화염	-11.088
9000	-11.088
▁추락한	-11.0881
되었는데	-11.0881
▁Day	-11.0881
▁미치지	-11.0882
▁코스피	-11.0883
▁워너	-11.0883
▁남겨	-11.0883
▁영광	-11.0884
▁감바	-11.0884
▁돌아온	-11.0884
▁월터	-11.0885
▁도핑	-11.0885
▁조짐	-11.0885
▁잡았다	-11.0886
ook	-11.0888
▁때문입니다	-11.0889
▁대원들	-11.0889
▁소유권	-11.0889
▁대기업	-11.0891
▁레이저	-11.0892
▁금연	-11.0893
▁잔디	-11.0894
▁나와즈	-11.0896
▁들어온	-11.0896
▁닭	-11.0898
▁급진	-11.09
▁타결	-11.0902
▁남자들	-11.0902
얼리	-11.0905
▁배심원단	-11.0905
▁쉬운	-11.0909
▁배급	-11.091
▁제작된	-11.0911
▁멈	-11.0912
▁이외	-11.0916
▁예정되어	-11.0918
▁헐	-11.0921
또	-11.0922
축구	-11.0923
물질	-11.0924
▁당연	-11.0925
▁주주들	-11.0926
▁장기간	-11.0927
사단	-11.0928
▁AS	-11.0931
▁리더	-11.0932
AU	-11.0932
▁포위	-11.0932
▁앞선	-11.0933
▁저지르	-11.0933
사람들이	-11.0935
▁전시회	-11.0936
▁식수	-11.0937
▁스카이	-11.0937
관광	-11.094
▁투자자	-11.0946
▁여유	-11.0948
▁석방된	-11.0948
▁약품	-11.095
증권	-11.0951
▁의자	-11.0955
▁작용	-11.0958
▁좋아한다	-11.0961
▁복지	-11.0965
▁발달	-11.0965
▁연방정부	-11.0967
▁제조업	-11.0968
▁대폭	-11.0969
▁8%	-11.0969
▁클로	-11.097
▁여아	-11.0974
▁참사	-11.0979
▁공학	-11.0984
▁회견에서	-11.0985
▁확신했다	-11.0987
▁구간	-11.0989
▁시카고에서	-11.0995
▁나간	-11.0995
웃	-11.0998
리프	-11.0999
▁보호하고	-11.1
tions	-11.1006
위원장은	-11.1006
타스	-11.1006
Al	-11.1012
▁여사와	-11.1013
▁죽었다	-11.1022
▁칼라	-11.1024
▁보좌관들	-11.1024
▁슛	-11.1033
▁나아가	-11.1038
▁제공하고	-11.1042
베스	-11.1047
▁독재자	-11.105
▁가자지구에서	-11.1056
▁금년	-11.1057
▁파손됐다	-11.1057
▁남기	-11.1058
타이거	-11.1061
▁가족에게	-11.1063
▁일어나고	-11.1063
▁빌리	-11.108
▁입원했다	-11.108
▁바닥	-11.1082
▁포기하	-11.1082
ile	-11.1085
Po	-11.1091
머리	-11.1091
▁강화하고	-11.1101
조정	-11.1105
fi	-11.1108
▁관광지	-11.1122
부족	-11.1122
▁거주하	-11.1124
▁생산하는	-11.1126
세트에서	-11.1126
▁부리	-11.1127
▁줄이는	-11.1129
▁도주	-11.1132
달간	-11.114
▁폭로	-11.1143
되었지만	-11.1147
▁내리고	-11.1148
▁평양에서	-11.1153
▁농민	-11.1154
ung	-11.1158
▁통신사	-11.116
탈리아	-11.1162
▁요청할	-11.1167
공장	-11.1167
▁전임	-11.1172
reat	-11.1173
끔	-11.1178
▁추구	-11.1179
▁득표	-11.118
옐	-11.1181
▁1988	-11.1181
▁Show	-11.1181
▁가즈프롬	-11.1181
▁골든글로브	-11.1181
▁끌려	-11.1181
▁되돌아	-11.1181
▁떨어질	-11.1181
▁베탕쿠르	-11.1181
▁시애틀	-11.1181
▁애니메이션	-11.1181
▁엘리베이터	-11.1181
▁원자바오	-11.1181
▁일으켜	-11.1181
▁캔자스	-11.1181
▁테러지원국	-11.1181
긋	-11.1181
륜	-11.1181
▁아칸소	-11.1181
톡	-11.1181
▁식민지	-11.1181
▁맥케인	-11.1181
▁혈액	-11.1181
▁고릴라	-11.1181
▁양키스	-11.1181
▁관점에서	-11.1181
▁트로피	-11.1181
▁얼룩	-11.1181
▁북극곰	-11.1181
▁크레이그	-11.1181
▁인도주의적	-11.1181
▁유적지	-11.1181
▁멸종위기	-11.1181
▁차원에서	-11.1182
▁몸값	-11.1182
▁거주지	-11.1183
▁떠올	-11.1183
▁숨겨	-11.1183
▁적응	-11.1184
▁운반	-11.1184
▁군사작전	-11.1185
▁가죽	-11.1185
▁대략	-11.1185
▁논문	-11.1185
▁출범	-11.1185
▁폭등	-11.1186
▁저택	-11.1186
▁남녀	-11.1187
▁패리스	-11.1187
▁개념	-11.1188
▁우승자	-11.1189
▁참모	-11.1191
▁입었으며	-11.1191
▁사임했다	-11.1192
▁탐사선	-11.1195
▁거둔	-11.1195
▁모험	-11.1195
▁영감	-11.1198
▁받아들였다	-11.1198
▁창조	-11.1199
▁때마다	-11.1201
▁그곳에	-11.1202
▁확인된	-11.1202
▁편안	-11.1203
▁지낸	-11.1204
▁제압	-11.1208
▁연방준비제도이사회	-11.1209
▁설문	-11.121
▁겪었다	-11.121
▁알려주	-11.1211
▁주장했지만	-11.1211
▁입력	-11.1212
▁1950	-11.1214
▁평소	-11.1216
▁분실	-11.122
▁신병	-11.1221
▁중계	-11.1222
▁입학	-11.1222
▁열려	-11.1224
▁팜	-11.1226
▁타이어	-11.123
▁적자	-11.123
▁베어	-11.1232
▁파문	-11.1233
알카에다	-11.1235
스페인	-11.1235
페이지	-11.1236
섹스	-11.1236
몸	-11.1237
웨스트	-11.1239
▁개최된	-11.1242
▁여단	-11.1244
tic	-11.1245
대부분	-11.1246
▁여야	-11.1251
지오	-11.1251
▁공조	-11.1257
▁하산	-11.1257
▁폴슨	-11.1259
▁가져다	-11.1259
주택	-11.1262
▁붕괴된	-11.1263
▁주소	-11.1263
▁라파	-11.1266
▁안된다	-11.1266
슬러	-11.1273
▁유용	-11.1276
니까	-11.1282
▁기록하며	-11.1282
벨트	-11.1282
▁기술자	-11.1283
수준	-11.129
민주	-11.1293
있던	-11.1294
▁싶어한다	-11.1296
▁현지경찰	-11.1298
있거나	-11.1302
▁있었기	-11.1303
▁이해할	-11.1305
▁논의했다	-11.131
▁자정	-11.1311
▁제공하기	-11.1315
▁권위	-11.1316
▁아바	-11.132
스럽다	-11.1324
론자들	-11.1327
▁데비	-11.1329
ber	-11.1331
▁물었다	-11.1339
▁끄	-11.1341
▁열렸	-11.1341
시경	-11.1343
▁명시	-11.1343
part	-11.1344
▁원치	-11.1347
ah	-11.1356
▁미끄러	-11.1357
▁추락했다	-11.1361
41	-11.1364
모어	-11.1365
하르	-11.1366
▁주차	-11.1377
▁작성한	-11.138
▁나빠	-11.138
▁지도자들과	-11.1388
▁친척	-11.1389
▁남아있	-11.1394
▁에디	-11.1397
▁사용한다	-11.1404
야당	-11.1415
▁유지하기	-11.1419
ga	-11.1421
▁인도네시아에서	-11.1442
▁로렌	-11.1444
▁토레	-11.1448
▁벌어졌	-11.145
▁지원하기	-11.1455
▁이래로	-11.1456
▁조국	-11.1459
▁연예	-11.1467
레즈	-11.1467
▁안나	-11.1474
▁부문에서	-11.1474
▁손자	-11.1477
▁방문객들	-11.1484
▁면제	-11.1484
학자들	-11.1488
쁜	-11.1489
기위해	-11.1492
깃	-11.1493
▁국회의사당	-11.1493
▁troops	-11.1493
▁구호물품	-11.1493
▁다운로드	-11.1493
▁머리카락	-11.1493
▁베어스턴스	-11.1493
▁시달리고	-11.1493
▁에스토니아	-11.1493
▁티셔츠	-11.1493
▁펭귄	-11.1493
▁평화협상	-11.1493
▁흰색	-11.1493
댐	-11.1493
홉	-11.1493
▁베이루트	-11.1493
▁비즈니스	-11.1493
▁슈퍼대의원	-11.1493
▁덕분에	-11.1493
NFL	-11.1493
▁have	-11.1493
▁그린피스	-11.1493
▁추산했다	-11.1493
▁니케이	-11.1493
▁착취	-11.1493
▁2-0	-11.1493
▁2008.11	-11.1493
▁오렌지	-11.1493
▁원문기사	-11.1493
▁대한민국	-11.1493
WFP	-11.1493
▁간호사	-11.1493
▁중동평화	-11.1494
2007.08	-11.1494
▁맥도날드	-11.1494
▁소탕작전	-11.1494
2007.07	-11.1494
▁바꿔	-11.1494
2006.02	-11.1494
▁칭찬	-11.1494
▁마사지	-11.1495
▁진흙	-11.1495
▁취득	-11.1495
2006.05	-11.1495
▁묘지	-11.1496
▁오늘밤	-11.1496
▁충족	-11.1496
▁담겨	-11.1497
▁동유럽	-11.1497
▁같습니다	-11.1498
▁명칭	-11.1499
ical	-11.1499
▁하얀	-11.15
▁역설	-11.15
▁발효	-11.15
2006.10	-11.15
▁금융시장	-11.1502
▁오프라	-11.1503
▁dis	-11.1504
▁받았지만	-11.1505
▁볼튼	-11.1505
▁아이돌	-11.1506
▁근교	-11.1506
▁불평	-11.1511
▁마침	-11.1512
▁현행	-11.1512
▁상반기	-11.1513
▁천연	-11.1514
돌프	-11.1514
▁모르겠다	-11.1515
▁기습	-11.1516
▁인체	-11.1518
▁다이애나비	-11.1518
▁외출	-11.1519
▁회부	-11.152
▁죄수	-11.1522
▁고민	-11.1523
▁국회의원들	-11.1526
▁테마	-11.1527
▁느꼈다	-11.1527
▁우방	-11.1528
▁시위자	-11.1531
▁괴한	-11.1531
▁미셀	-11.1532
▁영원	-11.1532
▁제프리	-11.1533
▁뒤집	-11.1533
▁예상보다	-11.1535
red	-11.1536
▁조속	-11.1538
▁참여하지	-11.1539
▁코피	-11.1539
▁이룩	-11.1542
▁예보	-11.1543
▁알렌	-11.1546
▁죽어	-11.1547
▁복수	-11.1548
23	-11.1548
▁참여하는	-11.1549
비행	-11.1551
▁참석해	-11.1552
▁확실하지	-11.1553
▁격리	-11.1553
▁호화	-11.1554
▁채권	-11.156
▁선고받	-11.1562
▁적십자사	-11.1562
▁시판	-11.1563
▁선장	-11.1564
▁전대통령	-11.1568
▁부유	-11.1574
▁출연해	-11.1575
▁폭격기	-11.1578
▁과시	-11.1578
▁줄여	-11.1579
▁중령	-11.1579
▁주최측은	-11.1581
▁제방	-11.1582
▁2,000	-11.1582
장애	-11.1583
▁기권	-11.1583
▁보호하는	-11.1583
▁지문	-11.1583
▁전염	-11.1585
line	-11.1585
OS	-11.1588
ext	-11.1598
배우	-11.1598
▁비유	-11.1601
▁이어질	-11.1604
▁제약	-11.1618
NU	-11.1628
▁경제학자들	-11.164
▁실어	-11.1641
DH	-11.1649
▁실력	-11.165
▁자크	-11.1658
나갈	-11.1667
▁15%	-11.1671
제작	-11.1674
ator	-11.1682
데르	-11.1684
마이어	-11.1685
▁정신과	-11.1686
▁확인되	-11.169
▁사제	-11.1698
▁감시단	-11.17
략	-11.1706
▁어머니와	-11.1714
▁김씨	-11.1718
시키는데	-11.172
▁불화	-11.1731
구간	-11.1735
ling	-11.1743
▁건수	-11.1751
버릴	-11.1765
스러워	-11.1768
▁심사	-11.1775
스틴	-11.1779
▁선언한	-11.178
네트	-11.1806
리틀	-11.1809
붕	-11.181
융	-11.181
스트리트	-11.1816
▁재확인	-11.1816
믹	-11.1816
▁Secretary	-11.1816
▁로스앤젤레스	-11.1816
▁모가디슈	-11.1816
▁뮌헨	-11.1816
▁불렀다	-11.1816
▁상관없이	-11.1816
▁오케스트라	-11.1816
▁유니세프	-11.1816
▁이르기까지	-11.1816
▁이르렀다	-11.1816
▁칸다하르	-11.1816
▁크로아티아	-11.1816
▁트라볼타	-11.1816
▁항생제	-11.1816
▁황우석	-11.1816
돋	-11.1816
쉴	-11.1816
핏	-11.1816
▁AFP	-11.1816
▁무너져	-11.1816
▁브리티시	-11.1816
▁정해지지	-11.1816
▁가속화	-11.1816
▁매머드	-11.1816
▁집무실	-11.1816
▁어두운	-11.1816
▁되풀이	-11.1816
▁1/4	-11.1816
▁크로커	-11.1816
▁유조선	-11.1816
▁중산층	-11.1816
▁다행히	-11.1816
▁대주교	-11.1816
마누엘	-11.1816
▁국가주석	-11.1816
▁세비야	-11.1816
▁흐름	-11.1816
▁브루스	-11.1816
사령부	-11.1816
(25)	-11.1817
▁히드로	-11.1817
▁잔혹	-11.1817
▁참석하기	-11.1817
▁효력	-11.1817
▁맞붙	-11.1817
▁면접	-11.1817
▁벌어들	-11.1817
▁침범	-11.1818
▁공군기지	-11.1818
▁녹색	-11.1819
ncy	-11.182
▁Ex	-11.182
▁밤새	-11.1823
▁1981	-11.1823
▁피닉스호	-11.1823
▁정상회의	-11.1825
▁2011	-11.1827
▁풍선	-11.1829
공항	-11.183
▁소방서	-11.1832
▁가축	-11.1833
▁계열사	-11.1833
▁다녀	-11.1834
▁라이프	-11.1835
▁없었던	-11.1836
▁요새	-11.1837
▁감량	-11.1839
▁제패	-11.1839
▁줄이고	-11.1841
▁놓여	-11.1843
▁가결	-11.1845
▁난동	-11.1845
▁폐기물	-11.1847
▁인계	-11.1849
▁정치범	-11.1851
▁우리베	-11.1851
시켜야	-11.1852
▁전설적	-11.1853
▁레이더	-11.1855
펠드	-11.1857
▁개인적으로	-11.186
▁프린스	-11.1861
▁정교	-11.1867
▁천문학자들	-11.1867
▁소란	-11.1868
▁he	-11.187
92	-11.1873
▁입구	-11.1875
▁기리	-11.188
▁사용하기	-11.188
▁시작되는	-11.1881
▁회원들	-11.1882
붙	-11.1889
▁서약	-11.1889
FARC	-11.1889
폭탄테러	-11.1891
흔	-11.1892
검찰	-11.1892
개혁	-11.1895
▁전송	-11.1896
▁방치	-11.1898
▁걸었다	-11.1898
▁노동부	-11.1899
▁감원	-11.1899
▁의원들에게	-11.19
▁나란	-11.19
▁경찰에따르면	-11.1901
▁채우	-11.1901
사람들은	-11.1902
▁국정	-11.1903
▁고정	-11.1903
▁1200	-11.1903
▁제공해	-11.1905
▁관리자	-11.1915
▁지니	-11.1924
▁버전	-11.1925
내려	-11.1927
▁정오	-11.1927
▁성공회	-11.1929
▁말하면서	-11.1938
▁공부	-11.194
▁아기들	-11.194
▁대조	-11.1942
▁유니	-11.1948
▁시계	-11.1948
해졌	-11.196
33	-11.196
▁팔려	-11.1963
▁한쪽	-11.1967
▁선정됐다	-11.1974
대학교	-11.1976
▁본국	-11.1982
▁넣어	-11.1984
그린	-11.1984
투어	-11.1986
▁허위	-11.1988
▁비전	-11.199
▁모스크바에서	-11.1995
▁do	-11.2016
▁서명했다	-11.2017
ever	-11.2017
▁아내와	-11.202
▁관계자들과	-11.202
▁기소했다	-11.202
방안	-11.2023
▁차관보	-11.2028
▁주교	-11.2032
▁정보국	-11.2034
▁시점에서	-11.2035
▁가서	-11.2036
=	-11.2044
▁동맹국들	-11.2047
▁학생들과	-11.2048
군데	-11.2053
▁확보했다	-11.2055
▁제트	-11.2062
글리	-11.2078
▁파손되	-11.2079
42	-11.2087
▁금지하고	-11.209
▁동해	-11.2097
해진다	-11.2103
▁공격수	-11.2109
▁불가피	-11.2113
▁탈출했다	-11.2125
주민들	-11.2126
▁위협했다	-11.2127
▁장기적	-11.2128
▁고려해	-11.2139
민들	-11.2148
▁Foreign	-11.2149
▁attack	-11.2149
▁광우병	-11.2149
▁글래스고	-11.2149
▁상파울루	-11.2149
▁야스쿠니	-11.2149
▁양육권	-11.2149
▁우주정거장	-11.2149
▁카자흐스탄	-11.2149
▁커뮤니티	-11.2149
윗	-11.2149
▁당나귀	-11.2149
▁수퍼대의원	-11.2149
▁스튜어트	-11.2149
▁왕복선	-11.2149
▁인종차별	-11.2149
▁몸무게	-11.2149
▁부작용	-11.2149
▁kill	-11.2149
▁무너진	-11.2149
▁예언자	-11.2149
▁마라도나	-11.2149
인디아나	-11.2149
▁일축했다	-11.2149
ough	-11.2149
▁카지노	-11.2149
▁닉슨	-11.2149
▁교과서	-11.215
▁모로코	-11.215
▁콜롬	-11.215
베라	-11.215
▁쇼핑몰	-11.215
▁동북아	-11.215
▁수비수	-11.215
▁힌두교	-11.215
▁State	-11.2151
▁침투	-11.2151
▁증인	-11.2152
▁도와주	-11.2152
▁쿠르드족	-11.2152
▁높아졌다	-11.2152
▁있었는지	-11.2152
▁농담	-11.2153
▁필리스	-11.2153
UN	-11.2154
▁연휴	-11.2154
▁호킹	-11.2154
▁활기	-11.2154
ISS	-11.2154
줘야	-11.2155
▁풍경	-11.2155
▁임박	-11.2155
▁회색	-11.2156
▁할아버지	-11.2157
▁하더라도	-11.2158
▁버튼	-11.2159
▁바람직	-11.2159
▁재벌	-11.216
▁헌신	-11.216
▁회피	-11.2161
▁유효	-11.2162
▁지닌	-11.2163
▁토양	-11.2165
▁지속될	-11.2166
▁가려	-11.2166
▁추출	-11.2167
▁소방관	-11.2169
▁종양	-11.2169
▁극단주의자들	-11.2169
▁차림	-11.2174
▁후퇴	-11.2175
▁구단주	-11.2176
▁부른	-11.2179
▁복사	-11.2181
▁조종	-11.2181
▁책정	-11.2182
▁면적	-11.2183
▁유예	-11.2184
▁이례적	-11.2185
▁개최되	-11.2191
▁판결했다	-11.2191
▁문신	-11.2193
▁확실하다	-11.2194
▁구형	-11.2194
▁재발	-11.2195
▁감면	-11.2195
▁일상적	-11.2199
▁효율적	-11.2201
▁강연	-11.2202
▁보내기	-11.2216
▁수십억	-11.2217
▁협상단	-11.2217
▁특별히	-11.2217
▁지키기	-11.2217
▁자바	-11.222
무라	-11.2224
▁부상자들	-11.2224
▁교량	-11.2226
▁나르	-11.2226
▁누르고	-11.2229
베키	-11.2229
빛	-11.2231
▁보낸다	-11.2232
UEFA	-11.2233
뼈	-11.2234
CIA	-11.2234
▁참가했다	-11.2235
▁녹화	-11.2237
느냐	-11.224
▁동전	-11.2244
▁소식통들	-11.2246
▁설치된	-11.2249
▁mor	-11.2259
▁수용할	-11.2263
▁벌어지고	-11.2274
imp	-11.2276
시민	-11.2279
▁여자아이	-11.2285
▁추진하고	-11.2287
▁번지	-11.2299
▁군부대	-11.2301
잡지	-11.2315
▁물리치	-11.2317
일째	-11.2328
▁포함된다	-11.2329
▁이베이	-11.233
▁사진들	-11.2338
그러	-11.2339
▁Be	-11.2344
▁시작되었다	-11.2346
▁기적	-11.2356
노프	-11.2364
▁표현했다	-11.2364
아이들	-11.2367
▁군복	-11.239
▁비교해	-11.2396
▁향했다	-11.2397
▁무장대원들	-11.2398
역대	-11.2403
▁북부지역	-11.2404
▁아이들에게	-11.2408
▁호위	-11.2409
국가들	-11.2414
▁문자	-11.242
▁윤리	-11.2424
▁구상	-11.2428
▁학위	-11.2428
▁과장	-11.2432
▁세관	-11.2439
▁효율	-11.244
▁하트	-11.2443
▁해명	-11.245
▁취소됐다	-11.2458
▁인명	-11.2465
▁돌리	-11.248
▁매사추세츠	-11.2481
줘	-11.2488
▁가난	-11.249
▁포기했다	-11.2491
멍	-11.2491
▁구하기	-11.2491
삭	-11.2492
텍	-11.2494
&#8226;	-11.2494
▁Party	-11.2494
▁뉴캐슬	-11.2494
▁도미니카	-11.2494
▁동계올림픽	-11.2494
▁매코맥	-11.2494
▁맥코맥	-11.2494
▁미드필더	-11.2494
▁빠뜨	-11.2494
▁세계보건기구	-11.2494
▁악영향	-11.2494
▁암스트롱	-11.2494
▁친선경기	-11.2494
▁포괄적	-11.2494
넥	-11.2494
돔	-11.2494
랫	-11.2494
엽	-11.2494
▁protest	-11.2494
▁도널드	-11.2494
▁종신형	-11.2494
▁촛불	-11.2494
쿼	-11.2494
▁아스널	-11.2494
▁총기난사	-11.2494
▁바쿠바	-11.2494
▁제니퍼	-11.2494
PML	-11.2494
▁안락사	-11.2494
▁뱅크	-11.2494
▁3-0	-11.2494
▁흥행	-11.2494
▁election	-11.2494
▁린제이	-11.2494
▁퇴직	-11.2494
▁여파로	-11.2494
▁크라우	-11.2494
▁꼬리	-11.2494
▁중서부	-11.2495
▁속옷	-11.2495
2006.06	-11.2495
▁기후변화	-11.2495
▁퇴장	-11.2495
▁수하물	-11.2495
▁둘째	-11.2495
▁여배우	-11.2496
▁틀림	-11.2496
▁계곡	-11.2496
2008.06	-11.2497
▁환경보호	-11.2498
▁Kim	-11.2498
▁뒤따	-11.2498
▁대피령	-11.2498
▁연방법원	-11.25
▁받았으나	-11.25
2006.12	-11.25
▁허블	-11.2501
▁품질	-11.2501
▁정보기관	-11.2501
▁면역	-11.2501
▁몰래	-11.2502
▁만찬	-11.2503
▁국가안보	-11.2504
▁복권	-11.2505
▁해킹	-11.2505
▁존드로	-11.2505
▁불안감	-11.2505
▁맹세	-11.2505
▁아끼	-11.2506
▁피셔	-11.2506
▁배제하지	-11.2507
▁성행위	-11.2508
▁외교관계	-11.2509
▁확인해	-11.251
▁격려	-11.2512
▁아닐	-11.2514
▁공백	-11.2515
▁USA	-11.2516
▁변호사들	-11.2516
▁취약	-11.2518
▁식물	-11.252
▁독자	-11.2523
▁과실	-11.2523
▁가르치	-11.2524
▁산악지역	-11.2527
▁후보들은	-11.2529
▁교토	-11.2531
클레	-11.2536
▁대학살	-11.2542
▁일반적인	-11.2546
▁생겼다	-11.255
▁돌보	-11.2553
▁성경	-11.2554
▁알았다	-11.2555
▁버진	-11.2557
▁혼다	-11.2565
▁남미	-11.2566
ner	-11.2567
▁결장	-11.2567
▁아이티	-11.2569
▁아카데미상	-11.2572
▁선거전	-11.2573
런스	-11.2576
▁leader	-11.2576
▁말했지만	-11.2577
▁요트	-11.2582
▁운하	-11.2583
▁여기서	-11.2587
▁청소년들	-11.2589
FRB	-11.259
책임자	-11.2592
▁내장	-11.2593
지도자	-11.2594
form	-11.2595
▁장악한	-11.2595
2008	-11.2602
▁포기하지	-11.2604
▁관료	-11.2607
▁기반으로	-11.2616
▁승자	-11.2623
재판	-11.2624
▁지연되	-11.2631
▁comm	-11.2636
▁현안	-11.2637
모두	-11.2639
▁숨기	-11.2641
▁저널	-11.2644
▁연예인	-11.2644
▁사정	-11.2647
▁홀리	-11.2648
ger	-11.2649
▁단서	-11.265
▁강진	-11.267
▁부진	-11.2672
▁만나기	-11.2673
▁350	-11.2673
밀리에	-11.2681
▁25%	-11.2684
▁손님	-11.2685
▁캐리	-11.2686
▁환영했다	-11.2688
었기	-11.27
AT	-11.2705
병력	-11.2705
▁피의자	-11.2711
만여명	-11.2724
▁동부지역	-11.2729
▁광부들	-11.2746
▁생존자들	-11.2759
▁공세	-11.2779
▁일으켰	-11.2789
프린	-11.2794
법에따라	-11.2796
▁페레	-11.2799
▁호흡	-11.2804
▁보였	-11.2805
▁공산	-11.2805
역사	-11.2811
ash	-11.2817
▁부장관	-11.2826
픈	-11.2841
▁이루어	-11.2842
흙	-11.285
얄	-11.285
(32)	-11.2851
•	-11.2851
▁House	-11.2851
▁갤런당	-11.2851
▁모하마드	-11.2851
▁무하메드	-11.2851
▁미네소타	-11.2851
▁사형집행	-11.2851
▁슈워제네거	-11.2851
▁않았을	-11.2851
▁오키나와	-11.2851
▁침팬지	-11.2851
▁터미널	-11.2851
▁퍼트레이어스	-11.2851
▁펼칠	-11.2851
▁피추시킨	-11.2851
꽤	-11.2851
뻔	-11.2851
팍	-11.2851
헴	-11.2851
7,000	-11.2851
▁냄새	-11.2851
▁방사능	-11.2851
▁생중계	-11.2851
▁유럽축구연맹	-11.2851
▁재정경제부	-11.2851
▁클루니	-11.2851
▁호르몬	-11.2851
캘	-11.2851
▁승용차	-11.2851
▶	-11.2851
▁뉴욕타임스	-11.2851
▁블로거	-11.2851
▁북동쪽	-11.2851
▁앗아	-11.2851
▁페이스북	-11.2851
▁깃발	-11.2851
NEW	-11.2851
▁787	-11.2851
▁첨단	-11.2851
▁염두	-11.2851
▁북서쪽	-11.2851
▁지중해	-11.2851
▁영부인	-11.2851
▁미망인	-11.2852
▁노왁	-11.2852
▁타이완	-11.2853
illion	-11.2853
▁패널	-11.2854
▁알자와히리	-11.2854
2006.07	-11.2854
▁공략	-11.2854
▁같았다	-11.2854
▁면밀	-11.2855
▁어려워	-11.2855
▁조셉	-11.2855
▁페리노	-11.2856
▁say	-11.2856
2007.10	-11.2856
▁교황청	-11.2858
▁왔습니다	-11.2858
▁밀림	-11.2858
왔지만	-11.2859
▁라틴	-11.2859
▁준장은	-11.2859
▁요격	-11.286
▁제공한다	-11.286
▁주치의	-11.286
▁냉전	-11.286
▁완공	-11.2861
▁토론토	-11.2863
▁제라드	-11.2863
▁건립	-11.2864
▁항복	-11.2864
▁세균	-11.2864
▁변함	-11.2866
▁총알	-11.2866
▁적대적	-11.2867
▁어디서	-11.2868
▁행방	-11.2871
▁장악하	-11.2871
▁발목	-11.2873
▁크리스티나	-11.2873
▁베스트	-11.2875
▁타입	-11.2875
▁중단하라	-11.2876
▁병역	-11.2877
▁탄약	-11.2878
▁민주당원	-11.2878
▁밝혔었	-11.2879
▁비준	-11.2881
▁사법부	-11.2882
▁보상금	-11.2887
폭발	-11.2888
▁싶어하	-11.2889
▁우연	-11.289
▁대피소	-11.2893
▁통역	-11.2897
▁순찰대	-11.29
fire	-11.2904
▁제트기	-11.2905
▁정통	-11.2905
▁자리잡고	-11.2907
▁착용하	-11.2908
▁갖는다	-11.291
▁du	-11.291
▁누드	-11.2916
▁110	-11.2916
ney	-11.2917
▁유포	-11.2919
브리지	-11.292
▁무시하고	-11.2921
▁하나이다	-11.2927
▁그라운드	-11.2929
▁팬들에게	-11.293
▁그럼	-11.2931
▁임원	-11.2942
▁군용	-11.2949
▁않자	-11.295
▁고마	-11.2956
▁그쳤다	-11.2957
▁임명된	-11.2958
▁발부	-11.2958
NATO	-11.2961
흘	-11.2961
미얀마	-11.2963
▁강사	-11.2963
클럽	-11.2964
▁사회주의	-11.2969
▁지속된	-11.297
▁기내	-11.2971
민족	-11.2971
▁조사단	-11.2974
▁로라	-11.2976
▁진행됐다	-11.2985
프레스	-11.2985
▁전례	-11.2987
▁광대	-11.2987
▁든다	-11.2989
새로	-11.2996
▁기자들과	-11.3005
▁헤어	-11.3017
▁고고학자들	-11.3021
▁자선	-11.3025
▁집안	-11.3028
▁신고했다	-11.3035
비오	-11.3037
▁신비	-11.3039
▁피해지역	-11.3045
어지고	-11.3045
▁추정되	-11.3054
the	-11.3059
요원들	-11.3068
▁지표	-11.3075
학회	-11.3089
▁들리	-11.3093
사이드	-11.3093
▁중단시키	-11.3101
버렸	-11.3134
▁제조사	-11.3148
▁KT	-11.3161
▁잠재	-11.3175
회사들	-11.318
국민들	-11.3203
▁피닉스	-11.3213
엇	-11.3218
딴	-11.3219
펀	-11.3221
뮤	-11.3221
eneral	-11.3221
▁200806.0	-11.3221
▁그루지아	-11.3221
▁넘어섰다	-11.3221
▁놀랐다	-11.3221
▁마흐무드	-11.3221
▁만장일치	-11.3221
▁메사추세츠	-11.3221
▁박테리아	-11.3221
▁빨간색	-11.3221
▁캠벨	-11.3221
▁캥거루	-11.3221
▁케르비엘	-11.3221
▁클리블랜드	-11.3221
▁탈라바니	-11.3221
▁프로듀서	-11.3221
둬	-11.3221
띠	-11.3221
풋	-11.3221
International	-11.3221
▁work	-11.3221
▁그루지야	-11.3221
▁벨몬트	-11.3221
▁블룸버그	-11.3221
▁스피처	-11.3221
셈	-11.3221
팰	-11.3221
▁이스탄불	-11.3221
▁겁니다	-11.3221
▁오징어	-11.3221
▁김계관	-11.3221
▁앙겔	-11.3221
▁피아노	-11.3222
▁비영리	-11.3222
▁실업수당	-11.3222
▁셰이크	-11.3222
▁닥터	-11.3222
▁year	-11.3222
▁셔츠	-11.3222
▁월드시리즈	-11.3222
▁뉴멕시코	-11.3222
▁자서전	-11.3222
▁흡수	-11.3222
▁김선일	-11.3222
▁하리리	-11.3222
2007.05	-11.3222
▁습관	-11.3223
▁담겨있다	-11.3223
처리	-11.3223
▁구조조정	-11.3223
▁심사위원	-11.3224
▁전염병	-11.3224
▁무엇인지	-11.3224
▁디스커버리호	-11.3224
▁다뤄	-11.3224
▁불쾌	-11.3224
▁두뇌	-11.3225
▁압승	-11.3225
▁후계자	-11.3225
▁간섭	-11.3226
▁국영방송	-11.3226
▁올랐으며	-11.3228
▁사마라	-11.3228
▁격추	-11.3229
▁모르지만	-11.3229
천억	-11.3229
▁선데이	-11.3229
▁벌금형	-11.323
▁평범	-11.323
▁영입	-11.323
▁언제든	-11.323
▁놓았다	-11.3231
▁평결	-11.3231
▁결백	-11.3232
▁감추	-11.3234
▁데니스	-11.3234
▁악재	-11.3237
▁LG	-11.3237
▁남았다	-11.3238
▁안겨	-11.3239
▁생각합니다	-11.3239
▁국토	-11.324
▁재미	-11.324
▁장관급	-11.3241
▁참전	-11.3241
▁곡물	-11.3241
▁육상	-11.3245
▁분출	-11.3245
▁번역	-11.3247
▁지침	-11.3247
▁공개되지	-11.325
▁걸려있	-11.3251
▁것이냐	-11.3252
▁악화될	-11.3252
▁독점	-11.3256
▁걸프	-11.3258
▁보았다	-11.3258
▁주어진	-11.3258
▁불가피하다	-11.3263
▁공통	-11.3264
▁이용하여	-11.3266
▁십대	-11.3267
천억원	-11.3267
▁서버	-11.3268
▁초래할	-11.3269
▁기초	-11.3269
▁안건	-11.3277
하려면	-11.3277
▁comp	-11.3279
▁공방	-11.328
▁편집자	-11.328
▁소감	-11.3283
▁인적	-11.3294
▁장착된	-11.3295
▁헤르	-11.3299
▁안심	-11.3299
▁과도한	-11.3306
▁개조	-11.3307
▁소유자	-11.3314
▁발생했던	-11.3315
▁di	-11.3315
▁파견된	-11.3317
▁리타	-11.3322
부문	-11.3323
▁암살된	-11.3328
▁상정	-11.3328
▁조카	-11.3332
일만에	-11.3335
▁상태였다	-11.3335
▁비방	-11.3336
꾸	-11.3336
▁지목했다	-11.3339
곰	-11.3345
헬	-11.3346
탐	-11.3346
▁장관들	-11.3347
땅	-11.3347
미사일	-11.335
특별	-11.3351
처음	-11.3362
▁환영한다	-11.3363
▁반대한다	-11.3377
대사관	-11.3378
▁보여주기	-11.338
▁중상	-11.3397
▁상아	-11.34
▁맡아	-11.3403
▁것이지만	-11.3404
졌지만	-11.3413
▁파악하	-11.3416
▁들었	-11.3426
경기장	-11.3432
▁분리주의	-11.3435
▁납치됐다	-11.3438
생물학	-11.3449
▁관해서	-11.3451
▁경제학	-11.3454
빌리	-11.348
용의자	-11.3519
▁녹아	-11.3523
▁치명적	-11.3562
▁펼쳤	-11.3571
La	-11.3582
순위	-11.3598
4,000	-11.3606
▁first	-11.3606
▁과테말라	-11.3606
▁구스마오	-11.3606
▁높였다	-11.3606
▁늘어났다	-11.3606
▁댈러스	-11.3606
▁알렉산드	-11.3606
▁애틀란타	-11.3606
▁에탄올	-11.3606
▁인플루엔자	-11.3606
▁자메이카	-11.3606
▁조선중앙통신	-11.3606
겹	-11.3606
놔	-11.3606
푼	-11.3606
▁Court	-11.3606
▁agree	-11.3606
▁나타낸	-11.3606
▁세실리아	-11.3606
▁수하르토	-11.3606
▁여동생	-11.3606
▁정동영	-11.3606
무장혁명군	-11.3606
▁YORK	-11.3606
▁따돌리	-11.3606
▁열렬한	-11.3606
▁토마토	-11.3606
▁뉴욕증시	-11.3606
▁애쓰고	-11.3606
▁좌익	-11.3606
▁비공개	-11.3606
▁검찰총장	-11.3606
▁이벤트	-11.3606
▁하반기	-11.3606
(23)	-11.3606
▁검출	-11.3606
▁러셀	-11.3606
▁전략적	-11.3607
▁ETA	-11.3608
▁결렬	-11.3608
▁호주오픈	-11.3608
▁돌아갔다	-11.3609
▁코미디언	-11.3609
▁태양열	-11.3609
▁노리에가	-11.3609
▁과잉	-11.3609
2006.09	-11.361
▁연합뉴스	-11.361
▁열쇠	-11.361
▁블록	-11.361
▁워커	-11.3611
▁뜨거	-11.3611
▁펠리	-11.3611
▁혼합	-11.3611
▁레논	-11.3611
▁냉동	-11.3611
▁메뉴	-11.3611
▁이른바	-11.3613
▁밀집	-11.3614
▁글렌	-11.3615
▁삼림	-11.3615
▁유혹	-11.3615
▁계층	-11.3615
▁사진기자	-11.3616
▁폐쇄했다	-11.3616
▁설교	-11.3616
▁매춘부	-11.3617
▁영예	-11.3617
▁규명	-11.3618
▁머피	-11.3618
▁광경	-11.3618
▁80%	-11.3619
▁방북	-11.362
▁제이미	-11.3621
▁바퀴	-11.3623
▁저격	-11.3624
▁지폐	-11.3624
▁메달	-11.3625
▁고백	-11.3628
▁맡게	-11.3629
▁격분	-11.363
반군	-11.3631
▁도왔다	-11.3633
▁올릴	-11.3635
▁방문객	-11.3636
▁SK	-11.3636
▁국면	-11.3639
▁농구	-11.3643
▁시술	-11.3643
▁자유당	-11.3645
▁악성	-11.3645
▁발견돼	-11.3646
▁부각	-11.3647
▁장난	-11.3648
▁노동력	-11.3649
▁석상	-11.3649
▁가두	-11.3651
▁야간	-11.3652
▁자매	-11.3653
▁오락	-11.3653
▁시범	-11.3657
▁만든다	-11.3657
▁대도시	-11.3658
▁호흡기	-11.3659
▁위법	-11.3662
▁비자금	-11.3672
▁구제안	-11.3684
▁우파	-11.3686
▁레저	-11.3692
ster	-11.3697
▁결과에따르면	-11.3697
▁9%	-11.3698
년째	-11.3698
버거	-11.3701
▁내정자	-11.3719
▁강조하고	-11.373
▁대표들은	-11.3735
▁범죄자들	-11.3737
큰	-11.3748
월드컵	-11.3748
슈퍼	-11.3753
▁고전	-11.3756
▁후임자	-11.3757
에너지	-11.3759
▁당장	-11.376
▁돌입했다	-11.3768
능력	-11.377
▁갇혀	-11.377
FA	-11.3771
▁테러범들	-11.3772
그런	-11.3775
▁빌라	-11.3778
▁마련하기	-11.3784
조각	-11.3785
▁블로그	-11.3785
조합	-11.3794
스텐	-11.3807
▁당원들	-11.3814
적이지	-11.3821
회장	-11.3822
▁양상	-11.3833
EC	-11.3836
▁살해하겠다	-11.3837
되게	-11.3838
▁경위	-11.3843
혁	-11.3846
그램	-11.3848
▁수의사	-11.3858
▁찬사	-11.3859
티브	-11.3875
겼으며	-11.3883
▁내리기	-11.3891
▁박수	-11.3897
혁명	-11.3897
제국	-11.3902
▁주최측	-11.3927
PF	-11.3941
▁주문했다	-11.3977
▁개헌	-11.3992
side	-11.3994
ami	-11.3996
랍	-11.3997
옹	-11.4001
모토	-11.4001
콕	-11.4004
▁200806.1	-11.4006
▁BMW	-11.4006
▁갤럭시	-11.4006
▁보건복지부	-11.4006
▁부딪혀	-11.4006
▁아웅산수지	-11.4006
▁원내대표	-11.4006
▁웨스트버지니아	-11.4006
▁이끌었다	-11.4006
▁이끌었던	-11.4006
▁조코비치	-11.4006
▁집행유예	-11.4006
▁초등학교	-11.4006
▁카톨릭	-11.4006
▁페널티킥	-11.4006
뇨	-11.4006
듬	-11.4006
룽	-11.4006
벡	-11.4006
쩌	-11.4006
찔	-11.4006
탬	-11.4006
▁FTSE	-11.4006
▁곤돌라	-11.4006
▁농작물	-11.4006
▁단백질	-11.4006
▁라왈핀디	-11.4006
▁싱가폴	-11.4006
▁안타까	-11.4006
▁원정경기	-11.4006
▁카라카스	-11.4006
딱	-11.4006
퓨	-11.4006
▁로페즈	-11.4006
▁마닐라	-11.4006
▁무너졌다	-11.4006
▁퍼레이드	-11.4006
▁크누트	-11.4006
▁내비쳤다	-11.4006
▁작곡가	-11.4006
▁카리스마	-11.4006
▁수족관	-11.4006
▁콜레라	-11.4006
▁종업원	-11.4006
▁1/3	-11.4006
▁빠질	-11.4006
▁빈민가	-11.4006
▁숨지게	-11.4006
▁동남아시아	-11.4006
▁살모넬라균	-11.4006
▁도덕적	-11.4007
▁대지진	-11.4007
▁월마트	-11.4007
▁검진	-11.4007
▁낙찰	-11.4007
▁신용위기	-11.4007
▁가자시티	-11.4007
2008.09	-11.4008
▁부정선거	-11.4008
▁꾸준	-11.4008
▁밀접	-11.4008
▁참패	-11.4009
▁티켓	-11.4009
▁관광산업	-11.4009
▁결승골	-11.4009
데요	-11.401
▁면허	-11.401
▁삼엄	-11.4011
▁부회장	-11.4012
▁배럭	-11.4012
▁오스틴	-11.4012
▁입찰	-11.4012
▁사찰	-11.4014
▁남겼다	-11.4014
▁울머	-11.4014
▁세레나	-11.4014
▁당분간	-11.4015
▁경제성장률	-11.4015
▁결별	-11.4015
▁몸집	-11.4015
▁기둥	-11.4016
▁이정인	-11.4016
▁1984	-11.4016
▁밀매	-11.4016
▁도착했을	-11.4016
▁태양계	-11.4016
▁삼았다	-11.4017
▁2014	-11.4018
▁비싸	-11.4018
▁포스터	-11.4021
▁연구조사	-11.4021
▁근무하	-11.4022
▁직무	-11.4023
▁번영	-11.4024
▁폭풍우	-11.4026
▁생물학자	-11.4027
▁보수파	-11.4028
▁외각	-11.4028
▁대장	-11.4028
▁연립	-11.4029
▁권유	-11.403
▁상반	-11.4031
▁원격	-11.4031
▁보석금	-11.4031
▁피플	-11.4035
▁더이상	-11.4038
▁DC	-11.4042
▁발작	-11.4043
게이트	-11.4046
▁재생	-11.4046
▁시사회	-11.4049
▁육성	-11.4049
▁95%	-11.4053
▁가이드	-11.4054
▁테크	-11.4055
▁정상적으로	-11.4059
▁후보작	-11.4064
▁1800	-11.4064
▁보류	-11.4066
▁크리스티아	-11.4068
▁일기로	-11.4069
▁입장권	-11.4069
▁투표권	-11.4071
▁와서	-11.4072
▁밀수	-11.4077
▁심정	-11.4078
▁줄어들었다	-11.408
▁실내	-11.4081
▁사이즈	-11.4085
▁질서	-11.4086
▁이해하	-11.4091
▁번식	-11.4092
느라	-11.4093
▁대처하기	-11.4097
▁1-1	-11.4098
▁비극적	-11.41
관리국	-11.4103
▁연관된	-11.4137
▁에바	-11.4147
▁was	-11.4153
▁뿐이라	-11.4153
춤	-11.4161
WHO	-11.4162
IOC	-11.4162
사드르	-11.4164
오픈	-11.4164
▁잡혀있	-11.4171
분쟁	-11.4173
LA	-11.418
▁구조대원	-11.419
GM	-11.419
▁지정된	-11.4194
▁관심사	-11.4194
MD	-11.4207
▁안되	-11.421
정말	-11.4216
범들	-11.4232
320	-11.4253
▁수감됐다	-11.4291
▁동원해	-11.4296
천여	-11.4303
하겠지만	-11.4307
▁기념하기	-11.432
▁판사들	-11.4332
▁살해됐다	-11.4359
▁감행했다	-11.4364
▁자랑스럽	-11.4368
▁자회사	-11.4376
▁조달	-11.4382
▁고국	-11.4401
획	-11.4412
▁획득했다	-11.4414
▁경제성장	-11.4415
실장	-11.4422
▁캠퍼스	-11.4423
▁컨퍼런스	-11.4423
콥	-11.4423
2007.06	-11.4423
Space	-11.4423
▁SUV	-11.4423
▁가톨릭	-11.4423
▁국가보안법	-11.4423
▁대중교통	-11.4423
▁대통합민주신당	-11.4423
▁리얼리티	-11.4423
▁마호메트	-11.4423
▁무크타다	-11.4423
▁베테랑	-11.4423
▁브로드웨이	-11.4423
▁사카쉬빌리	-11.4423
▁얀코비치	-11.4423
▁엉덩이	-11.4423
▁이데올로기	-11.4423
▁추수감사절	-11.4423
▁프리메라리가	-11.4423
▁합참의장	-11.4423
궐	-11.4423
뭉	-11.4423
솜	-11.4423
캣	-11.4423
켐	-11.4423
쿤	-11.4423
▁동점골	-11.4423
▁올바른	-11.4423
▁저작권	-11.4423
▁페르난도	-11.4423
▁금융제재	-11.4423
▁백화점	-11.4423
▁임산부	-11.4423
▁두개골	-11.4423
▁횡단	-11.4423
▁의구심	-11.4423
▁제네바	-11.4423
▁휴양지	-11.4423
▁링컨	-11.4423
▁뮤직	-11.4423
▁최우수	-11.4423
▁팔루자	-11.4423
▁번호판	-11.4423
▁테이블	-11.4423
Brit	-11.4423
▁도메인	-11.4423
▁뒤덮	-11.4423
터무니	-11.4423
▁억압	-11.4423
▁소수민족	-11.4423
▁엄중	-11.4423
▁활력	-11.4423
▁이소연	-11.4423
▁와중에	-11.4423
▁낙관적	-11.4424
▁표적이	-11.4424
▁쟁점	-11.4424
▁농촌	-11.4424
▁아지즈	-11.4424
호르타	-11.4424
▁범람	-11.4425
▁근접	-11.4425
▁홈런	-11.4425
▁참가국들	-11.4426
▁지뢰	-11.4427
▁홀랜드	-11.4427
▁액수	-11.4428
▁제재조치	-11.4428
2006.11	-11.4428
▁궁금	-11.4429
▁초대형	-11.4429
▁흉기	-11.443
▁없었지만	-11.4432
▁창립	-11.4432
▁inter	-11.4433
▁심장병	-11.4433
▁피델	-11.4436
▁평생	-11.4436
▁누르	-11.4436
▁디에고	-11.4439
▁바이오	-11.444
▁750	-11.4441
▁포격	-11.4442
ark	-11.4443
▁지칭	-11.4444
▁에이미	-11.4444
▁극심	-11.4445
▁페퍼	-11.4445
▁전반적으로	-11.4446
▁고집	-11.445
▁많았다	-11.445
▁울프	-11.4451
▁완수	-11.4453
▁대담	-11.4454
▁터진	-11.4454
▁감안	-11.4455
▁드문	-11.4457
▁인용하여	-11.4459
▁휩싸였다	-11.4461
▁반격	-11.4462
▁보수적인	-11.4464
▁건조	-11.4464
▁걸음	-11.4465
▁사격	-11.4465
▁동행	-11.4466
▁작용할	-11.4466
▁분명하다	-11.4466
되었으나	-11.4467
▁조업	-11.4469
▁예금	-11.447
▁단호	-11.4473
▁영역	-11.4474
▁가즈니주	-11.4474
▁상임	-11.4476
▁인파	-11.4479
▁상원의원직	-11.4482
▁지하드	-11.4484
▁풍자	-11.4484
▁호우	-11.4486
▁맺었다	-11.4488
▁국민당	-11.4493
▁43%	-11.4498
▁취해야	-11.4501
▁치타	-11.4503
▁여정	-11.4506
▁공급받	-11.4508
cent	-11.4509
▁이끈	-11.4509
▁넘어서	-11.4514
▁열리기	-11.4534
▁심각하다	-11.4537
▁1.5	-11.4538
oint	-11.4538
▁관세	-11.4539
▁필립스	-11.4543
tter	-11.4545
피크	-11.4563
▁빚어	-11.4572
▁투자가들	-11.4575
▁발견되	-11.4586
몇	-11.4595
▁파괴됐다	-11.4596
▁최상	-11.4596
딕	-11.4596
▁경찰청장	-11.4597
인터넷	-11.4599
앨	-11.4602
use	-11.4605
▁만족한다	-11.4611
▁개혁안	-11.4618
▁상업적	-11.4638
▁줄었다	-11.4638
연설	-11.4643
▁세번째	-11.4665
▁Gr	-11.4679
▁맡기	-11.4692
▁0.2	-11.4693
pose	-11.4704
식품	-11.4705
▁흔들리	-11.4718
▁관료들	-11.473
▁미군측	-11.4794
▁보여준	-11.4806
▁괴한들	-11.4811
▁겪었	-11.4815
▁합의안	-11.4832
▁못하면	-11.484
▁다국적	-11.4841
▁콜린	-11.4844
▁테네시	-11.4845
▁소방관들	-11.4849
롯	-11.4852
▁일반인들	-11.4855
▁쫓겨	-11.4857
▁said	-11.4858
▁그린스펀	-11.4858
▁닌텐도	-11.4858
▁루마니아	-11.4858
▁몬타나	-11.4858
▁무책임	-11.4858
▁버시바우	-11.4858
▁브뤼셀	-11.4858
▁안젤리	-11.4858
▁앨라배마	-11.4858
▁없음	-11.4858
▁엔데버호	-11.4858
▁엔터테인먼트	-11.4858
▁여객선	-11.4858
▁오차범위	-11.4858
▁의료보험	-11.4858
▁짝짓기	-11.4858
▁콘크리트	-11.4858
▁콜레스테롤	-11.4858
▁타블로이드	-11.4858
▁태어났다	-11.4858
▁프란시스	-11.4858
늄	-11.4858
옌	-11.4858
짙	-11.4858
촨	-11.4858
튠	-11.4858
OECD	-11.4858
ject	-11.4858
▁급상승	-11.4858
▁낙하산	-11.4858
▁무차별	-11.4858
▁벤자민	-11.4858
▁보스니아	-11.4858
▁자이툰	-11.4858
▁줄어든	-11.4858
▁저녁식사	-11.4858
WWF	-11.4858
▁수마트라	-11.4858
▁힉스	-11.4858
▁검열	-11.4858
▁유태인	-11.4858
(27)	-11.4858
▁가볍	-11.4858
(29)	-11.4858
=31	-11.4858
▁기번스	-11.4858
▁황교수	-11.4858
▁무엇인가	-11.4859
▁싱글	-11.4859
▁아르빌	-11.486
▁냉각	-11.486
▁별도로	-11.486
▁나중에	-11.486
▁자본주의	-11.4861
▁토끼	-11.4861
▁state	-11.4861
▁자살폭탄	-11.4861
▁간첩	-11.4862
▁보도자료	-11.4862
▁동맹관계	-11.4862
▁Star	-11.4862
▁이루어질	-11.4862
▁사냥꾼	-11.4863
▁get	-11.4863
▁토로했다	-11.4863
▁싸울	-11.4864
▁평창	-11.4865
▁철거	-11.4866
▁보였지만	-11.4866
▁늘어난	-11.4866
▁총격사건	-11.4866
▁친밀	-11.4868
▁앙리	-11.4868
▁테네시주	-11.487
▁신념	-11.4871
▁중태라	-11.4871
ZA	-11.4871
▁받았습니다	-11.4872
▁팔렸다	-11.4873
▁한국전쟁	-11.4873
light	-11.4873
▁모닝	-11.4874
▁지나친	-11.4874
▁매사추세츠주	-11.4874
▁증산	-11.4875
▁911	-11.4875
▁테러공격	-11.4875
▁누설	-11.4875
▁샤론	-11.4875
now	-11.4876
▁재능	-11.4876
▁친절	-11.4877
▁관계자에따르면	-11.4879
▁납부	-11.488
▁단절	-11.4881
▁책임감	-11.4882
▁HD	-11.4882
▁관행	-11.4883
▁불경기	-11.4883
▁동남	-11.4883
▁분양	-11.4884
▁서열	-11.4885
▁뉴저지주	-11.4885
▁질식	-11.4885
▁급파	-11.4887
▁감동	-11.4888
▁변동	-11.4891
살짜리	-11.4895
▁쿠즈	-11.4896
▁후보자들	-11.4897
▁중재자	-11.4898
▁만행	-11.4898
▁도박	-11.4899
▁섬유	-11.4899
▁상징적인	-11.49
▁제작자들	-11.4901
▁과학적	-11.4903
▁참수	-11.4904
▁상속	-11.4906
▁대승	-11.4906
▁동요	-11.4909
▁사절	-11.491
▁말라위	-11.4914
▁탈세	-11.4918
▁신설	-11.4921
▁불거	-11.4922
▁말았다	-11.4928
▁보행	-11.4929
▁탈당	-11.4932
▁교통부	-11.4936
▁피터슨	-11.4936
▁로즈	-11.4939
▁마르코	-11.4941
▁증가시키	-11.4949
▁기대된다	-11.4949
▁효과적인	-11.495
▁ban	-11.4964
클린	-11.4971
▁서부지역	-11.4975
▁진정시키	-11.4983
▁윤리적	-11.4983
▁주둔군	-11.4984
학생들	-11.5007
마른	-11.5014
▁생각된다	-11.5019
cial	-11.5037
PD	-11.504
즐	-11.5052
카메라	-11.5053
한나라당	-11.5053
티베트	-11.5053
eep	-11.5054
▁심리학	-11.5054
▁순례객	-11.5055
투쟁	-11.5056
FTA	-11.5056
반응	-11.5058
▁작품상	-11.5068
스위스	-11.5073
방향	-11.5074
외교	-11.5078
▁제조회사	-11.5081
into	-11.5093
▁실시됐다	-11.5134
▁대학생들	-11.5155
▁모여들	-11.5163
Com	-11.5206
▁피랍됐	-11.5227
▁올렸	-11.5232
▁승려	-11.5239
대원들	-11.5243
▁수백만명	-11.525
▁America	-11.5273
정치적	-11.5276
컷	-11.5278
이어서	-11.5287
▁검문	-11.5298
▁두려워하	-11.5303
훔	-11.5309
▁2~3	-11.5309
됨	-11.531
벳	-11.5311
갱	-11.5312
앵	-11.5312
United	-11.5312
긍	-11.5312
밭	-11.5312
츄	-11.5312
훌	-11.5312
2007.03	-11.5312
Australia	-11.5312
▁Association	-11.5312
▁BBK	-11.5312
▁issue	-11.5312
▁president	-11.5312
▁검시관	-11.5312
▁국제사면위원회	-11.5312
▁내다봤다	-11.5312
▁대량살상무기	-11.5312
▁로맨틱	-11.5312
▁롱고리아	-11.5312
▁선거캠페인	-11.5312
▁손해배상	-11.5312
▁슈나이더	-11.5312
▁스탠리	-11.5312
▁아이슬란드	-11.5312
▁애널리스트	-11.5312
▁언색호	-11.5312
▁자이언트	-11.5312
▁참모총장	-11.5312
덱	-11.5312
둠	-11.5312
셜	-11.5312
썩	-11.5312
파이낸셜	-11.5312
onsumer	-11.5312
▁England	-11.5312
▁가금류	-11.5312
▁돈세탁	-11.5312
▁몰디브	-11.5312
▁부정부패	-11.5312
▁선제골	-11.5312
▁신행정수도	-11.5312
▁좋았다	-11.5312
▁카메론	-11.5312
▁클레이코트	-11.5312
▁플레이오프	-11.5312
쥬	-11.5312
펙	-11.5312
Human	-11.5312
▁솔로몬	-11.5312
▁크리켓	-11.5312
▁황박사	-11.5312
▁올랜도	-11.5312
▁전화통화	-11.5312
▁갱신	-11.5312
▁발레리	-11.5312
▁그렇다면	-11.5312
▁유시프	-11.5312
▁태어나	-11.5312
▁몬테	-11.5312
▁선진국	-11.5312
▁탑재	-11.5312
▁정부청사	-11.5312
▁반도체	-11.5312
▁프리킥	-11.5313
(24)	-11.5313
(21)	-11.5313
▁진원지	-11.5313
▁라시드	-11.5313
▁접어들	-11.5313
▁리더십	-11.5313
▁페인트	-11.5313
▁설문조사	-11.5313
▁격돌한	-11.5313
▁퇴치	-11.5313
▁삼성그룹	-11.5313
▁공동성명	-11.5313
▁방위군	-11.5314
▁소요사태	-11.5314
▁근본적	-11.5314
▁이틀째	-11.5314
▁쓰러졌	-11.5314
▁있겠지만	-11.5314
▁푸켓	-11.5315
▁곳곳에서	-11.5315
▁주립대학	-11.5315
▁불쾌감	-11.5315
▁다툼	-11.5315
▁Lee	-11.5316
▁통계청	-11.5316
▁지방선거	-11.5317
▁물러난	-11.5317
▁51%	-11.5318
▁페트로	-11.5318
링턴	-11.5319
후쿠다	-11.5319
▁당첨	-11.5319
▁투항	-11.532
▁곤란	-11.532
▁다룰	-11.5321
▁헌터	-11.5322
▁평등	-11.5323
▁발송	-11.5324
▁터너	-11.5324
▁대기권	-11.5325
▁기념품	-11.5325
▁감각	-11.5326
▁단축	-11.5326
▁미술관	-11.5326
▁고등	-11.5326
▁금지령	-11.5326
▁정교회	-11.5329
▁늘려	-11.5329
▁일삼	-11.5333
▁인천	-11.5334
▁성능	-11.5335
▁방침이다	-11.5335
▁북경	-11.5336
▁마텔	-11.5336
▁온천	-11.5336
▁해산물	-11.5337
▁지난밤	-11.5337
▁무패	-11.5338
▁본래	-11.5339
▁빈번	-11.534
▁풀어주	-11.5341
▁출간	-11.5342
시께	-11.5344
▁황제	-11.5344
▁프로디	-11.5345
▁콜린스	-11.5347
▁현직	-11.5348
▁재료	-11.5349
▁공범	-11.5351
▁바스크	-11.5353
▁Dis	-11.5353
므	-11.5359
ull	-11.5359
▁역전	-11.5359
▁끌어들이	-11.536
▁온실	-11.5362
▁순회	-11.5363
▁교역	-11.5366
▁나이키	-11.537
▁노벨상	-11.537
▁린치	-11.5376
eac	-11.5379
▁공표	-11.5394
점이다	-11.5399
▁샤프	-11.54
▁알아내	-11.54
부르크	-11.5419
▁숨졌	-11.5437
▁피고인들	-11.5443
▁내려오	-11.5451
▁경유	-11.5456
▁배달	-11.5505
▁직위	-11.5522
따	-11.5522
홈	-11.5527
2008.12	-11.5527
무샤라프	-11.5529
시리즈	-11.5529
모델	-11.5548
나이트	-11.5548
▁Ri	-11.5563
▁조직원들	-11.557
▁상표	-11.5582
걸스	-11.5591
웃으며	-11.5595
ally	-11.5599
▁외교관들	-11.5601
▁잡혀	-11.5606
▁왕위	-11.5628
▁확신하	-11.5728
▁격렬	-11.5732
▁par	-11.5738
적당한	-11.5747
렸지만	-11.5763
하기위해	-11.5763
수익	-11.5778
ja	-11.5781
▁이용자들	-11.5781
뷔	-11.5785
봇	-11.5787
툰	-11.5788
봅	-11.5788
NYMEX	-11.5788
inancial	-11.5788
ould	-11.5788
world	-11.5788
▁death	-11.5788
▁minister	-11.5788
▁soldier	-11.5788
▁가라앉	-11.5788
▁가로질러	-11.5788
▁가이트너	-11.5788
▁디얄라	-11.5788
▁라스무센	-11.5788
▁라우터바흐	-11.5788
▁레드삭스	-11.5788
▁로널드	-11.5788
▁밀리밴드	-11.5788
▁불필요	-11.5788
▁선생님	-11.5788
▁스콜세지	-11.5788
▁와지리스탄	-11.5788
▁지구온난화	-11.5788
▁질렀다	-11.5788
▁코네티컷	-11.5788
▁콘텐트	-11.5788
▁테헤란	-11.5788
▁텔레콤	-11.5788
▁페르난데스	-11.5788
▁포틀랜드	-11.5788
▁푸에르토리코	-11.5788
덟	-11.5788
윙	-11.5788
쯔	-11.5788
하였으나	-11.5788
▁high	-11.5788
▁빈라덴	-11.5788
▁유네스코	-11.5788
▁음란물	-11.5788
▁인디언	-11.5788
▁농산물	-11.5788
▁주미대사	-11.5788
▁가석방	-11.5788
▁무중력	-11.5788
▁브라더스	-11.5788
▁점유율	-11.5788
▁졸릭	-11.5788
WTI	-11.5788
깜짝	-11.5788
▁자부심	-11.5788
▁주머니	-11.5788
▁획기적	-11.5788
▁본거지	-11.5788
▁아메드	-11.5788
▁오마바	-11.5788
▁비평가들은	-11.5788
▁meet	-11.5788
▁남동쪽	-11.5788
▁나이로비	-11.5789
▁위안화	-11.5789
▁남서쪽	-11.5789
▁놀랍	-11.5789
▁주니어	-11.5789
▁미시간주	-11.5789
▁블레이크	-11.5789
▁아이팟	-11.5789
▁지저스	-11.5789
이건희	-11.5789
▁강아지	-11.5789
▁떠오르	-11.5789
▁소아과	-11.5789
▁딜리	-11.5789
▁여러분들	-11.5789
▁트레이드	-11.579
ECB	-11.579
▁화폐	-11.5791
▁포옹	-11.5791
▁납북	-11.5791
▁may	-11.5791
▁않으려	-11.5792
▁재처리	-11.5792
▁불러일으키	-11.5792
▁맞춘	-11.5792
스테이트	-11.5792
▁석탄	-11.5793
▁외교정책	-11.5793
▁자유로운	-11.5793
▁폐허	-11.5793
▁그린랜드	-11.5793
▁기차역	-11.5794
▁왕궁	-11.5794
▁완승	-11.5794
▁프라임	-11.5794
2008.02	-11.5795
▁아바타	-11.5795
▁철강	-11.5795
▁소식통에따르면	-11.5796
▁1953	-11.5797
▁우익	-11.5797
▁은폐	-11.5799
&#4	-11.5799
▁사촌	-11.58
▁난폭	-11.58
▁1975	-11.5801
▁납치범들	-11.5801
▁잠재력	-11.5803
▁연습	-11.5804
▁화물선	-11.5805
dge	-11.5805
함으로서	-11.5805
▁투병	-11.5805
▁선언문	-11.5805
▁청색	-11.5805
▁가졌으며	-11.5806
▁악명	-11.5806
▁추모식	-11.5807
▁선거자금	-11.5807
▁돌아간	-11.5807
▁익사	-11.5809
▁함정	-11.5809
▁긴장감	-11.581
▁기부금	-11.581
▁앞서있다	-11.5811
▁계단	-11.5812
▁우주센터	-11.5814
▁핵문제	-11.5815
▁복부	-11.5818
▁변형	-11.5818
▁정글	-11.5818
▁증오	-11.5819
▁분배	-11.5819
▁시청률	-11.5821
▁판결문	-11.5822
▁엔화	-11.5825
▁원한다면	-11.5826
▁웃음	-11.5826
▁달렸다	-11.5826
▁보험금	-11.5828
▁투하	-11.5833
▁붙였다	-11.5833
▁지도력	-11.5834
ism	-11.5837
▁분리주의자들	-11.584
▁이끌어내	-11.5875
▁취업	-11.5876
▁철학	-11.5884
▁수영장	-11.5897
▁보건당국	-11.5898
▁목표물	-11.5909
▁판매되	-11.5912
▁경호원들	-11.5917
▁알려졌	-11.5917
▁되려	-11.5923
▁출판사	-11.593
▁보험사	-11.5948
하였고	-11.5962
973	-11.5981
카우	-11.5986
훈련	-11.5988
▁몰린	-11.6011
▁앉아있	-11.602
민주적인	-11.6021
▁손님들	-11.6021
끄	-11.6025
슛	-11.6026
▁맞이하	-11.6027
미디어	-11.6028
보좌관	-11.6029
뒤	-11.603
Korea	-11.603
하마스	-11.6032
남북	-11.6032
폭풍	-11.6032
헌법	-11.6042
2007	-11.6046
▁고고학자	-11.6054
전문가들	-11.6057
▁갇혀있	-11.6077
평화로운	-11.6078
▁선보였	-11.6107
uk	-11.6109
ble	-11.6128
물리학	-11.6151
▁얻었	-11.6153
하느냐	-11.6156
▁중국인들	-11.6201
▁자원봉사	-11.6212
▁간부들	-11.6226
▁우주비행	-11.6261
노엘	-11.627
▁우주비행사들	-11.6277
▁메모리	-11.6278
욱	-11.6279
arly	-11.6282
그렇다	-11.6288
▁peace	-11.6288
샴	-11.6288
life	-11.6288
▁UFO	-11.6288
▁resign	-11.6288
▁갖췄다	-11.6288
▁그랜드슬램	-11.6288
▁김경준	-11.6288
▁네그로폰테	-11.6288
▁뉴욕상업거래소	-11.6288
▁맞교환	-11.6288
▁매카트니	-11.6288
▁베스트셀러	-11.6288
▁소렌스탐	-11.6288
▁식이요법	-11.6288
▁신용경색	-11.6288
▁신천옹	-11.6288
▁아라파트	-11.6288
▁아흐마디네자드	-11.6288
▁않았기	-11.6288
▁얼어붙	-11.6288
▁우비넨	-11.6288
▁윌리암	-11.6288
▁평론가들은	-11.6288
▁포츠머스	-11.6288
굽	-11.6288
배아줄기세포	-11.6288
쩔	-11.6288
콴	-11.6288
▁WASHINGTON	-11.6288
▁생태계	-11.6288
▁쓰러져	-11.6288
▁영유권	-11.6288
▁현수막	-11.6288
ship	-11.6288
▁about	-11.6288
▁만델라	-11.6288
▁알자지라	-11.6288
▁해리왕자	-11.6288
▁국가정보원	-11.6288
▁훔쳐	-11.6288
▁마리화나	-11.6288
▁파이프라인	-11.6288
▁start	-11.6288
▁마스터스	-11.6288
▁버려진	-11.6288
▁눈보라	-11.6288
▁갱단	-11.6288
▁프리츨	-11.6288
사관학교	-11.6288
▁2/3	-11.6288
UAE	-11.6288
▁발자국	-11.6288
Two	-11.6288
▁몰아넣	-11.6289
▁매도프	-11.6289
▁함부르크	-11.6289
▁추종자들	-11.6289
▁이뤄져야	-11.6289
으므로	-11.6289
▁있느냐	-11.6289
2007.04	-11.6289
▁프레슬리	-11.629
▁가르시아	-11.629
▁혜성	-11.629
▁땅콩	-11.629
▁에어웨이	-11.629
▁파이프	-11.629
▁증권거래소	-11.629
▁투옥	-11.6291
▁삭스	-11.6291
ific	-11.6291
▁거세지	-11.6291
▁참의원	-11.6291
▁창업자	-11.6291
▁봉착	-11.6292
▁신분증	-11.6292
▁퍼뜨	-11.6292
▁농부들	-11.6292
▁척추	-11.6292
▁동물보호	-11.6292
▁잡혔다	-11.6293
▁선고받았다	-11.6293
▁가져왔다	-11.6293
▁금연법	-11.6294
▁출항	-11.6294
▁육박	-11.6294
▁크로스	-11.6294
▁피해여성	-11.6294
▁지방법원	-11.6294
▁거슬러	-11.6295
▁납치범	-11.6295
▁call	-11.6296
▁소행이라	-11.6296
▁우호적	-11.6296
▁침실	-11.6297
▁위헌	-11.6297
▁솔직하	-11.6297
▁인질극	-11.6298
▁생물학적	-11.6298
▁인준	-11.6298
▁사절단	-11.6299
▁바이든	-11.63
▁독립국가	-11.63
▁없었으며	-11.63
▁첫째	-11.6301
▁이민법	-11.6301
▁연애	-11.6304
▁서있	-11.6304
▁예외	-11.6304
▁심리학자	-11.6305
프라이스	-11.6306
▁조사결과	-11.6307
▁진열	-11.6308
▁사탕	-11.6309
▁정황	-11.6309
▁파타당	-11.631
▁막았다	-11.6311
▁호박	-11.6311
▁31%	-11.6312
▁남긴	-11.6313
▁단언	-11.6313
▁카이로	-11.6314
▁make	-11.6335
▁운전자들	-11.6337
▁인수위원회	-11.6337
▁따라잡	-11.6345
보관소	-11.635
▁방문했	-11.6351
▁본부장	-11.6359
가능한	-11.6374
▁조각상	-11.6388
▁일본인들	-11.6391
▁끌어내	-11.6401
▁노출되	-11.647
▁친척들	-11.647
보리스	-11.6479
▁서울시장	-11.6487
▁민영	-11.6501
▁연행됐다	-11.6501
▁집행위원	-11.6512
앞	-11.6517
▁위협받	-11.6521
▁죽였다	-11.6541
▁주시하	-11.655
프로그램	-11.6552
꽃	-11.6553
턱	-11.6553
꿈	-11.6555
끝	-11.6555
왜	-11.6555
다이애나	-11.6555
박물관	-11.6556
▁여자들	-11.6571
▁물리적	-11.6589
▁돌아왔	-11.6605
▁감염되	-11.6617
▁이루어져	-11.662
었음	-11.6639
umb	-11.6642
▁매력적	-11.6645
▁제기되	-11.6684
▁이사장	-11.6715
▁벌여왔	-11.6719
꾼들	-11.6753
ful	-11.6761
▁나타냈	-11.6777
ology	-11.6803
룡	-11.6812
▁힌두	-11.6813
8,000	-11.6815
▁Bank	-11.6815
▁Life	-11.6815
▁Wild	-11.6815
▁foreign	-11.6815
▁가솔린	-11.6815
▁갤러리	-11.6815
▁관절염	-11.6815
▁꿀벌	-11.6815
▁니스텔로이	-11.6815
▁디스플레이	-11.6815
▁뚜렷	-11.6815
▁몸싸움	-11.6815
▁바랍니다	-11.6815
▁박정희	-11.6815
▁버틀러	-11.6815
▁불매운동	-11.6815
▁셰퍼드	-11.6815
▁싫어하	-11.6815
▁앙카라	-11.6815
▁애틀랜티스호	-11.6815
▁와이오밍	-11.6815
▁요하네스버그	-11.6815
▁중앙정보국	-11.6815
▁즐거움	-11.6815
▁초콜릿	-11.6815
▁토튼햄	-11.6815
▁투탕카멘	-11.6815
▁팽팽	-11.6815
▁핸드폰	-11.6815
▁헝가리	-11.6815
늬	-11.6815
뜯	-11.6815
럿	-11.6815
륭	-11.6815
벵	-11.6815
빔	-11.6815
인터내셔널	-11.6815
자르카위	-11.6815
2007.01	-11.6815
▁GNP	-11.6815
▁국토안보부	-11.6815
▁매릴랜드	-11.6815
▁잠수함	-11.6815
▁9/11	-11.6815
▁금강산	-11.6815
▁방코델타아시아	-11.6815
▁버클리	-11.6815
▁파란색	-11.6815
▁학부모	-11.6815
▁미항공우주국	-11.6815
▁재규어	-11.6815
▁중소기업	-11.6815
▁키드먼	-11.6815
▁합법화	-11.6815
▁200809.1	-11.6815
▁밀라노	-11.6815
▁자민당	-11.6815
▁노워크	-11.6815
▁딜런	-11.6815
▁순이익	-11.6815
▁조선일보	-11.6815
▁선거유세	-11.6815
▁영사관	-11.6815
▁예정이었으나	-11.6815
▁나뉘어	-11.6815
▁반란군	-11.6815
▁폭넓	-11.6815
▁기다렸다	-11.6815
▁홈구장	-11.6815
▁원자재	-11.6815
dition	-11.6815
▁오페라	-11.6815
▁액션	-11.6815
▁대운하	-11.6815
▁오사카	-11.6815
▁하루종일	-11.6815
▁반짝이	-11.6815
▁나이트클럽	-11.6815
▁소령은	-11.6815
(33)	-11.6815
▁아시안	-11.6815
▁막바지	-11.6815
▁핑크	-11.6815
▁강원도	-11.6815
(26)	-11.6815
▁Prim	-11.6815
▁실질적으로	-11.6815
▁번화가	-11.6815
▁under	-11.6815
▁페라로	-11.6816
▁연못	-11.6816
▁참혹	-11.6816
▁하이킹	-11.6816
uff	-11.6816
▁0.5%	-11.6816
▁각료회의	-11.6817
▁바오로	-11.6817
▁로얄	-11.6817
▁2.13	-11.6817
▁혼잡	-11.6817
▁게놈	-11.6817
▁휴이트	-11.6817
▁재건축	-11.6817
▁want	-11.6817
▁독특	-11.6818
▁외딴	-11.6818
▁형벌	-11.6819
▁흑자	-11.6819
▁체첸	-11.6819
even	-11.6819
▁불빛	-11.6819
action	-11.6819
▁작별	-11.682
갤론	-11.682
▁잠비아	-11.682
▁휘말	-11.682
▁웰스	-11.682
▁돌풍	-11.682
▁내놓았다	-11.682
▁쉽다	-11.6821
▁정회장	-11.6821
▁넘겼다	-11.6822
▁연합통신	-11.6822
▁막으려	-11.6823
▁스테판	-11.6823
▁hel	-11.6824
▁가정집	-11.6825
메모리얼	-11.6825
▁기원전	-11.6826
▁숨져	-11.6826
▁벤처	-11.6826
▁소방차	-11.6827
▁금융기관	-11.6827
▁조사관들	-11.6828
▁사라질	-11.6828
▁해리슨	-11.6829
▁스몰	-11.6829
▁본회의	-11.6831
▁도착하자	-11.6832
▁만들어졌다	-11.6832
▁법규	-11.6833
▁법령	-11.6833
▁데이브	-11.6833
▁야외	-11.6834
▁미시건주	-11.6837
▁곤경에	-11.6844
▁유대인들	-11.6855
1945	-11.6855
▁몰렸	-11.6863
▁형량	-11.6865
▁장애물	-11.6871
Thi	-11.6876
▁민족주의	-11.6888
▁자원봉사자들	-11.6896
dict	-11.6919
▁몰아내	-11.6968
스프링스	-11.6968
All	-11.698
▁전사들	-11.7
였음	-11.7079
▁작가들	-11.7107
떠	-11.711
낙	-11.711
톰	-11.711
매케인	-11.7112
넣	-11.7115
▁유전적	-11.7123
데릭	-11.7138
other	-11.7162
▁원주민들	-11.7183
▁시행되	-11.7202
1983	-11.7223
부적절한	-11.723
었었다	-11.7238
▁걸렸	-11.7241
▁7.9	-11.7264
▁계열	-11.7349
뢰	-11.7356
▁기관들	-11.7367
▁Prosecut	-11.737
▁앵커	-11.737
ISAF	-11.737
▁RCTV	-11.737
▁Russia	-11.737
▁Science	-11.737
▁Street	-11.737
▁arrest	-11.737
▁가깝게	-11.737
▁개성공단	-11.737
▁경기후퇴	-11.737
▁뉴잉글랜드	-11.737
▁동성결혼	-11.737
▁리트비넨코	-11.737
▁메르세데스	-11.737
▁무하마드	-11.737
▁베를루스코니	-11.737
▁상임이사국	-11.737
▁새크라멘토	-11.737
▁샌안토니오	-11.737
▁선거기부금	-11.737
▁심장질환	-11.737
▁아제르바이잔	-11.737
▁아프카니스탄	-11.737
▁유엔사무총장	-11.737
▁정권인수팀	-11.737
▁정확하게	-11.737
▁즈보나레바	-11.737
▁지켜봤다	-11.737
▁췌장암	-11.737
▁쿠즈넷소바	-11.737
▁푸에르타	-11.737
▁핀란드	-11.737
▁하드웨어	-11.737
▁화성탐사	-11.737
▁히스패닉	-11.737
시켰으며	-11.737
엑스파일	-11.737
캇	-11.737
커뮤니케이션	-11.737
햇	-11.737
헝	-11.737
흠	-11.737
▁Corp	-11.737
▁forces	-11.737
▁price	-11.737
▁대니얼	-11.737
▁성매매	-11.737
▁세골렌	-11.737
▁애슐리	-11.737
▁오리건주	-11.737
▁제너럴	-11.737
▁해안경비대	-11.737
키티호크	-11.737
▁스프레이	-11.737
▁인내심	-11.737
▁혁신적	-11.737
▁국제축구연맹	-11.737
▁로날드	-11.737
▁승부차기	-11.737
▁교도통신	-11.737
▁나타날	-11.737
▁회교도	-11.737
국제올림픽위원회	-11.737
▁깁슨	-11.737
▁신생아	-11.737
EPL	-11.737
▁추기경	-11.737
▁대법관	-11.737
▁카펠로	-11.737
▁fund	-11.737
▁캐롤라인	-11.737
USGS	-11.737
▁사직서	-11.737
▁하니야	-11.737
▁아폴로	-11.737
▁게이머	-11.737
▁law	-11.737
▁컨셉	-11.7371
▁무자비	-11.7371
▁비너스	-11.7371
▁사형선고	-11.7371
▁꺼내	-11.7371
▁빙산	-11.7371
▁좌우	-11.7371
▁괴물	-11.7371
▁에밀리	-11.7371
▁즐겁	-11.7371
▁아로요	-11.7371
▁블랙워터	-11.7371
▁그리핀	-11.7371
▁항구도시	-11.7372
▁적혀있	-11.7372
▁묵념	-11.7372
습니까	-11.7372
▁룰라	-11.7372
▁빠져나가	-11.7372
▁중동평화회의	-11.7372
▁바레인	-11.7372
▁희귀	-11.7372
▁황폐	-11.7373
▁test	-11.7373
▁벌어질	-11.7373
▁즐겨	-11.7373
▁오스만	-11.7373
▁쿠마르	-11.7373
▁탈퇴	-11.7374
▁욕구	-11.7374
▁러브	-11.7374
▁쏟아져	-11.7374
▁잠자리	-11.7375
▁옮겨졌다	-11.7375
▁묻혀	-11.7375
▁제이슨	-11.7376
▁드라이브	-11.7376
▁요구사항	-11.7377
▁잠겨	-11.7377
▁디젤	-11.7378
▁아이다호	-11.7379
▁모여들었다	-11.7379
▁터져	-11.7381
▁호황	-11.7381
▁어윈	-11.7381
▁들어올	-11.7382
▁주어지	-11.7382
▁순결	-11.7383
▁연봉	-11.7384
▁아흐메드	-11.7386
▁그레이스	-11.7388
▁출산율	-11.739
▁버리고	-11.7391
▁전인대	-11.7399
▁제약회사	-11.7401
Inter	-11.7405
▁이르다	-11.7409
▁종사하	-11.7415
former	-11.7419
▁글로리	-11.7453
▁심리적	-11.7467
▁부의장	-11.7481
▁고통스러	-11.7513
▁지질학	-11.7524
▁편집장	-11.7627
▁수사관들	-11.7632
fter	-11.7633
▁측근들	-11.7634
▁만들었	-11.7635
행해진	-11.7648
▁이라크인들	-11.7662
▁물건들	-11.7683
▁cont	-11.7688
▁선박들	-11.7691
덜	-11.7697
▁부국장	-11.7698
잇	-11.7699
세르비아	-11.7699
힐러리	-11.7699
캘리포니아	-11.77
랭킹	-11.77
아일랜드	-11.7701
▁노인들	-11.771
▁공화당원들	-11.772
▁You	-11.7752
ncer	-11.7755
▁관람객	-11.7771
▁제품들	-11.7854
▁일방적	-11.7868
▁교사들	-11.7876
ift	-11.7896
▁효과적	-11.7901
뤄	-11.7907
▁힘들었	-11.7921
1974	-11.7932
▁미시건	-11.7934
셸	-11.7943
툼	-11.7954
▁살모넬라	-11.7958
숭	-11.7958
팽	-11.7958
EADS	-11.7958
employ	-11.7958
▁invest	-11.7958
뚝	-11.7958
▁claim	-11.7958
▁official	-11.7958
▁people	-11.7958
▁strike	-11.7958
▁summit	-11.7958
▁two	-11.7958
▁걸림돌	-11.7958
▁검정색	-11.7958
▁고르바초프	-11.7958
▁당뇨병	-11.7958
▁독극물	-11.7958
▁르완다	-11.7958
▁리우데자네이루	-11.7958
▁메릴린치	-11.7958
▁몰랐다	-11.7958
▁민주노동당	-11.7958
▁바나프샤	-11.7958
▁블래터	-11.7958
▁빈민층	-11.7958
▁서둘러	-11.7958
▁스탤론	-11.7958
▁스필버그	-11.7958
▁악천후	-11.7958
▁않았었다	-11.7958
▁암스테르담	-11.7958
▁에스트라다	-11.7958
▁예방접종	-11.7958
▁위태롭게	-11.7958
▁인신매매	-11.7958
▁조류독감	-11.7958
▁조심스럽게	-11.7958
▁칠면조	-11.7958
▁쿼터백	-11.7958
▁트리폴리	-11.7958
▁헐리우드	-11.7958
▁휴전협정	-11.7958
反	-11.7958
英	-11.7958
띤	-11.7958
팻	-11.7958
퐁	-11.7958
2007.02	-11.7958
▁KBS	-11.7958
▁구소련	-11.7958
▁아디다스	-11.7958
▁여중생	-11.7958
▁오래전부터	-11.7958
▁제퍼슨	-11.7958
▁즐거운	-11.7958
▁진상조사	-11.7958
▁항공모함	-11.7958
▁핵연료	-11.7958
샨	-11.7958
week	-11.7958
▁영업이익	-11.7958
▁정보통신부	-11.7958
▁마스터즈	-11.7958
▁총파업	-11.7958
▁불공정	-11.7958
▁하토야	-11.7958
▁급성장	-11.7958
▁다이어트	-11.7958
▁낭독	-11.7958
▁센트럴	-11.7958
▁존엄성	-11.7958
▁오디오	-11.7958
▁조세프	-11.7958
▁대성당	-11.7959
▁깁스	-11.7959
▁다둘라	-11.7959
▁유동성	-11.7959
▁고아원	-11.7959
▁Polic	-11.7959
▁루카스	-11.7959
▁산체스	-11.7959
▁개구리	-11.7959
▁강대국	-11.7959
▁흥정	-11.7959
(36)	-11.7959
(31)	-11.7959
▁인공위성	-11.7959
▁정착촌	-11.7959
▁징조	-11.7959
▁그만두	-11.7959
▁북아일랜드	-11.7959
▁다이앤	-11.7959
▁경수로	-11.7959
▁숨어있	-11.7959
▁플루	-11.796
▁카펫	-11.796
▁사무국장은	-11.796
▁노숙자	-11.796
▁통합민주당	-11.796
▁유가족들	-11.796
▁역전승	-11.796
▁블랙홀	-11.796
▁클릭	-11.796
▁특혜	-11.796
▁도망쳤다	-11.796
▁치뤄	-11.796
▁극도로	-11.7961
▁기념행사	-11.7961
▁국영언론	-11.7961
▁More	-11.7961
▁국무회의	-11.7961
▁크리스틴	-11.7961
▁좁혀	-11.7961
▁부유층	-11.7962
▁당사자들	-11.7962
▁물리학자	-11.7962
▁항의시위	-11.7962
▁리옹	-11.7963
▁헬렌	-11.7963
▁Press	-11.7963
▁진짜	-11.7964
▁무장조직	-11.7964
▁군복무	-11.7964
▁출혈	-11.7964
▁식별	-11.7964
▁어워드	-11.7965
▁십자가	-11.7966
▁이슬람교도들	-11.7966
▁인텔	-11.7966
▁크랜	-11.7967
▁몰락	-11.7967
▁절망	-11.7967
▁출현	-11.7968
▁축복	-11.7975
▁고등학생	-11.7978
▁urge	-11.7992
군사훈련	-11.8009
▁조장하	-11.8018
▁구사하	-11.8034
▁임원들	-11.804
▁상점들	-11.8138
▁운영되	-11.8215
▁Vi	-11.8249
▁사라져	-11.8303
CEO	-11.8324
깊	-11.8324
아프가니스탄	-11.8325
콜롬비아	-11.8325
심각한	-11.8325
민주주의	-11.8327
ju	-11.8342
▁0.7	-11.8355
▁경찰관들	-11.8423
▁촉진시키	-11.8488
▁참석자들	-11.8508
▁자리잡	-11.8515
▁빠졌	-11.8518
▁사라졌	-11.8518
▁극단주의	-11.8546
▁메디컬	-11.8555
USS	-11.8564
▁작동되	-11.8569
섯	-11.8577
▁불러일으	-11.8578
콧	-11.858
펑	-11.8583
HDA	-11.8583
▁Health	-11.8583
▁Securit	-11.8583
▁Senate	-11.8583
▁chief	-11.8583
▁economic	-11.8583
▁거머쥐었	-11.8583
▁궁극적으로	-11.8583
▁깨달았다	-11.8583
▁놀이공원	-11.8583
▁뇌졸중	-11.8583
▁떠올랐다	-11.8583
▁레빈슨	-11.8583
▁리투아니아	-11.8583
▁멜버른	-11.8583
▁물러났다	-11.8583
▁볼티모어	-11.8583
▁불균형	-11.8583
▁불러일으켰다	-11.8583
▁블록버스터	-11.8583
▁스틸러스	-11.8583
▁언젠가	-11.8583
▁옥스포드	-11.8583
▁이바노비치	-11.8583
▁준이치로	-11.8583
▁츠방기라이	-11.8583
▁퀘벡	-11.8583
▁평화협정	-11.8583
▁프랑크푸르트	-11.8583
▁플레이스테이션	-11.8583
▁햇빛	-11.8583
▁휠체어	-11.8583
늑	-11.8583
쑤	-11.8583
윅	-11.8583
텀	-11.8583
퍼레이션	-11.8583
UNHCR	-11.8583
▁ABN	-11.8583
▁Administration	-11.8583
▁Week	-11.8583
▁건강검진	-11.8583
▁공상과학	-11.8583
▁기울여야	-11.8583
▁남동생	-11.8583
▁모레스모	-11.8583
▁볼드윈	-11.8583
▁부총재	-11.8583
▁비아그라	-11.8583
▁시에라리온	-11.8583
▁식품의약국	-11.8583
▁옵션	-11.8583
▁재결합	-11.8583
市	-11.8583
뚜	-11.8583
랏	-11.8583
팡	-11.8583
▁200809.0	-11.8583
▁demand	-11.8583
▁six	-11.8583
▁나미비아	-11.8583
▁자페타	-11.8583
▁카르발라	-11.8583
▁트러스트	-11.8583
▁부동층	-11.8583
▁남겨두고	-11.8583
▁노던록	-11.8583
▁패트로스	-11.8583
▁내보냈다	-11.8583
▁서두르	-11.8583
▁탄원서	-11.8583
▁헬만드	-11.8583
▁tax	-11.8583
▁전자메일	-11.8583
▁흡입	-11.8583
▁구속영장	-11.8583
▁인수제안	-11.8583
▁축구팬들	-11.8583
▁상무부	-11.8584
▁중질유	-11.8584
GDP	-11.8584
▁원동력	-11.8584
▁산악지대	-11.8584
▁스즈키	-11.8584
▁컬럼비아호	-11.8584
▁타디치	-11.8584
▁사로잡	-11.8584
▁스콜스	-11.8584
▁trans	-11.8584
▁사무차장	-11.8584
▁로드아일랜드	-11.8584
▁버나드	-11.8584
▁산시성	-11.8584
▁엘리엇	-11.8584
▁때때로	-11.8584
▁수수료	-11.8584
▁포브스	-11.8584
▁trial	-11.8584
▁그려진	-11.8584
▁프린트	-11.8584
▁이스마일	-11.8584
count	-11.8584
▁자위대	-11.8584
▁해들리	-11.8584
▁다저스	-11.8584
▁작가조합	-11.8584
▁액체	-11.8584
▁있으므로	-11.8584
시드르	-11.8584
▁노동조합	-11.8584
▁슬픈	-11.8585
▁검역	-11.8585
▁침착하	-11.8585
▁현대자동차	-11.8585
▁국가안보회의	-11.8585
▁벗겨	-11.8585
▁철폐	-11.8585
▁Medic	-11.8585
▁놓여있다	-11.8586
▁Park	-11.8586
▁추산되	-11.8586
▁주변국들	-11.8586
▁압델	-11.8586
▁부활절	-11.8587
▁예상됩니다	-11.8587
▁당직자	-11.8588
▁랜디	-11.859
▁찰리	-11.8595
▁도발적	-11.8595
▁폭도들	-11.8602
▁흉내	-11.8603
▁간주되	-11.8628
▁붕괴되	-11.8632
즉각적으로	-11.8639
써	-11.8641
▁생겼	-11.8704
▁구성원들	-11.872
바라크	-11.8751
▁떨어뜨	-11.877
▁관람객들	-11.8789
▁이루어졌	-11.8844
▁부대변인	-11.8857
프로스트	-11.8867
스러웠다	-11.8888
못	-11.8983
PKK	-11.8989
퀸	-11.8989
듀	-11.899
따라서	-11.899
워싱턴	-11.8991
레바논	-11.8991
사르코지	-11.8991
여객기	-11.8991
데일리	-11.8994
여러분	-11.9002
▁독자적	-11.9013
▁이송됐으	-11.9038
▁거래되	-11.9164
▁스타디움	-11.9177
▁저질렀	-11.9179
거래소에서	-11.9243
솟	-11.9248
▁알려왔	-11.9248
킥	-11.9249
뉘	-11.925
갓	-11.925
엉	-11.925
세컨드라이프	-11.925
퀘	-11.925
6,000	-11.925
ING	-11.925
People	-11.925
▁2007~2008	-11.925
▁DAX	-11.925
▁High	-11.925
▁IRNA	-11.925
▁Research	-11.925
▁candidate	-11.925
▁group	-11.925
▁grow	-11.925
▁market	-11.925
▁굉장히	-11.925
▁국가평의회	-11.925
▁대검찰청	-11.925
▁멤피스	-11.925
▁버크헤드	-11.925
▁버킹엄	-11.925
▁부드러운	-11.925
▁사이언톨로지	-11.925
▁슈퍼마켓	-11.925
▁아르메니아	-11.925
▁전비법안	-11.925
▁출퇴근	-11.925
▁타임스퀘어	-11.925
▁티크리트	-11.925
▁파키스탄인민당	-11.925
▁프랑수아	-11.925
▁햇볕	-11.925
▁혹등고래	-11.925
둡	-11.925
옴	-11.925
쟈	-11.925
mission	-11.925
▁Iran	-11.925
▁NHC	-11.925
▁Work	-11.925
▁국제영화제	-11.925
▁다비덴코	-11.925
▁래드클리프	-11.925
▁애완용	-11.925
▁애틀랜틱	-11.925
▁칼데론	-11.925
▁하르툼	-11.925
북대서양조약기구	-11.925
줌	-11.925
▁California	-11.925
▁구제금융법안	-11.925
▁군사행동	-11.925
▁루고보이	-11.925
▁매몰된	-11.925
▁무기징역	-11.925
▁볼리비아	-11.925
▁포유류	-11.925
Black	-11.925
rug	-11.925
▁CAC	-11.925
▁니제르	-11.925
▁대배심	-11.925
▁즐긴다	-11.925
▁로빈슨	-11.925
▁비정상적	-11.925
▁여기저기	-11.925
▁파딜라	-11.925
타이타닉	-11.925
▁메이도프	-11.925
▁섭씨	-11.925
▁트레일러	-11.925
▁1972	-11.925
▁바이에른	-11.925
▁핵폐기	-11.925
▁금리인하	-11.925
▁아메바	-11.925
▁냉장고	-11.925
▁메케인	-11.925
▁재경부	-11.925
▁제레미	-11.925
스타워즈	-11.925
▁올림피	-11.925
하였는데	-11.925
▁리브니	-11.925
정규직	-11.925
▁모으고	-11.925
▁파라오	-11.925
▁불가사의	-11.925
솔직히	-11.925
슬라브	-11.925
▁사진작가	-11.925
(41)	-11.925
▁뛰어넘	-11.9251
▁말리부	-11.9251
(22)	-11.9251
(37)	-11.9251
▁무언가	-11.9251
▁화학물질	-11.9251
▁소비에트	-11.9251
house	-11.9251
도날드	-11.9252
▁알라스카	-11.9252
▁show	-11.9252
▁바시르	-11.9252
▁1,500	-11.9253
▁메인주	-11.9253
▁용도로	-11.9253
▁비밀요원	-11.9253
▁Thai	-11.9254
▁로지스	-11.9256
▁마스리	-11.9256
▁날카로	-11.9256
▁우발적	-11.9257
기동대	-11.9258
▁일기장	-11.9261
▁거론되	-11.9272
▁경찰국장	-11.9272
▁고심하	-11.9274
▁이재민들	-11.928
ween	-11.931
▁소방당국	-11.9322
실질적	-11.9361
▁던졌	-11.9391
▁향상시키	-11.9443
▁방영되	-11.9471
어지면서	-11.952
▁활동가들	-11.9538
출동한	-11.9602
emi	-11.9607
▁간주하	-11.9613
맹	-11.9676
▁0.5	-11.9686
템	-11.9703
넘	-11.9703
뱀	-11.9703
▁제공되	-11.9704
녹	-11.9704
숨	-11.9704
코소보	-11.9705
라디오	-11.9706
첫	-11.9706
▁경쟁자들	-11.9766
▁관중들	-11.9792
▁극복하	-11.9802
▁천문학	-11.9849
자와히리	-11.9959
NDO	-11.9964
껴	-11.9964
(61)	-11.9964
lobal	-11.9964
▁support	-11.9964
▁나스랄라	-11.9964
▁뉴욕타임즈	-11.9964
▁민주변화운동	-11.9964
▁신시내티	-11.9964
▁아쿠아리움	-11.9964
눕	-11.9964
뚱	-11.9964
랴	-11.9964
멕	-11.9964
샹	-11.9964
애국전선	-11.9964
퉁	-11.9964
헥	-11.9964
(38)	-11.9964
(57)	-11.9964
Academy	-11.9964
SNCF	-11.9964
▁Control	-11.9964
▁IWC	-11.9964
▁Society	-11.9964
▁Union	-11.9964
▁constitution	-11.9964
▁economy	-11.9964
▁problem	-11.9964
▁return	-11.9964
▁securit	-11.9964
▁withdraw	-11.9964
▁공동기자회견에	-11.9964
▁국가대표팀	-11.9964
▁남우주연상	-11.9964
▁네브라스카	-11.9964
▁대기오염	-11.9964
▁대선예비후보	-11.9964
▁더글라스	-11.9964
▁디카프리오	-11.9964
▁따돌렸다	-11.9964
▁만토바니	-11.9964
▁믿어지	-11.9964
▁바예스테로스	-11.9964
▁박스오피스	-11.9964
▁발렌시아	-11.9964
▁분리독립	-11.9964
▁사우스다코타	-11.9964
▁시니오라	-11.9964
▁아름답	-11.9964
▁아리조나	-11.9964
▁에메랄드	-11.9964
▁와코비아	-11.9964
▁잉그리드	-11.9964
▁카메룬	-11.9964
▁카스파로프	-11.9964
▁크라이튼	-11.9964
▁프란체스	-11.9964
▁홀로코스트	-11.9964
뭘	-11.9964
샵	-11.9964
외할머니	-11.9964
쿡	-11.9964
▁Rights	-11.9964
▁threaten	-11.9964
▁독립선언	-11.9964
▁미식축구	-11.9964
▁세르게이	-11.9964
▁워싱턴포스트	-11.9964
뜰	-11.9964
댄	-12.0473
듭	-12.0729
씬	-12.0734
쪼	-12.0734
性	-12.0734
故	-12.0734
뎀	-12.0734
샷	-12.0734
싹	-12.0734
쏠	-12.0734
쥔	-12.0734
챈	-12.0734
륨	-12.0734
쳇	-12.0734
퍽	-12.0734
뇌	-12.13
콰	-12.1305
벗	-12.1306
쓸	-12.1306
웹	-12.1308
즉	-12.1311
멧	-12.1567
횡	-12.1567
新	-12.1567
넛	-12.1567
랠	-12.1567
삐	-12.1567
엣	-12.1567
젼	-12.1567
줍	-12.1567
쉘	-12.1567
싯	-12.1567
엿	-12.1567
칫	-12.1567
쿵	-12.1567
벙	-12.1567
옷	-12.2215
냉	-12.2215
겸	-12.2216
묻	-12.2216
낫	-12.2474
맙	-12.2476
렝	-12.2476
궂	-12.2476
녕	-12.2476
뭇	-12.2476
밥	-12.3216
윌	-12.3216
왁	-12.3473
벼	-12.3473
낀	-12.3476
펭	-12.3476
깨	-12.4325
펄	-12.4326
좁	-12.4326
낮	-12.4326
美	-12.4327
곧	-12.4329
섹	-12.457
냄	-12.4587
꼈	-12.4587
깅	-12.4587
찮	-12.4587
같	-12.5339
묵	-12.5577
꼭	-12.5577
샌	-12.5577
갖	-12.5578
좀	-12.5578
놨	-12.578
즌	-12.5821
삽	-12.5837
댈	-12.5837
핼	-12.5837
휠	-12.5837
맛	-12.7004
뛰	-12.7005
빼	-12.7005
쌀	-12.7006
멀	-12.7006
펫	-12.7263
팟	-12.7263
q	-12.7263
앗	-12.7264
탤	-12.7266
팜	-12.867
헐	-12.8671
깜	-12.8932
폼	-12.8932
촛	-12.8932
낄	-12.8932
귄	-12.8932
룻	-12.8932
셴	-12.8932
볕	-12.8932
셍	-12.8932
멈	-13.0671
잭	-13.0672
쓴	-13.0673
밑	-13.0673
삶	-13.0674
꿀	-13.0925
옵	-13.0932
쏘	-13.3172
맡	-13.3172
숲	-13.3172
큼	-13.3413
꿔	-13.3425
눠	-13.3428
볍	-13.3429
숫	-13.3431
츨	-13.3432
덧	-13.3432
닭	-13.6505
뚫	-13.6506
넓	-13.6507
*	-13.6507
뜻	-13.6508
룹	-13.674
깁	-13.6764
끗	-13.6765
걱	-13.6765
훼	-13.6766
덮	-14.1504
빚	-14.1509
밝	-14.151
맺	-14.151
힉	-14.1764
많	-15.1427
팝	-15.1525
숀	-15.1525
봄	-15.1526
끓	-15.1564
갚	-15.1565
쾰	-15.1566
찼	-15.1567
찢	-15.1568
잰	-15.1569
웸	-15.157
샐	-15.1571
깥	-15.1572
겉	-15.1573
팸	-15.1574
몹	-15.1575
꼴	-15.1576
씌	-15.1577
맷	-15.1578
뀐	-15.1579
깎	-15.158
콸	-15.1581
쏴	-15.1582
썹	-15.1583
슭	-15.1584
킷	-15.1585
챌	-15.1586
얇	-15.1587
씀	-15.1588
뀔	-15.1589
꽉	-15.159
꽂	-15.1591
±	-15.1592
뭐	-15.1593
댕	-15.1594
꿨	-15.1595
꾀	-15.1596
깐	-15.1597
얹	-15.1598
쐈	-15.1599
뱃	-15.16
긱	-15.1601
씻	-15.1602
뻗	-15.1603
렷	-15.1604
낚	-15.1605
꼼	-15.1606
$	-15.1607
잦	-15.1608
엎	-15.1609
숍	-15.161
뭔	-15.1611
맑	-15.1612
핫	-15.1613
핍	-15.1614
몫	-15.1615
짖	-15.1616
샀	-15.1617
낡	-15.1618
곁	-15.1619
컸	-15.162
캡	-15.1621
쏜	-15.1622
젭	-15.1623
싣	-15.1624
맵	-15.1625
닮	-15.1626
젖	-15.1627
쁨	-15.1628
릅	-15.1629
궈	-15.163
탓	-15.1631
캥	-15.1632
웍	-15.1633
굶	-15.1634
뮬	-15.1635
릇	-15.1636
횟	-15.1637
췌	-15.1638
틈	-15.1639
댓	-15.164
붓	-15.1641
́	-15.1642
챙	-15.1643
앰	-15.1644
닿	-15.1645
펌	-15.1646
흩	-15.1647
뮌	-15.1648
뤼	-15.1649
뿔	-15.165
괜	-15.1651
뤘	-15.1652
튀	-15.1653
꼽	-15.1654
굳	-15.1655
굉	-15.1656
녔	-15.1657
랬	-15.1658
곱	-15.1659
픔	-15.166
밸	-15.1661
닙	-15.1662
낌	-15.1663
띄	-15.1664
넹	-15.1665
밟	-15.1666
눴	-15.1667
싫	-15.1668
윔	-15.1669
괄	-15.167
옛	-15.1671
탔	-15.1672
썼	-15.1673
핸	-15.1674
딪	-15.1675
잊	-15.1676
깝	-15.1677
멤	-15.1678
벅	-15.1679
흰	-15.168
갇	-15.1681
췄	-15.1682
묶	-15.1683
뱅	-15.1684
닫	-15.1685
왼	-15.1686
뀌	-15.1687
렴	-15.1688
읽	-15.1689
깔	-15.169
궤	-15.1691
탱	-15.1692
탠	-15.1693
쌓	-15.1694
쫓	-15.1695
짧	-15.1696
쏟	-15.1697
뭄	-15.1698
뒷	-15.1699
걷	-15.17
슴	-15.1701
훨	-15.1702
릎	-15.1703
뽑	-15.1704
뿌	-15.1705
붉	-15.1706
앓	-15.1707
얘	-15.1708
옆	-15.1709
멋	-15.171
꺾	-15.1711
낳	-15.1712
곽	-15.1713
휩	-15.1714
돕	-15.1715
녁	-15.1716
듣	-15.1717
춰	-15.1718
끊	-15.1719
됩	-15.172
젝	-15.1721
늦	-15.1722
앉	-15.1723
슷	-15.1724
렵	-15.1725
쿄	-15.1726
밴	-15.1727
옮	-15.1728
봤	-15.1729
젊	-15.173
챔	-15.1731
촬	-15.1732
빨	-15.1733
찍	-15.1734
떻	-15.1735
렀	-15.1736
웠	-15.1737
겪	-15.1738
믿	-15.1739
펼	-15.174
섰	-15.1741
먹	-15.1742
렇	-15.1743
̋	-15.1744
잃	-15.1745
캠	-15.1746
싶	-15.1747
랐	-15.1748
끌	-15.1749
갔	-15.175
켰	-15.1751
밖	-15.1752
얻	-15.1753
쇄	-15.1754
떤	-15.1755
좋	-15.1755
찾	-15.1756
떨	-15.1757
높	-15.1758
맞	-15.1759
났	-15.176
혐	-15.1761
협	-15.1762
확	-15.1763
없	-15.1764
뎌	-15.1765
았	-15.1765
