<unk>	0
<s>	0
</s>	0
▁이	-5.08164
▁밝혔다.	-5.17945
▁있다.	-5.21059
▁말했다.	-5.2122
▁수	-5.35996
▁있는	-5.38231
▁그는	-5.57295
▁대한	-5.68052
▁위해	-5.70509
▁전했다.	-5.76421
▁지난	-5.86171
▁이번	-5.86854
▁한	-5.87636
▁대해	-5.95947
▁것으로	-6.02321
▁전	-6.05988
▁것이라고	-6.08741
▁미국	-6.10225
▁있다고	-6.11294
▁것을	-6.14857
▁중	-6.22522
▁미	-6.27728
▁그러나	-6.27916
▁다른	-6.31893
▁더	-6.4078
▁이라크	-6.50125
▁한편	-6.5036
▁많은	-6.59205
▁통해	-6.5972
▁위한	-6.60563
▁대통령은	-6.60889
▁가장	-6.66601
▁같은	-6.67924
▁그의	-6.68981
▁이후	-6.69193
▁그	-6.69264
▁또	-6.69406
▁대변인은	-6.70192
▁후	-6.73101
▁동안	-6.76326
▁주장했다.	-6.8037
▁것은	-6.81007
▁될	-6.81568
▁할	-6.83596
▁부시	-6.84007
▁또한	-6.8676
▁것이다.	-6.87781
▁보도했다.	-6.88553
▁덧붙였다.	-6.89679
▁및	-6.90554
▁영국	-6.90642
▁중국	-6.90642
▁두	-6.93587
▁자신의	-6.9709
▁약	-6.98698
▁현재	-6.98793
▁등	-6.98984
▁함께	-7.05604
▁모든	-7.06218
▁것이	-7.06424
▁최근	-7.07355
▁그리고	-7.08716
▁했다.	-7.10202
▁당시	-7.10738
▁경우	-7.11602
▁예정이다.	-7.11928
▁설명했다.	-7.12583
▁새로운	-7.13574
▁때문에	-7.14463
▁경찰은	-7.14574
▁있다”고	-7.15924
▁세계	-7.16378
▁정부는	-7.1672
▁하는	-7.17063
▁않았다.	-7.19851
▁몇	-7.21394
▁오바마	-7.21874
▁큰	-7.21994
▁것”이라고	-7.23693
▁때	-7.26046
▁수도	-7.26548
▁대통령이	-7.26801
▁대통령	-7.27307
▁않을	-7.29618
▁열린	-7.3132
▁있습니다.	-7.3185
▁하고	-7.32116
▁지난해	-7.32918
▁총리는	-7.33322
▁미국의	-7.33592
▁일부	-7.33998
▁이날	-7.3427
▁발표했다.	-7.3564
▁관련	-7.36332
▁있으며	-7.36332
▁모두	-7.37169
▁주	-7.37169
▁있다는	-7.38012
▁한국	-7.38012
▁the	-7.38295
▁발생한	-7.38295
▁일본	-7.38579
▁받고	-7.39435
▁내	-7.40298
▁뒤	-7.41607
▁있을	-7.42637
▁정부	-7.43529
▁정부가	-7.44881
▁에	-7.46868
▁의해	-7.47642
▁한다.	-7.47642
▁to	-7.4921
▁사람들이	-7.50162
▁인해	-7.50322
▁존	-7.5177
▁다시	-7.52257
▁of	-7.5242
▁그가	-7.52911
▁이는	-7.53239
▁않은	-7.53899
▁올해	-7.54231
▁혐의로	-7.54231
▁가운데	-7.54397
▁있었다.	-7.56414
▁대통령의	-7.56925
▁이에	-7.5761
▁이미	-7.58127
▁주요	-7.58299
▁첫	-7.58473
▁북한	-7.58994
▁위치한	-7.59869
▁파키스탄	-7.61107
▁프랑스	-7.6218
▁핵	-7.63812
▁계속	-7.64362
▁명의	-7.6473
▁사실을	-7.65471
▁미군	-7.65657
▁유엔	-7.65843
▁바	-7.66217
▁없는	-7.66405
▁한다고	-7.66405
▁민주당	-7.66592
▁에서	-7.67158
▁이를	-7.67347
▁아직	-7.68299
▁관계자는	-7.6849
▁이들	-7.69066
▁지적했다.	-7.7062
▁영화	-7.71603
▁매우	-7.71999
▁당국은	-7.72397
▁이상	-7.73398
▁않고	-7.73801
▁것	-7.74206
▁알	-7.74816
▁없다고	-7.75021
▁된	-7.7667
▁이스라엘	-7.76878
▁받은	-7.77505
▁된다.	-7.77715
▁러시아	-7.78347
▁조지	-7.78559
▁지역	-7.78771
▁하지	-7.78983
▁받았다.	-7.79197
▁됐다.	-7.80484
▁경제	-7.81352
▁어떤	-7.82008
▁있던	-7.8311
▁아프간	-7.84001
▁것에	-7.84674
▁북한의	-7.86493
▁데	-7.88111
▁북한이	-7.88813
▁그들은	-7.89048
▁잘	-7.89283
▁이러한	-7.89756
▁정부의	-7.90948
▁여러	-7.91188
▁경찰	-7.91429
▁오는	-7.91912
▁원문기사보기	-7.92154
▁이슬람	-7.92885
▁강조했다.	-7.9313
▁경찰이	-7.9313
▁있도록	-7.93868
▁in	-7.94115
▁갖고	-7.94115
▁떨어진	-7.94115
▁인터뷰에서	-7.94115
▁오늘	-7.94363
▁미국이	-7.94861
▁비난했다.	-7.94861
▁팔레스타인	-7.96115
▁있다”며	-7.96368
▁채	-7.96368
▁클린턴	-7.96368
▁거의	-7.96876
▁대선	-7.96876
▁자신이	-7.97131
▁가진	-7.97386
▁그녀는	-7.97386
▁있어	-7.97642
▁장관은	-7.97642
▁처음으로	-7.97899
▁버락	-7.99193
▁오후	-7.99977
▁소속	-8.00767
▁테러	-8.01831
▁국제	-8.02367
▁많이	-8.02367
▁이상의	-8.02637
▁관한	-8.03448
▁미국은	-8.03448
▁북한은	-8.03721
▁만에	-8.03993
▁2006년	-8.04267
▁지난달	-8.04816
▁이들은	-8.05925
▁문제를	-8.06203
▁최소	-8.06203
▁좋은	-8.06764
▁사람들은	-8.07327
▁오바마는	-8.07327
▁탈레반	-8.07327
▁회담을	-8.09037
▁그를	-8.09324
▁최고	-8.09613
▁뉴욕	-8.10484
▁없이	-8.11069
▁결과	-8.11362
▁알려졌다.	-8.11362
▁지금	-8.11362
▁공격을	-8.11952
▁중요한	-8.12248
▁미국과	-8.12546
▁올림픽	-8.12546
▁박사는	-8.13143
▁새	-8.14045
▁이런	-8.14045
▁있지만	-8.14955
▁사망한	-8.15261
▁성명을	-8.16182
▁사망했다.	-8.16492
▁말을	-8.16802
▁2005.08	-8.17113
▁사망했다고	-8.17425
▁이란	-8.17425
▁오전	-8.18052
▁모습을	-8.18683
▁줄	-8.18683
▁2005년	-8.19317
▁이어	-8.19317
▁12월	-8.19636
▁것이라는	-8.19636
▁여성	-8.19636
▁조치를	-8.19636
▁혐의를	-8.19636
▁가능성이	-8.20278
▁국가	-8.206
▁군	-8.206
▁남부	-8.206
▁폭탄	-8.206
▁보다	-8.20923
▁이와	-8.20923
▁대통령과	-8.21247
▁인한	-8.21247
▁전에	-8.21572
▁하지만	-8.21572
▁“	-8.21898
▁공화당	-8.21898
▁계획을	-8.22226
▁높은	-8.22226
▁다음	-8.22226
▁코리아	-8.22226
▁1월	-8.22884
▁않았다고	-8.22884
▁인근	-8.22884
▁한다”고	-8.22884
▁&	-8.23214
▁더욱	-8.23214
▁앞으로	-8.23214
▁인터넷	-8.23214
▁입장을	-8.23214
▁문제가	-8.23546
▁총리가	-8.23546
▁독일	-8.23878
▁지역에서	-8.23878
▁우리는	-8.24212
▁앞서	-8.24547
▁마지막	-8.24884
▁보인다.	-8.24884
▁성명에서	-8.24884
▁중국의	-8.25221
▁말했습니다.	-8.25899
▁불구하고	-8.26581
▁알고	-8.26581
▁자동차	-8.26581
▁처음	-8.26581
▁보고	-8.26925
▁영향을	-8.27269
▁되는	-8.27961
▁미얀마	-8.27961
▁선거	-8.27961
▁호주	-8.27961
▁관련된	-8.28309
▁지역에	-8.28309
▁있었다고	-8.28658
▁않는	-8.29359
▁발생했다.	-8.29712
▁현지	-8.29712
▁달	-8.30066
▁유럽	-8.30066
▁필요한	-8.30066
▁기자회견에서	-8.30421
▁지난주	-8.30421
▁볼	-8.30778
▁초	-8.31136
▁한국의	-8.31136
▁경기	-8.31855
▁최대	-8.31855
▁문제에	-8.32217
▁인쇄	-8.32217
▁고위	-8.3258
▁추가	-8.3258
▁타고	-8.3258
▁조사	-8.32944
▁for	-8.3331
▁독해설명	-8.3331
▁받을	-8.3331
▁사이	-8.3331
▁원문	-8.3331
▁“이	-8.33677
▁우리	-8.33677
▁또는	-8.34045
▁인도	-8.34045
▁노무현	-8.34415
▁반면	-8.34415
▁없다”고	-8.34415
▁역시	-8.34415
▁사건에	-8.35532
▁열리는	-8.35532
▁의하면	-8.35532
▁조사를	-8.35532
▁이유로	-8.35907
▁했다고	-8.36284
▁힐러리	-8.36284
▁TV	-8.36662
▁우주	-8.37422
▁피해를	-8.37422
▁11월	-8.37805
▁결국	-8.38961
▁1명이	-8.39349
▁a	-8.39349
▁못했다.	-8.39739
▁사고	-8.39739
▁어떻게	-8.39739
▁예정이라고	-8.4013
▁정보를	-8.4013
▁부상을	-8.40523
▁것"이라고	-8.40918
▁명이	-8.40918
▁일을	-8.41314
▁전문가들은	-8.41314
▁공식	-8.42111
▁어제	-8.42111
▁바그다드	-8.42512
▁반	-8.42512
▁자신들의	-8.42512
▁까지	-8.42914
▁무샤라프	-8.42914
▁북부	-8.42914
▁2명이	-8.44131
▁and	-8.44131
▁이탈리아	-8.44131
▁있게	-8.4454
▁직접	-8.4454
▁번째	-8.44951
▁라이스	-8.45777
▁“이번	-8.46193
▁앞두고	-8.47451
▁3월	-8.47874
▁“우리는	-8.47874
▁밤	-8.47874
▁사망하고	-8.47874
▁있었던	-8.47874
▁너무	-8.48298
▁아시아	-8.48298
▁사람이	-8.48725
▁노	-8.49153
▁없다.	-8.49153
▁포함한	-8.49153
▁9월	-8.50015
▁“그러나	-8.50015
▁중인	-8.50015
▁것이며	-8.50449
▁입은	-8.50449
▁총	-8.50449
▁2004년	-8.50885
▁6월	-8.50885
▁곧	-8.50885
▁역할을	-8.50885
▁4월	-8.51322
▁그들의	-8.51322
▁이같은	-8.51322
▁이전	-8.51322
▁정치적	-8.51322
▁지원을	-8.51322
▁7월	-8.51762
▁여전히	-8.51762
▁의원은	-8.51762
▁이상이	-8.51762
▁연방	-8.52203
▁후보	-8.52203
▁가지고	-8.52647
▁관할	-8.52647
▁대부분의	-8.52647
▁3일	-8.53092
▁5월	-8.53092
▁당국이	-8.53092
▁포함,	-8.53092
▁8월	-8.5354
▁교수는	-8.5354
▁스페인	-8.5354
▁살고	-8.53989
▁아침	-8.53989
▁왔다.	-8.53989
▁지역의	-8.53989
▁특히	-8.53989
▁관계자가	-8.5444
▁안에	-8.5444
▁대부분	-8.54894
▁런던	-8.54894
▁나는	-8.5535
▁작은	-8.5535
▁해	-8.5535
▁2003년	-8.55807
▁내년	-8.55807
▁보였다.	-8.55807
▁관련,	-8.56267
▁심각한	-8.56267
▁터키	-8.56267
▁데이비드	-8.56729
▁일본의	-8.56729
▁대학	-8.57193
▁말	-8.57193
▁말한다.	-8.57659
▁세	-8.57659
▁촉구했다.	-8.57659
▁군사	-8.58128
▁나타났다.	-8.58598
▁로버트	-8.58598
▁시작했다.	-8.58598
▁10월	-8.59071
▁경기에서	-8.59071
▁수는	-8.59071
▁시위를	-8.59071
▁바로	-8.59546
▁백악관	-8.59546
▁부토	-8.59546
▁불법	-8.59546
▁차량	-8.59546
▁매케인	-8.60023
▁수가	-8.60023
▁없을	-8.60023
▁대규모	-8.60503
▁발표한	-8.60503
▁후보가	-8.60503
▁경고했다.	-8.60985
▁사건	-8.60985
▁이름을	-8.61469
▁활동을	-8.61469
▁금융	-8.61956
▁한다는	-8.61956
▁회담	-8.61956
▁달러의	-8.62445
▁마이클	-8.62445
▁요구했다.	-8.62445
▁경기를	-8.62936
▁관계를	-8.62936
▁아니라	-8.62936
▁올	-8.62936
▁하루	-8.62936
▁내용을	-8.6343
▁밝혀졌다.	-8.6343
▁상황을	-8.6343
▁아닌	-8.6343
▁있고	-8.6343
▁경찰에	-8.63926
▁미사일	-8.63926
▁비해	-8.63926
▁컴퓨터	-8.63926
▁2월	-8.64425
▁간	-8.64425
▁밝힌	-8.64425
▁사건을	-8.64425
▁우리가	-8.64425
▁클린턴은	-8.64425
▁/	-8.64926
▁결과를	-8.64926
▁베이징	-8.64926
▁상원의원은	-8.64926
▁일이	-8.64926
▁프로그램을	-8.64926
▁감독은	-8.6543
▁W	-8.65936
▁대변인이	-8.65936
▁것”이라며	-8.66957
▁관심을	-8.66957
▁대통령을	-8.66957
▁지지를	-8.66957
▁캘리포니아	-8.66957
▁있다"고	-8.67471
▁이라크에서	-8.67988
▁과정에서	-8.68507
▁김	-8.68507
▁밖에	-8.68507
▁중국은	-8.68507
▁사는	-8.69029
▁있기	-8.69029
▁하기	-8.69029
▁것입니다.	-8.69554
▁공동	-8.69554
▁각각	-8.70082
▁주둔	-8.70082
▁그녀의	-8.70613
▁돈을	-8.70613
▁뜻을	-8.70613
▁안	-8.70613
▁이에앞서	-8.71146
▁중에	-8.71146
▁6자	-8.71682
▁기간	-8.71682
▁사건이	-8.71682
▁사이에	-8.71682
▁관계자들은	-8.72221
▁그들이	-8.72221
▁벌이고	-8.72221
▁시간	-8.72221
▁온	-8.72221
▁총리의	-8.72221
▁(CNN)	-8.72763
▁같이	-8.72763
▁대해서는	-8.73308
▁미국에서	-8.73308
▁지	-8.73308
▁걸쳐	-8.73856
▁대상으로	-8.73856
▁이제	-8.73856
▁on	-8.74407
▁사람들을	-8.74407
▁승리를	-8.74407
▁티베트	-8.74407
▁현	-8.74407
▁발견된	-8.74961
▁상대로	-8.74961
▁있으며,	-8.74961
▁정부에	-8.74961
▁한국인	-8.74961
▁기록했다.	-8.75518
▁알려진	-8.75518
▁2002년	-8.76078
▁국무부	-8.76642
▁받는	-8.76642
▁사람은	-8.76642
▁아직까지	-8.76642
▁적이	-8.76642
▁크게	-8.76642
▁핵무기	-8.76642
▁4일	-8.77208
▁변호사는	-8.77208
▁브라운	-8.77208
▁이명박	-8.77208
▁검찰은	-8.77778
▁북한에	-8.77778
▁아니라고	-8.77778
▁해외	-8.77778
▁후보는	-8.77778
▁Korea	-8.78351
▁것과	-8.78351
▁두고	-8.78351
▁The	-8.78928
▁결정을	-8.78928
▁19일	-8.79507
▁나온	-8.79507
▁달러를	-8.79507
▁외	-8.79507
▁위해서는	-8.79507
▁치료를	-8.79507
▁다양한	-8.8009
▁대신	-8.8009
▁회장은	-8.8009
▁레바논	-8.80677
▁상원의원이	-8.80677
▁에너지	-8.80677
▁되고	-8.81267
▁매년	-8.81267
▁있다며	-8.81267
▁콜롬비아	-8.81267
▁공격으로	-8.8186
▁국영	-8.8186
▁도움을	-8.8186
▁도움이	-8.8186
▁못하고	-8.8186
▁문제	-8.8186
▁벌였다.	-8.8186
▁지구	-8.8186
▁최종	-8.8186
▁달러	-8.82457
▁등의	-8.82457
▁서울	-8.82457
▁자신을	-8.82457
▁제	-8.82457
▁주변	-8.82457
▁강력한	-8.83058
▁강한	-8.83058
▁받게	-8.83058
▁방법을	-8.83058
▁보고서는	-8.83058
▁등을	-8.83662
▁수많은	-8.83662
▁이끄는	-8.83662
▁계획이다.	-8.8427
▁상원	-8.8427
▁온라인	-8.8427
▁이라크에	-8.8427
▁따른	-8.84882
▁밝혔습니다.	-8.84882
▁빌	-8.84882
▁후보를	-8.85497
▁밝히지	-8.86116
▁정부와	-8.86116
▁주재	-8.86116
▁향해	-8.86116
▁협상을	-8.86116
▁5일	-8.86739
▁못한	-8.86739
▁받지	-8.86739
▁없었다.	-8.86739
▁주지사는	-8.86739
▁고	-8.87366
▁관해	-8.87366
▁받아	-8.87366
▁받았다고	-8.87366
▁워싱턴	-8.87366
▁있지	-8.87366
▁2년	-8.87997
▁달하는	-8.87997
▁막기	-8.87997
▁북핵	-8.87997
▁언급했다.	-8.87997
▁오바마가	-8.87997
▁“나는	-8.88632
▁시아파	-8.88632
▁연구	-8.88632
▁영국의	-8.88632
▁미군이	-8.89271
▁북한을	-8.89271
▁숨지고	-8.89271
▁폴	-8.89271
▁한편,	-8.89271
▁힐	-8.89271
▁27일	-8.89914
▁때까지	-8.89914
▁미국을	-8.89914
▁비난을	-8.89914
▁아프가니스탄	-8.89914
▁작업을	-8.89914
▁피해	-8.89914
▁하지만,	-8.89914
▁AP	-8.90561
▁여부를	-8.90561
▁이라크의	-8.90561
▁가지	-8.91213
▁그런	-8.91213
▁되어	-8.91213
▁서로	-8.91213
▁의회	-8.91213
▁주말	-8.91213
▁지역을	-8.91213
▁병력을	-8.91869
▁사실이	-8.91869
▁사진을	-8.91869
▁주장하고	-8.91869
▁총리	-8.91869
▁했던	-8.91869
▁발생했다고	-8.92529
▁사람들의	-8.92529
▁아니다.	-8.92529
▁적어도	-8.92529
▁정도로	-8.92529
▁6일	-8.93193
▁관계	-8.93193
▁날	-8.93193
▁사망자	-8.93193
▁도시	-8.93862
▁되지	-8.93862
▁목숨을	-8.93862
▁사르코지	-8.93862
▁어떠한	-8.93862
▁외국인	-8.93862
▁입고	-8.93862
▁협상	-8.93862
▁마크	-8.94536
▁민간인	-8.94536
▁병원에	-8.94536
▁상황이	-8.94536
▁유일한	-8.94536
▁지도자	-8.94536
▁개의	-8.95214
▁라디오	-8.95214
▁반대	-8.95214
▁시간을	-8.95214
▁요청했다.	-8.95214
▁의	-8.95214
▁전쟁	-8.95214
▁정부를	-8.95214
▁최고의	-8.95214
▁18일	-8.95896
▁사고가	-8.95896
▁유명한	-8.95896
▁이들의	-8.95896
▁이란의	-8.95896
▁2008년	-8.96583
▁7일	-8.96583
▁US	-8.96583
▁내가	-8.96583
▁무장	-8.96583
▁사고로	-8.96583
▁않는다.	-8.96583
▁여성이	-8.96583
▁완전히	-8.96583
▁자살	-8.96583
▁정도	-8.96583
▁최초의	-8.96583
▁29일	-8.97275
▁건물	-8.97275
▁넘는	-8.97275
▁발생해	-8.97275
▁언론은	-8.97275
▁지도자인	-8.97275
▁해야	-8.97275
▁11일	-8.97972
▁1일	-8.97972
▁과학자들은	-8.97972
▁다음달	-8.97972
▁방안을	-8.97972
▁사건은	-8.97972
▁시간이	-8.97972
▁알카에다	-8.97972
▁인용,	-8.97972
▁전체	-8.97972
▁한국은	-8.97972
▁가능한	-8.98674
▁어느	-8.98674
▁오른	-8.98674
▁이래	-8.98674
▁합니다.	-8.98674
▁끝에	-8.99381
▁미군은	-8.99381
▁방문	-8.99381
▁정책을	-8.99381
▁주민들이	-8.99381
▁질문에	-8.99381
▁출신	-8.99381
▁태국	-8.99381
▁간의	-9.00093
▁아주	-9.00093
▁중국이	-9.00093
▁평균	-9.00093
▁12일	-9.00809
▁14일	-9.00809
▁22일	-9.00809
▁내렸다.	-9.00809
▁대표는	-9.00809
▁반대하는	-9.00809
▁방문한	-9.00809
▁않아	-9.00809
▁여름	-9.00809
▁예상된다.	-9.00809
▁우려를	-9.00809
▁전세계	-9.00809
▁13일	-9.01531
▁가질	-9.01531
▁국내	-9.01531
▁되었다.	-9.01531
▁반군	-9.01531
▁숨진	-9.01531
▁야당	-9.01531
▁올랐다.	-9.01531
▁차베스	-9.01531
▁판결을	-9.01531
▁16일	-9.02259
▁것이라	-9.02259
▁그것은	-9.02259
▁법안을	-9.02259
▁사람들에게	-9.02259
▁아무런	-9.02259
▁인도네시아	-9.02259
▁관련해	-9.02991
▁놓고	-9.02991
▁지원	-9.02991
▁최악의	-9.02991
▁25일	-9.03729
▁26일	-9.03729
▁규모의	-9.03729
▁시장	-9.03729
▁의견을	-9.03729
▁필요가	-9.03729
▁항상	-9.03729
▁15일	-9.04473
▁2일	-9.04473
▁LA	-9.04473
▁대해서	-9.04473
▁만큼	-9.04473
▁멕시코	-9.04473
▁점을	-9.04473
▁회사	-9.04473
▁8일	-9.05222
▁들고	-9.05222
▁미국에	-9.05222
▁밝혀지지	-9.05222
▁병원	-9.05222
▁사상	-9.05222
▁산	-9.05222
▁이란이	-9.05222
▁판사는	-9.05222
▁2007년	-9.05977
▁3명이	-9.05977
▁9일	-9.05977
▁각	-9.05977
▁연설을	-9.05977
▁있음을	-9.05977
▁주는	-9.05977
▁21일	-9.06737
▁“그는	-9.06737
▁계속해서	-9.06737
▁나머지	-9.06737
▁보이는	-9.06737
▁성	-9.06737
▁숨졌다고	-9.06737
▁전혀	-9.06737
▁프로그램	-9.06737
▁것도	-9.07503
▁발견했다.	-9.07503
▁오바마의	-9.07503
▁인질	-9.07503
▁차기	-9.07503
▁공격	-9.08276
▁과거	-9.08276
▁씨는	-9.08276
▁않았지만	-9.08276
▁주민들은	-9.08276
▁시장은	-9.09054
▁이달	-9.09054
▁하며	-9.09054
▁가능성을	-9.09838
▁곳에서	-9.09838
▁만든	-9.09838
▁매케인은	-9.09838
▁병원으로	-9.09838
▁이들을	-9.09838
▁자금을	-9.09838
▁찰스	-9.09838
▁푸틴	-9.09838
▁학교	-9.09838
▁미군의	-9.10629
▁아프리카	-9.10629
▁열릴	-9.10629
▁정치	-9.10629
▁책임을	-9.10629
▁케냐	-9.10629
▁평화	-9.10629
▁합의했다.	-9.10629
▁관리들은	-9.11425
▁기자	-9.11425
▁물론	-9.11425
▁부상했다고	-9.11425
▁부시는	-9.11425
▁석유	-9.11425
▁선거에서	-9.11425
▁주장을	-9.11425
▁짐바브웨	-9.11425
▁후보에	-9.11425
▁17일	-9.12229
▁가졌다.	-9.12229
▁공항	-9.12229
▁민주당의	-9.12229
▁병원에서	-9.12229
▁보안	-9.12229
▁사망	-9.12229
▁소식을	-9.12229
▁앤	-9.12229
▁없다는	-9.12229
▁위기에	-9.12229
▁의한	-9.12229
▁전망이다.	-9.12229
▁1년	-9.13038
▁개발	-9.13038
▁겪고	-9.13038
▁난	-9.13038
▁대화를	-9.13038
▁자주	-9.13038
▁제임스	-9.13038
▁한나라당	-9.13038
▁낮은	-9.13855
▁만약	-9.13855
▁목표로	-9.13855
▁발생,	-9.13855
▁보이고	-9.13855
▁빠른	-9.13855
▁시작된	-9.13855
▁우리의	-9.13855
▁젊은	-9.13855
▁필리핀	-9.13855
▁확인했다.	-9.13855
▁2001년	-9.14678
▁곳에	-9.14678
▁국경	-9.14678
▁따라	-9.14678
▁발생할	-9.14678
▁시위	-9.14678
▁아베	-9.14678
▁30일	-9.15508
▁몇몇	-9.15508
▁보낸	-9.15508
▁여론	-9.15508
▁행동을	-9.15508
▁호텔	-9.15508
▁후에	-9.15508
▁그렇게	-9.16344
▁기록을	-9.16344
▁동시	-9.16344
▁들어	-9.16344
▁비슷한	-9.16344
▁새로	-9.16344
▁석방을	-9.16344
▁숨졌다.	-9.16344
▁없다”며	-9.16344
▁오랫동안	-9.16344
▁주택	-9.16344
▁확실히	-9.16344
▁17일(현지시간)	-9.17188
▁20일	-9.17188
▁CNN	-9.17188
▁그에게	-9.17188
▁기회를	-9.17188
▁나왔다.	-9.17188
▁노력을	-9.17188
▁등이	-9.17188
▁라고	-9.17188
▁메시지를	-9.17188
▁부인했다.	-9.17188
▁소식통은	-9.17188
▁의원이	-9.17188
▁이밖에	-9.17188
▁지방	-9.17188
▁후보로	-9.17188
▁3일(현지시간)	-9.18039
▁가까운	-9.18039
▁기자는	-9.18039
▁말하고	-9.18039
▁먼저	-9.18039
▁블로그에	-9.18039
▁속에	-9.18039
▁실시된	-9.18039
▁않다.	-9.18039
▁얻은	-9.18039
▁이수지(JOINS)	-9.18039
▁일본은	-9.18039
▁작년	-9.18039
▁주로	-9.18039
▁해리	-9.18039
▁회담에서	-9.18039
▁경찰과	-9.18898
▁맞아	-9.18898
▁못할	-9.18898
▁위원장은	-9.18898
▁위험한	-9.18898
▁이용해	-9.18898
▁임무를	-9.18898
▁총을	-9.18898
▁테러로	-9.18898
▁팀	-9.18898
▁플로리다	-9.18898
▁후보의	-9.18898
▁개인	-9.19764
▁대의원	-9.19764
▁동부	-9.19764
▁말한	-9.19764
▁매일	-9.19764
▁문제로	-9.19764
▁서비스	-9.19764
▁시	-9.19764
▁앞	-9.19764
▁일부는	-9.19764
▁집에서	-9.19764
▁출신의	-9.19764
▁10일	-9.20637
▁2명의	-9.20637
▁가격이	-9.20637
▁고든	-9.20637
▁구성된	-9.20637
▁국방부	-9.20637
▁기자가	-9.20637
▁남성이	-9.20637
▁당	-9.20637
▁대회	-9.20637
▁도중	-9.20637
▁무기	-9.20637
▁본	-9.20637
▁손을	-9.20637
▁영화를	-9.20637
▁인권	-9.20637
▁일어난	-9.20637
▁차지했다.	-9.20637
▁4명이	-9.21518
▁결과가	-9.21518
▁관리는	-9.21518
▁년	-9.21518
▁다	-9.21518
▁대통령에게	-9.21518
▁만들어	-9.21518
▁미국,	-9.21518
▁법원은	-9.21518
▁사용하는	-9.21518
▁연설에서	-9.21518
▁자신들이	-9.21518
▁정확한	-9.21518
▁중동	-9.21518
▁23일	-9.22407
▁결정했다.	-9.22407
▁당한	-9.22407
▁둔	-9.22407
▁비디오	-9.22407
▁사무총장은	-9.22407
▁않다고	-9.22407
▁알게	-9.22407
▁이들이	-9.22407
▁추가로	-9.22407
▁공화당의	-9.23304
▁발언을	-9.23304
▁불만을	-9.23304
▁비행기	-9.23304
▁빨리	-9.23304
▁살해한	-9.23304
▁스티브	-9.23304
▁얼마나	-9.23304
▁이것은	-9.23304
▁이야기를	-9.23304
▁중이다.	-9.23304
▁19일(현지시간)	-9.24209
▁23일(현지시간)	-9.24209
▁27일(현지시간)	-9.24209
▁가는	-9.24209
▁거대한	-9.24209
▁대통령,	-9.24209
▁문제는	-9.24209
▁블레어	-9.24209
▁수술을	-9.24209
▁실시한	-9.24209
▁아직도	-9.24209
▁알려져	-9.24209
▁압력을	-9.24209
▁월요일	-9.24209
▁전쟁을	-9.24209
▁콘돌리자	-9.24209
▁크리스토퍼	-9.24209
▁테러를	-9.24209
▁행위를	-9.24209
▁10일(현지시간)	-9.25122
▁6일(현지시간)	-9.25122
▁검사를	-9.25122
▁나섰다.	-9.25122
▁남자	-9.25122
▁대통령에	-9.25122
▁변화를	-9.25122
▁사망했으며	-9.25122
▁상황에	-9.25122
▁수석	-9.25122
▁않았다”고	-9.25122
▁투표를	-9.25122
▁11일(현지시간)	-9.26044
▁15일(현지시간)	-9.26044
▁2008	-9.26044
▁건강	-9.26044
▁대형	-9.26044
▁보고서를	-9.26044
▁브라질	-9.26044
▁사용할	-9.26044
▁않는다고	-9.26044
▁차례	-9.26044
▁참석한	-9.26044
▁하게	-9.26044
▁하마스	-9.26044
▁하워드	-9.26044
▁해군	-9.26044
▁25일(현지시간)	-9.26974
▁26일(현지시간)	-9.26974
▁28일	-9.26974
▁경제적	-9.26974
▁기술을	-9.26974
▁나타냈다.	-9.26974
▁내에	-9.26974
▁드	-9.26974
▁미국인	-9.26974
▁신화통신은	-9.26974
▁어린이	-9.26974
▁이번이	-9.26974
▁저장	-9.26974
▁주고	-9.26974
▁준비가	-9.26974
▁직후	-9.26974
▁총격을	-9.26974
▁캐나다	-9.26974
▁회담은	-9.26974
▁2차	-9.27913
▁강제	-9.27913
▁강하게	-9.27913
▁발견됐다.	-9.27913
▁쉽게	-9.27913
▁열차	-9.27913
▁요구하는	-9.27913
▁전까지	-9.27913
▁정말	-9.27913
▁즉시	-9.27913
▁차량을	-9.27913
▁현장에	-9.27913
▁흑인	-9.27913
▁Korean	-9.28861
▁그녀가	-9.28861
▁그와	-9.28861
▁서비스를	-9.28861
▁수천명의	-9.28861
▁여행을	-9.28861
▁요구를	-9.28861
▁요구한	-9.28861
▁이전에	-9.28861
▁자금	-9.28861
▁주민	-9.28861
▁화요일	-9.28861
▁후세인	-9.28861
▁5명이	-9.29818
▁도	-9.29818
▁만나	-9.29818
▁발표할	-9.29818
▁보냈다.	-9.29818
▁비롯한	-9.29818
▁사건의	-9.29818
▁오랜	-9.29818
▁올메르트	-9.29818
▁위협을	-9.29818
▁의사를	-9.29818
▁의장은	-9.29818
▁입었다.	-9.29818
▁최초	-9.29818
▁테러가	-9.29818
▁포함	-9.29818
▁13일(현지시간)	-9.30784
▁2000년	-9.30784
▁29일(현지시간)	-9.30784
▁것처럼	-9.30784
▁경기에	-9.30784
▁단지	-9.30784
▁대사관	-9.30784
▁독립을	-9.30784
▁못했다고	-9.30784
▁보이지	-9.30784
▁소재	-9.30784
▁양국	-9.30784
▁있습니다.”	-9.30784
▁조사하고	-9.30784
▁텍사스	-9.30784
▁한국과	-9.30784
▁회담에	-9.30784
▁그중	-9.31759
▁대부분은	-9.31759
▁베네수엘라	-9.31759
▁빈	-9.31759
▁수요일	-9.31759
▁없었다고	-9.31759
▁여자	-9.31759
▁웹사이트에	-9.31759
▁인터뷰를	-9.31759
▁일반	-9.31759
▁집을	-9.31759
▁했다”고	-9.31759
▁20일(현지시간)	-9.32745
▁담당	-9.32745
▁대사는	-9.32745
▁됐다고	-9.32745
▁떨어져	-9.32745
▁마을	-9.32745
▁상황에서	-9.32745
▁아이들을	-9.32745
▁이르는	-9.32745
▁저는	-9.32745
▁중이라고	-9.32745
▁지지하는	-9.32745
▁진행	-9.32745
▁페르베즈	-9.32745
▁현장에서	-9.32745
▁회담이	-9.32745
▁게이츠	-9.3374
▁대학의	-9.3374
▁법적	-9.3374
▁서부	-9.3374
▁소송을	-9.3374
▁알리	-9.3374
▁정보	-9.3374
▁정상	-9.3374
▁체포된	-9.3374
▁28일(현지시간)	-9.34745
▁구체적인	-9.34745
▁돼	-9.34745
▁선거를	-9.34745
▁속에서	-9.34745
▁수천	-9.34745
▁어린	-9.34745
▁주에서	-9.34745
▁지수는	-9.34745
▁최소한	-9.34745
▁1일(현지시간)	-9.3576
▁21일(현지시간)	-9.3576
▁4일(현지시간)	-9.3576
▁계획에	-9.3576
▁긴	-9.3576
▁명	-9.3576
▁사우디	-9.3576
▁시즌	-9.3576
▁아바스	-9.3576
▁아이를	-9.3576
▁역사상	-9.3576
▁은행	-9.3576
▁있는지	-9.3576
▁중국,	-9.3576
▁지진으로	-9.3576
▁집	-9.3576
▁총선에서	-9.3576
▁타임즈는	-9.3576
▁포함되어	-9.3576
▁한다”며	-9.3576
▁허리케인	-9.3576
▁is	-9.36786
▁것입니다.”	-9.36786
▁경선	-9.36786
▁공식적으로	-9.36786
▁국가의	-9.36786
▁소말리아	-9.36786
▁시작됐다.	-9.36786
▁영화는	-9.36786
▁윌리엄	-9.36786
▁으로	-9.36786
▁이란은	-9.36786
▁이상을	-9.36786
▁중에는	-9.36786
▁특별	-9.36786
▁10년	-9.37822
▁24일	-9.37822
▁EU	-9.37822
▁공격이	-9.37822
▁관리가	-9.37822
▁국회	-9.37822
▁권리를	-9.37822
▁내린	-9.37822
▁발언은	-9.37822
▁사람의	-9.37822
▁실제	-9.37822
▁영국에서	-9.37822
▁이스라엘의	-9.37822
▁이집트	-9.37822
▁일요일	-9.37822
▁포함해	-9.37822
▁계획이	-9.38869
▁국무장관은	-9.38869
▁단체는	-9.38869
▁버지니아	-9.38869
▁벌인	-9.38869
▁입었다고	-9.38869
▁장관이	-9.38869
▁최근의	-9.38869
▁12일(현지시간)	-9.39927
▁16일(현지시간)	-9.39927
▁18일(현지시간)	-9.39927
▁5년	-9.39927
▁거주하는	-9.39927
▁내무부	-9.39927
▁대변인인	-9.39927
▁목요일	-9.39927
▁북한과	-9.39927
▁심한	-9.39927
▁않도록	-9.39927
▁약속했다.	-9.39927
▁일본이	-9.39927
▁집에	-9.39927
▁피터	-9.39927
▁학생들이	-9.39927
▁훨씬	-9.39927
▁힘든	-9.39927
▁단	-9.40997
▁문을	-9.40997
▁반응을	-9.40997
▁불리는	-9.40997
▁사람을	-9.40997
▁세금	-9.40997
▁안보	-9.40997
▁엘리자베스	-9.40997
▁정책	-9.40997
▁정치적인	-9.40997
▁찾기	-9.40997
▁2일(현지시간)	-9.42078
▁9일(현지시간)	-9.42078
▁경선에서	-9.42078
▁끝난	-9.42078
▁남자가	-9.42078
▁대부분이	-9.42078
▁듯	-9.42078
▁밖으로	-9.42078
▁사태가	-9.42078
▁성폭행	-9.42078
▁수단	-9.42078
▁않으면	-9.42078
▁알려지지	-9.42078
▁연료	-9.42078
▁외교	-9.42078
▁외국	-9.42078
▁요구하고	-9.42078
▁용의자	-9.42078
▁이것이	-9.42078
▁익명의	-9.42078
▁있었다”고	-9.42078
▁제안을	-9.42078
▁좋지	-9.42078
▁주장하는	-9.42078
▁하락했다.	-9.42078
▁홍콩	-9.42078
▁1명은	-9.43171
▁22일(현지시간)	-9.43171
▁30일(현지시간)	-9.43171
▁North	-9.43171
▁그들을	-9.43171
▁나와	-9.43171
▁뉴스	-9.43171
▁된다고	-9.43171
▁반기문	-9.43171
▁발견했다고	-9.43171
▁방문할	-9.43171
▁방법으로	-9.43171
▁벌어진	-9.43171
▁병사	-9.43171
▁비밀	-9.43171
▁실제로	-9.43171
▁의원들은	-9.43171
▁자리를	-9.43171
▁충분한	-9.43171
▁"이	-9.44276
▁be	-9.44276
▁가격	-9.44276
▁결정은	-9.44276
▁곳으로	-9.44276
▁관계가	-9.44276
▁무역	-9.44276
▁반정부	-9.44276
▁생각하고	-9.44276
▁선고	-9.44276
▁시험	-9.44276
▁어려움을	-9.44276
▁왜	-9.44276
▁우려가	-9.44276
▁조금	-9.44276
▁특별한	-9.44276
▁필요하다고	-9.44276
▁해안	-9.44276
▁24일(현지시간)	-9.45393
▁5일(현지시간)	-9.45393
▁경찰의	-9.45393
▁국립	-9.45393
▁나쁜	-9.45393
▁때문이다.	-9.45393
▁명은	-9.45393
▁모하메드	-9.45393
▁사건과	-9.45393
▁사건으로	-9.45393
▁스미스	-9.45393
▁신문은	-9.45393
▁아부	-9.45393
▁여행	-9.45393
▁우승을	-9.45393
▁의회가	-9.45393
▁임시	-9.45393
▁있었으며	-9.45393
▁직원	-9.45393
▁취할	-9.45393
▁카운티	-9.45393
▁쿠르드	-9.45393
▁했으며	-9.45393
▁향후	-9.45393
▁회의를	-9.45393
▁7일(현지시간)	-9.46523
▁공개했다.	-9.46523
▁되면	-9.46523
▁믿고	-9.46523
▁바라고	-9.46523
▁수사를	-9.46523
▁스티븐	-9.46523
▁언급하지	-9.46523
▁중국과	-9.46523
▁South	-9.47666
▁갈	-9.47666
▁국민	-9.47666
▁기타	-9.47666
▁담긴	-9.47666
▁당선인은	-9.47666
▁동영상을	-9.47666
▁러시아의	-9.47666
▁발표	-9.47666
▁뿐	-9.47666
▁사망자가	-9.47666
▁스스로	-9.47666
▁의원	-9.47666
▁일은	-9.47666
▁작전을	-9.47666
▁전화를	-9.47666
▁찾는	-9.47666
▁초기	-9.47666
▁14일(현지시간)	-9.48822
▁W.	-9.48822
▁가스	-9.48822
▁강력히	-9.48822
▁관심이	-9.48822
▁네	-9.48822
▁대선후보인	-9.48822
▁만날	-9.48822
▁만한	-9.48822
▁모습이	-9.48822
▁배우	-9.48822
▁보기	-9.48822
▁보여주는	-9.48822
▁생각을	-9.48822
▁시카고	-9.48822
▁압둘라	-9.48822
▁의회는	-9.48822
▁인정했다.	-9.48822
▁장면을	-9.48822
▁적은	-9.48822
▁전화	-9.48822
▁정부,	-9.48822
▁해결하기	-9.48822
▁협상이	-9.48822
▁환경	-9.48822
▁회사인	-9.48822
▁-	-9.49992
▁기술	-9.49992
▁긴급	-9.49992
▁내용이	-9.49992
▁명령을	-9.49992
▁발표된	-9.49992
▁부동산	-9.49992
▁아무	-9.49992
▁여론조사	-9.49992
▁여성은	-9.49992
▁예상했다.	-9.49992
▁원하는	-9.49992
▁유명	-9.49992
▁유사한	-9.49992
▁최초로	-9.49992
▁추정되는	-9.49992
▁토니	-9.49992
▁학생	-9.49992
▁항공	-9.49992
▁"우리는	-9.51175
▁걸릴	-9.51175
▁게임을	-9.51175
▁계획	-9.51175
▁공격에	-9.51175
▁기업	-9.51175
▁기자회견을	-9.51175
▁길을	-9.51175
▁밖에서	-9.51175
▁불을	-9.51175
▁시신을	-9.51175
▁아이들이	-9.51175
▁여성의	-9.51175
▁올렸다.	-9.51175
▁인기	-9.51175
▁조사에	-9.51175
▁주식	-9.51175
▁중국에	-9.51175
▁처음이다.	-9.51175
▁총리와	-9.51175
▁회사의	-9.51175
▁가족	-9.52373
▁거래를	-9.52373
▁골을	-9.52373
▁달러에	-9.52373
▁드러났다.	-9.52373
▁발생	-9.52373
▁생각한다”고	-9.52373
▁생활을	-9.52373
▁수니파	-9.52373
▁시위에	-9.52373
▁아이의	-9.52373
▁예정이며	-9.52373
▁워싱턴에서	-9.52373
▁이곳에서	-9.52373
▁점점	-9.52373
▁중국에서	-9.52373
▁징역	-9.52373
▁차	-9.52373
▁타격을	-9.52373
▁통신은	-9.52373
▁한미	-9.52373
▁8일(현지시간)	-9.53585
▁UN	-9.53585
▁갑자기	-9.53585
▁건설	-9.53585
▁걸친	-9.53585
▁것보다	-9.53585
▁계속되고	-9.53585
▁관련이	-9.53585
▁남은	-9.53585
▁모인	-9.53585
▁방문했다.	-9.53585
▁비행	-9.53585
▁시위가	-9.53585
▁않았으며	-9.53585
▁양	-9.53585
▁연구를	-9.53585
▁연구진은	-9.53585
▁의료	-9.53585
▁의회에	-9.53585
▁이번주	-9.53585
▁이용,	-9.53585
▁찾고	-9.53585
▁체포됐다.	-9.53585
▁쿠바	-9.53585
▁탄	-9.53585
▁폭발로	-9.53585
▁하나의	-9.53585
▁핵심	-9.53585
▁화재가	-9.53585
▁1999년	-9.54812
▁2명을	-9.54812
▁3명의	-9.54812
▁김정일	-9.54812
▁노력하고	-9.54812
▁논의할	-9.54812
▁만드는	-9.54812
▁바그다드에서	-9.54812
▁범죄	-9.54812
▁빠르게	-9.54812
▁수백	-9.54812
▁시설을	-9.54812
▁신원을	-9.54812
▁어려운	-9.54812
▁없어	-9.54812
▁이로	-9.54812
▁이스라엘과	-9.54812
▁적절한	-9.54812
▁진행된	-9.54812
▁투자	-9.54812
▁할리우드	-9.54812
▁현재까지	-9.54812
▁6자회담	-9.56054
▁가격을	-9.56054
▁것이라며	-9.56054
▁경제에	-9.56054
▁나를	-9.56054
▁도착했다.	-9.56054
▁못하는	-9.56054
▁문제의	-9.56054
▁수십	-9.56054
▁언론이	-9.56054
▁위기를	-9.56054
▁의회의	-9.56054
▁이유는	-9.56054
▁인구	-9.56054
▁일자리를	-9.56054
▁일환으로	-9.56054
▁자체	-9.56054
▁톰	-9.56054
▁파키스탄의	-9.56054
▁결정에	-9.57312
▁경제가	-9.57312
▁대북	-9.57312
▁더불어	-9.57312
▁랭킹	-9.57312
▁마이크	-9.57312
▁말레이시아	-9.57312
▁무기를	-9.57312
▁반군이	-9.57312
▁밝히고	-9.57312
▁보고했다.	-9.57312
▁부근에서	-9.57312
▁사실상	-9.57312
▁사진	-9.57312
▁사태를	-9.57312
▁시작한	-9.57312
▁심장	-9.57312
▁웹	-9.57312
▁자리에서	-9.57312
▁증가하고	-9.57312
▁해결을	-9.57312
▁6명이	-9.58586
▁AP의	-9.58586
▁“이는	-9.58586
▁계약을	-9.58586
▁계획은	-9.58586
▁권력을	-9.58586
▁말하는	-9.58586
▁방문을	-9.58586
▁살해	-9.58586
▁안전	-9.58586
▁약간	-9.58586
▁이유를	-9.58586
▁제재를	-9.58586
▁주의	-9.58586
▁지진이	-9.58586
▁치러진	-9.58586
▁클린턴이	-9.58586
▁폭탄이	-9.58586
▁하던	-9.58586
▁한다"고	-9.58586
▁힘을	-9.58586
▁국방부는	-9.59876
▁그동안	-9.59876
▁기다리고	-9.59876
▁깊은	-9.59876
▁남북	-9.59876
▁내용의	-9.59876
▁니콜라	-9.59876
▁로켓	-9.59876
▁말합니다.	-9.59876
▁부상했다.	-9.59876
▁빠진	-9.59876
▁세계대전	-9.59876
▁스포츠	-9.59876
▁시스템을	-9.59876
▁시위대가	-9.59876
▁시위대는	-9.59876
▁시장에	-9.59876
▁아들	-9.59876
▁야당인	-9.59876
▁월드컵	-9.59876
▁위원회는	-9.59876
▁위험이	-9.59876
▁이와같은	-9.59876
▁잉글랜드	-9.59876
▁저녁	-9.59876
▁전직	-9.59876
▁지도자들은	-9.59876
▁체니	-9.59876
▁크리스마스	-9.59876
▁파리	-9.59876
▁폭탄테러가	-9.59876
▁피해가	-9.59876
▁하면	-9.59876
▁훈련을	-9.59876
▁with	-9.61183
▁가자지구	-9.61183
▁고통을	-9.61183
▁과학자들이	-9.61183
▁관계자들이	-9.61183
▁국경을	-9.61183
▁그에	-9.61183
▁나갈	-9.61183
▁맨체스터	-9.61183
▁모두가	-9.61183
▁반드시	-9.61183
▁받기	-9.61183
▁보인다고	-9.61183
▁선거에	-9.61183
▁운동	-9.61183
▁운영하는	-9.61183
▁이렇게	-9.61183
▁이스라엘이	-9.61183
▁이틀	-9.61183
▁준비를	-9.61183
▁해당	-9.61183
▁핵무기를	-9.61183
▁했지만	-9.61183
▁1998년	-9.62508
▁개	-9.62508
▁공개	-9.62508
▁마약	-9.62508
▁마지막으로	-9.62508
▁마치고	-9.62508
▁말까지	-9.62508
▁며칠	-9.62508
▁목적으로	-9.62508
▁보면	-9.62508
▁성공했다.	-9.62508
▁시장에서	-9.62508
▁않지만	-9.62508
▁얻었다.	-9.62508
▁에후드	-9.62508
▁연속	-9.62508
▁외무장관은	-9.62508
▁우라늄	-9.62508
▁우려하고	-9.62508
▁의회에서	-9.62508
▁이후,	-9.62508
▁일	-9.62508
▁일간	-9.62508
▁장을	-9.62508
▁정확히	-9.62508
▁제공하는	-9.62508
▁제안했다.	-9.62508
▁조사에서	-9.62508
▁조치가	-9.62508
▁증거를	-9.62508
▁혐의가	-9.62508
▁회사는	-9.62508
▁후,	-9.62508
▁will	-9.6385
▁美	-9.6385
▁남성	-9.6385
▁내용은	-9.6385
▁능력을	-9.6385
▁당했다.	-9.6385
▁대가로	-9.6385
▁대선에서	-9.6385
▁동영상	-9.6385
▁민주주의	-9.6385
▁변화가	-9.6385
▁사담	-9.6385
▁사장은	-9.6385
▁상태에	-9.6385
▁서울에서	-9.6385
▁승인을	-9.6385
▁아무도	-9.6385
▁아카데미	-9.6385
▁영어	-9.6385
▁유로	-9.6385
▁이라크를	-9.6385
▁전쟁에	-9.6385
▁질문을	-9.6385
▁탁신	-9.6385
▁판매	-9.6385
▁한국이	-9.6385
▁현재의	-9.6385
▁2명은	-9.65211
▁U.S.	-9.65211
▁감독이	-9.65211
▁검찰	-9.65211
▁공연을	-9.65211
▁공항에서	-9.65211
▁그리스	-9.65211
▁내릴	-9.65211
▁다쳤다고	-9.65211
▁됐다”고	-9.65211
▁멋진	-9.65211
▁선언했다.	-9.65211
▁스타	-9.65211
▁승리한	-9.65211
▁시장의	-9.65211
▁안전을	-9.65211
▁언론	-9.65211
▁여부는	-9.65211
▁오브	-9.65211
▁운동을	-9.65211
▁이로써	-9.65211
▁있고,	-9.65211
▁있는데,	-9.65211
▁있으나	-9.65211
▁정	-9.65211
▁주간	-9.65211
▁폭발	-9.65211
▁폭탄테러로	-9.65211
▁한국에	-9.65211
▁한반도	-9.65211
▁3년	-9.6659
▁A	-9.6659
▁결과는	-9.6659
▁관리	-9.6659
▁국방장관은	-9.6659
▁논의를	-9.6659
▁대	-9.6659
▁발생하지	-9.6659
▁방송	-9.6659
▁병력	-9.6659
▁부통령	-9.6659
▁사람	-9.6659
▁살	-9.6659
▁소식이	-9.6659
▁수를	-9.6659
▁안전한	-9.6659
▁암살	-9.6659
▁없으며	-9.6659
▁올린	-9.6659
▁위기	-9.6659
▁주지사가	-9.6659
▁청와대	-9.6659
▁총리를	-9.6659
▁최신	-9.6659
▁프로그램에	-9.6659
▁하원	-9.6659
▁10명이	-9.67989
▁가격은	-9.67989
▁경제를	-9.67989
▁그것이	-9.67989
▁금지	-9.67989
▁기대하고	-9.67989
▁기후	-9.67989
▁나오는	-9.67989
▁납치된	-9.67989
▁됩니다.	-9.67989
▁레알	-9.67989
▁막을	-9.67989
▁말리키	-9.67989
▁미국과의	-9.67989
▁받아야	-9.67989
▁발생했으며	-9.67989
▁법원이	-9.67989
▁베이징에서	-9.67989
▁삶을	-9.67989
▁수익을	-9.67989
▁아니면	-9.67989
▁일하는	-9.67989
▁잃은	-9.67989
▁자료를	-9.67989
▁전했습니다.	-9.67989
▁좀	-9.67989
▁지금은	-9.67989
▁진행되고	-9.67989
▁총기	-9.67989
▁토요일	-9.67989
▁폭력	-9.67989
▁폭탄을	-9.67989
▁후반	-9.67989
▁1997년	-9.69407
▁갖게	-9.69407
▁검사는	-9.69407
▁고대	-9.69407
▁구조	-9.69407
▁남아	-9.69407
▁낸	-9.69407
▁단체	-9.69407
▁당신이	-9.69407
▁대회에서	-9.69407
▁동물	-9.69407
▁로마	-9.69407
▁만들었다.	-9.69407
▁못	-9.69407
▁무가베	-9.69407
▁베나지르	-9.69407
▁보낼	-9.69407
▁보유하고	-9.69407
▁분명히	-9.69407
▁비록	-9.69407
▁비용이	-9.69407
▁수상했다.	-9.69407
▁유엔은	-9.69407
▁이후로	-9.69407
▁일본에서	-9.69407
▁일정을	-9.69407
▁자세한	-9.69407
▁잠시	-9.69407
▁주한	-9.69407
▁중앙	-9.69407
▁지역으로	-9.69407
▁지역은	-9.69407
▁차를	-9.69407
▁충분히	-9.69407
▁통한	-9.69407
▁투표	-9.69407
▁표했다.	-9.69407
▁항공기	-9.69407
▁희생자	-9.69407
▁31일	-9.70846
▁가능성은	-9.70846
▁가치가	-9.70846
▁것인지	-9.70846
▁계획이라고	-9.70846
▁논란이	-9.70846
▁떨어졌다.	-9.70846
▁못하게	-9.70846
▁발견됐다고	-9.70846
▁법원에	-9.70846
▁보고서에서	-9.70846
▁보안관은	-9.70846
▁사령관은	-9.70846
▁선수	-9.70846
▁소비자	-9.70846
▁실종된	-9.70846
▁안에서	-9.70846
▁앓고	-9.70846
▁여성을	-9.70846
▁예정	-9.70846
▁오래된	-9.70846
▁이라크와	-9.70846
▁일반적으로	-9.70846
▁제대로	-9.70846
▁주가	-9.70846
▁주지	-9.70846
▁준	-9.70846
▁총선을	-9.70846
▁호세	-9.70846
▁회의에서	-9.70846
▁4명의	-9.72306
▁것이다”고	-9.72306
▁게임	-9.72306
▁네덜란드	-9.72306
▁동료	-9.72306
▁러시아는	-9.72306
▁민간	-9.72306
▁발언에	-9.72306
▁보는	-9.72306
▁사용한	-9.72306
▁사회	-9.72306
▁상당한	-9.72306
▁수사	-9.72306
▁에도	-9.72306
▁역사적인	-9.72306
▁외무부	-9.72306
▁이라크전	-9.72306
▁익명을	-9.72306
▁있다면	-9.72306
▁자신은	-9.72306
▁주장에	-9.72306
▁찾을	-9.72306
▁책임이	-9.72306
▁측은	-9.72306
▁합의	-9.72306
▁2주	-9.73787
▁것이며,	-9.73787
▁국가가	-9.73787
▁그러한	-9.73787
▁노벨	-9.73787
▁때문에,	-9.73787
▁리처드	-9.73787
▁만난	-9.73787
▁못해	-9.73787
▁바란다”고	-9.73787
▁백악관은	-9.73787
▁상	-9.73787
▁시리아	-9.73787
▁시작할	-9.73787
▁앞에	-9.73787
▁약속을	-9.73787
▁영화의	-9.73787
▁위해서	-9.73787
▁유럽의	-9.73787
▁의사가	-9.73787
▁재판을	-9.73787
▁저지른	-9.73787
▁조	-9.73787
▁주민들에게	-9.73787
▁죽은	-9.73787
▁준비	-9.73787
▁차관보는	-9.73787
▁찾아	-9.73787
▁치료	-9.73787
▁혐의에	-9.73787
▁회사가	-9.73787
▁가까이	-9.75291
▁같다고	-9.75291
▁거뒀다.	-9.75291
▁공격은	-9.75291
▁국민들의	-9.75291
▁기지	-9.75291
▁나토	-9.75291
▁내내	-9.75291
▁뉴욕에서	-9.75291
▁독일의	-9.75291
▁말했다고	-9.75291
▁발생하는	-9.75291
▁벌금을	-9.75291
▁부족	-9.75291
▁비상	-9.75291
▁비용을	-9.75291
▁생각하는	-9.75291
▁선두를	-9.75291
▁세금을	-9.75291
▁소장은	-9.75291
▁승리했다.	-9.75291
▁않는다”고	-9.75291
▁예정된	-9.75291
▁이스라엘은	-9.75291
▁전면	-9.75291
▁중국을	-9.75291
▁체포했다고	-9.75291
▁태어난	-9.75291
▁토마스	-9.75291
▁학생들은	-9.75291
▁헌법	-9.75291
▁호텔에서	-9.75291
▁10대	-9.76818
▁4년	-9.76818
▁가능성에	-9.76818
▁것이다”라고	-9.76818
▁결과에	-9.76818
▁결혼	-9.76818
▁교육	-9.76818
▁국가를	-9.76818
▁기자들에게	-9.76818
▁난민	-9.76818
▁누가	-9.76818
▁루이스	-9.76818
▁모여	-9.76818
▁몸을	-9.76818
▁미사일을	-9.76818
▁보내는	-9.76818
▁비판했다.	-9.76818
▁수백만	-9.76818
▁수백명의	-9.76818
▁시장이	-9.76818
▁신용	-9.76818
▁없었다”고	-9.76818
▁영변	-9.76818
▁원인을	-9.76818
▁위험에	-9.76818
▁인간	-9.76818
▁일부가	-9.76818
▁일부를	-9.76818
▁자유를	-9.76818
▁전자	-9.76818
▁제재	-9.76818
▁즉	-9.76818
▁집단	-9.76818
▁집으로	-9.76818
▁혹은	-9.76818
▁화재	-9.76818
▁20년	-9.78368
▁“모든	-9.78368
▁결의안을	-9.78368
▁공군	-9.78368
▁공식적인	-9.78368
▁국민들은	-9.78368
▁그래서	-9.78368
▁답했다.	-9.78368
▁대표팀	-9.78368
▁런던에서	-9.78368
▁만들	-9.78368
▁만들어진	-9.78368
▁명을	-9.78368
▁방송은	-9.78368
▁배럴당	-9.78368
▁법안이	-9.78368
▁붉은	-9.78368
▁비상사태를	-9.78368
▁빠져	-9.78368
▁사용될	-9.78368
▁시민들이	-9.78368
▁얻기	-9.78368
▁여객기	-9.78368
▁위에	-9.78368
▁유죄	-9.78368
▁이란에	-9.78368
▁있었지만	-9.78368
▁증가했다.	-9.78368
▁지지	-9.78368
▁챔피언스리그	-9.78368
▁총장은	-9.78368
▁회담의	-9.78368
▁(JOINS)	-9.79943
▁7명이	-9.79943
▁것"이라며	-9.79943
▁것.	-9.79943
▁달리	-9.79943
▁된다”고	-9.79943
▁머리를	-9.79943
▁보도를	-9.79943
▁상승했다.	-9.79943
▁속	-9.79943
▁숀	-9.79943
▁시속	-9.79943
▁실시되는	-9.79943
▁연구에	-9.79943
▁예정입니다.	-9.79943
▁올해의	-9.79943
▁외교적	-9.79943
▁이중	-9.79943
▁일리노이주	-9.79943
▁전반	-9.79943
▁증거가	-9.79943
▁지도자들이	-9.79943
▁했습니다.	-9.79943
▁현장을	-9.79943
▁2시간	-9.81543
▁9.11	-9.81543
▁FTA	-9.81543
▁강	-9.81543
▁결론을	-9.81543
▁결코	-9.81543
▁국제사회의	-9.81543
▁규모가	-9.81543
▁그것을	-9.81543
▁남한	-9.81543
▁납치	-9.81543
▁내부	-9.81543
▁뇌	-9.81543
▁눈에	-9.81543
▁당국의	-9.81543
▁대만	-9.81543
▁되기	-9.81543
▁뒤를	-9.81543
▁따라서	-9.81543
▁마감했다.	-9.81543
▁머물고	-9.81543
▁밑	-9.81543
▁방법이	-9.81543
▁부부는	-9.81543
▁블라디미르	-9.81543
▁사람들	-9.81543
▁사태에	-9.81543
▁심지어	-9.81543
▁얻을	-9.81543
▁여당인	-9.81543
▁용의자가	-9.81543
▁웹사이트를	-9.81543
▁윌리엄스는	-9.81543
▁육군	-9.81543
▁의혹을	-9.81543
▁인근에	-9.81543
▁인터넷을	-9.81543
▁일본,	-9.81543
▁자신에게	-9.81543
▁장기	-9.81543
▁제기했다.	-9.81543
▁지진	-9.81543
▁집회를	-9.81543
▁차량에	-9.81543
▁차량이	-9.81543
▁첫번째	-9.81543
▁측	-9.81543
▁치안	-9.81543
▁태도를	-9.81543
▁포르투갈	-9.81543
▁프랑스의	-9.81543
▁한국에서	-9.81543
▁한때	-9.81543
▁합의를	-9.81543
▁거부했다.	-9.83169
▁걸어	-9.83169
▁검사	-9.83169
▁것이고	-9.83169
▁경우,	-9.83169
▁곳을	-9.83169
▁과정을	-9.83169
▁관리들이	-9.83169
▁국민들에게	-9.83169
▁군은	-9.83169
▁군인	-9.83169
▁김대중	-9.83169
▁년간	-9.83169
▁눈이	-9.83169
▁대비	-9.83169
▁도쿄	-9.83169
▁만들고	-9.83169
▁맡은	-9.83169
▁물을	-9.83169
▁물이	-9.83169
▁민주화	-9.83169
▁박	-9.83169
▁법을	-9.83169
▁보건	-9.83169
▁보호	-9.83169
▁보호하기	-9.83169
▁뿐만아니라	-9.83169
▁사실	-9.83169
▁산업	-9.83169
▁생긴	-9.83169
▁시민	-9.83169
▁약물	-9.83169
▁얼마	-9.83169
▁에는	-9.83169
▁연루된	-9.83169
▁오바마와	-9.83169
▁옷을	-9.83169
▁음악	-9.83169
▁임기	-9.83169
▁잡고	-9.83169
▁전국	-9.83169
▁전부터	-9.83169
▁즉각적인	-9.83169
▁증가한	-9.83169
▁지지자들은	-9.83169
▁친	-9.83169
▁특정	-9.83169
▁합의했다고	-9.83169
▁휴대폰	-9.83169
▁1위를	-9.84822
▁5명의	-9.84822
▁AC	-9.84822
▁“그들은	-9.84822
▁같다”고	-9.84822
▁거리에	-9.84822
▁공항에	-9.84822
▁관계에	-9.84822
▁국민들이	-9.84822
▁당신은	-9.84822
▁독립	-9.84822
▁마치	-9.84822
▁맞서	-9.84822
▁비난	-9.84822
▁사라	-9.84822
▁사르코지는	-9.84822
▁상태가	-9.84822
▁식량	-9.84822
▁신임	-9.84822
▁아프가니스탄에서	-9.84822
▁언론에	-9.84822
▁연구는	-9.84822
▁완전한	-9.84822
▁외교부	-9.84822
▁요구	-9.84822
▁이에따라	-9.84822
▁인구가	-9.84822
▁인용	-9.84822
▁인질로	-9.84822
▁있다"며	-9.84822
▁장면이	-9.84822
▁전,	-9.84822
▁참여한	-9.84822
▁체포했다.	-9.84822
▁초점을	-9.84822
▁총선	-9.84822
▁치열한	-9.84822
▁카르자이	-9.84822
▁컴퓨터를	-9.84822
▁타임즈	-9.84822
▁평가했다.	-9.84822
▁폭발이	-9.84822
▁항공사	-9.84822
▁확실한	-9.84822
▁훌륭한	-9.84822
▁2세	-9.86503
▁“그	-9.86503
▁가족들이	-9.86503
▁감시	-9.86503
▁거래	-9.86503
▁나올	-9.86503
▁대단한	-9.86503
▁도시에서	-9.86503
▁뒤에	-9.86503
▁등에	-9.86503
▁물에	-9.86503
▁미칠	-9.86503
▁받았으며	-9.86503
▁받으며	-9.86503
▁방송을	-9.86503
▁보통	-9.86503
▁부상으로	-9.86503
▁비난하고	-9.86503
▁비자	-9.86503
▁생산	-9.86503
▁세계의	-9.86503
▁수색	-9.86503
▁승리할	-9.86503
▁아기	-9.86503
▁아마도	-9.86503
▁압둘	-9.86503
▁없지만	-9.86503
▁원유	-9.86503
▁위협이	-9.86503
▁이같이	-9.86503
▁이곳에	-9.86503
▁이미지를	-9.86503
▁일본에	-9.86503
▁입을	-9.86503
▁장관의	-9.86503
▁전력	-9.86503
▁전역에	-9.86503
▁전투	-9.86503
▁점차	-9.86503
▁증시는	-9.86503
▁집권	-9.86503
▁케빈	-9.86503
▁파병	-9.86503
▁평화를	-9.86503
▁했다는	-9.86503
▁혜택을	-9.86503
▁휴가를	-9.86503
▁2009.06	-9.88212
▁8명이	-9.88212
▁DNA	-9.88212
▁가족과	-9.88212
▁감염된	-9.88212
▁갖춘	-9.88212
▁개혁을	-9.88212
▁공개된	-9.88212
▁공개적으로	-9.88212
▁기록한	-9.88212
▁나의	-9.88212
▁논의하기	-9.88212
▁다르푸르	-9.88212
▁당선인의	-9.88212
▁든	-9.88212
▁딸	-9.88212
▁때,	-9.88212
▁로	-9.88212
▁마무드	-9.88212
▁마쳤다.	-9.88212
▁목격자들은	-9.88212
▁물	-9.88212
▁받아들일	-9.88212
▁발사	-9.88212
▁법원	-9.88212
▁베컴은	-9.88212
▁부상자	-9.88212
▁부패	-9.88212
▁세력이	-9.88212
▁수출	-9.88212
▁실패했다.	-9.88212
▁없다"고	-9.88212
▁여객기가	-9.88212
▁여성과	-9.88212
▁영향력을	-9.88212
▁오픈	-9.88212
▁오히려	-9.88212
▁움직임을	-9.88212
▁전세계적으로	-9.88212
▁정도의	-9.88212
▁제품	-9.88212
▁종교	-9.88212
▁칸	-9.88212
▁케네디	-9.88212
▁투표에서	-9.88212
▁펜실베이니아	-9.88212
▁해결할	-9.88212
▁화재로	-9.88212
▁가운데,	-9.89952
▁거쳐	-9.89952
▁국장은	-9.89952
▁규모	-9.89952
▁나라의	-9.89952
▁내무부는	-9.89952
▁낸시	-9.89952
▁낼	-9.89952
▁다우존스	-9.89952
▁단어장	-9.89952
▁단체가	-9.89952
▁대변인	-9.89952
▁대선후보	-9.89952
▁돈	-9.89952
▁둘러싼	-9.89952
▁또다시	-9.89952
▁말하며	-9.89952
▁모른다.	-9.89952
▁무사히	-9.89952
▁미국으로	-9.89952
▁미군을	-9.89952
▁번째로	-9.89952
▁벌이는	-9.89952
▁변호사	-9.89952
▁변호사가	-9.89952
▁부인	-9.89952
▁사고를	-9.89952
▁사람들과	-9.89952
▁사업을	-9.89952
▁세계적인	-9.89952
▁시기에	-9.89952
▁시절	-9.89952
▁안전하게	-9.89952
▁않겠다고	-9.89952
▁엄청난	-9.89952
▁연합	-9.89952
▁음식을	-9.89952
▁일으킨	-9.89952
▁제공할	-9.89952
▁조치는	-9.89952
▁증가했다고	-9.89952
▁체포	-9.89952
▁통신이	-9.89952
▁표를	-9.89952
▁홍수로	-9.89952
▁회의	-9.89952
▁2009년	-9.91722
▁거리를	-9.91722
▁경기가	-9.91722
▁과학	-9.91722
▁긍정적인	-9.91722
▁나오지	-9.91722
▁남북한	-9.91722
▁단체의	-9.91722
▁당국에	-9.91722
▁대의원을	-9.91722
▁목표를	-9.91722
▁백악관에서	-9.91722
▁보지	-9.91722
▁사기	-9.91722
▁사실은	-9.91722
▁상을	-9.91722
▁안정을	-9.91722
▁않게	-9.91722
▁알카에다와	-9.91722
▁우선	-9.91722
▁월요일에	-9.91722
▁이루어졌다.	-9.91722
▁자신과	-9.91722
▁절차를	-9.91722
▁정책에	-9.91722
▁종종	-9.91722
▁주장한	-9.91722
▁중대한	-9.91722
▁진술했다.	-9.91722
▁진행되는	-9.91722
▁차드	-9.91722
▁축구	-9.91722
▁칠레	-9.91722
▁캘리포니아주	-9.91722
▁패배를	-9.91722
▁하나인	-9.91722
▁행정부가	-9.91722
▁헨리	-9.91722
▁훈련	-9.91722
▁휘발유	-9.91722
▁1차	-9.93523
▁31일(현지시간)	-9.93523
▁6개월	-9.93523
▁CNN의	-9.93523
▁감독의	-9.93523
▁개발을	-9.93523
▁경찰서장은	-9.93523
▁공을	-9.93523
▁국제적	-9.93523
▁그린	-9.93523
▁글을	-9.93523
▁기회가	-9.93523
▁꼭	-9.93523
▁달리고	-9.93523
▁마무리	-9.93523
▁마틴	-9.93523
▁못했다”고	-9.93523
▁부시의	-9.93523
▁비난하는	-9.93523
▁사태	-9.93523
▁상태로	-9.93523
▁상태를	-9.93523
▁샤리프	-9.93523
▁성공적으로	-9.93523
▁성적	-9.93523
▁손에	-9.93523
▁승리로	-9.93523
▁시간)	-9.93523
▁쓴	-9.93523
▁아기를	-9.93523
▁아이가	-9.93523
▁여사는	-9.93523
▁오바마를	-9.93523
▁오바마에	-9.93523
▁위성	-9.93523
▁의원의	-9.93523
▁인용해	-9.93523
▁인질을	-9.93523
▁일에	-9.93523
▁있어서	-9.93523
▁있었다”며	-9.93523
▁잘못된	-9.93523
▁전해	-9.93523
▁제작한	-9.93523
▁조사가	-9.93523
▁주도한	-9.93523
▁지역에서는	-9.93523
▁질	-9.93523
▁참석할	-9.93523
▁참석했다.	-9.93523
▁철수	-9.93523
▁최대의	-9.93523
▁충돌이	-9.93523
▁태운	-9.93523
▁태평양	-9.93523
▁2차례	-9.95358
▁가족이	-9.95358
▁강도	-9.95358
▁갖추고	-9.95358
▁검찰이	-9.95358
▁것임을	-9.95358
▁경험이	-9.95358
▁공급	-9.95358
▁관광객	-9.95358
▁관영	-9.95358
▁교통	-9.95358
▁교황	-9.95358
▁교회	-9.95358
▁근처에서	-9.95358
▁넘어	-9.95358
▁누리	-9.95358
▁다시한번	-9.95358
▁도착한	-9.95358
▁된다는	-9.95358
▁마음을	-9.95358
▁맡고	-9.95358
▁모기지	-9.95358
▁무릎	-9.95358
▁미국인들이	-9.95358
▁반군의	-9.95358
▁발생하고	-9.95358
▁발표를	-9.95358
▁버스	-9.95358
▁북쪽으로	-9.95358
▁비교적	-9.95358
▁비행기를	-9.95358
▁사원	-9.95358
▁상태다.	-9.95358
▁상황은	-9.95358
▁세르비아	-9.95358
▁소식통이	-9.95358
▁소위	-9.95358
▁스위스	-9.95358
▁시위는	-9.95358
▁시작	-9.95358
▁아이들의	-9.95358
▁예비	-9.95358
▁올라	-9.95358
▁요청을	-9.95358
▁인간의	-9.95358
▁인기를	-9.95358
▁있었고	-9.95358
▁정권을	-9.95358
▁주둔하고	-9.95358
▁주에	-9.95358
▁지도	-9.95358
▁지도자가	-9.95358
▁지원할	-9.95358
▁짧은	-9.95358
▁차이가	-9.95358
▁책을	-9.95358
▁체포됐다고	-9.95358
▁충격을	-9.95358
▁치명적인	-9.95358
▁크리스	-9.95358
▁합의한	-9.95358
▁해도	-9.95358
▁행사	-9.95358
▁혼란을	-9.95358
▁화성	-9.95358
▁확인할	-9.95358
▁활동	-9.95358
▁후보인	-9.95358
▁희망을	-9.95358
▁힐튼은	-9.95358
▁1시간	-9.97228
▁“그가	-9.97228
▁가수	-9.97228
▁가족들은	-9.97228
▁검은	-9.97228
▁관련한	-9.97228
▁규정을	-9.97228
▁근거로	-9.97228
▁남부에서	-9.97228
▁도로를	-9.97228
▁들었다.	-9.97228
▁러시아,	-9.97228
▁마친	-9.97228
▁말할	-9.97228
▁맞춰	-9.97228
▁미군과	-9.97228
▁발견한	-9.97228
▁방식으로	-9.97228
▁법정	-9.97228
▁변호사인	-9.97228
▁별다른	-9.97228
▁보여주고	-9.97228
▁성인	-9.97228
▁속도로	-9.97228
▁수상한	-9.97228
▁수준으로	-9.97228
▁시신	-9.97228
▁알카에다의	-9.97228
▁언급을	-9.97228
▁에이즈	-9.97228
▁영화에	-9.97228
▁우리를	-9.97228
▁자기	-9.97228
▁절대	-9.97228
▁조기	-9.97228
▁중단할	-9.97228
▁즉각	-9.97228
▁지하	-9.97228
▁차지하고	-9.97228
▁투표에	-9.97228
▁표명했다.	-9.97228
▁행사를	-9.97228
▁헬기	-9.97228
▁헬기가	-9.97228
▁협상에	-9.97228
▁1994년	-9.99132
▁24시간	-9.99132
▁2번째	-9.99132
▁CIA	-9.99132
▁Iraq	-9.99132
▁President	-9.99132
▁at	-9.99132
▁̋	-9.99132
▁가량	-9.99132
▁건	-9.99132
▁결혼을	-9.99132
▁계속될	-9.99132
▁곳이다.	-9.99132
▁공습을	-9.99132
▁교도소에	-9.99132
▁교육을	-9.99132
▁그대로	-9.99132
▁그렇지	-9.99132
▁기독교	-9.99132
▁나에게	-9.99132
▁나은	-9.99132
▁네팔	-9.99132
▁눈을	-9.99132
▁뉴욕의	-9.99132
▁등으로	-9.99132
▁딕	-9.99132
▁리차드	-9.99132
▁밝혀	-9.99132
▁방문하는	-9.99132
▁사고는	-9.99132
▁사업	-9.99132
▁생명을	-9.99132
▁성관계를	-9.99132
▁세계적으로	-9.99132
▁소프트웨어	-9.99132
▁스리랑카	-9.99132
▁스타디움에서	-9.99132
▁시설	-9.99132
▁실시할	-9.99132
▁쓰고	-9.99132
▁아랍	-9.99132
▁아이오와	-9.99132
▁아파트	-9.99132
▁않기	-9.99132
▁알렉산더	-9.99132
▁압박을	-9.99132
▁여성들이	-9.99132
▁오하이오	-9.99132
▁운영하고	-9.99132
▁은행의	-9.99132
▁인근에서	-9.99132
▁자국	-9.99132
▁전날	-9.99132
▁전문가들이	-9.99132
▁총재는	-9.99132
▁촬영한	-9.99132
▁최근에	-9.99132
▁태풍	-9.99132
▁테러에	-9.99132
▁피해자	-9.99132
▁하루에	-9.99132
▁한나라당은	-9.99132
▁한나라당의	-9.99132
▁해안에서	-9.99132
▁(CNN)/	-10.0107
▁30분	-10.0107
▁CNN과의	-10.0107
▁nuclear	-10.0107
▁“내가	-10.0107
▁가자	-10.0107
▁가족은	-10.0107
▁가치를	-10.0107
▁같다.	-10.0107
▁결과로	-10.0107
▁결정할	-10.0107
▁계속되는	-10.0107
▁곳은	-10.0107
▁교황은	-10.0107
▁국가들은	-10.0107
▁남자는	-10.0107
▁남편	-10.0107
▁노력이	-10.0107
▁대표가	-10.0107
▁리	-10.0107
▁민감한	-10.0107
▁발표하고	-10.0107
▁방법은	-10.0107
▁부상	-10.0107
▁비타민	-10.0107
▁사람에게	-10.0107
▁사용하지	-10.0107
▁사형	-10.0107
▁선수가	-10.0107
▁시신이	-10.0107
▁아는	-10.0107
▁아이들은	-10.0107
▁양국의	-10.0107
▁예정인	-10.0107
▁음악을	-10.0107
▁의사들은	-10.0107
▁이동	-10.0107
▁이름이	-10.0107
▁이용하는	-10.0107
▁일본과	-10.0107
▁작업에	-10.0107
▁재판	-10.0107
▁전기	-10.0107
▁조건으로	-10.0107
▁종류의	-10.0107
▁주장하며	-10.0107
▁주장한다.	-10.0107
▁증시가	-10.0107
▁진정한	-10.0107
▁처벌을	-10.0107
▁철수를	-10.0107
▁킹	-10.0107
▁파업을	-10.0107
▁호주의	-10.0107
▁후진타오	-10.0107
▁5개	-10.0305
▁from	-10.0305
▁“현재	-10.0305
▁가족을	-10.0305
▁거주하고	-10.0305
▁걸린	-10.0305
▁고속도로	-10.0305
▁국가로	-10.0305
▁그룹	-10.0305
▁남성은	-10.0305
▁늦게	-10.0305
▁다리를	-10.0305
▁다섯	-10.0305
▁달린	-10.0305
▁당신의	-10.0305
▁대상이	-10.0305
▁대선후보로	-10.0305
▁대표	-10.0305
▁듣고	-10.0305
▁만	-10.0305
▁만일	-10.0305
▁목표는	-10.0305
▁무선	-10.0305
▁문제와	-10.0305
▁번	-10.0305
▁법안은	-10.0305
▁보게	-10.0305
▁부부가	-10.0305
▁부정적인	-10.0305
▁부통령은	-10.0305
▁살인	-10.0305
▁상태이다.	-10.0305
▁생각이	-10.0305
▁아들을	-10.0305
▁않는다는	-10.0305
▁앞둔	-10.0305
▁여부에	-10.0305
▁역사	-10.0305
▁원자로를	-10.0305
▁유권자	-10.0305
▁유권자들이	-10.0305
▁의사	-10.0305
▁이곳	-10.0305
▁이용할	-10.0305
▁자리에	-10.0305
▁절반	-10.0305
▁정권이	-10.0305
▁지점에서	-10.0305
▁짐	-10.0305
▁추락	-10.0305
▁출연한	-10.0305
▁충돌로	-10.0305
▁취임	-10.0305
▁클린턴의	-10.0305
▁팀이	-10.0305
▁패트릭	-10.0305
▁팬들은	-10.0305
▁폭력사태가	-10.0305
▁하락한	-10.0305
▁학교에	-10.0305
▁합동	-10.0305
▁협력	-10.0305
▁1명을	-10.0507
▁8명의	-10.0507
▁BBC	-10.0507
▁“우리	-10.0507
▁가득	-10.0507
▁거대	-10.0507
▁건물이	-10.0507
▁경제의	-10.0507
▁공개됐다.	-10.0507
▁구호를	-10.0507
▁국가들이	-10.0507
▁그들	-10.0507
▁노동	-10.0507
▁뉴질랜드	-10.0507
▁다니엘	-10.0507
▁단체인	-10.0507
▁담은	-10.0507
▁도시의	-10.0507
▁돕기	-10.0507
▁동일한	-10.0507
▁둘	-10.0507
▁드라마	-10.0507
▁드러냈다.	-10.0507
▁디지털	-10.0507
▁만들기	-10.0507
▁무고한	-10.0507
▁밝혔다고	-10.0507
▁밝혔지만	-10.0507
▁보도가	-10.0507
▁보잉	-10.0507
▁부대	-10.0507
▁북동부	-10.0507
▁북부에	-10.0507
▁사회적	-10.0507
▁상승한	-10.0507
▁생활	-10.0507
▁서	-10.0507
▁서방	-10.0507
▁성명은	-10.0507
▁소식에	-10.0507
▁소식은	-10.0507
▁소유하고	-10.0507
▁시드의	-10.0507
▁신고를	-10.0507
▁심각하게	-10.0507
▁아프간에서	-10.0507
▁않았던	-10.0507
▁양의	-10.0507
▁양측은	-10.0507
▁없게	-10.0507
▁원하고	-10.0507
▁위대한	-10.0507
▁유엔의	-10.0507
▁있었다는	-10.0507
▁있지만,	-10.0507
▁자택에서	-10.0507
▁주의를	-10.0507
▁줄일	-10.0507
▁직접적인	-10.0507
▁차이로	-10.0507
▁캠프	-10.0507
▁케리	-10.0507
▁파타	-10.0507
▁푸틴은	-10.0507
▁하마스가	-10.0507
▁한국,	-10.0507
▁해당하는	-10.0507
▁화요일에	-10.0507
▁환자	-10.0507
▁후보와	-10.0507
▁TV는	-10.0714
▁his	-10.0714
▁게	-10.0714
▁격렬한	-10.0714
▁결정했다고	-10.0714
▁국무부는	-10.0714
▁군이	-10.0714
▁기업의	-10.0714
▁끝날	-10.0714
▁도로	-10.0714
▁되길	-10.0714
▁딸을	-10.0714
▁맞는	-10.0714
▁모양의	-10.0714
▁못하도록	-10.0714
▁바란다고	-10.0714
▁발표됐다.	-10.0714
▁밝혀진	-10.0714
▁분석가들은	-10.0714
▁불에	-10.0714
▁붕괴	-10.0714
▁브라운은	-10.0714
▁블라고예비치	-10.0714
▁사과를	-10.0714
▁사용해	-10.0714
▁사이클론	-10.0714
▁사항을	-10.0714
▁성장을	-10.0714
▁손실을	-10.0714
▁수도인	-10.0714
▁수정	-10.0714
▁승객	-10.0714
▁실수를	-10.0714
▁아난	-10.0714
▁아버지가	-10.0714
▁아이	-10.0714
▁알래스카	-10.0714
▁야후	-10.0714
▁역사적	-10.0714
▁위치하고	-10.0714
▁이스라엘에	-10.0714
▁인도의	-10.0714
▁인질들을	-10.0714
▁일으킬	-10.0714
▁있었으나	-10.0714
▁장	-10.0714
▁장군은	-10.0714
▁전망했다.	-10.0714
▁조사한	-10.0714
▁지지자들이	-10.0714
▁통신	-10.0714
▁펠로시	-10.0714
▁평화와	-10.0714
▁하면서	-10.0714
▁했다”며	-10.0714
▁했으나	-10.0714
▁an	-10.0924
▁“내	-10.0924
▁감독	-10.0924
▁감사의	-10.0924
▁감염	-10.0924
▁개인적인	-10.0924
▁경쟁을	-10.0924
▁공습으로	-10.0924
▁광고를	-10.0924
▁논쟁을	-10.0924
▁논쟁이	-10.0924
▁놀라운	-10.0924
▁느낄	-10.0924
▁도시인	-10.0924
▁마을에서	-10.0924
▁말해	-10.0924
▁바라는	-10.0924
▁방문,	-10.0924
▁방향으로	-10.0924
▁번의	-10.0924
▁법원에서	-10.0924
▁보도에	-10.0924
▁복잡한	-10.0924
▁복제	-10.0924
▁불구하고,	-10.0924
▁비난하며	-10.0924
▁비용	-10.0924
▁사실에	-10.0924
▁사퇴	-10.0924
▁상원의원과	-10.0924
▁상원의원의	-10.0924
▁수술	-10.0924
▁수입	-10.0924
▁신규	-10.0924
▁신조	-10.0924
▁아일랜드	-10.0924
▁앉아	-10.0924
▁않기로	-10.0924
▁에드워즈	-10.0924
▁영국은	-10.0924
▁영국인	-10.0924
▁외무부는	-10.0924
▁용의자로	-10.0924
▁원	-10.0924
▁위원회	-10.0924
▁은행에	-10.0924
▁의하면,	-10.0924
▁일리노이	-10.0924
▁일어날	-10.0924
▁작전	-10.0924
▁전통적인	-10.0924
▁제공한	-10.0924
▁조종사	-10.0924
▁주가는	-10.0924
▁중이던	-10.0924
▁지도자는	-10.0924
▁직원들이	-10.0924
▁찬	-10.0924
▁충돌	-10.0924
▁캠페인을	-10.0924
▁키바키	-10.0924
▁판	-10.0924
▁페더러는	-10.0924
▁하나는	-10.0924
▁하미드	-10.0924
▁행사에	-10.0924
▁행정부의	-10.0924
▁힘입어	-10.0924
▁2005.10	-10.1139
▁3개월	-10.1139
▁“오늘	-10.1139
▁가벼운	-10.1139
▁갖는	-10.1139
▁건강이	-10.1139
▁겨울	-10.1139
▁경선을	-10.1139
▁경쟁	-10.1139
▁기소된	-10.1139
▁나설	-10.1139
▁남서부	-10.1139
▁노래를	-10.1139
▁높다고	-10.1139
▁당초	-10.1139
▁당했다고	-10.1139
▁대량	-10.1139
▁데에	-10.1139
▁딸이	-10.1139
▁때문이라고	-10.1139
▁또다른	-10.1139
▁로이터	-10.1139
▁말에	-10.1139
▁몸에	-10.1139
▁미치는	-10.1139
▁민주당이	-10.1139
▁받았던	-10.1139
▁밥	-10.1139
▁방글라데시	-10.1139
▁보여	-10.1139
▁보일	-10.1139
▁부분을	-10.1139
▁비행기가	-10.1139
▁상당의	-10.1139
▁상당히	-10.1139
▁상대	-10.1139
▁새벽	-10.1139
▁생산을	-10.1139
▁선포했다.	-10.1139
▁성향의	-10.1139
▁세계적	-10.1139
▁승무원	-10.1139
▁시장을	-10.1139
▁신	-10.1139
▁신문	-10.1139
▁아동	-10.1139
▁않는다”며	-10.1139
▁암	-10.1139
▁열고	-10.1139
▁영국과	-10.1139
▁올림픽을	-10.1139
▁왕자가	-10.1139
▁우리에게	-10.1139
▁원인은	-10.1139
▁위험을	-10.1139
▁유지하고	-10.1139
▁이와같이	-10.1139
▁인터넷에	-10.1139
▁일찍	-10.1139
▁자유롭게	-10.1139
▁자치정부	-10.1139
▁작가	-10.1139
▁정상회담을	-10.1139
▁죽음을	-10.1139
▁지원하고	-10.1139
▁지지하고	-10.1139
▁참여할	-10.1139
▁처한	-10.1139
▁천연가스	-10.1139
▁총상을	-10.1139
▁출연	-10.1139
▁코미디	-10.1139
▁클린턴에	-10.1139
▁테러는	-10.1139
▁투자를	-10.1139
▁포함된	-10.1139
▁하에	-10.1139
▁한국을	-10.1139
▁행위에	-10.1139
▁활동에	-10.1139
▁회사를	-10.1139
▁회의에	-10.1139
▁효과가	-10.1139
▁"나는	-10.1359
▁10년간	-10.1359
▁1주일	-10.1359
▁3개	-10.1359
▁3번째	-10.1359
▁6명의	-10.1359
▁가족의	-10.1359
▁건강한	-10.1359
▁국가에서	-10.1359
▁그녀를	-10.1359
▁기록	-10.1359
▁나달은	-10.1359
▁나라	-10.1359
▁나이가	-10.1359
▁남부에	-10.1359
▁남편인	-10.1359
▁대다수	-10.1359
▁대중	-10.1359
▁데이빗	-10.1359
▁됐으며	-10.1359
▁라이언	-10.1359
▁라파엘	-10.1359
▁막대한	-10.1359
▁만났다.	-10.1359
▁몰고	-10.1359
▁무엇보다	-10.1359
▁미스	-10.1359
▁방송에	-10.1359
▁보호를	-10.1359
▁북서부	-10.1359
▁불이	-10.1359
▁사전	-10.1359
▁상원의원을	-10.1359
▁상태에서	-10.1359
▁석방	-10.1359
▁성화	-10.1359
▁소규모	-10.1359
▁쉽지	-10.1359
▁아내	-10.1359
▁아니라는	-10.1359
▁아들이	-10.1359
▁알지	-10.1359
▁앤드류	-10.1359
▁언론의	-10.1359
▁완벽한	-10.1359
▁요구하며	-10.1359
▁우고	-10.1359
▁우크라이나	-10.1359
▁위로	-10.1359
▁위협하고	-10.1359
▁이끌고	-10.1359
▁이란과	-10.1359
▁이익을	-10.1359
▁일이라고	-10.1359
▁있어야	-10.1359
▁전국적으로	-10.1359
▁제출한	-10.1359
▁조사는	-10.1359
▁조사할	-10.1359
▁즐길	-10.1359
▁증가할	-10.1359
▁지역인	-10.1359
▁지원하는	-10.1359
▁최선을	-10.1359
▁친구	-10.1359
▁타임즈가	-10.1359
▁탈레반이	-10.1359
▁투르	-10.1359
▁투어	-10.1359
▁평화적	-10.1359
▁포함돼	-10.1359
▁폭우로	-10.1359
▁하나로	-10.1359
▁홍수	-10.1359
▁3명을	-10.1584
▁9명이	-10.1584
▁“만약	-10.1584
▁“우리가	-10.1584
▁강제로	-10.1584
▁건강에	-10.1584
▁고려하고	-10.1584
▁공격한	-10.1584
▁공산당	-10.1584
▁국가에	-10.1584
▁국민의	-10.1584
▁권리가	-10.1584
▁남성의	-10.1584
▁남아공	-10.1584
▁내려	-10.1584
▁니콜	-10.1584
▁다이애나	-10.1584
▁대책을	-10.1584
▁대학에서	-10.1584
▁대회를	-10.1584
▁러시아가	-10.1584
▁로저	-10.1584
▁마흐디	-10.1584
▁메르켈	-10.1584
▁반대로	-10.1584
▁발표했습니다.	-10.1584
▁법안에	-10.1584
▁보고서에따르면	-10.1584
▁보내	-10.1584
▁보이며	-10.1584
▁보인	-10.1584
▁부토의	-10.1584
▁사망자는	-10.1584
▁사용	-10.1584
▁사진이	-10.1584
▁살해된	-10.1584
▁삼성	-10.1584
▁서장은	-10.1584
▁수감자	-10.1584
▁수입을	-10.1584
▁술을	-10.1584
▁숨을	-10.1584
▁시위대	-10.1584
▁시작했다고	-10.1584
▁실린	-10.1584
▁싱가포르	-10.1584
▁않았다”며	-10.1584
▁앞서고	-10.1584
▁양국은	-10.1584
▁얻고	-10.1584
▁연간	-10.1584
▁열대성	-10.1584
▁옆에	-10.1584
▁오래	-10.1584
▁위험	-10.1584
▁유럽에서	-10.1584
▁이제는	-10.1584
▁일련의	-10.1584
▁일주일	-10.1584
▁전문	-10.1584
▁전하고	-10.1584
▁정신적	-10.1584
▁제외한	-10.1584
▁좋아하는	-10.1584
▁준비하고	-10.1584
▁지고	-10.1584
▁지구에	-10.1584
▁지시했다.	-10.1584
▁참석하지	-10.1584
▁코소보	-10.1584
▁탈레반은	-10.1584
▁트럭	-10.1584
▁팀을	-10.1584
▁팀의	-10.1584
▁프라이머리에서	-10.1584
▁프랭크	-10.1584
▁해서	-10.1584
▁향하는	-10.1584
▁확산되고	-10.1584
▁20명이	-10.1814
▁6년	-10.1814
▁National	-10.1814
▁over	-10.1814
▁가능성도	-10.1814
▁가했다.	-10.1814
▁간에	-10.1814
▁개를	-10.1814
▁건물에	-10.1814
▁경매에	-10.1814
▁계속된	-10.1814
▁계획하고	-10.1814
▁군부	-10.1814
▁군인들이	-10.1814
▁기소됐다.	-10.1814
▁나타내는	-10.1814
▁남편이	-10.1814
▁내고	-10.1814
▁노조	-10.1814
▁다우	-10.1814
▁대법원은	-10.1814
▁동영상이	-10.1814
▁두번째	-10.1814
▁들어간	-10.1814
▁들어갈	-10.1814
▁또한,	-10.1814
▁리비아	-10.1814
▁말했습니다.”	-10.1814
▁목사는	-10.1814
▁무엇을	-10.1814
▁방문은	-10.1814
▁방문해	-10.1814
▁법	-10.1814
▁법정에서	-10.1814
▁보고서가	-10.1814
▁봄	-10.1814
▁북한,	-10.1814
▁비롯,	-10.1814
▁사진은	-10.1814
▁사형을	-10.1814
▁성공한	-10.1814
▁소속의	-10.1814
▁시드니	-10.1814
▁아프간에	-10.1814
▁야생	-10.1814
▁엄격한	-10.1814
▁여론조사에서	-10.1814
▁예상하고	-10.1814
▁예정이었다.	-10.1814
▁왕자는	-10.1814
▁요구했다고	-10.1814
▁용의자는	-10.1814
▁이뤄진	-10.1814
▁이용한	-10.1814
▁일본인	-10.1814
▁전역에서	-10.1814
▁제리	-10.1814
▁조직	-10.1814
▁중에서	-10.1814
▁증언을	-10.1814
▁찬성	-10.1814
▁추정하고	-10.1814
▁카메라를	-10.1814
▁타이틀을	-10.1814
▁탑승한	-10.1814
▁터키의	-10.1814
▁판결이	-10.1814
▁팬들이	-10.1814
▁펼쳤다.	-10.1814
▁플레이를	-10.1814
▁필요로	-10.1814
▁했었다.	-10.1814
▁호소했다.	-10.1814
▁회장이	-10.1814
▁효과를	-10.1814
▁"이번	-10.2049
▁(현지	-10.2049
▁11명이	-10.2049
▁3명은	-10.2049
▁CBS	-10.2049
▁NBC	-10.2049
▁Obama	-10.2049
▁are	-10.2049
▁not	-10.2049
▁‘더	-10.2049
▁가족들과	-10.2049
▁경험을	-10.2049
▁공장	-10.2049
▁관광	-10.2049
▁군사적	-10.2049
▁높아지고	-10.2049
▁느끼고	-10.2049
▁다음날	-10.2049
▁달러가	-10.2049
▁덴마크	-10.2049
▁때는	-10.2049
▁떠나	-10.2049
▁떠났다.	-10.2049
▁래리	-10.2049
▁마드리드	-10.2049
▁맞고	-10.2049
▁모르는	-10.2049
▁모른다고	-10.2049
▁무장세력이	-10.2049
▁발표는	-10.2049
▁방문에	-10.2049
▁방법에	-10.2049
▁범인이	-10.2049
▁벤	-10.2049
▁보고를	-10.2049
▁보내고	-10.2049
▁보냈다고	-10.2049
▁사용하고	-10.2049
▁섬	-10.2049
▁소형	-10.2049
▁수행할	-10.2049
▁시작으로	-10.2049
▁신속히	-10.2049
▁씨가	-10.2049
▁아버지는	-10.2049
▁안으로	-10.2049
▁않다”고	-10.2049
▁않았다는	-10.2049
▁않았으나	-10.2049
▁야후의	-10.2049
▁얻어	-10.2049
▁여섯	-10.2049
▁연구소의	-10.2049
▁열렸다.	-10.2049
▁영국군	-10.2049
▁예전	-10.2049
▁오스트리아	-10.2049
▁외교통상부	-10.2049
▁우주선	-10.2049
▁움직임은	-10.2049
▁유죄를	-10.2049
▁이곳은	-10.2049
▁이루어진	-10.2049
▁일하고	-10.2049
▁잃었다.	-10.2049
▁있은	-10.2049
▁작업이	-10.2049
▁전반적인	-10.2049
▁직원이	-10.2049
▁최첨단	-10.2049
▁취한	-10.2049
▁폭력을	-10.2049
▁하거나	-10.2049
▁행동에	-10.2049
▁행정부는	-10.2049
▁허가를	-10.2049
▁확인	-10.2049
▁힘들	-10.2049
▁1990년대	-10.229
▁3명	-10.229
▁4개	-10.229
▁China	-10.229
▁“이라크	-10.229
▁“지난	-10.229
▁가고	-10.229
▁가택연금	-10.229
▁감바리	-10.229
▁강진이	-10.229
▁것이었다.	-10.229
▁견해를	-10.229
▁결정이	-10.229
▁경기는	-10.229
▁공개한	-10.229
▁공항을	-10.229
▁광고	-10.229
▁광범위한	-10.229
▁구제	-10.229
▁국제유가가	-10.229
▁국제적인	-10.229
▁금요일	-10.229
▁기사를	-10.229
▁길이	-10.229
▁나가	-10.229
▁남자를	-10.229
▁내려진	-10.229
▁널리	-10.229
▁넘게	-10.229
▁노동자	-10.229
▁농축	-10.229
▁뉴	-10.229
▁당해	-10.229
▁도착할	-10.229
▁동안의	-10.229
▁떠날	-10.229
▁리그	-10.229
▁마카오	-10.229
▁매들린	-10.229
▁매케인의	-10.229
▁모델	-10.229
▁무샤라프는	-10.229
▁민주주의를	-10.229
▁바이러스	-10.229
▁받았다”고	-10.229
▁보고서	-10.229
▁보고서에	-10.229
▁부대를	-10.229
▁브라이언	-10.229
▁비디오를	-10.229
▁비행을	-10.229
▁사용된	-10.229
▁사임을	-10.229
▁사퇴를	-10.229
▁상원의원	-10.229
▁상처를	-10.229
▁샌프란시스코	-10.229
▁생각한다”며	-10.229
▁성공을	-10.229
▁수사에	-10.229
▁숨졌으며	-10.229
▁아버지	-10.229
▁알리는	-10.229
▁앞으로도	-10.229
▁약간의	-10.229
▁연기를	-10.229
▁영화가	-10.229
▁예정”이라고	-10.229
▁왼쪽	-10.229
▁음반	-10.229
▁의견이	-10.229
▁의사는	-10.229
▁의원들이	-10.229
▁의회를	-10.229
▁이내에	-10.229
▁이메일을	-10.229
▁인구의	-10.229
▁인사를	-10.229
▁일본을	-10.229
▁잇는	-10.229
▁제출했다.	-10.229
▁제치고	-10.229
▁조지아주	-10.229
▁존스	-10.229
▁중의	-10.229
▁지역이	-10.229
▁집중	-10.229
▁차관은	-10.229
▁총격	-10.229
▁총에	-10.229
▁최저	-10.229
▁치러지는	-10.229
▁카를로스	-10.229
▁칼	-10.229
▁커다란	-10.229
▁통과시켰다.	-10.229
▁페루	-10.229
▁한국군	-10.229
▁합의에	-10.229
▁핵실험을	-10.229
▁현재는	-10.229
▁회원국	-10.229
▁"라고	-10.2537
▁2	-10.2537
▁2개	-10.2537
▁its	-10.2537
▁new	-10.2537
▁“많은	-10.2537
▁“매우	-10.2537
▁“미국	-10.2537
▁“부시	-10.2537
▁가	-10.2537
▁거부권을	-10.2537
▁거절했다.	-10.2537
▁결승전에서	-10.2537
▁결정적인	-10.2537
▁계속할	-10.2537
▁고위급	-10.2537
▁공개하지	-10.2537
▁관계자의	-10.2537
▁국가들의	-10.2537
▁규모를	-10.2537
▁근처	-10.2537
▁금리를	-10.2537
▁나라를	-10.2537
▁납치한	-10.2537
▁내렸다고	-10.2537
▁내지	-10.2537
▁높게	-10.2537
▁다우지수는	-10.2537
▁달간	-10.2537
▁당부했다.	-10.2537
▁대선에	-10.2537
▁되었다고	-10.2537
▁떠난	-10.2537
▁런던의	-10.2537
▁론	-10.2537
▁매케인이	-10.2537
▁목소리를	-10.2537
▁목적을	-10.2537
▁무장세력의	-10.2537
▁미국측	-10.2537
▁미래에	-10.2537
▁미리	-10.2537
▁민주당은	-10.2537
▁반면,	-10.2537
▁법원의	-10.2537
▁베네딕토	-10.2537
▁베트남	-10.2537
▁변화에	-10.2537
▁보여줬다.	-10.2537
▁부족한	-10.2537
▁분위기를	-10.2537
▁상승했습니다.	-10.2537
▁서신을	-10.2537
▁성과를	-10.2537
▁수반은	-10.2537
▁시신은	-10.2537
▁시위대를	-10.2537
▁시위자들은	-10.2537
▁실험을	-10.2537
▁심하게	-10.2537
▁아름다운	-10.2537
▁아마디네자드	-10.2537
▁아버지인	-10.2537
▁않았고	-10.2537
▁언제	-10.2537
▁얻게	-10.2537
▁얼굴을	-10.2537
▁여지가	-10.2537
▁역사를	-10.2537
▁연구가	-10.2537
▁연구원은	-10.2537
▁열린우리당	-10.2537
▁영국에	-10.2537
▁오늘날	-10.2537
▁왕자의	-10.2537
▁용의자들을	-10.2537
▁원인이	-10.2537
▁원자로	-10.2537
▁위원장이	-10.2537
▁이처럼	-10.2537
▁이후에	-10.2537
▁일어나는	-10.2537
▁자녀를	-10.2537
▁잘못	-10.2537
▁적극적으로	-10.2537
▁전략을	-10.2537
▁전인	-10.2537
▁전체가	-10.2537
▁정권	-10.2537
▁제시했다.	-10.2537
▁존슨	-10.2537
▁좀더	-10.2537
▁주기	-10.2537
▁주민들을	-10.2537
▁주민들의	-10.2537
▁직원들은	-10.2537
▁차지하는	-10.2537
▁찾지	-10.2537
▁초에	-10.2537
▁치러질	-10.2537
▁콩고	-10.2537
▁통일부	-10.2537
▁투표가	-10.2537
▁폐쇄	-10.2537
▁포함하여	-10.2537
▁플라스틱	-10.2537
▁학교에서	-10.2537
▁향한	-10.2537
▁현대	-10.2537
▁화려한	-10.2537
▁활동이	-10.2537
▁1980년대	-10.279
▁1991년	-10.279
▁3분의	-10.279
▁4번째	-10.279
▁5년간	-10.279
▁FBI는	-10.279
▁NASA는	-10.279
▁가난한	-10.279
▁감정을	-10.279
▁건물을	-10.279
▁군과	-10.279
▁기존	-10.279
▁긴장이	-10.279
▁나이지리아	-10.279
▁남성을	-10.279
▁남아있는	-10.279
▁내려졌다.	-10.279
▁내용에	-10.279
▁누구도	-10.279
▁다니는	-10.279
▁담고	-10.279
▁담당자는	-10.279
▁당선인이	-10.279
▁대로	-10.279
▁데리고	-10.279
▁동영상에서	-10.279
▁되며	-10.279
▁들어갔다.	-10.279
▁로봇	-10.279
▁마찬가지	-10.279
▁맞은	-10.279
▁맡았다.	-10.279
▁머리	-10.279
▁미국인들은	-10.279
▁미얀마의	-10.279
▁바꿀	-10.279
▁발견되었다.	-10.279
▁범죄를	-10.279
▁법률	-10.279
▁법안	-10.279
▁비가	-10.279
▁사이트를	-10.279
▁생각하지	-10.279
▁선고했다.	-10.279
▁선수들이	-10.279
▁세력을	-10.279
▁소년이	-10.279
▁소식	-10.279
▁스웨덴	-10.279
▁아르헨티나	-10.279
▁않으며	-10.279
▁앞섰다.	-10.279
▁에릭	-10.279
▁연	-10.279
▁연구원들은	-10.279
▁연락을	-10.279
▁영화에서	-10.279
▁왔다고	-10.279
▁위원회의	-10.279
▁위협에	-10.279
▁유력한	-10.279
▁유죄판결을	-10.279
▁의미한다.	-10.279
▁의심되는	-10.279
▁이란을	-10.279
▁이뤄질	-10.279
▁이유가	-10.279
▁일으켰다.	-10.279
▁임신	-10.279
▁자살폭탄테러가	-10.279
▁자유	-10.279
▁장관과	-10.279
▁재정	-10.279
▁전에는	-10.279
▁전해졌다.	-10.279
▁정기적으로	-10.279
▁제시한	-10.279
▁제조	-10.279
▁주식을	-10.279
▁중단	-10.279
▁중단을	-10.279
▁지나	-10.279
▁진전이	-10.279
▁총기를	-10.279
▁총리,	-10.279
▁출연했다.	-10.279
▁치를	-10.279
▁카터	-10.279
▁파업	-10.279
▁하다.	-10.279
▁한번	-10.279
▁형태의	-10.279
▁호텔에	-10.279
▁화산	-10.279
▁확인되지	-10.279
▁12명이	-10.305
▁2년간	-10.305
▁2배	-10.305
▁50%	-10.305
▁7명의	-10.305
▁IAEA	-10.305
▁has	-10.305
▁가해	-10.305
▁간단한	-10.305
▁개발한	-10.305
▁결혼식을	-10.305
▁경계	-10.305
▁경고를	-10.305
▁교도소에서	-10.305
▁기능을	-10.305
▁기본	-10.305
▁긴장을	-10.305
▁꺾고	-10.305
▁나무	-10.305
▁냈다.	-10.305
▁누군가가	-10.305
▁다쳤다.	-10.305
▁달러로	-10.305
▁대통령으로	-10.305
▁대표하는	-10.305
▁돌아갈	-10.305
▁들어가	-10.305
▁론스타	-10.305
▁리콜	-10.305
▁마리아	-10.305
▁망명	-10.305
▁못했지만	-10.305
▁무슨	-10.305
▁무장단체	-10.305
▁묻는	-10.305
▁미디어	-10.305
▁반군은	-10.305
▁반대하고	-10.305
▁밝혔으며	-10.305
▁백인	-10.305
▁병력이	-10.305
▁보좌관은	-10.305
▁분쟁을	-10.305
▁불러	-10.305
▁뿐이라고	-10.305
▁서브프라임	-10.305
▁수십명이	-10.305
▁수치는	-10.305
▁승인했다.	-10.305
▁싶지	-10.305
▁아시아의	-10.305
▁안보를	-10.305
▁않는다면	-10.305
▁알카에다가	-10.305
▁언급하며	-10.305
▁업무를	-10.305
▁여러번	-10.305
▁연기	-10.305
▁열심히	-10.305
▁옛	-10.305
▁원래	-10.305
▁위반	-10.305
▁위하여	-10.305
▁유럽과	-10.305
▁유럽연합(EU)	-10.305
▁일제히	-10.305
▁자격이	-10.305
▁자세히	-10.305
▁장관	-10.305
▁재개	-10.305
▁재판에서	-10.305
▁전통	-10.305
▁정부에서	-10.305
▁조사에따르면	-10.305
▁조직을	-10.305
▁조치로	-10.305
▁주요한	-10.305
▁줄이기	-10.305
▁지속적으로	-10.305
▁진행될	-10.305
▁참가한	-10.305
▁출신인	-10.305
▁출전	-10.305
▁출전하지	-10.305
▁출전할	-10.305
▁크기의	-10.305
▁테이프를	-10.305
▁통화	-10.305
▁편지를	-10.305
▁평화적인	-10.305
▁프랑스에서	-10.305
▁피하기	-10.305
▁하다	-10.305
▁하도록	-10.305
▁항의하는	-10.305
▁해결	-10.305
▁해안에	-10.305
▁해양	-10.305
▁헤럴드는	-10.305
▁환자가	-10.305
▁10명의	-10.3316
▁1996년	-10.3316
▁2명과	-10.3316
▁Japan	-10.3316
▁NASA	-10.3316
▁government	-10.3316
▁“미국은	-10.3316
▁“앞으로	-10.3316
▁가져올	-10.3316
▁각종	-10.3316
▁결의안	-10.3316
▁경고	-10.3316
▁경찰관	-10.3316
▁계속하고	-10.3316
▁고양이	-10.3316
▁고이즈미	-10.3316
▁공정한	-10.3316
▁관련하여	-10.3316
▁관타나모	-10.3316
▁교전을	-10.3316
▁국방	-10.3316
▁국회의원	-10.3316
▁굴	-10.3316
▁글로벌	-10.3316
▁기념	-10.3316
▁기상	-10.3316
▁기지를	-10.3316
▁남부의	-10.3316
▁남자의	-10.3316
▁논의	-10.3316
▁뉴욕주	-10.3316
▁다리	-10.3316
▁다소	-10.3316
▁던진	-10.3316
▁리히터	-10.3316
▁말이	-10.3316
▁말했다”고	-10.3316
▁먹고	-10.3316
▁무장한	-10.3316
▁미래를	-10.3316
▁박근혜	-10.3316
▁받아왔다.	-10.3316
▁벌써	-10.3316
▁별	-10.3316
▁보다는	-10.3316
▁보수	-10.3316
▁보스턴	-10.3316
▁보유한	-10.3316
▁분노를	-10.3316
▁분량의	-10.3316
▁불법으로	-10.3316
▁비롯	-10.3316
▁사고의	-10.3316
▁사용을	-10.3316
▁사회에	-10.3316
▁상황이다.	-10.3316
▁샌디에이고	-10.3316
▁선거가	-10.3316
▁선수로	-10.3316
▁센터	-10.3316
▁소리를	-10.3316
▁소유한	-10.3316
▁수감	-10.3316
▁수천명이	-10.3316
▁수퍼	-10.3316
▁시리즈	-10.3316
▁실시했다.	-10.3316
▁실패한	-10.3316
▁싶다”고	-10.3316
▁알렉스	-10.3316
▁알코올	-10.3316
▁에어버스	-10.3316
▁엘	-10.3316
▁예상되고	-10.3316
▁오른쪽	-10.3316
▁용의자를	-10.3316
▁위치를	-10.3316
▁유권자들은	-10.3316
▁의문을	-10.3316
▁의원을	-10.3316
▁이곳을	-10.3316
▁이른	-10.3316
▁이름으로	-10.3316
▁이스라엘을	-10.3316
▁인상을	-10.3316
▁일이다.	-10.3316
▁있는데	-10.3316
▁자국의	-10.3316
▁작품을	-10.3316
▁적합한	-10.3316
▁전투를	-10.3316
▁접촉을	-10.3316
▁정부군이	-10.3316
▁제품을	-10.3316
▁조직의	-10.3316
▁죽음에	-10.3316
▁중단했다.	-10.3316
▁중이며	-10.3316
▁즐기는	-10.3316
▁증가하는	-10.3316
▁직전	-10.3316
▁집회에	-10.3316
▁찍은	-10.3316
▁최고치를	-10.3316
▁추정된다.	-10.3316
▁출신으로	-10.3316
▁취하고	-10.3316
▁측이	-10.3316
▁케이트	-10.3316
▁클린턴과	-10.3316
▁파리에서	-10.3316
▁평가를	-10.3316
▁포드	-10.3316
▁폭력사태로	-10.3316
▁프랑스,	-10.3316
▁피랍된	-10.3316
▁하마스의	-10.3316
▁학생이	-10.3316
▁항의	-10.3316
▁현상이	-10.3316
▁협력을	-10.3316
▁활동하고	-10.3316
▁회사에	-10.3316
▁1993년	-10.359
▁1명의	-10.359
▁2개의	-10.359
▁by	-10.359
▁“이런	-10.359
▁가상	-10.359
▁가을	-10.359
▁감독을	-10.359
▁거래됐다.	-10.359
▁거리에서	-10.359
▁검토	-10.359
▁검토하고	-10.359
▁경계를	-10.359
▁급격히	-10.359
▁기분이	-10.359
▁기술이	-10.359
▁남쪽으로	-10.359
▁노대통령은	-10.359
▁뉴욕에	-10.359
▁늘어날	-10.359
▁다룬	-10.359
▁단순히	-10.359
▁담배	-10.359
▁당의	-10.359
▁대비해	-10.359
▁대표단은	-10.359
▁대피했다.	-10.359
▁대회에	-10.359
▁돌아올	-10.359
▁동맹	-10.359
▁드는	-10.359
▁레이스를	-10.359
▁먼	-10.359
▁목요일에	-10.359
▁무료	-10.359
▁무죄를	-10.359
▁발견되지	-10.359
▁방송에서	-10.359
▁방향을	-10.359
▁벌어졌다.	-10.359
▁벌일	-10.359
▁본부를	-10.359
▁부상자가	-10.359
▁부인인	-10.359
▁북한과의	-10.359
▁사무실	-10.359
▁사용되는	-10.359
▁새롭게	-10.359
▁선박이	-10.359
▁선수들은	-10.359
▁선택할	-10.359
▁수감된	-10.359
▁수사가	-10.359
▁수사관들은	-10.359
▁수상	-10.359
▁수요일에	-10.359
▁수의	-10.359
▁스페인의	-10.359
▁신원이	-10.359
▁실시될	-10.359
▁실종	-10.359
▁쓰는	-10.359
▁쓰촨성	-10.359
▁씨의	-10.359
▁안전에	-10.359
▁애플	-10.359
▁에드워드	-10.359
▁연례	-10.359
▁영상을	-10.359
▁예측했다.	-10.359
▁워싱턴의	-10.359
▁웨스트	-10.359
▁웹사이트	-10.359
▁유엔이	-10.359
▁의미가	-10.359
▁이들에게	-10.359
▁이브라힘	-10.359
▁인도네시아의	-10.359
▁일고	-10.359
▁있기를	-10.359
▁자동차를	-10.359
▁재무장관은	-10.359
▁재판에	-10.359
▁재판이	-10.359
▁전쟁이	-10.359
▁정부군과	-10.359
▁제작	-10.359
▁줄을	-10.359
▁지도자들을	-10.359
▁지지자들에게	-10.359
▁징역형을	-10.359
▁청소년	-10.359
▁카스트로	-10.359
▁토대로	-10.359
▁파업에	-10.359
▁판결에	-10.359
▁퍼거슨	-10.359
▁포함됐다.	-10.359
▁폭	-10.359
▁프로그램의	-10.359
▁필라델피아	-10.359
▁하이브리드	-10.359
▁핵시설	-10.359
▁행위는	-10.359
▁행진을	-10.359
▁확인됐다.	-10.359
▁30년	-10.3872
▁5명	-10.3872
▁as	-10.3872
▁“오바마	-10.3872
▁가짜	-10.3872
▁각국	-10.3872
▁갔다.	-10.3872
▁개발에	-10.3872
▁거리	-10.3872
▁거부한	-10.3872
▁거짓말을	-10.3872
▁겨냥한	-10.3872
▁고등학교	-10.3872
▁고어	-10.3872
▁교도소	-10.3872
▁구속	-10.3872
▁국민을	-10.3872
▁국방부가	-10.3872
▁국회에	-10.3872
▁군의	-10.3872
▁권고했다.	-10.3872
▁권력	-10.3872
▁그들에게	-10.3872
▁금리	-10.3872
▁남성과	-10.3872
▁내의	-10.3872
▁노력할	-10.3872
▁느끼는	-10.3872
▁담배를	-10.3872
▁도시를	-10.3872
▁도울	-10.3872
▁두바이	-10.3872
▁둘러싸고	-10.3872
▁레이건	-10.3872
▁마리	-10.3872
▁멸종	-10.3872
▁모두에게	-10.3872
▁모스크바	-10.3872
▁못했던	-10.3872
▁문제들을	-10.3872
▁물건을	-10.3872
▁미첼	-10.3872
▁받아들이지	-10.3872
▁방식을	-10.3872
▁보여준다.	-10.3872
▁부분이	-10.3872
▁북한에서	-10.3872
▁사상자가	-10.3872
▁사용했다.	-10.3872
▁사회의	-10.3872
▁산불이	-10.3872
▁상원의원에	-10.3872
▁상호	-10.3872
▁서울에	-10.3872
▁선거운동	-10.3872
▁세계를	-10.3872
▁세계은행	-10.3872
▁소수	-10.3872
▁수백명이	-10.3872
▁시내	-10.3872
▁시인했다.	-10.3872
▁아니며	-10.3872
▁아무것도	-10.3872
▁아이들	-10.3872
▁알렸다.	-10.3872
▁언급한	-10.3872
▁얻지	-10.3872
▁없고	-10.3872
▁없다며	-10.3872
▁여성들은	-10.3872
▁연구에서	-10.3872
▁연기가	-10.3872
▁열었다.	-10.3872
▁영국,	-10.3872
▁운영	-10.3872
▁움직임이	-10.3872
▁윔블던	-10.3872
▁유감을	-10.3872
▁유대인	-10.3872
▁유세를	-10.3872
▁의견	-10.3872
▁이라크로	-10.3872
▁이뤄졌다.	-10.3872
▁이탈리아의	-10.3872
▁인도분	-10.3872
▁인질들이	-10.3872
▁일어났다.	-10.3872
▁임기를	-10.3872
▁입수한	-10.3872
▁있었습니다.	-10.3872
▁자금이	-10.3872
▁적십자	-10.3872
▁전력을	-10.3872
▁전시	-10.3872
▁전쟁으로	-10.3872
▁전합니다.	-10.3872
▁정당	-10.3872
▁정상회담	-10.3872
▁제2차	-10.3872
▁주었다.	-10.3872
▁총리에게	-10.3872
▁취하지	-10.3872
▁캄보디아	-10.3872
▁코소보의	-10.3872
▁탐사	-10.3872
▁테러와의	-10.3872
▁텍사스주	-10.3872
▁특사는	-10.3872
▁파키스탄에	-10.3872
▁페일린	-10.3872
▁폭탄테러	-10.3872
▁프로그램이	-10.3872
▁피할	-10.3872
▁학생들에게	-10.3872
▁항공은	-10.3872
▁협정을	-10.3872
▁1970년대	-10.4162
▁1989년	-10.4162
▁1위	-10.4162
▁2010년	-10.4162
▁2012년	-10.4162
▁2가지	-10.4162
▁FBI	-10.4162
▁Minister	-10.4162
▁S.	-10.4162
▁“저는	-10.4162
▁가자지구를	-10.4162
▁가족들에게	-10.4162
▁강타한	-10.4162
▁개선을	-10.4162
▁개최	-10.4162
▁거리로	-10.4162
▁경쟁자인	-10.4162
▁공대	-10.4162
▁공산주의	-10.4162
▁과정에	-10.4162
▁교전이	-10.4162
▁교착	-10.4162
▁그곳에서	-10.4162
▁기자의	-10.4162
▁끝까지	-10.4162
▁내리는	-10.4162
▁넣었다.	-10.4162
▁노력의	-10.4162
▁눈	-10.4162
▁다리가	-10.4162
▁단체를	-10.4162
▁답변을	-10.4162
▁당선자는	-10.4162
▁대사관은	-10.4162
▁돈이	-10.4162
▁돌을	-10.4162
▁들어가는	-10.4162
▁라이벌인	-10.4162
▁먹는	-10.4162
▁명백한	-10.4162
▁명확히	-10.4162
▁미군에	-10.4162
▁믿을	-10.4162
▁바닥에	-10.4162
▁박사가	-10.4162
▁밝혔었다.	-10.4162
▁벌였다고	-10.4162
▁병사들이	-10.4162
▁보도에따르면	-10.4162
▁보였다고	-10.4162
▁부모가	-10.4162
▁부문	-10.4162
▁부분은	-10.4162
▁부인하고	-10.4162
▁분석했다.	-10.4162
▁분야에	-10.4162
▁분쟁이	-10.4162
▁비상사태	-10.4162
▁사례가	-10.4162
▁사망자를	-10.4162
▁사상자	-10.4162
▁사설	-10.4162
▁상원의원인	-10.4162
▁생존자	-10.4162
▁샤리프는	-10.4162
▁석방된	-10.4162
▁선두	-10.4162
▁선원	-10.4162
▁센터의	-10.4162
▁소비자들이	-10.4162
▁속도를	-10.4162
▁손상을	-10.4162
▁쉬운	-10.4162
▁스코틀랜드	-10.4162
▁식료품	-10.4162
▁신뢰를	-10.4162
▁신호를	-10.4162
▁실험	-10.4162
▁쓰나미	-10.4162
▁아니지만	-10.4162
▁아래	-10.4162
▁안토니오	-10.4162
▁않았습니다.	-10.4162
▁약속한	-10.4162
▁에드	-10.4162
▁여사가	-10.4162
▁연료를	-10.4162
▁연쇄	-10.4162
▁영화배우	-10.4162
▁외무성	-10.4162
▁요구에	-10.4162
▁요르단	-10.4162
▁우승	-10.4162
▁우주왕복선	-10.4162
▁위협	-10.4162
▁의장이	-10.4162
▁이웃	-10.4162
▁인질들의	-10.4162
▁일어나지	-10.4162
▁임기가	-10.4162
▁자연	-10.4162
▁재개할	-10.4162
▁전체에	-10.4162
▁중심에	-10.4162
▁지지선언을	-10.4162
▁집행	-10.4162
▁철저히	-10.4162
▁추락한	-10.4162
▁프로그램은	-10.4162
▁했고	-10.4162
▁호주에서	-10.4162
▁확보할	-10.4162
▁회의가	-10.4162
▁힐러리가	-10.4162
▁"그러나	-10.4461
▁1980년	-10.4461
▁2명	-10.4461
▁2월에	-10.4461
▁3년간	-10.4461
▁AP는	-10.4461
▁HIV	-10.4461
▁Roh	-10.4461
▁TV를	-10.4461
▁against	-10.4461
▁“어떤	-10.4461
▁가량의	-10.4461
▁가한	-10.4461
▁강화하고	-10.4461
▁강화할	-10.4461
▁개표가	-10.4461
▁것”이라	-10.4461
▁골프	-10.4461
▁공공	-10.4461
▁공급이	-10.4461
▁공중	-10.4461
▁관광객들이	-10.4461
▁구호	-10.4461
▁국가인	-10.4461
▁근처에	-10.4461
▁기대를	-10.4461
▁기반을	-10.4461
▁긴장	-10.4461
▁나선	-10.4461
▁나와즈	-10.4461
▁남한의	-10.4461
▁노력에	-10.4461
▁다수의	-10.4461
▁달라고	-10.4461
▁대책	-10.4461
▁대학교	-10.4461
▁딸의	-10.4461
▁뛰어	-10.4461
▁라스베이거스	-10.4461
▁라이트	-10.4461
▁머리에	-10.4461
▁멀리	-10.4461
▁명단에서	-10.4461
▁명에	-10.4461
▁무승부를	-10.4461
▁문서를	-10.4461
▁미래	-10.4461
▁바람이	-10.4461
▁반박했다.	-10.4461
▁배	-10.4461
▁법적으로	-10.4461
▁보상을	-10.4461
▁보인다”고	-10.4461
▁복귀할	-10.4461
▁본선에서	-10.4461
▁부르는	-10.4461
▁부토는	-10.4461
▁부통령이	-10.4461
▁북부에서	-10.4461
▁분야에서	-10.4461
▁비난한	-10.4461
▁사과했다.	-10.4461
▁살아	-10.4461
▁삶의	-10.4461
▁새끼	-10.4461
▁생산하는	-10.4461
▁선거는	-10.4461
▁선출된	-10.4461
▁세운	-10.4461
▁수업을	-10.4461
▁수치	-10.4461
▁스미스의	-10.4461
▁승인	-10.4461
▁시민들은	-10.4461
▁시위로	-10.4461
▁실질적인	-10.4461
▁아이는	-10.4461
▁않아도	-10.4461
▁야당은	-10.4461
▁야당이	-10.4461
▁없습니다.	-10.4461
▁에르도간	-10.4461
▁에베레스트	-10.4461
▁여왕의	-10.4461
▁열	-10.4461
▁열어	-10.4461
▁영국으로	-10.4461
▁예방	-10.4461
▁오바마,	-10.4461
▁요청할	-10.4461
▁원조	-10.4461
▁위치해	-10.4461
▁유가	-10.4461
▁유지할	-10.4461
▁이라크내	-10.4461
▁이름의	-10.4461
▁인근서	-10.4461
▁인정하지	-10.4461
▁일어나고	-10.4461
▁일으키는	-10.4461
▁있다	-10.4461
▁자격을	-10.4461
▁자사	-10.4461
▁자살을	-10.4461
▁자살한	-10.4461
▁장소에서	-10.4461
▁전달했다.	-10.4461
▁전쟁에서	-10.4461
▁제일	-10.4461
▁조건을	-10.4461
▁존스는	-10.4461
▁주장은	-10.4461
▁주한미군	-10.4461
▁지도부는	-10.4461
▁진압	-10.4461
▁차지한	-10.4461
▁책임자인	-10.4461
▁천	-10.4461
▁클린턴을	-10.4461
▁태우고	-10.4461
▁테러의	-10.4461
▁판매를	-10.4461
▁펼친	-10.4461
▁표시했다.	-10.4461
▁플로리다주	-10.4461
▁하나가	-10.4461
▁하락했습니다.	-10.4461
▁해결책을	-10.4461
▁행동이	-10.4461
▁행사가	-10.4461
▁행사할	-10.4461
▁환경에	-10.4461
▁회사들이	-10.4461
▁15명이	-10.4768
▁1995년	-10.4768
▁2005.09	-10.4768
▁2008.10	-10.4768
▁3시간	-10.4768
▁9명의	-10.4768
▁Bush	-10.4768
▁military	-10.4768
▁“지금	-10.4768
▁가자지구에	-10.4768
▁가자지구에서	-10.4768
▁감소했다고	-10.4768
▁개봉	-10.4768
▁거친	-10.4768
▁검찰의	-10.4768
▁겨우	-10.4768
▁고용	-10.4768
▁골키퍼	-10.4768
▁곳이	-10.4768
▁공급을	-10.4768
▁교전	-10.4768
▁교전으로	-10.4768
▁국무장관이	-10.4768
▁국회에서	-10.4768
▁그곳에	-10.4768
▁기록하며	-10.4768
▁끌고	-10.4768
▁끝나는	-10.4768
▁나오고	-10.4768
▁나타나	-10.4768
▁나타난	-10.4768
▁날이	-10.4768
▁남동부	-10.4768
▁내각	-10.4768
▁내로	-10.4768
▁내리고	-10.4768
▁내일	-10.4768
▁내전	-10.4768
▁노동당	-10.4768
▁노스캐롤라이나	-10.4768
▁높이의	-10.4768
▁뉴스의	-10.4768
▁다음주	-10.4768
▁당일	-10.4768
▁델	-10.4768
▁도로에서	-10.4768
▁독도	-10.4768
▁동물을	-10.4768
▁동티모르	-10.4768
▁들어와	-10.4768
▁따를	-10.4768
▁때마다	-10.4768
▁러시아와	-10.4768
▁마감	-10.4768
▁매주	-10.4768
▁모두를	-10.4768
▁목격자는	-10.4768
▁미국산	-10.4768
▁반체제	-10.4768
▁방지하기	-10.4768
▁범인은	-10.4768
▁보도에따르면,	-10.4768
▁보도한	-10.4768
▁보입니다.	-10.4768
▁보호하는	-10.4768
▁분명	-10.4768
▁사라진	-10.4768
▁사무실을	-10.4768
▁사무총장이	-10.4768
▁사원을	-10.4768
▁사태의	-10.4768
▁상공에서	-10.4768
▁상승세를	-10.4768
▁선거의	-10.4768
▁세웠다.	-10.4768
▁스콧	-10.4768
▁승점	-10.4768
▁시상식	-10.4768
▁시작될	-10.4768
▁싶다고	-10.4768
▁압바스	-10.4768
▁양측이	-10.4768
▁언제나	-10.4768
▁여당	-10.4768
▁역대	-10.4768
▁연구의	-10.4768
▁영감을	-10.4768
▁예정되어	-10.4768
▁오를	-10.4768
▁오전(현지시간)	-10.4768
▁오후(현지시간)	-10.4768
▁외쳤다.	-10.4768
▁요르단강	-10.4768
▁요청한	-10.4768
▁원문기사	-10.4768
▁원하지	-10.4768
▁위기가	-10.4768
▁의미를	-10.4768
▁의석을	-10.4768
▁이야기	-10.4768
▁인기가	-10.4768
▁일자리	-10.4768
▁입어	-10.4768
▁있거나	-10.4768
▁있었다"고	-10.4768
▁자녀	-10.4768
▁자신에	-10.4768
▁작성한	-10.4768
▁작품	-10.4768
▁잡은	-10.4768
▁장관,	-10.4768
▁장난감	-10.4768
▁장비를	-10.4768
▁적	-10.4768
▁제공하고	-10.4768
▁제작된	-10.4768
▁제출할	-10.4768
▁조류	-10.4768
▁조치에	-10.4768
▁주장이	-10.4768
▁증언했다.	-10.4768
▁지는	-10.4768
▁지방의	-10.4768
▁지속적인	-10.4768
▁지지율을	-10.4768
▁지지한다고	-10.4768
▁진전을	-10.4768
▁진출했다.	-10.4768
▁참여하는	-10.4768
▁추정했다.	-10.4768
▁출연해	-10.4768
▁탄도	-10.4768
▁특수	-10.4768
▁패리스	-10.4768
▁폭풍으로	-10.4768
▁필요성을	-10.4768
▁하마스는	-10.4768
▁한층	-10.4768
▁해리포터	-10.4768
▁핵실험	-10.4768
▁했을	-10.4768
▁행사에서	-10.4768
▁헬기를	-10.4768
▁혐의	-10.4768
▁협력할	-10.4768
▁혼란에	-10.4768
▁확인된	-10.4768
▁확인하고	-10.4768
▁확인하기	-10.4768
▁환경을	-10.4768
▁회견을	-10.4768
▁1	-10.5086
▁1990년	-10.5086
▁1명과	-10.5086
▁23명의	-10.5086
▁2주간	-10.5086
▁40년	-10.5086
▁have	-10.5086
▁troops	-10.5086
▁“그의	-10.5086
▁개혁	-10.5086
▁거둔	-10.5086
▁것이다”며	-10.5086
▁경우가	-10.5086
▁계획의	-10.5086
▁고래	-10.5086
▁곳	-10.5086
▁관계는	-10.5086
▁국민들을	-10.5086
▁군대가	-10.5086
▁기간을	-10.5086
▁기밀	-10.5086
▁기자들이	-10.5086
▁깊이	-10.5086
▁나이트	-10.5086
▁내는	-10.5086
▁너무나	-10.5086
▁단순한	-10.5086
▁대대적인	-10.5086
▁대출	-10.5086
▁덕분에	-10.5086
▁동반한	-10.5086
▁되었습니다.	-10.5086
▁된다”며	-10.5086
▁된다면	-10.5086
▁드립니다.	-10.5086
▁듣지	-10.5086
▁때문”이라고	-10.5086
▁떨어질	-10.5086
▁로한은	-10.5086
▁말라고	-10.5086
▁명단에	-10.5086
▁목적은	-10.5086
▁무력	-10.5086
▁무장세력	-10.5086
▁문화	-10.5086
▁미국에서는	-10.5086
▁미래의	-10.5086
▁미셸	-10.5086
▁민병대	-10.5086
▁바다로	-10.5086
▁박물관	-10.5086
▁반군을	-10.5086
▁발견	-10.5086
▁발사를	-10.5086
▁밝혀냈다.	-10.5086
▁밝힐	-10.5086
▁방어	-10.5086
▁백악관에	-10.5086
▁버스를	-10.5086
▁법무부	-10.5086
▁병원을	-10.5086
▁보여줄	-10.5086
▁북	-10.5086
▁북부의	-10.5086
▁불능화	-10.5086
▁붕괴된	-10.5086
▁비판을	-10.5086
▁뿐이다.	-10.5086
▁사람과	-10.5086
▁사람들도	-10.5086
▁사항은	-10.5086
▁산하	-10.5086
▁상하이	-10.5086
▁소설	-10.5086
▁손해를	-10.5086
▁수상자인	-10.5086
▁수치다.	-10.5086
▁순간	-10.5086
▁스피어스는	-10.5086
▁시간에	-10.5086
▁시달리고	-10.5086
▁시설에	-10.5086
▁시스템	-10.5086
▁시스템이	-10.5086
▁신문에	-10.5086
▁신화	-10.5086
▁실은	-10.5086
▁아시아에서	-10.5086
▁안보리	-10.5086
▁않겠다는	-10.5086
▁앞선	-10.5086
▁양쪽	-10.5086
▁어머니	-10.5086
▁어머니가	-10.5086
▁어머니와	-10.5086
▁에콰도르	-10.5086
▁엘바라데이	-10.5086
▁여객기는	-10.5086
▁여왕은	-10.5086
▁예를들어	-10.5086
▁예상보다	-10.5086
▁오스카	-10.5086
▁올리고	-10.5086
▁왕실	-10.5086
▁외부	-10.5086
▁외환은행	-10.5086
▁요원	-10.5086
▁우리당	-10.5086
▁웨인	-10.5086
▁위조	-10.5086
▁유일하게	-10.5086
▁의지를	-10.5086
▁이라크는	-10.5086
▁이래로	-10.5086
▁이어졌다.	-10.5086
▁인터뷰	-10.5086
▁일간지	-10.5086
▁자세를	-10.5086
▁자크	-10.5086
▁작업	-10.5086
▁장거리	-10.5086
▁재난	-10.5086
▁전격	-10.5086
▁전국적인	-10.5086
▁점이	-10.5086
▁접전을	-10.5086
▁정기	-10.5086
▁정보가	-10.5086
▁정책이	-10.5086
▁조만간	-10.5086
▁조사하기	-10.5086
▁주가가	-10.5086
▁주장	-10.5086
▁주최측은	-10.5086
▁줄어들	-10.5086
▁중부	-10.5086
▁중순	-10.5086
▁증권	-10.5086
▁증시	-10.5086
▁지낸	-10.5086
▁지지자	-10.5086
▁짐바브웨의	-10.5086
▁차량은	-10.5086
▁차례의	-10.5086
▁챔피언	-10.5086
▁철도	-10.5086
▁총격으로	-10.5086
▁총리로	-10.5086
▁추산했다.	-10.5086
▁친구가	-10.5086
▁케이시	-10.5086
▁코피	-10.5086
▁투표할	-10.5086
▁티베트의	-10.5086
▁판단을	-10.5086
▁판매할	-10.5086
▁팔레스타인의	-10.5086
▁패한	-10.5086
▁폭력사태를	-10.5086
▁폭탄테러를	-10.5086
▁프랑스는	-10.5086
▁프랑스와	-10.5086
▁프로젝트를	-10.5086
▁프리미어리그	-10.5086
▁필요하다.	-10.5086
▁필요할	-10.5086
▁해를	-10.5086
▁행사는	-10.5086
▁향하고	-10.5086
▁헤럴드가	-10.5086
▁형태로	-10.5086
▁화학	-10.5086
▁확대	-10.5086
▁휴전	-10.5086
▁힐튼이	-10.5086
▁힘이	-10.5086
▁10명	-10.5414
▁1992년	-10.5414
▁2005.12	-10.5414
▁2008.12	-10.5414
▁2위를	-10.5414
▁3일간	-10.5414
▁4명을	-10.5414
▁6자회담에	-10.5414
▁7년	-10.5414
▁8년	-10.5414
▁New	-10.5414
▁talks	-10.5414
▁“미	-10.5414
▁가끔	-10.5414
▁가즈니	-10.5414
▁가할	-10.5414
▁감사를	-10.5414
▁거래가	-10.5414
▁경제,	-10.5414
▁경제는	-10.5414
▁경제와	-10.5414
▁경찰서에	-10.5414
▁계획한	-10.5414
▁고급	-10.5414
▁고향인	-10.5414
▁공동으로	-10.5414
▁공연	-10.5414
▁공원	-10.5414
▁관점에서	-10.5414
▁광산	-10.5414
▁군대를	-10.5414
▁군인들은	-10.5414
▁그룹의	-10.5414
▁근로자	-10.5414
▁금지하고	-10.5414
▁기록하고	-10.5414
▁기상청은	-10.5414
▁끔찍한	-10.5414
▁나가는	-10.5414
▁나서	-10.5414
▁노르웨이	-10.5414
▁논의가	-10.5414
▁높이	-10.5414
▁뉴햄프셔	-10.5414
▁는	-10.5414
▁니콜라스	-10.5414
▁다이아몬드	-10.5414
▁단계에	-10.5414
▁당국과	-10.5414
▁대기	-10.5414
▁대만의	-10.5414
▁대표인	-10.5414
▁도핑	-10.5414
▁동물원	-10.5414
▁동의했다.	-10.5414
▁러드	-10.5414
▁런던에	-10.5414
▁마련할	-10.5414
▁말로	-10.5414
▁말아야	-10.5414
▁모건	-10.5414
▁모습으로	-10.5414
▁무장대원	-10.5414
▁발이	-10.5414
▁발전을	-10.5414
▁발표에	-10.5414
▁배가	-10.5414
▁배를	-10.5414
▁버마의	-10.5414
▁범죄에	-10.5414
▁보호하고	-10.5414
▁본사를	-10.5414
▁부근	-10.5414
▁부문에서	-10.5414
▁분쟁	-10.5414
▁비	-10.5414
▁비밀리에	-10.5414
▁비행기에	-10.5414
▁사이트	-10.5414
▁사임할	-10.5414
▁사태는	-10.5414
▁상승	-10.5414
▁생각한다.	-10.5414
▁서울의	-10.5414
▁소녀가	-10.5414
▁소리가	-10.5414
▁시라크	-10.5414
▁시카고에서	-10.5414
▁신사	-10.5414
▁아내와	-10.5414
▁아니다”며	-10.5414
▁아들인	-10.5414
▁아메리카	-10.5414
▁아버지의	-10.5414
▁않았다"고	-10.5414
▁양국이	-10.5414
▁어두운	-10.5414
▁언급은	-10.5414
▁업체	-10.5414
▁없었던	-10.5414
▁열차가	-10.5414
▁운행을	-10.5414
▁워렌	-10.5414
▁웹사이트는	-10.5414
▁위협하는	-10.5414
▁유명하다.	-10.5414
▁의혹에	-10.5414
▁이어질	-10.5414
▁이용하고	-10.5414
▁이하	-10.5414
▁이해할	-10.5414
▁인도주의적	-10.5414
▁일으켜	-10.5414
▁일정으로	-10.5414
▁임무	-10.5414
▁임무는	-10.5414
▁자산을	-10.5414
▁잠을	-10.5414
▁장난감을	-10.5414
▁잭	-10.5414
▁전망이	-10.5414
▁정해지지	-10.5414
▁제프리	-10.5414
▁주장했지만	-10.5414
▁중단하고	-10.5414
▁중요성을	-10.5414
▁증시의	-10.5414
▁지구의	-10.5414
▁지나지	-10.5414
▁지수가	-10.5414
▁지지율이	-10.5414
▁지키고	-10.5414
▁차례로	-10.5414
▁차원에서	-10.5414
▁참석해	-10.5414
▁참여하지	-10.5414
▁처리	-10.5414
▁초반	-10.5414
▁추가적인	-10.5414
▁쿠데타로	-10.5414
▁탈레반과	-10.5414
▁탈레반의	-10.5414
▁토론을	-10.5414
▁파키스탄에서	-10.5414
▁판결은	-10.5414
▁포경	-10.5414
▁포인트	-10.5414
▁필요하다”고	-10.5414
▁하나를	-10.5414
▁학생들의	-10.5414
▁한나라당이	-10.5414
▁합의가	-10.5414
▁호텔을	-10.5414
▁혼자	-10.5414
▁화상을	-10.5414
▁확신했다.	-10.5414
▁환자의	-10.5414
▁황우석	-10.5414
▁회동을	-10.5414
▁회사들은	-10.5414
▁13명이	-10.5753
▁3대	-10.5753
▁3위를	-10.5753
▁EU는	-10.5753
▁Secretary	-10.5753
▁TV에	-10.5753
▁up	-10.5753
▁“이들	-10.5753
▁“최근	-10.5753
▁가던	-10.5753
▁가옥	-10.5753
▁강경	-10.5753
▁같다”며	-10.5753
▁개가	-10.5753
▁개최되는	-10.5753
▁것이기	-10.5753
▁게리	-10.5753
▁결의안에	-10.5753
▁겸	-10.5753
▁경기의	-10.5753
▁경찰을	-10.5753
▁곤잘레스	-10.5753
▁곳의	-10.5753
▁구	-10.5753
▁구하기	-10.5753
▁국제유가는	-10.5753
▁국회의	-10.5753
▁군부가	-10.5753
▁권한을	-10.5753
▁규모는	-10.5753
▁기간에	-10.5753
▁기도를	-10.5753
▁난사	-10.5753
▁남편은	-10.5753
▁놓은	-10.5753
▁누르고	-10.5753
▁눈물을	-10.5753
▁뉴스는	-10.5753
▁단체들은	-10.5753
▁대략	-10.5753
▁대중의	-10.5753
▁대통령과의	-10.5753
▁대통령도	-10.5753
▁데이터를	-10.5753
▁도시로	-10.5753
▁동쪽으로	-10.5753
▁들여	-10.5753
▁들을	-10.5753
▁듯한	-10.5753
▁럼스펠드	-10.5753
▁롬니	-10.5753
▁마라톤	-10.5753
▁마약을	-10.5753
▁마을에	-10.5753
▁맞게	-10.5753
▁맺고	-10.5753
▁모스크바에서	-10.5753
▁목적이	-10.5753
▁무렵	-10.5753
▁물가	-10.5753
▁미시시피	-10.5753
▁바다	-10.5753
▁받는다.	-10.5753
▁밝히며	-10.5753
▁방문이	-10.5753
▁버냉키	-10.5753
▁벌어지고	-10.5753
▁보도합니다.	-10.5753
▁보호할	-10.5753
▁부상자는	-10.5753
▁부족으로	-10.5753
▁빛을	-10.5753
▁사고에	-10.5753
▁사과	-10.5753
▁사망하는	-10.5753
▁사망했습니다.	-10.5753
▁사업에	-10.5753
▁사용되고	-10.5753
▁사이클	-10.5753
▁사이트에	-10.5753
▁사임	-10.5753
▁산불로	-10.5753
▁상원에서	-10.5753
▁생산할	-10.5753
▁생일을	-10.5753
▁선언한	-10.5753
▁설치된	-10.5753
▁성장	-10.5753
▁소니	-10.5753
▁소식입니다.	-10.5753
▁속한	-10.5753
▁쇠고기	-10.5753
▁수감자들을	-10.5753
▁수사관은	-10.5753
▁수용할	-10.5753
▁수준의	-10.5753
▁시상식에서	-10.5753
▁시스템은	-10.5753
▁시위대와	-10.5753
▁시작되는	-10.5753
▁시점에서	-10.5753
▁시즌을	-10.5753
▁식량을	-10.5753
▁식품	-10.5753
▁심문을	-10.5753
▁아기의	-10.5753
▁아니다”라고	-10.5753
▁아메리칸	-10.5753
▁아이들과	-10.5753
▁아이디어를	-10.5753
▁아프가니스탄에	-10.5753
▁아프가니스탄의	-10.5753
▁안나	-10.5753
▁앨	-10.5753
▁야당의	-10.5753
▁야스쿠니	-10.5753
▁야후는	-10.5753
▁양국간	-10.5753
▁어린이들이	-10.5753
▁어린이를	-10.5753
▁여기	-10.5753
▁연구팀은	-10.5753
▁연합군	-10.5753
▁오늘밤	-10.5753
▁오하이오주	-10.5753
▁온실가스	-10.5753
▁요구할	-10.5753
▁원화	-10.5753
▁유수프	-10.5753
▁유전자	-10.5753
▁의원들에게	-10.5753
▁이끌어	-10.5753
▁이름은	-10.5753
▁이민	-10.5753
▁이용	-10.5753
▁이재민이	-10.5753
▁인사	-10.5753
▁인정한	-10.5753
▁인정할	-10.5753
▁일로	-10.5753
▁일어나	-10.5753
▁일정이	-10.5753
▁일축했다.	-10.5753
▁입국을	-10.5753
▁입었으며	-10.5753
▁자신감을	-10.5753
▁장치를	-10.5753
▁적극	-10.5753
▁전기가	-10.5753
▁전세계에	-10.5753
▁정도가	-10.5753
▁정상들은	-10.5753
▁정상회담에서	-10.5753
▁정치적으로	-10.5753
▁조지아	-10.5753
▁주말에	-10.5753
▁주인이	-10.5753
▁줄이는	-10.5753
▁중남미	-10.5753
▁중상을	-10.5753
▁중요하다고	-10.5753
▁증가	-10.5753
▁지구에서	-10.5753
▁지나치게	-10.5753
▁지도자들과	-10.5753
▁지속될	-10.5753
▁진	-10.5753
▁진술을	-10.5753
▁차로	-10.5753
▁차베스는	-10.5753
▁차이를	-10.5753
▁참가할	-10.5753
▁촉구하는	-10.5753
▁추진하고	-10.5753
▁출마할	-10.5753
▁출전한	-10.5753
▁측에	-10.5753
▁커지고	-10.5753
▁컴퓨터가	-10.5753
▁케이블	-10.5753
▁크고	-10.5753
▁탑승객	-10.5753
▁태국의	-10.5753
▁투자자들이	-10.5753
▁투표는	-10.5753
▁특별히	-10.5753
▁판결했다.	-10.5753
▁풍부한	-10.5753
▁프레스	-10.5753
▁필립	-10.5753
▁필요	-10.5753
▁필요는	-10.5753
▁하고,	-10.5753
▁하더라도	-10.5753
▁하산	-10.5753
▁한다면	-10.5753
▁합니다.”	-10.5753
▁합의는	-10.5753
▁해병대	-10.5753
▁핵프로그램	-10.5753
▁홍보	-10.5753
▁화가	-10.5753
▁확실하지	-10.5753
▁확인했다고	-10.5753
▁활동하는	-10.5753
▁후보들은	-10.5753
▁후보들이	-10.5753
▁후세인의	-10.5753
▁히드로	-10.5753
▁14명이	-10.6104
▁1986년	-10.6104
▁1987년	-10.6104
▁1년에	-10.6104
▁2%	-10.6104
▁2009.01	-10.6104
▁25명이	-10.6104
▁3	-10.6104
▁6개	-10.6104
▁AS	-10.6104
▁N.	-10.6104
▁out	-10.6104
▁plans	-10.6104
▁“일부	-10.6104
▁▶관련	-10.6104
▁가격에	-10.6104
▁가능성	-10.6104
▁가족에게	-10.6104
▁감축	-10.6104
▁개인적으로	-10.6104
▁거부하고	-10.6104
▁걸	-10.6104
▁겪었다.	-10.6104
▁경보를	-10.6104
▁경찰관은	-10.6104
▁경찰에따르면	-10.6104
▁경향이	-10.6104
▁계약	-10.6104
▁공격의	-10.6104
▁공격했다.	-10.6104
▁공항은	-10.6104
▁과거의	-10.6104
▁관계자들과	-10.6104
▁구할	-10.6104
▁국가는	-10.6104
▁국왕은	-10.6104
▁규제	-10.6104
▁그랜드	-10.6104
▁그런가	-10.6104
▁금메달을	-10.6104
▁금지하는	-10.6104
▁기반으로	-10.6104
▁기본적인	-10.6104
▁기소했다.	-10.6104
▁기술의	-10.6104
▁길에	-10.6104
▁나란히	-10.6104
▁남아프리카	-10.6104
▁뇌물을	-10.6104
▁단어를	-10.6104
▁단체에	-10.6104
▁당국자는	-10.6104
▁당선	-10.6104
▁대사가	-10.6104
▁대선을	-10.6104
▁도널드	-10.6104
▁동영상은	-10.6104
▁딸인	-10.6104
▁때가	-10.6104
▁라모스	-10.6104
▁라이스는	-10.6104
▁리조트	-10.6104
▁리처드슨	-10.6104
▁많다.	-10.6104
▁맡았던	-10.6104
▁맥코맥	-10.6104
▁명령했다.	-10.6104
▁모았다.	-10.6104
▁목표	-10.6104
▁몰래	-10.6104
▁몸이	-10.6104
▁무너져	-10.6104
▁무너진	-10.6104
▁무샤라프의	-10.6104
▁미얀마를	-10.6104
▁민주당과	-10.6104
▁받았으나	-10.6104
▁받았지만	-10.6104
▁밤새	-10.6104
▁방송의	-10.6104
▁벌여	-10.6104
▁벗어나	-10.6104
▁벨기에	-10.6104
▁병에	-10.6104
▁보안을	-10.6104
▁부부의	-10.6104
▁부속	-10.6104
▁북미	-10.6104
▁북측	-10.6104
▁불과	-10.6104
▁불안한	-10.6104
▁브래드	-10.6104
▁브리트니	-10.6104
▁사이버	-10.6104
▁사임했다.	-10.6104
▁살해할	-10.6104
▁살해했다고	-10.6104
▁상관없이	-10.6104
▁상승으로	-10.6104
▁상위	-10.6104
▁상태라고	-10.6104
▁석방할	-10.6104
▁선정됐다.	-10.6104
▁성폭행을	-10.6104
▁성화봉송	-10.6104
▁수위가	-10.6104
▁스미스는	-10.6104
▁승객들이	-10.6104
▁시도한	-10.6104
▁시위자들이	-10.6104
▁신경	-10.6104
▁신발을	-10.6104
▁싶어	-10.6104
▁아기가	-10.6104
▁아테네	-10.6104
▁알-말리키	-10.6104
▁앨런	-10.6104
▁양측의	-10.6104
▁얼마전	-10.6104
▁얼음이	-10.6104
▁연기했다.	-10.6104
▁영국이	-10.6104
▁영장을	-10.6104
▁예산	-10.6104
▁오딩가	-10.6104
▁오픈에서	-10.6104
▁용의자의	-10.6104
▁우려	-10.6104
▁움직임에	-10.6104
▁원치	-10.6104
▁월드	-10.6104
▁위기로	-10.6104
▁위에서	-10.6104
▁윈도우	-10.6104
▁유권자의	-10.6104
▁유리한	-10.6104
▁유세에서	-10.6104
▁음모를	-10.6104
▁의학	-10.6104
▁이것을	-10.6104
▁이라크전에	-10.6104
▁이틀간	-10.6104
▁인	-10.6104
▁일”이라고	-10.6104
▁일반적인	-10.6104
▁일정은	-10.6104
▁잃고	-10.6104
▁잃지	-10.6104
▁있었기	-10.6104
▁있었으며,	-10.6104
▁있을지	-10.6104
▁자산	-10.6104
▁잡지	-10.6104
▁장관을	-10.6104
▁장악한	-10.6104
▁재개될	-10.6104
▁잭슨은	-10.6104
▁전문가인	-10.6104
▁정신과	-10.6104
▁제니퍼	-10.6104
▁제한	-10.6104
▁주도하는	-10.6104
▁주목을	-10.6104
▁중간	-10.6104
▁중심으로	-10.6104
▁중요	-10.6104
▁중요하다”고	-10.6104
▁중이었다.	-10.6104
▁지도자로	-10.6104
▁지진은	-10.6104
▁지키기	-10.6104
▁질환을	-10.6104
▁착용하고	-10.6104
▁촉구	-10.6104
▁총선에	-10.6104
▁추진	-10.6104
▁취했다.	-10.6104
▁치른	-10.6104
▁카리	-10.6104
▁테러지원국	-10.6104
▁투자자들은	-10.6104
▁특이한	-10.6104
▁파병을	-10.6104
▁파키스탄이	-10.6104
▁패스를	-10.6104
▁폐쇄를	-10.6104
▁폴란드	-10.6104
▁프로젝트	-10.6104
▁하겠다고	-10.6104
▁하락세를	-10.6104
▁하락하며	-10.6104
▁학대를	-10.6104
▁학생들과	-10.6104
▁행정부	-10.6104
▁허가	-10.6104
▁현금	-10.6104
▁협의를	-10.6104
▁확인하는	-10.6104
▁회장	-10.6104
▁후에도	-10.6104
▁휴대용	-10.6104
▁힐러리는	-10.6104
▁1%	-10.6467
▁10%	-10.6467
▁15년	-10.6467
▁15명의	-10.6467
▁18명이	-10.6467
▁1월에	-10.6467
▁2-1로	-10.6467
▁2번째로	-10.6467
▁4%	-10.6467
▁4명	-10.6467
▁4번	-10.6467
▁50만	-10.6467
▁50명이	-10.6467
▁CEO는	-10.6467
▁CNN에	-10.6467
▁IOC	-10.6467
▁NEW	-10.6467
▁“그들이	-10.6467
▁“아직	-10.6467
▁“이것은	-10.6467
▁“이제	-10.6467
▁가기	-10.6467
▁가정에	-10.6467
▁가하고	-10.6467
▁각국의	-10.6467
▁각자	-10.6467
▁감옥에	-10.6467
▁개최된	-10.6467
▁갤런당	-10.6467
▁거듭	-10.6467
▁건물에서	-10.6467
▁걸려	-10.6467
▁검찰에	-10.6467
▁것이다.”	-10.6467
▁것입니다."	-10.6467
▁경찰,	-10.6467
▁고립된	-10.6467
▁고문을	-10.6467
▁곧바로	-10.6467
▁공원에서	-10.6467
▁과반수	-10.6467
▁관계자	-10.6467
▁관광객들은	-10.6467
▁교통사고로	-10.6467
▁구글	-10.6467
▁구체적	-10.6467
▁국민이	-10.6467
▁국왕이	-10.6467
▁규제를	-10.6467
▁그럼	-10.6467
▁그쳤다.	-10.6467
▁기록,	-10.6467
▁기록했다고	-10.6467
▁기술은	-10.6467
▁기자들의	-10.6467
▁기준을	-10.6467
▁꿈을	-10.6467
▁끊임없이	-10.6467
▁남편과	-10.6467
▁내무장관은	-10.6467
▁넓은	-10.6467
▁다르다.	-10.6467
▁다음으로	-10.6467
▁달한다.	-10.6467
▁대답했다.	-10.6467
▁대법원	-10.6467
▁대부분을	-10.6467
▁대의	-10.6467
▁대화	-10.6467
▁도난	-10.6467
▁도디	-10.6467
▁도시에	-10.6467
▁독일,	-10.6467
▁독일인	-10.6467
▁동성애자	-10.6467
▁디	-10.6467
▁땅을	-10.6467
▁뛰어난	-10.6467
▁로딕은	-10.6467
▁로라	-10.6467
▁마	-10.6467
▁마이애미	-10.6467
▁만남을	-10.6467
▁많지	-10.6467
▁맞았다.	-10.6467
▁매케인을	-10.6467
▁맥케인	-10.6467
▁목격한	-10.6467
▁몸	-10.6467
▁바이러스에	-10.6467
▁반군에	-10.6467
▁발발	-10.6467
▁발생했던	-10.6467
▁밝혔으나	-10.6467
▁법정에	-10.6467
▁베네수엘라의	-10.6467
▁변화	-10.6467
▁복귀	-10.6467
▁봤다고	-10.6467
▁부근에	-10.6467
▁부총리는	-10.6467
▁브라질의	-10.6467
▁비자를	-10.6467
▁사랑에	-10.6467
▁사망자수가	-10.6467
▁사이클론으로	-10.6467
▁사적인	-10.6467
▁산사태로	-10.6467
▁생각했다.	-10.6467
▁생방송으로	-10.6467
▁샤라포바는	-10.6467
▁선거운동을	-10.6467
▁선을	-10.6467
▁선정	-10.6467
▁설문	-10.6467
▁세계에	-10.6467
▁수색작업을	-10.6467
▁수치를	-10.6467
▁스톤	-10.6467
▁시대	-10.6467
▁시도를	-10.6467
▁시일	-10.6467
▁시장과	-10.6467
▁아마디	-10.6467
▁아버지와	-10.6467
▁악영향을	-10.6467
▁않았을	-10.6467
▁알베르토	-10.6467
▁어려울	-10.6467
▁여사와	-10.6467
▁여파로	-10.6467
▁열렸던	-10.6467
▁예멘	-10.6467
▁예상되는	-10.6467
▁오고	-10.6467
▁올려	-10.6467
▁올리는	-10.6467
▁외곽	-10.6467
▁우승한	-10.6467
▁우주비행사	-10.6467
▁워싱턴에	-10.6467
▁위안부	-10.6467
▁유럽을	-10.6467
▁음주	-10.6467
▁의식을	-10.6467
▁이산화탄소	-10.6467
▁이상으로	-10.6467
▁이씨는	-10.6467
▁이의를	-10.6467
▁인디애나	-10.6467
▁일정	-10.6467
▁일할	-10.6467
▁임금	-10.6467
▁임명된	-10.6467
▁있으나,	-10.6467
▁자리잡고	-10.6467
▁장기간	-10.6467
▁장소로	-10.6467
▁재	-10.6467
▁재산	-10.6467
▁재산을	-10.6467
▁재임	-10.6467
▁저렴한	-10.6467
▁전망을	-10.6467
▁전쟁의	-10.6467
▁전적으로	-10.6467
▁전화로	-10.6467
▁정당이	-10.6467
▁정상적인	-10.6467
▁정책은	-10.6467
▁정치에	-10.6467
▁정한	-10.6467
▁제안한	-10.6467
▁제품에	-10.6467
▁종교적	-10.6467
▁주민이	-10.6467
▁주석은	-10.6467
▁지명	-10.6467
▁지역이다.	-10.6467
▁지원에	-10.6467
▁지킬	-10.6467
▁진단을	-10.6467
▁진행중인	-10.6467
▁차에	-10.6467
▁참가했다.	-10.6467
▁참여했다.	-10.6467
▁찾은	-10.6467
▁체포되었다.	-10.6467
▁총리에	-10.6467
▁출구조사	-10.6467
▁출동한	-10.6467
▁충격으로	-10.6467
▁취소했다.	-10.6467
▁취임한	-10.6467
▁카메라	-10.6467
▁크리스티나	-10.6467
▁탄핵	-10.6467
▁택시	-10.6467
▁패션	-10.6467
▁팬들에게	-10.6467
▁퍼트레이어스	-10.6467
▁페리노	-10.6467
▁펼칠	-10.6467
▁평양에서	-10.6467
▁평화적으로	-10.6467
▁포로	-10.6467
▁포함하고	-10.6467
▁하여금	-10.6467
▁한국인들이	-10.6467
▁한다며	-10.6467
▁해외에서	-10.6467
▁행동은	-10.6467
▁행위가	-10.6467
▁헌법을	-10.6467
▁협조를	-10.6467
▁호킹	-10.6467
▁확인한	-10.6467
▁환영했다.	-10.6467
▁회견에서	-10.6467
▁회장의	-10.6467
▁후보에게	-10.6467
▁흰	-10.6467
▁흰색	-10.6467
▁1-0으로	-10.6845
▁10개	-10.6845
▁3개의	-10.6845
▁4개월	-10.6845
▁CNN이	-10.6845
▁NBA	-10.6845
▁Seoul	-10.6845
▁“더	-10.6845
▁가능하게	-10.6845
▁가서	-10.6845
▁감소를	-10.6845
▁건강을	-10.6845
▁걷는	-10.6845
▁결정	-10.6845
▁경관은	-10.6845
▁고려할	-10.6845
▁고문	-10.6845
▁공개할	-10.6845
▁공격하는	-10.6845
▁공격할	-10.6845
▁공장을	-10.6845
▁공항의	-10.6845
▁과도한	-10.6845
▁관계당국은	-10.6845
▁교수가	-10.6845
▁구조대원들이	-10.6845
▁국민에게	-10.6845
▁규정하고	-10.6845
▁근소한	-10.6845
▁기대한다”고	-10.6845
▁기온이	-10.6845
▁날씨가	-10.6845
▁남편을	-10.6845
▁넣은	-10.6845
▁네바다	-10.6845
▁네바다주	-10.6845
▁논의하고	-10.6845
▁놀랄	-10.6845
▁높다.	-10.6845
▁다큐멘터리	-10.6845
▁다행히	-10.6845
▁달에	-10.6845
▁담당하고	-10.6845
▁대체	-10.6845
▁대체할	-10.6845
▁대폭	-10.6845
▁도로에	-10.6845
▁도착,	-10.6845
▁독일에서	-10.6845
▁돌아와	-10.6845
▁돌아왔다.	-10.6845
▁동안,	-10.6845
▁뒤로	-10.6845
▁뒤에서	-10.6845
▁들어있는	-10.6845
▁떨어지는	-10.6845
▁라울	-10.6845
▁록	-10.6845
▁마리가	-10.6845
▁마을을	-10.6845
▁마침내	-10.6845
▁말했지만	-10.6845
▁매케인에	-10.6845
▁매코맥	-10.6845
▁맨유는	-10.6845
▁맺은	-10.6845
▁명백히	-10.6845
▁명으로	-10.6845
▁모델을	-10.6845
▁모르고	-10.6845
▁무슬림	-10.6845
▁무시하고	-10.6845
▁물질을	-10.6845
▁뭄바이	-10.6845
▁미국인들에게	-10.6845
▁미치지	-10.6845
▁미트	-10.6845
▁바그다드에	-10.6845
▁바이러스가	-10.6845
▁발을	-10.6845
▁배제하지	-10.6845
▁백악관의	-10.6845
▁베를린	-10.6845
▁베컴이	-10.6845
▁본격적인	-10.6845
▁부사장은	-10.6845
▁부상한	-10.6845
▁부인과	-10.6845
▁북쪽	-10.6845
▁북한으로	-10.6845
▁비롯해	-10.6845
▁비싼	-10.6845
▁빠르면	-10.6845
▁사살했다고	-10.6845
▁사우스캐롤라이나	-10.6845
▁사원에서	-10.6845
▁사태로	-10.6845
▁살해하겠다고	-10.6845
▁새겨진	-10.6845
▁샘플을	-10.6845
▁서서	-10.6845
▁선수들의	-10.6845
▁성직자	-10.6845
▁소수의	-10.6845
▁수년	-10.6845
▁수만명의	-10.6845
▁수요가	-10.6845
▁스파이	-10.6845
▁스피어스가	-10.6845
▁승려들이	-10.6845
▁시기를	-10.6845
▁신청을	-10.6845
▁쌍둥이	-10.6845
▁쓸	-10.6845
▁아끼지	-10.6845
▁아들의	-10.6845
▁않자	-10.6845
▁알카에다를	-10.6845
▁암살된	-10.6845
▁앞으로의	-10.6845
▁업계	-10.6845
▁없다"며	-10.6845
▁에넹은	-10.6845
▁여성들을	-10.6845
▁여진이	-10.6845
▁연구소	-10.6845
▁열렬한	-10.6845
▁예정대로	-10.6845
▁요즘	-10.6845
▁운전을	-10.6845
▁움직이고	-10.6845
▁원주민	-10.6845
▁웹사이트에서	-10.6845
▁위치에	-10.6845
▁유지하는	-10.6845
▁응답자의	-10.6845
▁의료진은	-10.6845
▁의원들의	-10.6845
▁이란,	-10.6845
▁이르기까지	-10.6845
▁이사는	-10.6845
▁이상한	-10.6845
▁인도,	-10.6845
▁입력	-10.6845
▁있었을	-10.6845
▁작품은	-10.6845
▁장소를	-10.6845
▁장착된	-10.6845
▁재판관은	-10.6845
▁재판은	-10.6845
▁전원이	-10.6845
▁전하며	-10.6845
▁접근	-10.6845
▁제가	-10.6845
▁제공했다.	-10.6845
▁제도를	-10.6845
▁제안에	-10.6845
▁존스턴	-10.6845
▁주당	-10.6845
▁주도의	-10.6845
▁주식은	-10.6845
▁주지사의	-10.6845
▁줄기	-10.6845
▁중단됐다.	-10.6845
▁지닌	-10.6845
▁지방에서	-10.6845
▁지원하기	-10.6845
▁지원한	-10.6845
▁진행할	-10.6845
▁차가	-10.6845
▁착수했다.	-10.6845
▁참석	-10.6845
▁참석하기	-10.6845
▁처해	-10.6845
▁철군	-10.6845
▁체코	-10.6845
▁최선의	-10.6845
▁최우선	-10.6845
▁출전을	-10.6845
▁치고	-10.6845
▁쿠데타를	-10.6845
▁타입	-10.6845
▁태양	-10.6845
▁터키는	-10.6845
▁테니스	-10.6845
▁파견된	-10.6845
▁판사가	-10.6845
▁판정을	-10.6845
▁팔	-10.6845
▁포기하지	-10.6845
▁폭발물을	-10.6845
▁표현했다.	-10.6845
▁하는데	-10.6845
▁하얀	-10.6845
▁하자	-10.6845
▁학생들을	-10.6845
▁해가	-10.6845
▁핵개발	-10.6845
▁호랑이	-10.6845
▁홍수가	-10.6845
▁화요일’	-10.6845
▁휴가	-10.6845
▁희망하고	-10.6845
▁100명	-10.7237
▁11명의	-10.7237
▁1960년대	-10.7237
▁1명인	-10.7237
▁2007.11	-10.7237
▁30명이	-10.7237
▁8강전에서	-10.7237
▁9개	-10.7237
▁Foreign	-10.7237
▁House	-10.7237
▁LA에서	-10.7237
▁MBC	-10.7237
▁NK	-10.7237
▁says	-10.7237
▁‘미니	-10.7237
▁‘이슬람	-10.7237
▁가능하다.	-10.7237
▁가져다	-10.7237
▁감소	-10.7237
▁강경한	-10.7237
▁갖는다.	-10.7237
▁개장	-10.7237
▁건설을	-10.7237
▁걸었다.	-10.7237
▁것인지에	-10.7237
▁격차로	-10.7237
▁결승에서	-10.7237
▁결의안은	-10.7237
▁경기도	-10.7237
▁경제적인	-10.7237
▁고려해	-10.7237
▁공개되지	-10.7237
▁공군은	-10.7237
▁교내	-10.7237
▁교회에서	-10.7237
▁구멍을	-10.7237
▁구체적으로	-10.7237
▁극적인	-10.7237
▁글래스고	-10.7237
▁급속히	-10.7237
▁기업들이	-10.7237
▁기울이고	-10.7237
▁나머지는	-10.7237
▁나타내고	-10.7237
▁남편의	-10.7237
▁내무부가	-10.7237
▁네트워크	-10.7237
▁논란을	-10.7237
▁뉴스를	-10.7237
▁달러화	-10.7237
▁당수는	-10.7237
▁대가	-10.7237
▁대결을	-10.7237
▁대사를	-10.7237
▁대표들은	-10.7237
▁대학은	-10.7237
▁돌아온	-10.7237
▁동물의	-10.7237
▁동성	-10.7237
▁동원,	-10.7237
▁들어온	-10.7237
▁들은	-10.7237
▁마흐무드	-10.7237
▁막는	-10.7237
▁만장일치로	-10.7237
▁맡게	-10.7237
▁면담을	-10.7237
▁명성을	-10.7237
▁모하마드	-10.7237
▁목소리로	-10.7237
▁무샤라프가	-10.7237
▁미국발	-10.7237
▁밀란은	-10.7237
▁바그다드의	-10.7237
▁밖의	-10.7237
▁발표가	-10.7237
▁밝은	-10.7237
▁버마	-10.7237
▁버지니아주	-10.7237
▁범행을	-10.7237
▁변화의	-10.7237
▁별로	-10.7237
▁보고는	-10.7237
▁보여주기	-10.7237
▁부대가	-10.7237
▁부정	-10.7237
▁부토가	-10.7237
▁불가리아	-10.7237
▁브루스	-10.7237
▁사람도	-10.7237
▁사전에	-10.7237
▁상승을	-10.7237
▁상승할	-10.7237
▁상품을	-10.7237
▁생각한다고	-10.7237
▁선수들을	-10.7237
▁세력의	-10.7237
▁세부	-10.7237
▁세상을	-10.7237
▁소개했다.	-10.7237
▁소년의	-10.7237
▁소비	-10.7237
▁수십억	-10.7237
▁수준을	-10.7237
▁슈워제네거	-10.7237
▁승리하며	-10.7237
▁승부를	-10.7237
▁시작해	-10.7237
▁신속한	-10.7237
▁신원	-10.7237
▁신체	-10.7237
▁싶은	-10.7237
▁쌀	-10.7237
▁아들은	-10.7237
▁악화될	-10.7237
▁안고	-10.7237
▁않다는	-10.7237
▁알제리	-10.7237
▁앙겔라	-10.7237
▁앤디	-10.7237
▁야생동물	-10.7237
▁얘기를	-10.7237
▁어린이들을	-10.7237
▁얻는	-10.7237
▁업무	-10.7237
▁업체인	-10.7237
▁없기	-10.7237
▁여기에는	-10.7237
▁연합군은	-10.7237
▁연합은	-10.7237
▁예로	-10.7237
▁예루살렘	-10.7237
▁예산을	-10.7237
▁오르며	-10.7237
▁오직	-10.7237
▁올랐으며	-10.7237
▁올릴	-10.7237
▁외교부는	-10.7237
▁외치며	-10.7237
▁요구가	-10.7237
▁요청	-10.7237
▁우려로	-10.7237
▁우주선이	-10.7237
▁우즈는	-10.7237
▁워너	-10.7237
▁원자바오	-10.7237
▁월요일,	-10.7237
▁위반한	-10.7237
▁위해,	-10.7237
▁유권자들에게	-10.7237
▁유권자들의	-10.7237
▁유엔과	-10.7237
▁응답자	-10.7237
▁의무를	-10.7237
▁이라크가	-10.7237
▁이라크인	-10.7237
▁이란에서	-10.7237
▁이른바	-10.7237
▁이름	-10.7237
▁이용하여	-10.7237
▁이자율을	-10.7237
▁이하의	-10.7237
▁인권을	-10.7237
▁인도에서	-10.7237
▁인상	-10.7237
▁인식을	-10.7237
▁일단	-10.7237
▁일부에서는	-10.7237
▁입원	-10.7237
▁입원한	-10.7237
▁입지	-10.7237
▁있다’’고	-10.7237
▁있었고,	-10.7237
▁자신들을	-10.7237
▁작업은	-10.7237
▁장악하고	-10.7237
▁전역의	-10.7237
▁전체를	-10.7237
▁전투기	-10.7237
▁전형적인	-10.7237
▁점에서	-10.7237
▁접근을	-10.7237
▁정동영	-10.7237
▁정보는	-10.7237
▁정상에	-10.7237
▁제기한	-10.7237
▁조작	-10.7237
▁존드로	-10.7237
▁좋게	-10.7237
▁주를	-10.7237
▁죽을	-10.7237
▁준장은	-10.7237
▁중국인	-10.7237
▁지니고	-10.7237
▁지명을	-10.7237
▁질병을	-10.7237
▁창문을	-10.7237
▁초래할	-10.7237
▁총격전이	-10.7237
▁촬영	-10.7237
▁출시	-10.7237
▁측의	-10.7237
▁친환경	-10.7237
▁카드	-10.7237
▁콘서트를	-10.7237
▁쿠퍼	-10.7237
▁탈	-10.7237
▁탈라바니	-10.7237
▁터키군	-10.7237
▁파나마	-10.7237
▁파월	-10.7237
▁파키스탄을	-10.7237
▁판결	-10.7237
▁평범한	-10.7237
▁폭발은	-10.7237
▁폭풍	-10.7237
▁폴슨	-10.7237
▁피해는	-10.7237
▁하기로	-10.7237
▁하나	-10.7237
▁하나이다.	-10.7237
▁하원은	-10.7237
▁학교의	-10.7237
▁할지	-10.7237
▁항공사는	-10.7237
▁항소할	-10.7237
▁해결에	-10.7237
▁해군은	-10.7237
▁해안을	-10.7237
▁해주는	-10.7237
▁핵시설을	-10.7237
▁행한	-10.7237
▁향하던	-10.7237
▁헤즈볼라	-10.7237
▁현장	-10.7237
▁현행	-10.7237
▁협상은	-10.7237
▁홍콩의	-10.7237
▁확률이	-10.7237
▁환영	-10.7237
▁회원	-10.7237
▁휴대폰을	-10.7237
▁희생자들을	-10.7237
▁10시	-10.7645
▁12개	-10.7645
▁1981년	-10.7645
▁2006.01	-10.7645
▁6명을	-10.7645
▁6자회담에서	-10.7645
▁ABC	-10.7645
▁FARC는	-10.7645
▁MS가	-10.7645
▁PC	-10.7645
▁YORK	-10.7645
▁more	-10.7645
▁“경찰이	-10.7645
▁“오바마는	-10.7645
▁前	-10.7645
▁강에서	-10.7645
▁강화	-10.7645
▁거라고	-10.7645
▁게임에서	-10.7645
▁결정했다”고	-10.7645
▁경력을	-10.7645
▁경매	-10.7645
▁고래를	-10.7645
▁고위관리는	-10.7645
▁공급하는	-10.7645
▁공습이	-10.7645
▁광부	-10.7645
▁구매할	-10.7645
▁국방장관이	-10.7645
▁군을	-10.7645
▁근무하는	-10.7645
▁기간이	-10.7645
▁기다리는	-10.7645
▁기록적인	-10.7645
▁긴밀한	-10.7645
▁김계관	-10.7645
▁꽤	-10.7645
▁끌어	-10.7645
▁나이	-10.7645
▁나타나고	-10.7645
▁날짜를	-10.7645
▁남지	-10.7645
▁내전으로	-10.7645
▁노력으로	-10.7645
▁다수	-10.7645
▁다하고	-10.7645
▁닥터	-10.7645
▁대답을	-10.7645
▁대처하기	-10.7645
▁대표단이	-10.7645
▁던졌다.	-10.7645
▁데니스	-10.7645
▁도로가	-10.7645
▁도움으로	-10.7645
▁동계올림픽	-10.7645
▁동부에	-10.7645
▁동안에	-10.7645
▁되면서	-10.7645
▁둘째	-10.7645
▁득표율을	-10.7645
▁땅에	-10.7645
▁러시아에서	-10.7645
▁레드	-10.7645
▁릭	-10.7645
▁마을의	-10.7645
▁많아	-10.7645
▁말은	-10.7645
▁맞을	-10.7645
▁못했다”며	-10.7645
▁무장단체가	-10.7645
▁물러날	-10.7645
▁바가	-10.7645
▁받던	-10.7645
▁발견돼	-10.7645
▁발견은	-10.7645
▁발사한	-10.7645
▁발생한지	-10.7645
▁발언	-10.7645
▁방송이	-10.7645
▁배럭	-10.7645
▁벌어지는	-10.7645
▁보고가	-10.7645
▁복용한	-10.7645
▁부당한	-10.7645
▁부딪혀	-10.7645
▁부모는	-10.7645
▁부족을	-10.7645
▁브리티시	-10.7645
▁비교해	-10.7645
▁비율이	-10.7645
▁사랑하는	-10.7645
▁사무실에서	-10.7645
▁사상자는	-10.7645
▁사용한다.	-10.7645
▁사인을	-10.7645
▁새끼를	-10.7645
▁생활에	-10.7645
▁서로를	-10.7645
▁세워진	-10.7645
▁소감을	-10.7645
▁소매	-10.7645
▁소유의	-10.7645
▁수단을	-10.7645
▁수지	-10.7645
▁수컷	-10.7645
▁수행하고	-10.7645
▁술에	-10.7645
▁스피어스의	-10.7645
▁승리	-10.7645
▁승리하는	-10.7645
▁시작되었다.	-10.7645
▁시작하는	-10.7645
▁시한을	-10.7645
▁식으로	-10.7645
▁신경을	-10.7645
▁싸움을	-10.7645
▁아니다”고	-10.7645
▁아웅산수치	-10.7645
▁아이들에게	-10.7645
▁애니메이션	-10.7645
▁애리조나	-10.7645
▁애쓰고	-10.7645
▁앤더슨은	-10.7645
▁야간	-10.7645
▁야후가	-10.7645
▁어머니는	-10.7645
▁업체가	-10.7645
▁여객기를	-10.7645
▁연관된	-10.7645
▁연설	-10.7645
▁연속으로	-10.7645
▁연이어	-10.7645
▁연합군이	-10.7645
▁영향력	-10.7645
▁예상	-10.7645
▁용의자들이	-10.7645
▁원한다고	-10.7645
▁유지	-10.7645
▁유지하기	-10.7645
▁은행은	-10.7645
▁은행이	-10.7645
▁음성	-10.7645
▁의료진이	-10.7645
▁이길	-10.7645
▁이끌었던	-10.7645
▁이루어지고	-10.7645
▁이스라엘군은	-10.7645
▁이유에	-10.7645
▁이정인(JOINS)	-10.7645
▁이혼	-10.7645
▁인도와	-10.7645
▁인접한	-10.7645
▁일기로	-10.7645
▁일명	-10.7645
▁일자리가	-10.7645
▁잃었다고	-10.7645
▁임신한	-10.7645
▁있습니다	-10.7645
▁있습니다."	-10.7645
▁작전에	-10.7645
▁잔해	-10.7645
▁전기를	-10.7645
▁전문가	-10.7645
▁전설적인	-10.7645
▁점수를	-10.7645
▁정권은	-10.7645
▁정권의	-10.7645
▁정부로부터	-10.7645
▁정상적으로	-10.7645
▁정식	-10.7645
▁제공해	-10.7645
▁제이	-10.7645
▁제이미	-10.7645
▁조셉	-10.7645
▁조언을	-10.7645
▁주지사와	-10.7645
▁줄기세포	-10.7645
▁줄어들고	-10.7645
▁줄이고	-10.7645
▁중점을	-10.7645
▁증거	-10.7645
▁지구로	-10.7645
▁지도자를	-10.7645
▁지목했다.	-10.7645
▁지원이	-10.7645
▁지위를	-10.7645
▁지점에	-10.7645
▁지지율로	-10.7645
▁진실을	-10.7645
▁참가	-10.7645
▁참가자들은	-10.7645
▁천문학자들은	-10.7645
▁철저한	-10.7645
▁첼시의	-10.7645
▁촬영을	-10.7645
▁최저치를	-10.7645
▁추구하는	-10.7645
▁축제	-10.7645
▁충돌을	-10.7645
▁치르는	-10.7645
▁친구들과	-10.7645
▁쿠바의	-10.7645
▁클리블랜드	-10.7645
▁타는	-10.7645
▁타밀	-10.7645
▁타임스가	-10.7645
▁터키가	-10.7645
▁터키군은	-10.7645
▁테스트를	-10.7645
▁토네이도가	-10.7645
▁통과한	-10.7645
▁통제	-10.7645
▁판매하는	-10.7645
▁평화상	-10.7645
▁포기할	-10.7645
▁폭발해	-10.7645
▁폭스	-10.7645
▁필요하다는	-10.7645
▁학교를	-10.7645
▁학살	-10.7645
▁해변에서	-10.7645
▁해왔다.	-10.7645
▁해제할	-10.7645
▁허블	-10.7645
▁허커비	-10.7645
▁협정에	-10.7645
▁협회는	-10.7645
▁확보	-10.7645
▁확보했다.	-10.7645
▁확인해	-10.7645
▁활용할	-10.7645
▁회복	-10.7645
▁"그는	-10.8071
▁.	-10.8071
▁12명의	-10.8071
▁1대가	-10.8071
▁2007.12	-10.8071
▁2분기	-10.8071
▁4개의	-10.8071
▁5분	-10.8071
▁DVD	-10.8071
▁Kim	-10.8071
▁Korea’s	-10.8071
▁WHO는	-10.8071
▁plan	-10.8071
▁was	-10.8071
▁“중국	-10.8071
▁가스를	-10.8071
▁가택	-10.8071
▁가했다고	-10.8071
▁갇혀	-10.8071
▁강력하게	-10.8071
▁강조하고	-10.8071
▁거주	-10.8071
▁건물로	-10.8071
▁걸고	-10.8071
▁것’’이라고	-10.8071
▁것인가?	-10.8071
▁결승전에	-10.8071
▁결정될	-10.8071
▁결정한	-10.8071
▁경선이	-10.8071
▁경의를	-10.8071
▁계기가	-10.8071
▁공항으로	-10.8071
▁관리를	-10.8071
▁광장에	-10.8071
▁교수인	-10.8071
▁구호품을	-10.8071
▁국기를	-10.8071
▁국제사회가	-10.8071
▁군복을	-10.8071
▁그냥	-10.8071
▁그림	-10.8071
▁그림을	-10.8071
▁기관의	-10.8071
▁나	-10.8071
▁나가고	-10.8071
▁나라가	-10.8071
▁나스닥	-10.8071
▁날을	-10.8071
▁노조는	-10.8071
▁노트북	-10.8071
▁다르게	-10.8071
▁달라이라마는	-10.8071
▁대변인의	-10.8071
▁대선주자인	-10.8071
▁대통령은,	-10.8071
▁더이상	-10.8071
▁도착	-10.8071
▁도착했다고	-10.8071
▁도쿄에서	-10.8071
▁동물들이	-10.8071
▁동부에서	-10.8071
▁동원해	-10.8071
▁됐던	-10.8071
▁들어오는	-10.8071
▁등에서	-10.8071
▁때로는	-10.8071
▁러시아를	-10.8071
▁로스	-10.8071
▁로켓포	-10.8071
▁리드	-10.8071
▁리버풀	-10.8071
▁마음이	-10.8071
▁만나는	-10.8071
▁목격했다고	-10.8071
▁목표가	-10.8071
▁무려	-10.8071
▁무크타다	-10.8071
▁문화를	-10.8071
▁미국인들의	-10.8071
▁바바라	-10.8071
▁바이러스는	-10.8071
▁반군과	-10.8071
▁반미	-10.8071
▁받았다는	-10.8071
▁발사된	-10.8071
▁발표하지	-10.8071
▁법적인	-10.8071
▁벽에	-10.8071
▁변호사를	-10.8071
▁병력은	-10.8071
▁보내기	-10.8071
▁보도했습니다.	-10.8071
▁보수적인	-10.8071
▁비즈니스	-10.8071
▁빠졌다.	-10.8071
▁사라졌다.	-10.8071
▁사람들에	-10.8071
▁사용하기	-10.8071
▁사이로	-10.8071
▁산불	-10.8071
▁산업이	-10.8071
▁상징적인	-10.8071
▁생각은	-10.8071
▁생후	-10.8071
▁서명했다.	-10.8071
▁서부의	-10.8071
▁서쪽	-10.8071
▁석방됐다.	-10.8071
▁석방에	-10.8071
▁선관위는	-10.8071
▁선보였다.	-10.8071
▁선택한	-10.8071
▁설립한	-10.8071
▁설명을	-10.8071
▁섬에	-10.8071
▁소년	-10.8071
▁소송	-10.8071
▁소지하고	-10.8071
▁속으로	-10.8071
▁쇼에	-10.8071
▁수반이	-10.8071
▁수요일,	-10.8071
▁숨지게	-10.8071
▁스키	-10.8071
▁승객을	-10.8071
▁시기가	-10.8071
▁시대에	-10.8071
▁시민들의	-10.8071
▁시스템에	-10.8071
▁식사를	-10.8071
▁신의	-10.8071
▁실수로	-10.8071
▁실어	-10.8071
▁실험에	-10.8071
▁십	-10.8071
▁썼다.	-10.8071
▁아니고	-10.8071
▁아닐	-10.8071
▁아닙니다.	-10.8071
▁아칸소	-10.8071
▁악화되고	-10.8071
▁알리기	-10.8071
▁앨범	-10.8071
▁어려움이	-10.8071
▁어렵게	-10.8071
▁에드워즈는	-10.8071
▁여겨지는	-10.8071
▁여권을	-10.8071
▁여러가지	-10.8071
▁여론조사를	-10.8071
▁여사의	-10.8071
▁여성에게	-10.8071
▁연결하는	-10.8071
▁연금	-10.8071
▁영화로	-10.8071
▁오바마에게	-10.8071
▁올바른	-10.8071
▁왔습니다.	-10.8071
▁외환	-10.8071
▁요한	-10.8071
▁우주로	-10.8071
▁운행이	-10.8071
▁원인으로	-10.8071
▁원자력	-10.8071
▁원장은	-10.8071
▁원조를	-10.8071
▁위협했다.	-10.8071
▁유전	-10.8071
▁의견에	-10.8071
▁의원과	-10.8071
▁이동할	-10.8071
▁이들에	-10.8071
▁이라고	-10.8071
▁이라크전을	-10.8071
▁이뤄지지	-10.8071
▁인도네시아에서	-10.8071
▁입장	-10.8071
▁자신도	-10.8071
▁자유의	-10.8071
▁잡기	-10.8071
▁잡았다.	-10.8071
▁잡힌	-10.8071
▁장면은	-10.8071
▁저희는	-10.8071
▁적힌	-10.8071
▁전달한	-10.8071
▁전반적으로	-10.8071
▁전투기가	-10.8071
▁전해지고	-10.8071
▁접근할	-10.8071
▁접한	-10.8071
▁정식으로	-10.8071
▁주변을	-10.8071
▁즉,	-10.8071
▁증거는	-10.8071
▁증거로	-10.8071
▁지명에	-10.8071
▁지정된	-10.8071
▁지키지	-10.8071
▁지하철	-10.8071
▁직면한	-10.8071
▁직면해	-10.8071
▁진출에	-10.8071
▁집이	-10.8071
▁착륙	-10.8071
▁찾았다.	-10.8071
▁천주교	-10.8071
▁첼시는	-10.8071
▁초대형	-10.8071
▁최고위	-10.8071
▁최대한	-10.8071
▁추진할	-10.8071
▁취해야	-10.8071
▁컴퓨터와	-10.8071
▁켈리	-10.8071
▁콜로라도	-10.8071
▁크로커	-10.8071
▁클럽에서	-10.8071
▁탄소	-10.8071
▁탈북자	-10.8071
▁탑승하고	-10.8071
▁태국에서	-10.8071
▁터진	-10.8071
▁터키를	-10.8071
▁테러리스트	-10.8071
▁파업으로	-10.8071
▁파키스탄은	-10.8071
▁페일린은	-10.8071
▁펼치고	-10.8071
▁평양	-10.8071
▁포르노	-10.8071
▁표적이	-10.8071
▁프레드	-10.8071
▁프로그램과	-10.8071
▁프로젝트에	-10.8071
▁하기도	-10.8071
▁한달	-10.8071
▁합의된	-10.8071
▁해저	-10.8071
▁했다"고	-10.8071
▁행동으로	-10.8071
▁행위로	-10.8071
▁협상에서	-10.8071
▁확신을	-10.8071
▁환자들이	-10.8071
▁희생자가	-10.8071
▁"그	-10.8515
▁(CNN)/권성근(JOINS)	-10.8515
▁*	-10.8515
▁11시	-10.8515
▁1982년	-10.8515
▁1위인	-10.8515
▁2006.02	-10.8515
▁2010년까지	-10.8515
▁2달	-10.8515
▁2차례에	-10.8515
▁30%	-10.8515
▁3D	-10.8515
▁3번	-10.8515
▁4명은	-10.8515
▁50대	-10.8515
▁5명을	-10.8515
▁5번	-10.8515
▁6자회담이	-10.8515
▁7시	-10.8515
▁S&P	-10.8515
▁first	-10.8515
▁into	-10.8515
▁said	-10.8515
▁take	-10.8515
▁“그녀는	-10.8515
▁가방을	-10.8515
▁가볍게	-10.8515
▁가자지구의	-10.8515
▁가졌다고	-10.8515
▁가족들을	-10.8515
▁강화했다.	-10.8515
▁거두며	-10.8515
▁걸렸다.	-10.8515
▁것일	-10.8515
▁게임에	-10.8515
▁결의안이	-10.8515
▁결정된	-10.8515
▁경고하고	-10.8515
▁경기장	-10.8515
▁경로를	-10.8515
▁경보가	-10.8515
▁경사는	-10.8515
▁경우는	-10.8515
▁경우를	-10.8515
▁경쟁에서	-10.8515
▁계획과	-10.8515
▁고어는	-10.8515
▁고조되고	-10.8515
▁골	-10.8515
▁공격하기	-10.8515
▁관광객이	-10.8515
▁구조를	-10.8515
▁국경지역에	-10.8515
▁궤도를	-10.8515
▁균형을	-10.8515
▁그룹은	-10.8515
▁그리	-10.8515
▁극히	-10.8515
▁금속	-10.8515
▁기구	-10.8515
▁기념하기	-10.8515
▁기념하는	-10.8515
▁기리기	-10.8515
▁기술에	-10.8515
▁기업에	-10.8515
▁기자를	-10.8515
▁기존의	-10.8515
▁꾸준히	-10.8515
▁끝나지	-10.8515
▁나오면서	-10.8515
▁남겼다.	-10.8515
▁남쪽	-10.8515
▁내게	-10.8515
▁내리지	-10.8515
▁내비쳤다.	-10.8515
▁내용이다.	-10.8515
▁넣어	-10.8515
▁노대통령의	-10.8515
▁노동자들이	-10.8515
▁논평을	-10.8515
▁니케이	-10.8515
▁달려	-10.8515
▁달할	-10.8515
▁담겨있다.	-10.8515
▁답변했다.	-10.8515
▁당장	-10.8515
▁대단히	-10.8515
▁대신해	-10.8515
▁대처	-10.8515
▁대출을	-10.8515
▁대표와	-10.8515
▁데일리	-10.8515
▁도전을	-10.8515
▁독감	-10.8515
▁독일은	-10.8515
▁돌아가는	-10.8515
▁돕고	-10.8515
▁동결	-10.8515
▁되어야	-10.8515
▁들	-10.8515
▁따뜻한	-10.8515
▁떨어졌다고	-10.8515
▁뜨거운	-10.8515
▁라일라	-10.8515
▁레젭	-10.8515
▁로드리게스는	-10.8515
▁리히터규모	-10.8515
▁린제이	-10.8515
▁마련된	-10.8515
▁마련하기	-10.8515
▁마련했다.	-10.8515
▁막고	-10.8515
▁말았다.	-10.8515
▁말하지	-10.8515
▁맞출	-10.8515
▁매사추세츠	-10.8515
▁며	-10.8515
▁명인	-10.8515
▁모의	-10.8515
▁목에	-10.8515
▁무기한	-10.8515
▁무대	-10.8515
▁문	-10.8515
▁물었다.	-10.8515
▁미국내	-10.8515
▁미국인의	-10.8515
▁미얀마에	-10.8515
▁미하일	-10.8515
▁믿는	-10.8515
▁반대했다.	-10.8515
▁발견됐으며	-10.8515
▁발견했으며	-10.8515
▁발생하자	-10.8515
▁발언으로	-10.8515
▁방안에	-10.8515
▁방콕에서	-10.8515
▁벌이던	-10.8515
▁법에	-10.8515
▁베이징에	-10.8515
▁병원의	-10.8515
▁보도된	-10.8515
▁보였지만	-10.8515
▁부모의	-10.8515
▁부상은	-10.8515
▁부시가	-10.8515
▁부시와	-10.8515
▁북극곰	-10.8515
▁분석가는	-10.8515
▁분야	-10.8515
▁불교	-10.8515
▁불길이	-10.8515
▁불렀다.	-10.8515
▁불법적인	-10.8515
▁비행기는	-10.8515
▁빙하가	-10.8515
▁사랑을	-10.8515
▁산타	-10.8515
▁상대적으로	-10.8515
▁생물	-10.8515
▁샤론	-10.8515
▁서식하는	-10.8515
▁서양	-10.8515
▁서쪽으로	-10.8515
▁선거캠프는	-10.8515
▁선박에	-10.8515
▁선수는	-10.8515
▁성적을	-10.8515
▁세우고	-10.8515
▁세포	-10.8515
▁센터는	-10.8515
▁소니는	-10.8515
▁쇼	-10.8515
▁수용소	-10.8515
▁수익이	-10.8515
▁수준	-10.8515
▁수행한	-10.8515
▁시위대에	-10.8515
▁식당	-10.8515
▁신속하게	-10.8515
▁실종됐다고	-10.8515
▁심슨은	-10.8515
▁싶어하는	-10.8515
▁쏜	-10.8515
▁아내가	-10.8515
▁아놀드	-10.8515
▁아니다"고	-10.8515
▁아직은	-10.8515
▁아파트에서	-10.8515
▁안보리의	-10.8515
▁애플은	-10.8515
▁앨범을	-10.8515
▁양측	-10.8515
▁어머니인	-10.8515
▁억류된	-10.8515
▁언제든	-10.8515
▁엄마가	-10.8515
▁에너지를	-10.8515
▁에이미	-10.8515
▁여객기에	-10.8515
▁여겨지고	-10.8515
▁여권	-10.8515
▁여론조사는	-10.8515
▁역사의	-10.8515
▁역을	-10.8515
▁역할에	-10.8515
▁열린다.	-10.8515
▁열차는	-10.8515
▁예상된다고	-10.8515
▁오르는	-10.8515
▁오마르	-10.8515
▁올림픽에서	-10.8515
▁와서	-10.8515
▁완전	-10.8515
▁요청했다고	-10.8515
▁용의자인	-10.8515
▁우주에서	-10.8515
▁운영을	-10.8515
▁월	-10.8515
▁위성을	-10.8515
▁위원회가	-10.8515
▁유리	-10.8515
▁유세	-10.8515
▁은신처를	-10.8515
▁을	-10.8515
▁음식	-10.8515
▁이끈	-10.8515
▁이라크에서의	-10.8515
▁이야기는	-10.8515
▁인용하여	-10.8515
▁일시적으로	-10.8515
▁일정에	-10.8515
▁입양	-10.8515
▁잊지	-10.8515
▁자금은	-10.8515
▁자발적으로	-10.8515
▁자사의	-10.8515
▁작용할	-10.8515
▁작전이	-10.8515
▁잡을	-10.8515
▁장기적인	-10.8515
▁전년	-10.8515
▁전문가들의	-10.8515
▁전부	-10.8515
▁전에도	-10.8515
▁전용	-10.8515
▁전통을	-10.8515
▁정보에	-10.8515
▁정신	-10.8515
▁제외하고	-10.8515
▁제프	-10.8515
▁조건	-10.8515
▁조사했다.	-10.8515
▁조치	-10.8515
▁주도하고	-10.8515
▁주식시장이	-10.8515
▁줄리아니	-10.8515
▁중단된	-10.8515
▁중앙일보가	-10.8515
▁중태라고	-10.8515
▁증가로	-10.8515
▁지구를	-10.8515
▁지나친	-10.8515
▁지불할	-10.8515
▁지상	-10.8515
▁지속된	-10.8515
▁지에	-10.8515
▁직원들을	-10.8515
▁진행하는	-10.8515
▁차량의	-10.8515
▁차지할	-10.8515
▁찬사를	-10.8515
▁참가하는	-10.8515
▁철수할	-10.8515
▁체제를	-10.8515
▁총격전을	-10.8515
▁총으로	-10.8515
▁충돌,	-10.8515
▁친구인	-10.8515
▁커피를	-10.8515
▁컴퓨터에	-10.8515
▁코스피	-10.8515
▁쿠데타	-10.8515
▁크기가	-10.8515
▁크라이슬러는	-10.8515
▁크루즈	-10.8515
▁탈레반에	-10.8515
▁테리	-10.8515
▁투쟁을	-10.8515
▁팀에	-10.8515
▁파업은	-10.8515
▁파키스탄과	-10.8515
▁파티를	-10.8515
▁팔을	-10.8515
▁페르난도	-10.8515
▁펜실베니아	-10.8515
▁폭동이	-10.8515
▁프라이머리를	-10.8515
▁필	-10.8515
▁하며,	-10.8515
▁하버드	-10.8515
▁하원에서	-10.8515
▁하원의장은	-10.8515
▁학대	-10.8515
▁한국인들은	-10.8515
▁한번도	-10.8515
▁항공기가	-10.8515
▁해결하는	-10.8515
▁허용하는	-10.8515
▁현지경찰이	-10.8515
▁형사	-10.8515
▁호주,	-10.8515
▁화재는	-10.8515
▁확산	-10.8515
▁확산을	-10.8515
▁황금	-10.8515
▁회계	-10.8515
▁회장과	-10.8515
▁효과적인	-10.8515
▁후보자	-10.8515
▁휴대전화	-10.8515
▁휴식을	-10.8515
▁희생자들의	-10.8515
▁희생자들이	-10.8515
▁"그들은	-10.898
▁"만약	-10.898
▁100여명이	-10.898
▁11월에	-10.898
▁16명이	-10.898
▁17명이	-10.898
▁1979년	-10.898
▁1년간	-10.898
▁1월부터	-10.898
▁2006	-10.898
▁20세기	-10.898
▁24명이	-10.898
▁2곳을	-10.898
▁2번	-10.898
▁3만	-10.898
▁3명,	-10.898
▁3명과	-10.898
▁5개월	-10.898
▁60일	-10.898
▁6주	-10.898
▁7월에	-10.898
▁:	-10.898
▁FTSE	-10.898
▁“미국의	-10.898
▁가게	-10.898
▁가동을	-10.898
▁가슴에	-10.898
▁가졌던	-10.898
▁각기	-10.898
▁감독과	-10.898
▁감추지	-10.898
▁감축할	-10.898
▁갑작스런	-10.898
▁강세를	-10.898
▁개월	-10.898
▁개정	-10.898
▁거부	-10.898
▁것과는	-10.898
▁게릴라	-10.898
▁게이츠는	-10.898
▁격돌한다.	-10.898
▁결과에따라	-10.898
▁결과에따르면	-10.898
▁결정하기	-10.898
▁경우에	-10.898
▁고양이가	-10.898
▁곳곳에서	-10.898
▁공장에서	-10.898
▁관여한	-10.898
▁교황의	-10.898
▁구성	-10.898
▁구성할	-10.898
▁구입한	-10.898
▁국가비상사태를	-10.898
▁국가와	-10.898
▁군정은	-10.898
▁군정이	-10.898
▁궤도에	-10.898
▁귀국	-10.898
▁근처의	-10.898
▁기금을	-10.898
▁기쁘다”고	-10.898
▁기사	-10.898
▁기업들은	-10.898
▁기업들의	-10.898
▁김선일	-10.898
▁깃발을	-10.898
▁나눴다.	-10.898
▁나라는	-10.898
▁나스닥은	-10.898
▁나이로	-10.898
▁나타나는	-10.898
▁나타났다고	-10.898
▁낡은	-10.898
▁남극	-10.898
▁내년에	-10.898
▁내다봤다.	-10.898
▁내부의	-10.898
▁노력	-10.898
▁노선을	-10.898
▁노조가	-10.898
▁녹아	-10.898
▁논쟁의	-10.898
▁높다”고	-10.898
▁높였다.	-10.898
▁높이고	-10.898
▁뉴욕시	-10.898
▁능력이	-10.898
▁다국적군	-10.898
▁다루는	-10.898
▁다룰	-10.898
▁다이애나가	-10.898
▁단독	-10.898
▁단식	-10.898
▁달라이라마가	-10.898
▁당국자들은	-10.898
▁당분간	-10.898
▁당선자가	-10.898
▁당신에게	-10.898
▁대선이	-10.898
▁대테러	-10.898
▁대표들이	-10.898
▁대학생	-10.898
▁대한민국	-10.898
▁덜	-10.898
▁데는	-10.898
▁데비	-10.898
▁도착해	-10.898
▁독일과	-10.898
▁돌아오는	-10.898
▁돌입했다.	-10.898
▁돕는	-10.898
▁동반	-10.898
▁동생인	-10.898
▁동영상에	-10.898
▁드레스를	-10.898
▁디즈니	-10.898
▁똑같은	-10.898
▁로한이	-10.898
▁루아얄은	-10.898
▁마누엘	-10.898
▁마시는	-10.898
▁마찰을	-10.898
▁마케팅	-10.898
▁말했다”며	-10.898
▁매들린의	-10.898
▁맺었다.	-10.898
▁먹을	-10.898
▁먹이를	-10.898
▁메리	-10.898
▁면에서	-10.898
▁모르지만	-10.898
▁모른다는	-10.898
▁무료로	-10.898
▁무소속	-10.898
▁무엇인지	-10.898
▁무장세력을	-10.898
▁무하메드	-10.898
▁물품을	-10.898
▁바다에	-10.898
▁바람에	-10.898
▁바스라	-10.898
▁받아들여	-10.898
▁발언이	-10.898
▁방문하고	-10.898
▁배우인	-10.898
▁버스에	-10.898
▁버진	-10.898
▁베를린에서	-10.898
▁베테랑	-10.898
▁벽돌	-10.898
▁변화는	-10.898
▁보고되지	-10.898
▁보고서에는	-10.898
▁보리스	-10.898
▁보안관	-10.898
▁보여준	-10.898
▁부른	-10.898
▁부모들이	-10.898
▁부분에	-10.898
▁부상했으며	-10.898
▁부유한	-10.898
▁북측의	-10.898
▁분명한	-10.898
▁분석가인	-10.898
▁불가능한	-10.898
▁불과했다.	-10.898
▁블룸버그	-10.898
▁비영리	-10.898
▁비용은	-10.898
▁비틀즈	-10.898
▁비핵화를	-10.898
▁빅토리아	-10.898
▁빠질	-10.898
▁사람으로	-10.898
▁사막	-10.898
▁사망에	-10.898
▁사망자수는	-10.898
▁사생활을	-10.898
▁산업의	-10.898
▁살아있는	-10.898
▁살았던	-10.898
▁삼엄한	-10.898
▁상업	-10.898
▁생각할	-10.898
▁생각했던	-10.898
▁생산량을	-10.898
▁서명한	-10.898
▁서비스가	-10.898
▁선거법	-10.898
▁선박을	-10.898
▁선언	-10.898
▁선정된	-10.898
▁선택을	-10.898
▁선포한	-10.898
▁설치한	-10.898
▁성공적인	-10.898
▁성추행	-10.898
▁소녀의	-10.898
▁소문이	-10.898
▁소속으로	-10.898
▁수색을	-10.898
▁수요	-10.898
▁수용소에서	-10.898
▁수치가	-10.898
▁수행하는	-10.898
▁스스로를	-10.898
▁시민들을	-10.898
▁시사했다.	-10.898
▁시점에	-10.898
▁신부는	-10.898
▁싶다”며	-10.898
▁쓰지	-10.898
▁아니었다고	-10.898
▁아들과	-10.898
▁아마	-10.898
▁아웅산수지	-10.898
▁아이만	-10.898
▁악성	-10.898
▁안젤리나	-10.898
▁알카에다는	-10.898
▁압도적인	-10.898
▁앞에서	-10.898
▁애플의	-10.898
▁약물을	-10.898
▁양국간의	-10.898
▁양은	-10.898
▁양자	-10.898
▁어디에	-10.898
▁언론을	-10.898
▁없었다”며	-10.898
▁여객기의	-10.898
▁여덟	-10.898
▁연관이	-10.898
▁연안	-10.898
▁오	-10.898
▁오렌지	-10.898
▁올라가	-10.898
▁올해들어	-10.898
▁와	-10.898
▁와인	-10.898
▁와중에	-10.898
▁외곽에서	-10.898
▁외국의	-10.898
▁요원들이	-10.898
▁우려하는	-10.898
▁우려해	-10.898
▁우승자인	-10.898
▁운이	-10.898
▁원숭이	-10.898
▁윌	-10.898
▁윌리엄스	-10.898
▁의사와	-10.898
▁이끌었다.	-10.898
▁이득을	-10.898
▁이루어질	-10.898
▁이른다.	-10.898
▁이야기가	-10.898
▁이어진	-10.898
▁이탈리아,	-10.898
▁인터넷에서	-10.898
▁잃을	-10.898
▁임무에	-10.898
▁있길	-10.898
▁자원	-10.898
▁자유로운	-10.898
▁장관급	-10.898
▁장소에	-10.898
▁장애가	-10.898
▁재무부는	-10.898
▁재차	-10.898
▁저자인	-10.898
▁적당한	-10.898
▁전략적	-10.898
▁전통적으로	-10.898
▁전투가	-10.898
▁점은	-10.898
▁점이다.	-10.898
▁정전	-10.898
▁정책의	-10.898
▁제목의	-10.898
▁조직은	-10.898
▁주,	-10.898
▁중독	-10.898
▁지내고	-10.898
▁지도자의	-10.898
▁지미	-10.898
▁지방에	-10.898
▁지시를	-10.898
▁지진의	-10.898
▁지켜보는	-10.898
▁직접적으로	-10.898
▁진행됐다.	-10.898
▁집회에서	-10.898
▁착륙을	-10.898
▁참석을	-10.898
▁채로	-10.898
▁처음에	-10.898
▁첫날	-10.898
▁초부터	-10.898
▁최루탄을	-10.898
▁추정된다고	-10.898
▁출연,	-10.898
▁취재	-10.898
▁친구와	-10.898
▁침체	-10.898
▁카림	-10.898
▁카톨릭	-10.898
▁케냐의	-10.898
▁코커스에서	-10.898
▁콜린	-10.898
▁쿠웨이트	-10.898
▁클럽	-10.898
▁텍사스와	-10.898
▁토론	-10.898
▁톰슨	-10.898
▁통과할	-10.898
▁통화를	-10.898
▁팀은	-10.898
▁파괴된	-10.898
▁판다	-10.898
▁폐쇄할	-10.898
▁포함된다.	-10.898
▁폭격을	-10.898
▁풀려났다.	-10.898
▁플로리다에	-10.898
▁플로리다의	-10.898
▁하마스를	-10.898
▁하마스와	-10.898
▁하와이	-10.898
▁한국으로	-10.898
▁한반도에	-10.898
▁한반도의	-10.898
▁행정	-10.898
▁행정부에	-10.898
▁현지에서	-10.898
▁협회	-10.898
▁혼란이	-10.898
▁홈페이지에	-10.898
▁확보에	-10.898
▁회의는	-10.898
▁횡령	-10.898
▁후임	-10.898
▁후임으로	-10.898
▁후쿠다	-10.898
▁100m	-10.9468
▁100만	-10.9468
▁10월에	-10.9468
▁10일간	-10.9468
▁2008.11	-10.9468
▁2012년까지	-10.9468
▁20명의	-10.9468
▁2대가	-10.9468
▁2만	-10.9468
▁2위	-10.9468
▁3%	-10.9468
▁3주	-10.9468
▁3차례	-10.9468
▁50명의	-10.9468
▁5개의	-10.9468
▁5만	-10.9468
▁5명과	-10.9468
▁5번째	-10.9468
▁6시	-10.9468
▁6시간	-10.9468
▁6월에	-10.9468
▁8년간	-10.9468
▁8명	-10.9468
▁8시	-10.9468
▁AFP	-10.9468
▁Court	-10.9468
▁FDA는	-10.9468
▁MD	-10.9468
▁NATO	-10.9468
▁TV에서	-10.9468
▁may	-10.9468
▁off	-10.9468
▁visit	-10.9468
▁“가장	-10.9468
▁“다른	-10.9468
▁“북한이	-10.9468
▁“사고	-10.9468
▁“이란은	-10.9468
▁“한	-10.9468
▁가능하다고	-10.9468
▁가로질러	-10.9468
▁가슴	-10.9468
▁가졌으며	-10.9468
▁가족,	-10.9468
▁가치	-10.9468
▁가하는	-10.9468
▁감행한	-10.9468
▁강화된	-10.9468
▁강화하는	-10.9468
▁같습니다.	-10.9468
▁개인의	-10.9468
▁개표	-10.9468
▁거리가	-10.9468
▁거센	-10.9468
▁검토할	-10.9468
▁것으로,	-10.9468
▁것이지만	-10.9468
▁것인지는	-10.9468
▁게임은	-10.9468
▁격차가	-10.9468
▁격차를	-10.9468
▁결심을	-10.9468
▁경찰관이	-10.9468
▁경찰에게	-10.9468
▁고객	-10.9468
▁고객들이	-10.9468
▁고마움을	-10.9468
▁골든글로브	-10.9468
▁공연은	-10.9468
▁공화당은	-10.9468
▁관계자에따르면	-10.9468
▁관계자와	-10.9468
▁교수의	-10.9468
▁교착상태에	-10.9468
▁교체	-10.9468
▁국가들과	-10.9468
▁권한이	-10.9468
▁귀를	-10.9468
▁그날	-10.9468
▁극심한	-10.9468
▁근무	-10.9468
▁근본적인	-10.9468
▁긍정적으로	-10.9468
▁기꺼이	-10.9468
▁기소	-10.9468
▁기준금리를	-10.9468
▁기준에	-10.9468
▁길	-10.9468
▁길이의	-10.9468
▁깨끗한	-10.9468
▁끝내고	-10.9468
▁나왔다고	-10.9468
▁나타나지	-10.9468
▁나토군	-10.9468
▁남아프리카공화국	-10.9468
▁남자와	-10.9468
▁낮게	-10.9468
▁낳은	-10.9468
▁내각을	-10.9468
▁내놓은	-10.9468
▁넣고	-10.9468
▁논의했다.	-10.9468
▁놀라게	-10.9468
▁높아졌다.	-10.9468
▁누구든	-10.9468
▁뉴욕,	-10.9468
▁늘어나고	-10.9468
▁다국적	-10.9468
▁달한다고	-10.9468
▁당선된	-10.9468
▁당선자의	-10.9468
▁당신을	-10.9468
▁당이	-10.9468
▁당하는	-10.9468
▁대령은	-10.9468
▁대사관이	-10.9468
▁대응할	-10.9468
▁대화가	-10.9468
▁데이비스	-10.9468
▁도착했을	-10.9468
▁됐다”며	-10.9468
▁될지	-10.9468
▁드문	-10.9468
▁등록된	-10.9468
▁디자이너	-10.9468
▁레바논의	-10.9468
▁리버풀은	-10.9468
▁린다	-10.9468
▁막	-10.9468
▁만나고	-10.9468
▁만나기	-10.9468
▁말도	-10.9468
▁말했었다.	-10.9468
▁망명을	-10.9468
▁맞설	-10.9468
▁맞지	-10.9468
▁매니저인	-10.9468
▁매장	-10.9468
▁메드베데프	-10.9468
▁메시지가	-10.9468
▁메이저	-10.9468
▁면밀히	-10.9468
▁명단을	-10.9468
▁모로코	-10.9468
▁모바일	-10.9468
▁목록을	-10.9468
▁목을	-10.9468
▁못하면	-10.9468
▁못한다.	-10.9468
▁못한다고	-10.9468
▁무기와	-10.9468
▁무어	-10.9468
▁무중력	-10.9468
▁문서	-10.9468
▁물라	-10.9468
▁물질이	-10.9468
▁미소를	-10.9468
▁미얀마에서	-10.9468
▁민간인들을	-10.9468
▁바스라에서	-10.9468
▁반응이	-10.9468
▁받았고	-10.9468
▁발생하기	-10.9468
▁발표하면서	-10.9468
▁밤을	-10.9468
▁방법	-10.9468
▁방침이다.	-10.9468
▁백악관을	-10.9468
▁보아	-10.9468
▁복무	-10.9468
▁본격적으로	-10.9468
▁본부	-10.9468
▁부통령의	-10.9468
▁분야의	-10.9468
▁불구,	-10.9468
▁비난이	-10.9468
▁비평가들은	-10.9468
▁사기를	-10.9468
▁사드르	-10.9468
▁사법	-10.9468
▁상세한	-10.9468
▁상어	-10.9468
▁상원의	-10.9468
▁상의	-10.9468
▁상점	-10.9468
▁상태였다.	-10.9468
▁상태입니다.	-10.9468
▁새해	-10.9468
▁색	-10.9468
▁석유를	-10.9468
▁선거캠프	-10.9468
▁선고를	-10.9468
▁선박	-10.9468
▁설립된	-10.9468
▁성화를	-10.9468
▁세계가	-10.9468
▁세인트	-10.9468
▁세포를	-10.9468
▁셰이크	-10.9468
▁소녀는	-10.9468
▁손상된	-10.9468
▁쇼를	-10.9468
▁수단으로	-10.9468
▁수만	-10.9468
▁수반과	-10.9468
▁수준에	-10.9468
▁수준이다.	-10.9468
▁스타가	-10.9468
▁승객과	-10.9468
▁승객들은	-10.9468
▁승무원들은	-10.9468
▁시리아와	-10.9468
▁시민권을	-10.9468
▁시작됐으며	-10.9468
▁시작하기	-10.9468
▁시험을	-10.9468
▁식량과	-10.9468
▁신고했다.	-10.9468
▁신용카드	-10.9468
▁신중하게	-10.9468
▁신청	-10.9468
▁싣고	-10.9468
▁실종자	-10.9468
▁싸울	-10.9468
▁씨를	-10.9468
▁않겠다”고	-10.9468
▁않다”며	-10.9468
▁앞서있다.	-10.9468
▁애완견	-10.9468
▁어렵다고	-10.9468
▁어린이들에게	-10.9468
▁어제,	-10.9468
▁억류되어	-10.9468
▁얼굴에	-10.9468
▁없도록	-10.9468
▁없었지만	-10.9468
▁에탄올	-10.9468
▁여성들의	-10.9468
▁연구하고	-10.9468
▁연구하는	-10.9468
▁연말까지	-10.9468
▁연장	-10.9468
▁열리고	-10.9468
▁염두에	-10.9468
▁영화제	-10.9468
▁예수의	-10.9468
▁예언자	-10.9468
▁요구해	-10.9468
▁용납할	-10.9468
▁운전	-10.9468
▁운항을	-10.9468
▁운항이	-10.9468
▁움직이는	-10.9468
▁웃으며	-10.9468
▁월터	-10.9468
▁위원회에	-10.9468
▁위험성을	-10.9468
▁유럽에	-10.9468
▁유혈	-10.9468
▁음와이	-10.9468
▁응급	-10.9468
▁의원들과	-10.9468
▁의장의	-10.9468
▁의존하고	-10.9468
▁의혹이	-10.9468
▁이라크군이	-10.9468
▁이루어	-10.9468
▁이룬	-10.9468
▁이뤄지고	-10.9468
▁이르게	-10.9468
▁이메일	-10.9468
▁이상은	-10.9468
▁이유	-10.9468
▁이전의	-10.9468
▁이행할	-10.9468
▁인도네시아는	-10.9468
▁인도는	-10.9468
▁인정하고	-10.9468
▁인정하는	-10.9468
▁인터폴은	-10.9468
▁일곱	-10.9468
▁일요일,	-10.9468
▁일요일에	-10.9468
▁일주일에	-10.9468
▁입장에	-10.9468
▁있는지에	-10.9468
▁있음에도	-10.9468
▁자란	-10.9468
▁자르다리는	-10.9468
▁자전거를	-10.9468
▁작성된	-10.9468
▁잘못을	-10.9468
▁잠재적	-10.9468
▁장식된	-10.9468
▁저	-10.9468
▁적지	-10.9468
▁전까지는	-10.9468
▁전의	-10.9468
▁전투에서	-10.9468
▁절반이	-10.9468
▁젊은이들이	-10.9468
▁점에	-10.9468
▁정말로	-10.9468
▁제공하기	-10.9468
▁제시할	-10.9468
▁제한을	-10.9468
▁조사하는	-10.9468
▁조약을	-10.9468
▁조종사가	-10.9468
▁죄를	-10.9468
▁주변의	-10.9468
▁주장했습니다.	-10.9468
▁주차장에서	-10.9468
▁중국으로	-10.9468
▁증가,	-10.9468
▁지난밤	-10.9468
▁지배를	-10.9468
▁지분	-10.9468
▁지수도	-10.9468
▁지시했다고	-10.9468
▁직원들의	-10.9468
▁진도	-10.9468
▁진지하게	-10.9468
▁찍었다.	-10.9468
▁총리도	-10.9468
▁추가적으로	-10.9468
▁출마를	-10.9468
▁충돌한	-10.9468
▁친구를	-10.9468
▁카트리나	-10.9468
▁캐나다,	-10.9468
▁커피	-10.9468
▁쿠르드족	-10.9468
▁크라이슬러	-10.9468
▁토로했다.	-10.9468
▁토크쇼	-10.9468
▁통신에	-10.9468
▁통제를	-10.9468
▁통증을	-10.9468
▁투자가	-10.9468
▁트럭이	-10.9468
▁트로피를	-10.9468
▁특사	-10.9468
▁파견	-10.9468
▁파도가	-10.9468
▁파손된	-10.9468
▁파업이	-10.9468
▁파예드의	-10.9468
▁판매가	-10.9468
▁팝	-10.9468
▁팬들의	-10.9468
▁폐지	-10.9468
▁포기했다.	-10.9468
▁포드는	-10.9468
▁폭풍이	-10.9468
▁표준	-10.9468
▁피델	-10.9468
▁피츠버그	-10.9468
▁하는지	-10.9468
▁한다.”	-10.9468
▁함유된	-10.9468
▁합법적으로	-10.9468
▁해결될	-10.9468
▁해제를	-10.9468
▁핵프로그램을	-10.9468
▁행위	-10.9468
▁향년	-10.9468
▁혐의와	-10.9468
▁화해를	-10.9468
▁확신하고	-10.9468
▁회색	-10.9468
▁휴전을	-10.9468
▁"우리가	-10.9981
▁''	-10.9981
▁10분	-10.9981
▁1달	-10.9981
▁1억	-10.9981
▁1일부터	-10.9981
▁1차전에서	-10.9981
▁2007	-10.9981
▁2007.10	-10.9981
▁2개월	-10.9981
▁2일간	-10.9981
▁30개	-10.9981
▁3월까지	-10.9981
▁4시	-10.9981
▁5%	-10.9981
▁50년	-10.9981
▁6번째	-10.9981
▁7개	-10.9981
▁8명은	-10.9981
▁BBC는	-10.9981
▁CNN은	-10.9981
▁LPGA	-10.9981
▁Lee	-10.9981
▁MS는	-10.9981
▁MS의	-10.9981
▁State	-10.9981
▁USA	-10.9981
▁WASHINGTON	-10.9981
▁about	-10.9981
▁election	-10.9981
▁get	-10.9981
▁next	-10.9981
▁‘섹스	-10.9981
▁“그것은	-10.9981
▁“난	-10.9981
▁“당시	-10.9981
▁“두	-10.9981
▁“이를	-10.9981
▁가정에서	-10.9981
▁가족들의	-10.9981
▁강풍을	-10.9981
▁강화하기	-10.9981
▁개정된	-10.9981
▁개정을	-10.9981
▁거슬러	-10.9981
▁걱정하고	-10.9981
▁건물은	-10.9981
▁걸리는	-10.9981
▁것이라고,	-10.9981
▁게임의	-10.9981
▁결과,	-10.9981
▁결정하지	-10.9981
▁경기장에서	-10.9981
▁경영	-10.9981
▁경쟁력을	-10.9981
▁경제적으로	-10.9981
▁경호원	-10.9981
▁계약이	-10.9981
▁계획된	-10.9981
▁고양이를	-10.9981
▁골로	-10.9981
▁공격하고	-10.9981
▁공격해	-10.9981
▁과학적	-10.9981
▁관계당국이	-10.9981
▁관계로	-10.9981
▁관광객들에게	-10.9981
▁관광객을	-10.9981
▁교전은	-10.9981
▁교토	-10.9981
▁구스마오	-10.9981
▁구조대는	-10.9981
▁구조작업을	-10.9981
▁군인들을	-10.9981
▁그러나,	-10.9981
▁금년	-10.9981
▁급격한	-10.9981
▁급속도로	-10.9981
▁급히	-10.9981
▁기각했다.	-10.9981
▁기록됐다.	-10.9981
▁기분	-10.9981
▁기자들과	-10.9981
▁기자인	-10.9981
▁길게	-10.9981
▁끄는	-10.9981
▁나중에	-10.9981
▁나토의	-10.9981
▁남긴	-10.9981
▁남녀	-10.9981
▁남을	-10.9981
▁낮	-10.9981
▁내부에	-10.9981
▁내야	-10.9981
▁내용	-10.9981
▁노린	-10.9981
▁농업	-10.9981
▁놓았다.	-10.9981
▁놓여	-10.9981
▁놓인	-10.9981
▁뇌물	-10.9981
▁뉴멕시코	-10.9981
▁늘릴	-10.9981
▁다우지수가	-10.9981
▁단거리	-10.9981
▁단장은	-10.9981
▁당시의	-10.9981
▁당신	-10.9981
▁대가를	-10.9981
▁대상	-10.9981
▁대서양	-10.9981
▁대선후보가	-10.9981
▁대열에	-10.9981
▁대응	-10.9981
▁대학이	-10.9981
▁돌며	-10.9981
▁돌아가	-10.9981
▁동료인	-10.9981
▁동성애	-10.9981
▁동의를	-10.9981
▁돼지	-10.9981
▁들었다”고	-10.9981
▁등장하는	-10.9981
▁디트로이트	-10.9981
▁때도	-10.9981
▁때문입니다.	-10.9981
▁떠나지	-10.9981
▁떨어졌습니다.	-10.9981
▁똑	-10.9981
▁로널드	-10.9981
▁리사	-10.9981
▁리치는	-10.9981
▁링컨	-10.9981
▁마리의	-10.9981
▁마을로	-10.9981
▁말고	-10.9981
▁매각	-10.9981
▁매달	-10.9981
▁매케인과	-10.9981
▁맥주를	-10.9981
▁메릴랜드	-10.9981
▁목록에	-10.9981
▁목사가	-10.9981
▁목사의	-10.9981
▁못했으며	-10.9981
▁무대에	-10.9981
▁무대에서	-10.9981
▁뮤지컬	-10.9981
▁미시간	-10.9981
▁미친	-10.9981
▁민주	-10.9981
▁믿지	-10.9981
▁밀란의	-10.9981
▁밀리밴드	-10.9981
▁밀접한	-10.9981
▁박사의	-10.9981
▁반대를	-10.9981
▁반대의	-10.9981
▁반전	-10.9981
▁반하는	-10.9981
▁발표되지	-10.9981
▁발표될	-10.9981
▁밝혀졌다고	-10.9981
▁밝히기	-10.9981
▁방문했을	-10.9981
▁방송국	-10.9981
▁방침을	-10.9981
▁방화를	-10.9981
▁배터리	-10.9981
▁버린	-10.9981
▁버스는	-10.9981
▁벌였으며	-10.9981
▁법안의	-10.9981
▁별도로	-10.9981
▁병사가	-10.9981
▁보건부	-10.9981
▁보고된	-10.9981
▁보도	-10.9981
▁보조금을	-10.9981
▁보험	-10.9981
▁복구	-10.9981
▁복장을	-10.9981
▁볼튼	-10.9981
▁부담을	-10.9981
▁부인은	-10.9981
▁부인이	-10.9981
▁부적절한	-10.9981
▁불안을	-10.9981
▁불참	-10.9981
▁비공개	-10.9981
▁비극적인	-10.9981
▁비난의	-10.9981
▁비율은	-10.9981
▁사건에서	-10.9981
▁사르코지가	-10.9981
▁사망했다”고	-10.9981
▁사망했을	-10.9981
▁사생활	-10.9981
▁사항이	-10.9981
▁사회를	-10.9981
▁사회주의	-10.9981
▁상금을	-10.9981
▁상반기	-10.9981
▁상승하며	-10.9981
▁상원은	-10.9981
▁생각해	-10.9981
▁서브	-10.9981
▁서비스는	-10.9981
▁서열	-10.9981
▁선	-10.9981
▁성공할	-10.9981
▁성명서를	-10.9981
▁성장이	-10.9981
▁세기	-10.9981
▁세력	-10.9981
▁소녀	-10.9981
▁소니의	-10.9981
▁소련	-10.9981
▁소식통들은	-10.9981
▁소프트웨어를	-10.9981
▁손으로	-10.9981
▁쇼핑을	-10.9981
▁수용소에	-10.9981
▁수입이	-10.9981
▁수잔	-10.9981
▁순간에	-10.9981
▁스트레스를	-10.9981
▁승리,	-10.9981
▁승리가	-10.9981
▁시간으로	-10.9981
▁시나리오	-10.9981
▁시도	-10.9981
▁시상식은	-10.9981
▁시신의	-10.9981
▁신문의	-10.9981
▁신문이	-10.9981
▁신원은	-10.9981
▁신종	-10.9981
▁쌓인	-10.9981
▁씨	-10.9981
▁아내는	-10.9981
▁아마존	-10.9981
▁아버지를	-10.9981
▁아시아와	-10.9981
▁아프간의	-10.9981
▁아프리카의	-10.9981
▁않았기	-10.9981
▁않았다면	-10.9981
▁애도의	-10.9981
▁양곤에서	-10.9981
▁언급도	-10.9981
▁언론과	-10.9981
▁업계의	-10.9981
▁여당이	-10.9981
▁여성으로	-10.9981
▁여왕이	-10.9981
▁연구소는	-10.9981
▁연기됐다.	-10.9981
▁열대	-10.9981
▁열리기	-10.9981
▁열린우리당은	-10.9981
▁영상은	-10.9981
▁영어를	-10.9981
▁영향으로	-10.9981
▁예산이	-10.9981
▁올라온	-10.9981
▁올림픽에	-10.9981
▁옷	-10.9981
▁완화하기	-10.9981
▁왔던	-10.9981
▁외곽에	-10.9981
▁요인이	-10.9981
▁요청하는	-10.9981
▁우승으로	-10.9981
▁운동가들은	-10.9981
▁운행	-10.9981
▁위원장의	-10.9981
▁위협적인	-10.9981
▁유가가	-10.9981
▁유럽,	-10.9981
▁유전자를	-10.9981
▁은행인	-10.9981
▁의문이	-10.9981
▁이건희	-10.9981
▁이뤄져야	-10.9981
▁이뤄지는	-10.9981
▁이사회는	-10.9981
▁이스라엘군	-10.9981
▁이었다.	-10.9981
▁이전에는	-10.9981
▁이주	-10.9981
▁이혼했다.	-10.9981
▁이후에도	-10.9981
▁인물로	-10.9981
▁인수를	-10.9981
▁인질들은	-10.9981
▁잃어버린	-10.9981
▁임시로	-10.9981
▁있다.”	-10.9981
▁있어,	-10.9981
▁자이툰	-10.9981
▁자치	-10.9981
▁잡아	-10.9981
▁잡혀	-10.9981
▁재무부	-10.9981
▁재정적	-10.9981
▁적극적인	-10.9981
▁전국의	-10.9981
▁전달할	-10.9981
▁전문가는	-10.9981
▁전원	-10.9981
▁전통적	-10.9981
▁정밀	-10.9981
▁정보부	-10.9981
▁제기됐다.	-10.9981
▁제트	-10.9981
▁제품이	-10.9981
▁제한하는	-10.9981
▁조사에따르면,	-10.9981
▁조직인	-10.9981
▁주된	-10.9981
▁주석이	-10.9981
▁주위를	-10.9981
▁주인공인	-10.9981
▁주장인	-10.9981
▁주장해	-10.9981
▁주지사	-10.9981
▁준다.	-10.9981
▁중도	-10.9981
▁중반	-10.9981
▁증가에	-10.9981
▁지역과	-10.9981
▁직원은	-10.9981
▁진압을	-10.9981
▁질병에	-10.9981
▁집중적으로	-10.9981
▁차원의	-10.9981
▁차질이	-10.9981
▁착용한	-10.9981
▁체계를	-10.9981
▁체중이	-10.9981
▁체포됐으며	-10.9981
▁초안을	-10.9981
▁촉발된	-10.9981
▁총선이	-10.9981
▁총재가	-10.9981
▁최우수	-10.9981
▁추락해	-10.9981
▁추락했다.	-10.9981
▁추정되고	-10.9981
▁축제를	-10.9981
▁축하	-10.9981
▁춤을	-10.9981
▁충돌해	-10.9981
▁치료에	-10.9981
▁카불	-10.9981
▁카불에서	-10.9981
▁카지노	-10.9981
▁캘리포니아에	-10.9981
▁캘리포니아에서	-10.9981
▁커플은	-10.9981
▁코끼리	-10.9981
▁코카인	-10.9981
▁콜롬비아의	-10.9981
▁크리켓	-10.9981
▁타이	-10.9981
▁탈출한	-10.9981
▁테러범이	-10.9981
▁토론회에서	-10.9981
▁통과하는	-10.9981
▁통신과의	-10.9981
▁통합	-10.9981
▁특파원은	-10.9981
▁특파원이	-10.9981
▁티셔츠를	-10.9981
▁파산	-10.9981
▁파악하고	-10.9981
▁판사	-10.9981
▁팔레스타인과	-10.9981
▁페널티킥을	-10.9981
▁평론가들은	-10.9981
▁평소	-10.9981
▁폐쇄했다.	-10.9981
▁포기하는	-10.9981
▁폭발물	-10.9981
▁폭발물이	-10.9981
▁폭설로	-10.9981
▁폭우가	-10.9981
▁프라임	-10.9981
▁프랑스가	-10.9981
▁프로그램에서	-10.9981
▁프로디	-10.9981
▁피해자들을	-10.9981
▁하나다.	-10.9981
▁하늘을	-10.9981
▁하락을	-10.9981
▁하려는	-10.9981
▁학교,	-10.9981
▁학교는	-10.9981
▁한국계	-10.9981
▁항의를	-10.9981
▁항의했다.	-10.9981
▁해수면	-10.9981
▁해줄	-10.9981
▁향했다.	-10.9981
▁헌법에	-10.9981
▁혐의도	-10.9981
▁호주는	-10.9981
▁홈	-10.9981
▁화산이	-10.9981
▁환자는	-10.9981
▁환자들은	-10.9981
▁환자를	-10.9981
▁회복을	-10.9981
▁회복하고	-10.9981
▁획득했다.	-10.9981
▁효과적으로	-10.9981
▁후안	-10.9981
▁후인	-10.9981
▁희망한다고	-10.9981
▁희생을	-10.9981
▁10만	-11.0522
▁13명의	-11.0522
▁1988년	-11.0522
▁1만	-11.0522
▁1명,	-11.0522
▁1분기	-11.0522
▁2006.12	-11.0522
▁2명,	-11.0522
▁2시	-11.0522
▁2위에	-11.0522
▁2주전	-11.0522
▁30년간	-11.0522
▁30명	-11.0522
▁3분기	-11.0522
▁3일간의	-11.0522
▁3차	-11.0522
▁5시	-11.0522
▁6월까지	-11.0522
▁9시	-11.0522
▁CBS의	-11.0522
▁EU의	-11.0522
▁England	-11.0522
▁H5N1	-11.0522
▁IT	-11.0522
▁MS	-11.0522
▁Prime	-11.0522
▁SK	-11.0522
▁TV로	-11.0522
▁UEFA컵	-11.0522
▁foreign	-11.0522
▁it	-11.0522
▁“만일	-11.0522
▁“미국이	-11.0522
▁“사람들이	-11.0522
▁“새로운	-11.0522
▁“영국	-11.0522
▁“우리의	-11.0522
▁가깝게	-11.0522
▁가담한	-11.0522
▁가옥이	-11.0522
▁갈수록	-11.0522
▁감소할	-11.0522
▁값싼	-11.0522
▁강에	-11.0522
▁개선	-11.0522
▁개체수가	-11.0522
▁개최될	-11.0522
▁개최할	-11.0522
▁거래에	-11.0522
▁거부할	-11.0522
▁검사가	-11.0522
▁것들을	-11.0522
▁겪은	-11.0522
▁결함이	-11.0522
▁결혼한	-11.0522
▁경쟁이	-11.0522
▁경찰들이	-11.0522
▁경찰서	-11.0522
▁고속도로를	-11.0522
▁고장	-11.0522
▁공개될	-11.0522
▁공약을	-11.0522
▁공화국	-11.0522
▁과정은	-11.0522
▁과정이	-11.0522
▁과학자	-11.0522
▁관계자들의	-11.0522
▁관리들과	-11.0522
▁광장	-11.0522
▁교수	-11.0522
▁교육,	-11.0522
▁교회에	-11.0522
▁교회의	-11.0522
▁구속된	-11.0522
▁구조대가	-11.0522
▁국내에서	-11.0522
▁국무장관과	-11.0522
▁국제적으로	-11.0522
▁국회는	-11.0522
▁군인을	-11.0522
▁규정	-11.0522
▁그렇다면	-11.0522
▁그린스펀	-11.0522
▁그저	-11.0522
▁극적으로	-11.0522
▁금연	-11.0522
▁금지된	-11.0522
▁금지를	-11.0522
▁금치	-11.0522
▁급속한	-11.0522
▁기록했으며	-11.0522
▁기사에	-11.0522
▁기원전	-11.0522
▁기점으로	-11.0522
▁기지에	-11.0522
▁깜짝	-11.0522
▁끝났다.	-11.0522
▁나간	-11.0522
▁나이에	-11.0522
▁나치	-11.0522
▁난동을	-11.0522
▁납치를	-11.0522
▁내각의	-11.0522
▁내달	-11.0522
▁넬슨	-11.0522
▁노력하는	-11.0522
▁노리는	-11.0522
▁뉴저지주	-11.0522
▁다할	-11.0522
▁다해	-11.0522
▁단일	-11.0522
▁단체들이	-11.0522
▁달고	-11.0522
▁담당자인	-11.0522
▁대법원에	-11.0522
▁대사관에	-11.0522
▁대응을	-11.0522
▁대전	-11.0522
▁대표적인	-11.0522
▁대학교의	-11.0522
▁대학에	-11.0522
▁던져	-11.0522
▁던지는	-11.0522
▁데에는	-11.0522
▁데이브	-11.0522
▁도달할	-11.0522
▁도덕적	-11.0522
▁도시는	-11.0522
▁독립한	-11.0522
▁돌아갔다.	-11.0522
▁동맹을	-11.0522
▁동의했다고	-11.0522
▁동점골을	-11.0522
▁됐고	-11.0522
▁들었다고	-11.0522
▁등록	-11.0522
▁디에고	-11.0522
▁따르지	-11.0522
▁때를	-11.0522
▁때부터	-11.0522
▁라덴은	-11.0522
▁로비	-11.0522
▁로야	-11.0522
▁롤링은	-11.0522
▁루이지애나	-11.0522
▁리타	-11.0522
▁린	-11.0522
▁많을	-11.0522
▁말하면서	-11.0522
▁맞춘	-11.0522
▁매들린이	-11.0522
▁맨유	-11.0522
▁며칠간	-11.0522
▁명확한	-11.0522
▁모델로	-11.0522
▁모두는	-11.0522
▁모아	-11.0522
▁목표에	-11.0522
▁무가베는	-11.0522
▁무게가	-11.0522
▁무장단체의	-11.0522
▁문자	-11.0522
▁문제다.	-11.0522
▁물러난	-11.0522
▁물의를	-11.0522
▁미국인이	-11.0522
▁민간인을	-11.0522
▁민주적인	-11.0522
▁바란다”며	-11.0522
▁바오로	-11.0522
▁박물관은	-11.0522
▁박정희	-11.0522
▁반경	-11.0522
▁받기도	-11.0522
▁받았었다.	-11.0522
▁발간된	-11.0522
▁발견할	-11.0522
▁발견해	-11.0522
▁발레리	-11.0522
▁발생했다”고	-11.0522
▁발전	-11.0522
▁방콕	-11.0522
▁배경으로	-11.0522
▁배심원단은	-11.0522
▁버려진	-11.0522
▁버렸다.	-11.0522
▁버스가	-11.0522
▁베리	-11.0522
▁병사들은	-11.0522
▁병을	-11.0522
▁보고서의	-11.0522
▁보장	-11.0522
▁보좌관	-11.0522
▁북극	-11.0522
▁북쪽에	-11.0522
▁불과한	-11.0522
▁불길에	-11.0522
▁불참을	-11.0522
▁불편한	-11.0522
▁불필요한	-11.0522
▁블랙	-11.0522
▁비난해	-11.0522
▁비판	-11.0522
▁비행기에서	-11.0522
▁빨간	-11.0522
▁사라질	-11.0522
▁사령관	-11.0522
▁사르코지의	-11.0522
▁사무실에	-11.0522
▁사살하고	-11.0522
▁사실이다.	-11.0522
▁사용이	-11.0522
▁사용자가	-11.0522
▁사우디아라비아	-11.0522
▁산업에	-11.0522
▁산업을	-11.0522
▁살해하고	-11.0522
▁상태는	-11.0522
▁상황	-11.0522
▁생길	-11.0522
▁서류를	-11.0522
▁석방했다.	-11.0522
▁선수들과	-11.0522
▁선언을	-11.0522
▁섬의	-11.0522
▁성공시켰다.	-11.0522
▁성향을	-11.0522
▁세번째	-11.0522
▁센터에	-11.0522
▁센터에서	-11.0522
▁소년은	-11.0522
▁소동이	-11.0522
▁소령은	-11.0522
▁소재로	-11.0522
▁소지	-11.0522
▁소지한	-11.0522
▁소행이라고	-11.0522
▁손실이	-11.0522
▁송민순	-11.0522
▁수비수	-11.0522
▁수십명의	-11.0522
▁수집한	-11.0522
▁수치이다.	-11.0522
▁슈퍼볼	-11.0522
▁스노	-11.0522
▁스테판	-11.0522
▁스피처	-11.0522
▁승객이	-11.0522
▁승인한	-11.0522
▁승인할	-11.0522
▁시간은	-11.0522
▁시대가	-11.0522
▁시민이	-11.0522
▁시상식을	-11.0522
▁시스템의	-11.0522
▁시에서	-11.0522
▁시위대의	-11.0522
▁식당에서	-11.0522
▁실시됐다.	-11.0522
▁실었다.	-11.0522
▁실적을	-11.0522
▁실패	-11.0522
▁실행에	-11.0522
▁심리에서	-11.0522
▁아니었다.	-11.0522
▁아랍에미리트	-11.0522
▁아지즈	-11.0522
▁안보리는	-11.0522
▁안에는	-11.0522
▁안을	-11.0522
▁알렌	-11.0522
▁알자와히리는	-11.0522
▁암으로	-11.0522
▁압수했다.	-11.0522
▁애틀랜타	-11.0522
▁약을	-11.0522
▁어깨	-11.0522
▁어린이가	-11.0522
▁언론과의	-11.0522
▁얻는데	-11.0522
▁업무에	-11.0522
▁없음을	-11.0522
▁없이는	-11.0522
▁여론이	-11.0522
▁연구진이	-11.0522
▁연합의	-11.0522
▁열려	-11.0522
▁영국을	-11.0522
▁영토	-11.0522
▁영토를	-11.0522
▁영향력이	-11.0522
▁예를들어,	-11.0522
▁예상한	-11.0522
▁예선	-11.0522
▁예정"이라고	-11.0522
▁예정이었으나	-11.0522
▁오사마빈라덴의	-11.0522
▁오염	-11.0522
▁오프라	-11.0522
▁오하이오,	-11.0522
▁올해는	-11.0522
▁왕복선	-11.0522
▁왕세자의	-11.0522
▁외국계	-11.0522
▁외딴	-11.0522
▁우주의	-11.0522
▁위	-11.0522
▁유권자가	-11.0522
▁은행을	-11.0522
▁음베키	-11.0522
▁의구심을	-11.0522
▁의사의	-11.0522
▁의사인	-11.0522
▁이곳의	-11.0522
▁이끌	-11.0522
▁이와는	-11.0522
▁이틀간의	-11.0522
▁인구는	-11.0522
▁인질이	-11.0522
▁인하	-11.0522
▁일상적인	-11.0522
▁일종의	-11.0522
▁잃게	-11.0522
▁임명했다.	-11.0522
▁입국	-11.0522
▁입원해	-11.0522
▁있겠지만	-11.0522
▁있었는지	-11.0522
▁자살폭탄테러로	-11.0522
▁자선단체	-11.0522
▁자이언트	-11.0522
▁자체가	-11.0522
▁잔혹한	-11.0522
▁장기를	-11.0522
▁장례식에	-11.0522
▁장벽을	-11.0522
▁장이	-11.0522
▁재건을	-11.0522
▁재무	-11.0522
▁재미있는	-11.0522
▁저항	-11.0522
▁적게	-11.0522
▁전당	-11.0522
▁전반에	-11.0522
▁전세계의	-11.0522
▁전임	-11.0522
▁전투로	-11.0522
▁접속	-11.0522
▁정권에	-11.0522
▁정부에게	-11.0522
▁정상회담에	-11.0522
▁정오	-11.0522
▁정치,	-11.0522
▁제너럴	-11.0522
▁제조업체인	-11.0522
▁제품의	-11.0522
▁조용히	-11.0522
▁존슨은	-11.0522
▁좁은	-11.0522
▁종의	-11.0522
▁주둔중인	-11.0522
▁주장했다고	-11.0522
▁주제로	-11.0522
▁주지사를	-11.0522
▁주최한	-11.0522
▁죽게	-11.0522
▁죽음이	-11.0522
▁줄리아니는	-11.0522
▁중령은	-11.0522
▁중앙일보는	-11.0522
▁중요하다.	-11.0522
▁증상을	-11.0522
▁지명된	-11.0522
▁지방을	-11.0522
▁지불하고	-11.0522
▁지지자들을	-11.0522
▁지지자의	-11.0522
▁지켜본	-11.0522
▁직원과	-11.0522
▁직원을	-11.0522
▁진압하기	-11.0522
▁진지한	-11.0522
▁질환	-11.0522
▁집권당인	-11.0522
▁집회	-11.0522
▁차량에서	-11.0522
▁참석하는	-11.0522
▁챔피언십	-11.0522
▁청문회에서	-11.0522
▁청와대는	-11.0522
▁초드리	-11.0522
▁촉구하고	-11.0522
▁총리와의	-11.0522
▁촬영된	-11.0522
▁최상의	-11.0522
▁추방된	-11.0522
▁충돌하는	-11.0522
▁취임식	-11.0522
▁캐나다의	-11.0522
▁커뮤니티	-11.0522
▁콘서트	-11.0522
▁타	-11.0522
▁탁신은	-11.0522
▁탄광	-11.0522
▁태어났다.	-11.0522
▁태풍으로	-11.0522
▁테네시주	-11.0522
▁토론회	-11.0522
▁토요일에	-11.0522
▁통치를	-11.0522
▁통해서	-11.0522
▁트럭에	-11.0522
▁트럭을	-11.0522
▁파견했다.	-11.0522
▁파리의	-11.0522
▁파예드가	-11.0522
▁파예드는	-11.0522
▁펀드	-11.0522
▁편안한	-11.0522
▁평가	-11.0522
▁평양에	-11.0522
▁평했다.	-11.0522
▁폐	-11.0522
▁폐쇄하고	-11.0522
▁포괄적인	-11.0522
▁포기하고	-11.0522
▁폭동을	-11.0522
▁폭락했다.	-11.0522
▁표결에	-11.0522
▁푸미폰	-11.0522
▁프랑스를	-11.0522
▁플로리다에서	-11.0522
▁플로리다와	-11.0522
▁피고인	-11.0522
▁하락했다고	-11.0522
▁하루종일	-11.0522
▁한꺼번에	-11.0522
▁할리우드의	-11.0522
▁합류할	-11.0522
▁합법적인	-11.0522
▁항공사가	-11.0522
▁해변에	-11.0522
▁해상	-11.0522
▁해안의	-11.0522
▁해외로	-11.0522
▁해준다.	-11.0522
▁핵을	-11.0522
▁현상을	-11.0522
▁형을	-11.0522
▁호르타	-11.0522
▁호화	-11.0522
▁홀에서	-11.0522
▁화물	-11.0522
▁화요일,	-11.0522
▁화장실	-11.0522
▁화재를	-11.0522
▁화합을	-11.0522
▁확보해	-11.0522
▁확보해야	-11.0522
▁확인하지	-11.0522
▁확정될	-11.0522
▁회사에서	-11.0522
▁획기적인	-11.0522
▁휴일	-11.0522
▁흐름을	-11.0522
▁힐러리의	-11.0522
▁"이것은	-11.1094
▁''이	-11.1094
▁(CNN)/박신원(JOINS)	-11.1094
▁100명이	-11.1094
▁12월에	-11.1094
▁13개	-11.1094
▁14세	-11.1094
▁15세	-11.1094
▁18세	-11.1094
▁1949년	-11.1094
▁1965년	-11.1094
▁1984년	-11.1094
▁1년이	-11.1094
▁2-0으로	-11.1094
▁200명이	-11.1094
▁3-0으로	-11.1094
▁3가지	-11.1094
▁3시	-11.1094
▁3월부터	-11.1094
▁3위로	-11.1094
▁40%	-11.1094
▁40%를	-11.1094
▁40명의	-11.1094
▁5명은	-11.1094
▁60명이	-11.1094
▁6명은	-11.1094
▁8월까지	-11.1094
▁APEC	-11.1094
▁FRB는	-11.1094
▁GNP	-11.1094
▁L.	-11.1094
▁NASA의	-11.1094
▁NFL	-11.1094
▁UN의	-11.1094
▁death	-11.1094
▁or	-11.1094
▁̋2007.11	-11.1094
▁‘아메리칸	-11.1094
▁“파키스탄	-11.1094
▁가격의	-11.1094
▁가져야	-11.1094
▁가치는	-11.1094
▁가톨릭	-11.1094
▁감소한	-11.1094
▁감소했다.	-11.1094
▁감시를	-11.1094
▁강타해	-11.1094
▁개발하고	-11.1094
▁개입	-11.1094
▁거래에서	-11.1094
▁거부하는	-11.1094
▁거짓	-11.1094
▁건스	-11.1094
▁것은,	-11.1094
▁겪게	-11.1094
▁결정하는	-11.1094
▁고객을	-11.1094
▁고속도로에서	-11.1094
▁곤경에	-11.1094
▁공격,	-11.1094
▁공공장소에서	-11.1094
▁공급할	-11.1094
▁공원에	-11.1094
▁공항이	-11.1094
▁과	-11.1094
▁과도하게	-11.1094
▁관광객들을	-11.1094
▁광장에서	-11.1094
▁교사	-11.1094
▁구조대원들은	-11.1094
▁구호물품을	-11.1094
▁국가들에	-11.1094
▁국경지역에서	-11.1094
▁국방장관	-11.1094
▁군사력을	-11.1094
▁규정했다.	-11.1094
▁그래도	-11.1094
▁그루지아	-11.1094
▁그루지야	-11.1094
▁그룹이	-11.1094
▁극도로	-11.1094
▁극장에서	-11.1094
▁근로자들이	-11.1094
▁금	-11.1094
▁금요일에	-11.1094
▁기관인	-11.1094
▁기금	-11.1094
▁기대한다고	-11.1094
▁기존에	-11.1094
▁기지로	-11.1094
▁기회로	-11.1094
▁까지는	-11.1094
▁깨고	-11.1094
▁끝낼	-11.1094
▁나타날	-11.1094
▁나토군이	-11.1094
▁날로	-11.1094
▁날씨는	-11.1094
▁날에	-11.1094
▁남미	-11.1094
▁남쪽에	-11.1094
▁납치됐다.	-11.1094
▁낳을	-11.1094
▁내각이	-11.1094
▁넣으며	-11.1094
▁노리고	-11.1094
▁노선	-11.1094
▁노출된	-11.1094
▁농장에서	-11.1094
▁뇌의	-11.1094
▁누드	-11.1094
▁눈으로	-11.1094
▁느끼지	-11.1094
▁늘	-11.1094
▁닉슨	-11.1094
▁다윈은	-11.1094
▁다이애나의	-11.1094
▁단계를	-11.1094
▁달라는	-11.1094
▁담겨	-11.1094
▁당국자들이	-11.1094
▁당선이	-11.1094
▁대거	-11.1094
▁대륙	-11.1094
▁대만에	-11.1094
▁대변인을	-11.1094
▁대승을	-11.1094
▁대표의	-11.1094
▁대하여	-11.1094
▁대항하는	-11.1094
▁독특한	-11.1094
▁돌려	-11.1094
▁동료들은	-11.1094
▁동유럽	-11.1094
▁되면,	-11.1094
▁두번째로	-11.1094
▁드미트리	-11.1094
▁들며	-11.1094
▁들어가기	-11.1094
▁들어주지	-11.1094
▁떠나는	-11.1094
▁라시드	-11.1094
▁라틴	-11.1094
▁러셀	-11.1094
▁레바논에서	-11.1094
▁레이	-11.1094
▁로날드	-11.1094
▁로브는	-11.1094
▁루디	-11.1094
▁마드리드에서	-11.1094
▁마라도나는	-11.1094
▁마련해	-11.1094
▁마을이	-11.1094
▁만델라	-11.1094
▁말라는	-11.1094
▁말레이시아의	-11.1094
▁말입니다.	-11.1094
▁말했으며	-11.1094
▁맞추고	-11.1094
▁매	-11.1094
▁매사추세츠주	-11.1094
▁맥주	-11.1094
▁맥캔	-11.1094
▁메시지는	-11.1094
▁멕시코의	-11.1094
▁모색하고	-11.1094
▁모습은	-11.1094
▁모여들었다.	-11.1094
▁목소리가	-11.1094
▁몰려	-11.1094
▁몰린	-11.1094
▁무너지고	-11.1094
▁무장세력과	-11.1094
▁무하마드	-11.1094
▁무혐의	-11.1094
▁문제점을	-11.1094
▁문화적	-11.1094
▁물과	-11.1094
▁물리치고	-11.1094
▁미셀	-11.1094
▁미시간주	-11.1094
▁민간인이	-11.1094
▁바꿔	-11.1094
▁바티칸	-11.1094
▁박물관에	-11.1094
▁반발했다.	-11.1094
▁반응은	-11.1094
▁반지를	-11.1094
▁받기로	-11.1094
▁받도록	-11.1094
▁받았습니다.	-11.1094
▁발견,	-11.1094
▁발견하지	-11.1094
▁발생했을	-11.1094
▁발전소	-11.1094
▁발표하는	-11.1094
▁방	-11.1094
▁방금	-11.1094
▁방문한다.	-11.1094
▁방사능	-11.1094
▁방을	-11.1094
▁배심원	-11.1094
▁버시바우	-11.1094
▁벌금	-11.1094
▁벌였던	-11.1094
▁벌였지만	-11.1094
▁범인을	-11.1094
▁법이	-11.1094
▁베이징의	-11.1094
▁벤자민	-11.1094
▁변호사와	-11.1094
▁병원은	-11.1094
▁보건부는	-11.1094
▁본국으로	-11.1094
▁본래	-11.1094
▁본사가	-11.1094
▁봉사	-11.1094
▁부근의	-11.1094
▁부담이	-11.1094
▁부정적	-11.1094
▁북서쪽으로	-11.1094
▁분리된	-11.1094
▁분석	-11.1094
▁불가능하다고	-11.1094
▁불만이	-11.1094
▁불안이	-11.1094
▁불쾌감을	-11.1094
▁불편을	-11.1094
▁붙였다.	-11.1094
▁비공식	-11.1094
▁비로	-11.1094
▁비상사태가	-11.1094
▁비핵화	-11.1094
▁사례를	-11.1094
▁사망할	-11.1094
▁사망했고	-11.1094
▁사실”이라고	-11.1094
▁사업은	-11.1094
▁사업의	-11.1094
▁사용하여	-11.1094
▁사이를	-11.1094
▁사직서를	-11.1094
▁사진에	-11.1094
▁사회에서	-11.1094
▁살던	-11.1094
▁상승은	-11.1094
▁상징으로	-11.1094
▁상파울루	-11.1094
▁상황으로	-11.1094
▁생각한다"고	-11.1094
▁생산된	-11.1094
▁생존자를	-11.1094
▁석방됐다고	-11.1094
▁석방될	-11.1094
▁선고받았다.	-11.1094
▁선물로	-11.1094
▁선발	-11.1094
▁선수의	-11.1094
▁선택했다.	-11.1094
▁설	-11.1094
▁설립	-11.1094
▁설명하지	-11.1094
▁설치할	-11.1094
▁성공	-11.1094
▁성당	-11.1094
▁성장률을	-11.1094
▁세력과	-11.1094
▁션	-11.1094
▁소동을	-11.1094
▁소송에서	-11.1094
▁소아과	-11.1094
▁속의	-11.1094
▁수감됐다.	-11.1094
▁수년간	-11.1094
▁수도에서	-11.1094
▁수영을	-11.1094
▁수위를	-11.1094
▁수행	-11.1094
▁순간을	-11.1094
▁순방	-11.1094
▁순찰	-11.1094
▁시골	-11.1094
▁시리아는	-11.1094
▁시리즈의	-11.1094
▁시에	-11.1094
▁시위자들을	-11.1094
▁시작했고	-11.1094
▁신고	-11.1094
▁신선한	-11.1094
▁실적	-11.1094
▁심리를	-11.1094
▁심슨의	-11.1094
▁심장마비로	-11.1094
▁싶다는	-11.1094
▁싶어한다.	-11.1094
▁쓰러져	-11.1094
▁쓰레기	-11.1094
▁아내를	-11.1094
▁아내인	-11.1094
▁아담	-11.1094
▁아로요	-11.1094
▁아프리카에서	-11.1094
▁악화된	-11.1094
▁안았다.	-11.1094
▁않을까	-11.1094
▁알아야	-11.1094
▁암컷	-11.1094
▁양이	-11.1094
▁어머니의	-11.1094
▁얼굴	-11.1094
▁얼음	-11.1094
▁없고,	-11.1094
▁없었으며	-11.1094
▁에서도	-11.1094
▁에티오피아	-11.1094
▁엘리베이터	-11.1094
▁여기에	-11.1094
▁여러차례	-11.1094
▁여배우	-11.1094
▁역사가	-11.1094
▁연기에	-11.1094
▁연일	-11.1094
▁영국군은	-11.1094
▁영어로	-11.1094
▁영업	-11.1094
▁영장	-11.1094
▁오늘은	-11.1094
▁온실	-11.1094
▁올해로	-11.1094
▁와인하우스가	-11.1094
▁외교관은	-11.1094
▁외무장관이	-11.1094
▁요소가	-11.1094
▁요청에	-11.1094
▁요청으로	-11.1094
▁용기를	-11.1094
▁용의가	-11.1094
▁우리당은	-11.1094
▁우승했다.	-11.1094
▁우연히	-11.1094
▁운명을	-11.1094
▁운항	-11.1094
▁울머	-11.1094
▁울포위츠	-11.1094
▁울프	-11.1094
▁원격	-11.1094
▁원칙을	-11.1094
▁원한다면	-11.1094
▁웨스트버지니아	-11.1094
▁위스콘신	-11.1094
▁위원회에서	-11.1094
▁유가는	-11.1094
▁유나이티드	-11.1094
▁유용한	-11.1094
▁의도가	-11.1094
▁의미하는	-11.1094
▁의석	-11.1094
▁의심을	-11.1094
▁이견을	-11.1094
▁이내	-11.1094
▁이들과	-11.1094
▁이목을	-11.1094
▁이송됐다.	-11.1094
▁이슬라마바드에서	-11.1094
▁이어갔다.	-11.1094
▁이어지고	-11.1094
▁이외의	-11.1094
▁이제까지	-11.1094
▁이탈리아에서	-11.1094
▁이해를	-11.1094
▁이해하고	-11.1094
▁인물을	-11.1094
▁인수	-11.1094
▁인종	-11.1094
▁일일	-11.1094
▁일하던	-11.1094
▁일했다.	-11.1094
▁입장이다.	-11.1094
▁입힌	-11.1094
▁잇따라	-11.1094
▁있다”	-11.1094
▁자는	-11.1094
▁자리	-11.1094
▁자체적으로	-11.1094
▁작품이	-11.1094
▁잡스	-11.1094
▁잡스는	-11.1094
▁장식했다.	-11.1094
▁재개를	-11.1094
▁재단은	-11.1094
▁적대적인	-11.1094
▁적도	-11.1094
▁전달했다고	-11.1094
▁정부군은	-11.1094
▁정상들이	-11.1094
▁정상은	-11.1094
▁정통한	-11.1094
▁제공한다.	-11.1094
▁제보를	-11.1094
▁제안	-11.1094
▁제의를	-11.1094
▁제이슨	-11.1094
▁제조한	-11.1094
▁져야	-11.1094
▁졌다.	-11.1094
▁조직이	-11.1094
▁종료	-11.1094
▁주기로	-11.1094
▁주목할	-11.1094
▁주민은	-11.1094
▁주장했었다.	-11.1094
▁죽고	-11.1094
▁줄리	-11.1094
▁중국과의	-11.1094
▁중국에서는	-11.1094
▁중심부에	-11.1094
▁중심부에서	-11.1094
▁중심의	-11.1094
▁증상이	-11.1094
▁지냈던	-11.1094
▁지도부가	-11.1094
▁지분을	-11.1094
▁지수	-11.1094
▁지역에는	-11.1094
▁지역에서도	-11.1094
▁지지자들의	-11.1094
▁지지한	-11.1094
▁지지했다.	-11.1094
▁지켜	-11.1094
▁진영의	-11.1094
▁진행자인	-11.1094
▁집계	-11.1094
▁집권한	-11.1094
▁짙은	-11.1094
▁쪽으로	-11.1094
▁찍힌	-11.1094
▁차량과	-11.1094
▁참석,	-11.1094
▁참여하고	-11.1094
▁천연	-11.1094
▁철회할	-11.1094
▁총회에서	-11.1094
▁최근까지	-11.1094
▁추측이	-11.1094
▁축하하기	-11.1094
▁출발,	-11.1094
▁출판	-11.1094
▁충격적인	-11.1094
▁취소됐다.	-11.1094
▁취하는	-11.1094
▁취해	-11.1094
▁측에서는	-11.1094
▁치안을	-11.1094
▁친밀한	-11.1094
▁침해	-11.1094
▁캐나다에서	-11.1094
▁캐리	-11.1094
▁커플이	-11.1094
▁켄터키	-11.1094
▁크리스티아누	-11.1094
▁타이거	-11.1094
▁탄압을	-11.1094
▁탈출했다.	-11.1094
▁탐사선	-11.1094
▁태양열	-11.1094
▁터져	-11.1094
▁테러와	-11.1094
▁테일러	-11.1094
▁텔레비전	-11.1094
▁통과된	-11.1094
▁투자에	-11.1094
▁파는	-11.1094
▁판매될	-11.1094
▁판매량이	-11.1094
▁판사에게	-11.1094
▁팔렸다.	-11.1094
▁패배한	-11.1094
▁편이다.	-11.1094
▁평화로운	-11.1094
▁포기한	-11.1094
▁포즈를	-11.1094
▁포함하는	-11.1094
▁폭발,	-11.1094
▁폭탄테러는	-11.1094
▁폭탄테러의	-11.1094
▁폭행을	-11.1094
▁표현을	-11.1094
▁푸틴의	-11.1094
▁프랑스로	-11.1094
▁프랑스에	-11.1094
▁플루토늄을	-11.1094
▁피랍	-11.1094
▁피셔	-11.1094
▁피해자가	-11.1094
▁피해자의	-11.1094
▁하루가	-11.1094
▁하리리	-11.1094
▁하에서	-11.1094
▁하지는	-11.1094
▁학교와	-11.1094
▁학생을	-11.1094
▁학생의	-11.1094
▁학위를	-11.1094
▁합병	-11.1094
▁해발	-11.1094
▁해변	-11.1094
▁해적	-11.1094
▁핵심적인	-11.1094
▁행동	-11.1094
▁행해진	-11.1094
▁현장으로	-11.1094
▁현직	-11.1094
▁혐의는	-11.1094
▁협력해	-11.1094
▁협상의	-11.1094
▁협의	-11.1094
▁환경에서	-11.1094
▁환수	-11.1094
▁환자들을	-11.1094
▁환자에게	-11.1094
▁활주로를	-11.1094
▁획득한	-11.1094
▁효력을	-11.1094
▁후보였던	-11.1094
▁후세인은	-11.1094
▁흔적이	-11.1094
▁흡연을	-11.1094
▁흥미를	-11.1094
▁흥분한	-11.1094
▁"내	-11.17
▁"이는	-11.17
▁''우리는	-11.17
▁100	-11.17
▁1000여명이	-11.17
▁10명을	-11.17
▁10억	-11.17
▁12년	-11.17
▁12시	-11.17
▁14명의	-11.17
▁16년	-11.17
▁16세가	-11.17
▁19명의	-11.17
▁1명도	-11.17
▁1번	-11.17
▁2004년에	-11.17
▁2006.08	-11.17
▁2008.03	-11.17
▁2009년까지	-11.17
▁21명의	-11.17
▁3월에	-11.17
▁40명이	-11.17
▁4년간	-11.17
▁4월에	-11.17
▁5	-11.17
▁6개월간	-11.17
▁7명을	-11.17
▁80명이	-11.17
▁8강에	-11.17
▁9월에	-11.17
▁Bank	-11.17
▁FARC	-11.17
▁FIFA	-11.17
▁G8	-11.17
▁PKK	-11.17
▁Party	-11.17
▁TV와	-11.17
▁Two	-11.17
▁down	-11.17
▁former	-11.17
▁no	-11.17
▁that	-11.17
▁their	-11.17
▁two	-11.17
▁‘수퍼	-11.17
▁“결국	-11.17
▁“나의	-11.17
▁“올해	-11.17
▁“정말	-11.17
▁가구	-11.17
▁가득한	-11.17
▁가이트너	-11.17
▁가정을	-11.17
▁간단히	-11.17
▁감소하고	-11.17
▁갖기	-11.17
▁갖지	-11.17
▁개막식	-11.17
▁개인적	-11.17
▁개최를	-11.17
▁거리의	-11.17
▁건물들이	-11.17
▁검문소를	-11.17
▁검색	-11.17
▁겁니다.	-11.17
▁것이고,	-11.17
▁것이나	-11.17
▁것이다"고	-11.17
▁게임이	-11.17
▁겪는	-11.17
▁겪을	-11.17
▁결승에	-11.17
▁결혼했다.	-11.17
▁경	-11.17
▁경선에	-11.17
▁경제학자들은	-11.17
▁경찰서로	-11.17
▁계속됐다.	-11.17
▁계획으로	-11.17
▁고발했다.	-11.17
▁고속	-11.17
▁공격적인	-11.17
▁공습	-11.17
▁공약으로	-11.17
▁관광객은	-11.17
▁관리들을	-11.17
▁관리하고	-11.17
▁교회는	-11.17
▁구성에	-11.17
▁국가들을	-11.17
▁국가적	-11.17
▁국경에	-11.17
▁국민은	-11.17
▁국왕의	-11.17
▁국제유가	-11.17
▁군대	-11.17
▁군대에	-11.17
▁군부는	-11.17
▁군부의	-11.17
▁권리	-11.17
▁권총을	-11.17
▁그녀에게	-11.17
▁그외	-11.17
▁근본주의	-11.17
▁글로리아	-11.17
▁급락했다.	-11.17
▁기관	-11.17
▁기관은	-11.17
▁기내	-11.17
▁기다려야	-11.17
▁기록으로	-11.17
▁기록은	-11.17
▁기록할	-11.17
▁기사는	-11.17
▁기술로	-11.17
▁기준	-11.17
▁기한을	-11.17
▁나라에	-11.17
▁나라에서	-11.17
▁나아갈	-11.17
▁나타난다.	-11.17
▁난민들을	-11.17
▁날개	-11.17
▁남동쪽으로	-11.17
▁내놓았다.	-11.17
▁내부에서	-11.17
▁내용도	-11.17
▁냄새가	-11.17
▁넘긴	-11.17
▁넘길	-11.17
▁넣을	-11.17
▁노동자들을	-11.17
▁노래	-11.17
▁노력은	-11.17
▁노인성	-11.17
▁높아	-11.17
▁높이기	-11.17
▁뉴올리언스	-11.17
▁뉴욕과	-11.17
▁느끼게	-11.17
▁다루고	-11.17
▁다리에	-11.17
▁다비드	-11.17
▁다운로드	-11.17
▁다음과	-11.17
▁다이앤	-11.17
▁단계	-11.17
▁단계적으로	-11.17
▁단기	-11.17
▁단체로	-11.17
▁달성할	-11.17
▁달했다.	-11.17
▁당국	-11.17
▁당선인과	-11.17
▁대미	-11.17
▁대비,	-11.17
▁대사와	-11.17
▁대사의	-11.17
▁대우를	-11.17
▁대원	-11.17
▁대주교는	-11.17
▁대처할	-11.17
▁대표로	-11.17
▁대피했다고	-11.17
▁댄	-11.17
▁도메인	-11.17
▁도와	-11.17
▁도움의	-11.17
▁돌고래가	-11.17
▁돌아	-11.17
▁동물원에서	-11.17
▁동북아	-11.17
▁돼있다.	-11.17
▁됐지만	-11.17
▁두지	-11.17
▁둘러싸여	-11.17
▁드러내지	-11.17
▁득표율로	-11.17
▁든다.	-11.17
▁딴	-11.17
▁때에	-11.17
▁때와	-11.17
▁뚫고	-11.17
▁라이벌	-11.17
▁레이드	-11.17
▁레이저	-11.17
▁로드	-11.17
▁로스앤젤레스	-11.17
▁룰라	-11.17
▁르	-11.17
▁리얼리티	-11.17
▁마가렛	-11.17
▁마드리드가	-11.17
▁마련하고	-11.17
▁만나게	-11.17
▁만들어졌다.	-11.17
▁만화	-11.17
▁만화를	-11.17
▁매출	-11.17
▁머리가	-11.17
▁머물	-11.17
▁메디컬	-11.17
▁멸종위기	-11.17
▁모두의	-11.17
▁모색할	-11.17
▁모였다.	-11.17
▁모자를	-11.17
▁목적	-11.17
▁못했을	-11.17
▁무력을	-11.17
▁무릎을	-11.17
▁무엇이	-11.17
▁무자비한	-11.17
▁무책임한	-11.17
▁문제도	-11.17
▁문제들에	-11.17
▁문화의	-11.17
▁물어	-11.17
▁물질의	-11.17
▁물체가	-11.17
▁뮤직	-11.17
▁미군,	-11.17
▁미사일이	-11.17
▁미수	-11.17
▁민족	-11.17
▁바르셀로나는	-11.17
▁바비	-11.17
▁바이러스의	-11.17
▁바탕으로	-11.17
▁박격포	-11.17
▁박사와	-11.17
▁박수를	-11.17
▁박차를	-11.17
▁반대에도	-11.17
▁반대해	-11.17
▁반짝이는	-11.17
▁발	-11.17
▁발령했다.	-11.17
▁발표했었다.	-11.17
▁밝혀질	-11.17
▁방송과의	-11.17
▁방에서	-11.17
▁방지	-11.17
▁배에	-11.17
▁배치	-11.17
▁배후로	-11.17
▁백신	-11.17
▁백악관이	-11.17
▁밴드	-11.17
▁버리고	-11.17
▁벌이다	-11.17
▁벌이며	-11.17
▁벌인다.	-11.17
▁법무장관이	-11.17
▁법으로	-11.17
▁법은	-11.17
▁벗어나기	-11.17
▁베이루트	-11.17
▁변호사들은	-11.17
▁병사들을	-11.17
▁병사를	-11.17
▁보고에	-11.17
▁보석으로	-11.17
▁보안이	-11.17
▁보여줬다”고	-11.17
▁보트를	-11.17
▁봤을	-11.17
▁부대의	-11.17
▁부를	-11.17
▁부문의	-11.17
▁부상에서	-11.17
▁부양책을	-11.17
▁부위에	-11.17
▁부채를	-11.17
▁부처	-11.17
▁부터	-11.17
▁분쟁에	-11.17
▁불과하다고	-11.17
▁불어	-11.17
▁붕괴로	-11.17
▁브랜드	-11.17
▁브로드웨이	-11.17
▁비디오는	-11.17
▁비리	-11.17
▁비판하는	-11.17
▁빌딩	-11.17
▁빚을	-11.17
▁뼈	-11.17
▁뿐”이라고	-11.17
▁사람이라고	-11.17
▁사령관이	-11.17
▁사령관인	-11.17
▁사무국장은	-11.17
▁사임한	-11.17
▁사진과	-11.17
▁사찰단이	-11.17
▁사카쉬빌리	-11.17
▁사형이	-11.17
▁산사태가	-11.17
▁살리기	-11.17
▁살해했다.	-11.17
▁삼았다.	-11.17
▁상승했다고	-11.17
▁샌프란시스코에서	-11.17
▁생각합니다.	-11.17
▁생각했다”고	-11.17
▁생기는	-11.17
▁생물학적	-11.17
▁생산이	-11.17
▁생존자가	-11.17
▁서서히	-11.17
▁서식하고	-11.17
▁서울대	-11.17
▁서울을	-11.17
▁서한을	-11.17
▁선보일	-11.17
▁선수인	-11.17
▁선임	-11.17
▁선제	-11.17
▁설명할	-11.17
▁성명에	-11.17
▁성장률이	-11.17
▁세골렌	-11.17
▁세레나	-11.17
▁세력에	-11.17
▁세력은	-11.17
▁세우는	-11.17
▁섹시한	-11.17
▁소속된	-11.17
▁소요될	-11.17
▁소탕작전을	-11.17
▁속도가	-11.17
▁수니파와	-11.17
▁수단이	-11.17
▁수상은	-11.17
▁수상자	-11.17
▁수행하게	-11.17
▁순식간	-11.17
▁스페인에서	-11.17
▁스페인은	-11.17
▁승리에	-11.17
▁승리의	-11.17
▁승리해야	-11.17
▁시간당	-11.17
▁시기	-11.17
▁시대의	-11.17
▁시도가	-11.17
▁시도했다.	-11.17
▁시도했으나	-11.17
▁시드니에서	-11.17
▁시민들에게	-11.17
▁시설의	-11.17
▁시위의	-11.17
▁시작되기	-11.17
▁시티	-11.17
▁신문을	-11.17
▁신중한	-11.17
▁실시하고	-11.17
▁실업률이	-11.17
▁실적이	-11.17
▁실종됐다.	-11.17
▁실질적으로	-11.17
▁심리가	-11.17
▁심슨이	-11.17
▁심의를	-11.17
▁싱가포르의	-11.17
▁싶다면	-11.17
▁싼	-11.17
▁쏟아	-11.17
▁아래로	-11.17
▁아침,	-11.17
▁아카데미상	-11.17
▁아폴로	-11.17
▁아프간을	-11.17
▁안된	-11.17
▁안보와	-11.17
▁알라헴	-11.17
▁알릴	-11.17
▁알았다.	-11.17
▁압도적으로	-11.17
▁압력에	-11.17
▁애도를	-11.17
▁애슐리	-11.17
▁약속했다고	-11.17
▁양상을	-11.17
▁양을	-11.17
▁어려움에	-11.17
▁어린이들은	-11.17
▁억만장자	-11.17
▁에디	-11.17
▁에어버스는	-11.17
▁여기서는	-11.17
▁여론조사에	-11.17
▁여성들에게	-11.17
▁여학생	-11.17
▁역할이	-11.17
▁연계된	-11.17
▁연구팀이	-11.17
▁연립	-11.17
▁연설에서,	-11.17
▁연합뉴스는	-11.17
▁영향에	-11.17
▁옆에서	-11.17
▁예상했던	-11.17
▁오래전부터	-11.17
▁오르고	-11.17
▁오르지	-11.17
▁오전에	-11.17
▁온난화로	-11.17
▁올랜도	-11.17
▁옮겨	-11.17
▁와인하우스는	-11.17
▁왕	-11.17
▁우리나라	-11.17
▁우세를	-11.17
▁우크라이나의	-11.17
▁운동이	-11.17
▁운전자가	-11.17
▁원내대표는	-11.17
▁원인에	-11.17
▁월드시리즈	-11.17
▁월스트리트	-11.17
▁위생	-11.17
▁위원회를	-11.17
▁위태롭게	-11.17
▁위협은	-11.17
▁윌슨은	-11.17
▁유	-11.17
▁유권자들을	-11.17
▁유람선	-11.17
▁유지될	-11.17
▁유치를	-11.17
▁유튜브에	-11.17
▁은퇴를	-11.17
▁은행,	-11.17
▁은행들이	-11.17
▁의무가	-11.17
▁의미한다고	-11.17
▁의식이	-11.17
▁이라크,	-11.17
▁이례적인	-11.17
▁이루어지는	-11.17
▁이룰	-11.17
▁이스라엘군의	-11.17
▁이양	-11.17
▁이익이	-11.17
▁이전에도	-11.17
▁인공	-11.17
▁인류가	-11.17
▁인사들을	-11.17
▁인사들이	-11.17
▁인용했다.	-11.17
▁인정했다고	-11.17
▁인터	-11.17
▁인터뷰에서,	-11.17
▁인플레이션	-11.17
▁일제	-11.17
▁일했던	-11.17
▁임신을	-11.17
▁입원했다.	-11.17
▁입원했다고	-11.17
▁입학	-11.17
▁자녀가	-11.17
▁자부심을	-11.17
▁자살폭탄테러	-11.17
▁자신	-11.17
▁자유무역협정	-11.17
▁자택	-11.17
▁작년에	-11.17
▁잔해를	-11.17
▁장군이	-11.17
▁재직	-11.17
▁잭슨이	-11.17
▁저작권	-11.17
▁전국에	-11.17
▁전세계로	-11.17
▁정당은	-11.17
▁정치를	-11.17
▁정확하게	-11.17
▁제안은	-11.17
▁제작했다.	-11.17
▁조그만	-11.17
▁조명을	-11.17
▁조세프	-11.17
▁조속히	-11.17
▁조승희가	-11.17
▁조심스럽게	-11.17
▁조용한	-11.17
▁존재하지	-11.17
▁종신형을	-11.17
▁좋아한다.	-11.17
▁좌익	-11.17
▁주문했다.	-11.17
▁주시하고	-11.17
▁주식시장은	-11.17
▁주어진	-11.17
▁주와	-11.17
▁주인공이	-11.17
▁죽음과	-11.17
▁준결승전에서	-11.17
▁중단해야	-11.17
▁중동의	-11.17
▁줬다.	-11.17
▁즉각적으로	-11.17
▁즐거운	-11.17
▁증가를	-11.17
▁지금도	-11.17
▁지금이	-11.17
▁지도자들의	-11.17
▁지연되고	-11.17
▁지을	-11.17
▁지적하며	-11.17
▁지출	-11.17
▁지출이	-11.17
▁지켰다.	-11.17
▁진료를	-11.17
▁진행하고	-11.17
▁징후가	-11.17
▁차고	-11.17
▁차세대	-11.17
▁찾아야	-11.17
▁처음에는	-11.17
▁처해질	-11.17
▁천천히	-11.17
▁첨단	-11.17
▁첩보	-11.17
▁청색	-11.17
▁체제	-11.17
▁체중을	-11.17
▁체포한	-11.17
▁쳐	-11.17
▁초,	-11.17
▁초대	-11.17
▁총리직을	-11.17
▁촬영했다.	-11.17
▁최근에는	-11.17
▁추운	-11.17
▁추후	-11.17
▁축하했다.	-11.17
▁출장	-11.17
▁치르게	-11.17
▁친구의	-11.17
▁카드를	-11.17
▁칸은	-11.17
▁크다.	-11.17
▁클라크	-11.17
▁키스를	-11.17
▁킨	-11.17
▁타임	-11.17
▁테네시	-11.17
▁테이프	-11.17
▁토드	-11.17
▁토론토	-11.17
▁토론회에	-11.17
▁톤의	-11.17
▁통합을	-11.17
▁통해,	-11.17
▁퇴진을	-11.17
▁투	-11.17
▁투표권을	-11.17
▁투표율은	-11.17
▁투표한	-11.17
▁티나	-11.17
▁파견한	-11.17
▁파바로티의	-11.17
▁파티에	-11.17
▁팔아	-11.17
▁패했다.	-11.17
▁팬들을	-11.17
▁포기	-11.17
▁폭발한	-11.17
▁폭설이	-11.17
▁풍선을	-11.17
▁프라이머리	-11.17
▁플루토늄	-11.17
▁피닉스호는	-11.17
▁피살된	-11.17
▁피해로	-11.17
▁하락해	-11.17
▁하려	-11.17
▁하루를	-11.17
▁하원의원은	-11.17
▁학살을	-11.17
▁학생은	-11.17
▁한다"며	-11.17
▁한동안	-11.17
▁한반도에서	-11.17
▁합류했다.	-11.17
▁항구	-11.17
▁해결되지	-11.17
▁해온	-11.17
▁해적들이	-11.17
▁행복한	-11.17
▁헤럴드	-11.17
▁현금을	-11.17
▁호주에	-11.17
▁호텔은	-11.17
▁홀랜드는	-11.17
▁화성에	-11.17
▁화제가	-11.17
▁확보하지	-11.17
▁확신한다”고	-11.17
▁확정된	-11.17
▁환영을	-11.17
▁환율은	-11.17
▁활력을	-11.17
▁회장을	-11.17
▁후지모리는	-11.17
▁흔들며	-11.17
▁흔히	-11.17
▁흡연	-11.17
▁희생된	-11.17
▁힘들게	-11.17
▁"모든	-11.2345
▁1-1	-11.2345
▁10	-11.2345
▁15분	-11.2345
▁16세는	-11.2345
▁1975년	-11.2345
▁1985년	-11.2345
▁1개	-11.2345
▁1마리를	-11.2345
▁1위로	-11.2345
▁1위에	-11.2345
▁2006.10	-11.2345
▁2006.11	-11.2345
▁2007.06	-11.2345
▁2007.08	-11.2345
▁20명	-11.2345
▁20일부터	-11.2345
▁22명이	-11.2345
▁23명이	-11.2345
▁25년	-11.2345
▁3번째로	-11.2345
▁48시간	-11.2345
▁4시간	-11.2345
▁5대	-11.2345
▁5일간	-11.2345
▁7월부터	-11.2345
▁8명을	-11.2345
▁8월에	-11.2345
▁A.	-11.2345
▁AI	-11.2345
▁American	-11.2345
▁BAGHDAD,	-11.2345
▁CDC는	-11.2345
▁Chinese	-11.2345
▁DNA를	-11.2345
▁Day	-11.2345
▁FRB	-11.2345
▁IMF는	-11.2345
▁N.K.	-11.2345
▁OPEC	-11.2345
▁PPP는	-11.2345
▁SUV	-11.2345
▁Security	-11.2345
▁Senate	-11.2345
▁World	-11.2345
▁[예]	-11.2345
▁economic	-11.2345
▁people	-11.2345
▁summit	-11.2345
▁than	-11.2345
▁time	-11.2345
▁“그런	-11.2345
▁“미얀마	-11.2345
▁“사람들은	-11.2345
▁“이란	-11.2345
▁“정부가	-11.2345
▁“정부는	-11.2345
▁“클린턴	-11.2345
▁가량이	-11.2345
▁가솔린	-11.2345
▁가입	-11.2345
▁가혹한	-11.2345
▁간부	-11.2345
▁강조하며	-11.2345
▁강진으로	-11.2345
▁같다는	-11.2345
▁개막식에	-11.2345
▁개발했다.	-11.2345
▁개정안을	-11.2345
▁개정안이	-11.2345
▁건의	-11.2345
▁건조한	-11.2345
▁건축	-11.2345
▁검진을	-11.2345
▁검토한	-11.2345
▁것이다"라고	-11.2345
▁것이었다고	-11.2345
▁것인지를	-11.2345
▁결선투표를	-11.2345
▁결정으로	-11.2345
▁결혼식	-11.2345
▁경매에서	-11.2345
▁경미한	-11.2345
▁경선은	-11.2345
▁경우도	-11.2345
▁경우에는	-11.2345
▁경찰서의	-11.2345
▁경찰서장이	-11.2345
▁계기로	-11.2345
▁고객들에게	-11.2345
▁고려	-11.2345
▁고용한	-11.2345
▁고위관리가	-11.2345
▁고통	-11.2345
▁곡을	-11.2345
▁공세를	-11.2345
▁과격	-11.2345
▁과반수를	-11.2345
▁관객들은	-11.2345
▁관계없이	-11.2345
▁관리인	-11.2345
▁관리하는	-11.2345
▁광경을	-11.2345
▁광우병	-11.2345
▁구속됐다.	-11.2345
▁구입할	-11.2345
▁국가들	-11.2345
▁국민과	-11.2345
▁국제원자력기구(IAEA)	-11.2345
▁권했다.	-11.2345
▁귀국할	-11.2345
▁귀중한	-11.2345
▁규모에	-11.2345
▁그간	-11.2345
▁그랜드슬램	-11.2345
▁그런데	-11.2345
▁그려진	-11.2345
▁그리고는	-11.2345
▁극복할	-11.2345
▁근육을	-11.2345
▁기구는	-11.2345
▁기대	-11.2345
▁기록인	-11.2345
▁기여한	-11.2345
▁기울여야	-11.2345
▁기자들은	-11.2345
▁김경준	-11.2345
▁깨진	-11.2345
▁꽉	-11.2345
▁끝나기	-11.2345
▁끝이	-11.2345
▁나눌	-11.2345
▁나왔습니다.	-11.2345
▁낙태를	-11.2345
▁날씨	-11.2345
▁날짜는	-11.2345
▁남동부에서	-11.2345
▁남부지역에서	-11.2345
▁남북한은	-11.2345
▁남아있다.	-11.2345
▁납치했다.	-11.2345
▁낳았다.	-11.2345
▁내각은	-11.2345
▁내셔널	-11.2345
▁네그로폰테	-11.2345
▁네덜란드의	-11.2345
▁네트워크를	-11.2345
▁노출	-11.2345
▁녹음	-11.2345
▁논란	-11.2345
▁논란의	-11.2345
▁논의한	-11.2345
▁논쟁에	-11.2345
▁농산물	-11.2345
▁높았다.	-11.2345
▁높일	-11.2345
▁누구나	-11.2345
▁뉴델리	-11.2345
▁뉴스가	-11.2345
▁뉴스에	-11.2345
▁늘고	-11.2345
▁늘어났다.	-11.2345
▁다르지	-11.2345
▁달러는	-11.2345
▁담당하는	-11.2345
▁대만을	-11.2345
▁대만이	-11.2345
▁대법원의	-11.2345
▁대사	-11.2345
▁대선은	-11.2345
▁대체로	-11.2345
▁대통령직을	-11.2345
▁대표를	-11.2345
▁대표팀에	-11.2345
▁대피	-11.2345
▁대피한	-11.2345
▁도로는	-11.2345
▁도쿄의	-11.2345
▁독자적인	-11.2345
▁돈으로	-11.2345
▁돌렸다.	-11.2345
▁돌아가고	-11.2345
▁동결된	-11.2345
▁동맹국인	-11.2345
▁동부의	-11.2345
▁동의	-11.2345
▁됐을	-11.2345
▁되기를	-11.2345
▁두려워	-11.2345
▁뒤,	-11.2345
▁뒤이어	-11.2345
▁듣게	-11.2345
▁들어보겠습니다.	-11.2345
▁따로	-11.2345
▁따르는	-11.2345
▁딸은	-11.2345
▁때때로	-11.2345
▁떠났다고	-11.2345
▁라는	-11.2345
▁라덴의	-11.2345
▁라우터바흐	-11.2345
▁레빈슨	-11.2345
▁로마에서	-11.2345
▁론스타가	-11.2345
▁루아얄	-11.2345
▁루터	-11.2345
▁리버풀의	-11.2345
▁마른	-11.2345
▁막강한	-11.2345
▁만들었다고	-11.2345
▁맛을	-11.2345
▁매달려	-11.2345
▁매트	-11.2345
▁맨	-11.2345
▁맨해튼	-11.2345
▁머레이는	-11.2345
▁메모리	-11.2345
▁명과	-11.2345
▁목록에서	-11.2345
▁목요일,	-11.2345
▁못했다는	-11.2345
▁무거운	-11.2345
▁무게	-11.2345
▁무너졌다.	-11.2345
▁무장단체에	-11.2345
▁무장세력은	-11.2345
▁무죄	-11.2345
▁문제,	-11.2345
▁문제라고	-11.2345
▁물러났다.	-11.2345
▁뭄바이에서	-11.2345
▁뭔가	-11.2345
▁미사일은	-11.2345
▁미쳤다.	-11.2345
▁민병대가	-11.2345
▁민병대의	-11.2345
▁밀러는	-11.2345
▁바다위	-11.2345
▁바락	-11.2345
▁바람을	-11.2345
▁바에	-11.2345
▁바이오	-11.2345
▁바지를	-11.2345
▁바탕	-11.2345
▁반대하며	-11.2345
▁받아들이고	-11.2345
▁받았을	-11.2345
▁발간한	-11.2345
▁발견했다”고	-11.2345
▁발사했다고	-11.2345
▁발표되었다.	-11.2345
▁배럴	-11.2345
▁벌어질	-11.2345
▁법무장관은	-11.2345
▁법의	-11.2345
▁벗어날	-11.2345
▁변하지	-11.2345
▁병이	-11.2345
▁보내며	-11.2345
▁보낸다.	-11.2345
▁보도되었다.	-11.2345
▁보상	-11.2345
▁보안군과	-11.2345
▁보안군이	-11.2345
▁보안에	-11.2345
▁보였다”고	-11.2345
▁보였으며	-11.2345
▁보이지만	-11.2345
▁보조	-11.2345
▁본드	-11.2345
▁봤다.	-11.2345
▁부대는	-11.2345
▁부대변인은	-11.2345
▁부드러운	-11.2345
▁부장관은	-11.2345
▁부회장은	-11.2345
▁분	-11.2345
▁분노한	-11.2345
▁분리주의	-11.2345
▁분위기	-11.2345
▁불안정한	-11.2345
▁붙여	-11.2345
▁붙은	-11.2345
▁비교	-11.2345
▁비행사	-11.2345
▁빌리	-11.2345
▁빠지게	-11.2345
▁빨간색	-11.2345
▁사냥을	-11.2345
▁사드르의	-11.2345
▁사령관과	-11.2345
▁사망,	-11.2345
▁사실도	-11.2345
▁사실로	-11.2345
▁사업이	-11.2345
▁사용했던	-11.2345
▁사원에	-11.2345
▁사진으로	-11.2345
▁사회가	-11.2345
▁산림	-11.2345
▁산불을	-11.2345
▁산악	-11.2345
▁살기	-11.2345
▁살인과	-11.2345
▁상대방	-11.2345
▁상승이	-11.2345
▁상승하고	-11.2345
▁상징하는	-11.2345
▁생명에	-11.2345
▁생방송	-11.2345
▁생존	-11.2345
▁생활하고	-11.2345
▁서로의	-11.2345
▁석방하지	-11.2345
▁석유와	-11.2345
▁선데이	-11.2345
▁선물을	-11.2345
▁선수를	-11.2345
▁선정한	-11.2345
▁선정했다.	-11.2345
▁선택했다고	-11.2345
▁섬에서	-11.2345
▁성공했다고	-11.2345
▁성장에	-11.2345
▁성폭행한	-11.2345
▁성화가	-11.2345
▁세라	-11.2345
▁세상에	-11.2345
▁세울	-11.2345
▁소비를	-11.2345
▁소비자들의	-11.2345
▁소유권을	-11.2345
▁속해	-11.2345
▁솔직하게	-11.2345
▁수면	-11.2345
▁수석대표는	-11.2345
▁수석대표인	-11.2345
▁수성	-11.2345
▁수에서	-11.2345
▁수영	-11.2345
▁수행했다.	-11.2345
▁순방을	-11.2345
▁숨겨진	-11.2345
▁숨져	-11.2345
▁숫자	-11.2345
▁숫자는	-11.2345
▁스캇	-11.2345
▁스키를	-11.2345
▁슬픈	-11.2345
▁습격을	-11.2345
▁승리하기	-11.2345
▁시도할	-11.2345
▁시작하고	-11.2345
▁시작하면서	-11.2345
▁시작한다.	-11.2345
▁시작했다”고	-11.2345
▁시작했으며	-11.2345
▁시청	-11.2345
▁시행할	-11.2345
▁식민지	-11.2345
▁신뢰할	-11.2345
▁신장	-11.2345
▁신화통신이	-11.2345
▁실내	-11.2345
▁실려	-11.2345
▁실업률은	-11.2345
▁실패로	-11.2345
▁십년	-11.2345
▁아마디는	-11.2345
▁아스날은	-11.2345
▁아시프	-11.2345
▁아파트에	-11.2345
▁악어	-11.2345
▁않다"고	-11.2345
▁않습니다.	-11.2345
▁알라위	-11.2345
▁알바니아	-11.2345
▁알카에다에	-11.2345
▁압력이	-11.2345
▁앗아간	-11.2345
▁야구	-11.2345
▁야기할	-11.2345
▁약한	-11.2345
▁양성	-11.2345
▁양육권	-11.2345
▁어디서	-11.2345
▁없다면	-11.2345
▁없으나	-11.2345
▁에,	-11.2345
▁여	-11.2345
▁여기는	-11.2345
▁여사를	-11.2345
▁여성들과	-11.2345
▁여행할	-11.2345
▁역전승을	-11.2345
▁역할	-11.2345
▁영상	-11.2345
▁영웅	-11.2345
▁영원히	-11.2345
▁영향이	-11.2345
▁영화와	-11.2345
▁영화제에서	-11.2345
▁영화화한	-11.2345
▁예정이지만	-11.2345
▁옐친	-11.2345
▁오마르는	-11.2345
▁오픈을	-11.2345
▁와인하우스의	-11.2345
▁완벽하게	-11.2345
▁완승을	-11.2345
▁외교적인	-11.2345
▁외국인들이	-11.2345
▁외환은행을	-11.2345
▁요금을	-11.2345
▁요소를	-11.2345
▁요청이	-11.2345
▁용의자들은	-11.2345
▁우려했다.	-11.2345
▁우리베	-11.2345
▁운동에	-11.2345
▁월가의	-11.2345
▁월드컵에서	-11.2345
▁월스트리트에서는	-11.2345
▁웰스	-11.2345
▁위를	-11.2345
▁위반으로	-11.2345
▁유력	-11.2345
▁유발할	-11.2345
▁유세에	-11.2345
▁육성	-11.2345
▁은	-11.2345
▁의미로	-11.2345
▁의원,	-11.2345
▁의회,	-11.2345
▁이곳에서는	-11.2345
▁이동하는	-11.2345
▁이라는	-11.2345
▁이륙	-11.2345
▁이상인	-11.2345
▁이수지	-11.2345
▁이스라엘,	-11.2345
▁이스마일	-11.2345
▁이슬람의	-11.2345
▁이자율	-11.2345
▁이재민	-11.2345
▁이집트에서	-11.2345
▁이해	-11.2345
▁인력을	-11.2345
▁인명피해가	-11.2345
▁인물	-11.2345
▁인상에	-11.2345
▁인적	-11.2345
▁인정될	-11.2345
▁일부로	-11.2345
▁일으키고	-11.2345
▁잃는	-11.2345
▁임금을	-11.2345
▁입장은	-11.2345
▁있는,	-11.2345
▁있다가	-11.2345
▁자고	-11.2345
▁자동차의	-11.2345
▁자료	-11.2345
▁자료에	-11.2345
▁자본	-11.2345
▁자선	-11.2345
▁자신만의	-11.2345
▁자유가	-11.2345
▁자체를	-11.2345
▁자카르타	-11.2345
▁작고	-11.2345
▁작품에	-11.2345
▁잠겨	-11.2345
▁장착한	-11.2345
▁장치가	-11.2345
▁재배치	-11.2345
▁재벌	-11.2345
▁재정경제부	-11.2345
▁잭슨	-11.2345
▁잭슨의	-11.2345
▁저가	-11.2345
▁저명한	-11.2345
▁적절히	-11.2345
▁전과	-11.2345
▁전달하고	-11.2345
▁전망	-11.2345
▁전범	-11.2345
▁전역을	-11.2345
▁전쟁은	-11.2345
▁전하는	-11.2345
▁전했다고	-11.2345
▁정당의	-11.2345
▁정당한	-11.2345
▁정부와의	-11.2345
▁정책으로	-11.2345
▁정치인들이	-11.2345
▁정해진	-11.2345
▁제거	-11.2345
▁제기된	-11.2345
▁제안할	-11.2345
▁제재가	-11.2345
▁제조에	-11.2345
▁제한된	-11.2345
▁조사에서는	-11.2345
▁조세	-11.2345
▁조속한	-11.2345
▁조직에	-11.2345
▁조치도	-11.2345
▁존경을	-11.2345
▁존스의	-11.2345
▁존재하는	-11.2345
▁좋다고	-11.2345
▁좋을	-11.2345
▁좌파	-11.2345
▁주식시장에서	-11.2345
▁주유소	-11.2345
▁주인공	-11.2345
▁주인을	-11.2345
▁주지사,	-11.2345
▁주지사에	-11.2345
▁죽음으로	-11.2345
▁죽음의	-11.2345
▁준이치로	-11.2345
▁중순까지	-11.2345
▁중요하게	-11.2345
▁증가는	-11.2345
▁증거도	-11.2345
▁증명할	-11.2345
▁증세가	-11.2345
▁지금껏	-11.2345
▁지금의	-11.2345
▁지나가는	-11.2345
▁지나간	-11.2345
▁지도를	-11.2345
▁지도부를	-11.2345
▁지도자들에게	-11.2345
▁지목한	-11.2345
▁지불하는	-11.2345
▁지시한	-11.2345
▁지원했다.	-11.2345
▁지지도는	-11.2345
▁지질	-11.2345
▁지출을	-11.2345
▁지켜보고	-11.2345
▁직원들에게	-11.2345
▁직원인	-11.2345
▁진영은	-11.2345
▁진입할	-11.2345
▁진출을	-11.2345
▁질문은	-11.2345
▁째	-11.2345
▁차량으로	-11.2345
▁차례에	-11.2345
▁차에서	-11.2345
▁차이는	-11.2345
▁차지했던	-11.2345
▁참여	-11.2345
▁참혹한	-11.2345
▁창기라이는	-11.2345
▁채취한	-11.2345
▁책은	-11.2345
▁책의	-11.2345
▁책임	-11.2345
▁책임자는	-11.2345
▁처분을	-11.2345
▁처음부터	-11.2345
▁초기에	-11.2345
▁총력을	-11.2345
▁최악	-11.2345
▁축출된	-11.2345
▁출발한	-11.2345
▁충돌은	-11.2345
▁충돌했다.	-11.2345
▁충분하지	-11.2345
▁측근	-11.2345
▁측근인	-11.2345
▁측면에서	-11.2345
▁치료하는	-11.2345
▁친구들은	-11.2345
▁친구들이	-11.2345
▁침체가	-11.2345
▁카메라가	-11.2345
▁카메라에	-11.2345
▁카운티의	-11.2345
▁카자흐스탄	-11.2345
▁칼로	-11.2345
▁캘리포니아의	-11.2345
▁코미디언	-11.2345
▁크루즈는	-11.2345
▁타이어	-11.2345
▁탄생	-11.2345
▁탈레반측은	-11.2345
▁탐	-11.2345
▁탑승했던	-11.2345
▁터키군이	-11.2345
▁터키와	-11.2345
▁통과했다.	-11.2345
▁통제하는	-11.2345
▁특사가	-11.2345
▁특징을	-11.2345
▁파견할	-11.2345
▁판매한	-11.2345
▁팬	-11.2345
▁평방	-11.2345
▁평생	-11.2345
▁평양을	-11.2345
▁평화유지군이	-11.2345
▁포트	-11.2345
▁포함될	-11.2345
▁폭력사태는	-11.2345
▁폭력사태에	-11.2345
▁폭발을	-11.2345
▁폭파	-11.2345
▁폭행	-11.2345
▁풀	-11.2345
▁프랑스인	-11.2345
▁프로	-11.2345
▁피를	-11.2345
▁피해에	-11.2345
▁하겠다는	-11.2345
▁하라고	-11.2345
▁하반기	-11.2345
▁학교가	-11.2345
▁한가지	-11.2345
▁한국전쟁	-11.2345
▁한국측	-11.2345
▁합의에따라	-11.2345
▁합의할	-11.2345
▁항공기를	-11.2345
▁해고	-11.2345
▁허드슨	-11.2345
▁허용했다.	-11.2345
▁헤즈볼라의	-11.2345
▁헬렌	-11.2345
▁협박을	-11.2345
▁협약을	-11.2345
▁협정	-11.2345
▁혼다	-11.2345
▁홍	-11.2345
▁화를	-11.2345
▁화산은	-11.2345
▁화성의	-11.2345
▁확보한	-11.2345
▁확인을	-11.2345
▁환영의	-11.2345
▁환호하는	-11.2345
▁활발한	-11.2345
▁활약을	-11.2345
▁회복세를	-11.2345
▁회복할	-11.2345
▁회원국들은	-11.2345
▁회원국들이	-11.2345
▁회원국이	-11.2345
▁회장인	-11.2345
▁후세인이	-11.2345
▁휴대전화를	-11.2345
▁흔들었다.	-11.2345
▁"그것은	-11.3035
▁"내가	-11.3035
▁10개월	-11.3035
▁12명	-11.3035
▁15%	-11.3035
▁16개	-11.3035
▁16세	-11.3035
▁17년	-11.3035
▁17세	-11.3035
▁18년	-11.3035
▁1953년	-11.3035
▁1968년	-11.3035
▁1973년	-11.3035
▁1974년	-11.3035
▁1명	-11.3035
▁1주일에	-11.3035
▁2007.05	-11.3035
▁2007~2008	-11.3035
▁2008.02	-11.3035
▁200명	-11.3035
▁200명의	-11.3035
▁20만	-11.3035
▁21명이	-11.3035
▁28명이	-11.3035
▁2달간	-11.3035
▁2명에게	-11.3035
▁2위로	-11.3035
▁3-1로	-11.3035
▁3위에	-11.3035
▁3주간	-11.3035
▁4	-11.3035
▁5월부터	-11.3035
▁6명	-11.3035
▁6자회담은	-11.3035
▁6자회담을	-11.3035
▁6주간	-11.3035
▁7명	-11.3035
▁7번째	-11.3035
▁80km	-11.3035
▁A380	-11.3035
▁ABN	-11.3035
▁AIG	-11.3035
▁BA는	-11.3035
▁CNN과	-11.3035
▁EU가	-11.3035
▁FC	-11.3035
▁GM	-11.3035
▁Japanese	-11.3035
▁More	-11.3035
▁Police	-11.3035
▁USS	-11.3035
▁attacks	-11.3035
▁forces	-11.3035
▁killed	-11.3035
▁make	-11.3035
▁peace	-11.3035
▁tax	-11.3035
▁‘해리포터와	-11.3035
▁“세계	-11.3035
▁“이들은	-11.3035
▁英	-11.3035
▁가계	-11.3035
▁가입을	-11.3035
▁가죽	-11.3035
▁간주하고	-11.3035
▁갈등을	-11.3035
▁감바는	-11.3035
▁감소에	-11.3035
▁감정이	-11.3035
▁감축을	-11.3035
▁감행했다.	-11.3035
▁강원도	-11.3035
▁강조하는	-11.3035
▁같아	-11.3035
▁개별	-11.3035
▁개선하기	-11.3035
▁거절한	-11.3035
▁건강하게	-11.3035
▁검문소	-11.3035
▁검색을	-11.3035
▁검정색	-11.3035
▁것이냐는	-11.3035
▁격한	-11.3035
▁결선	-11.3035
▁경기침체	-11.3035
▁경선의	-11.3035
▁경찰국장은	-11.3035
▁경찰들은	-11.3035
▁계약에	-11.3035
▁고고학자들이	-11.3035
▁고안된	-11.3035
▁고의적으로	-11.3035
▁고향으로	-11.3035
▁공포를	-11.3035
▁과연	-11.3035
▁과학자인	-11.3035
▁관계된	-11.3035
▁관계의	-11.3035
▁광고에	-11.3035
▁교통이	-11.3035
▁교황이	-11.3035
▁구글은	-11.3035
▁구멍이	-11.3035
▁구성을	-11.3035
▁구하는	-11.3035
▁국경에서	-11.3035
▁국무총리는	-11.3035
▁국민투표를	-11.3035
▁군대는	-11.3035
▁군사작전을	-11.3035
▁군에	-11.3035
▁궁지에	-11.3035
▁권총	-11.3035
▁그는,	-11.3035
▁그들과	-11.3035
▁그럴	-11.3035
▁근거	-11.3035
▁근거가	-11.3035
▁근무하고	-11.3035
▁기구인	-11.3035
▁기대된다.	-11.3035
▁기쁘다”며	-11.3035
▁기쁨을	-11.3035
▁기술자들은	-11.3035
▁기습	-11.3035
▁기울이지	-11.3035
▁기지에서	-11.3035
▁끝나면	-11.3035
▁나아가고	-11.3035
▁난민촌	-11.3035
▁난항을	-11.3035
▁날카로운	-11.3035
▁남겨두고	-11.3035
▁남성에게	-11.3035
▁남측	-11.3035
▁납치,	-11.3035
▁납치와	-11.3035
▁낮추는	-11.3035
▁내기	-11.3035
▁내놓을	-11.3035
▁내리기	-11.3035
▁내보냈다.	-11.3035
▁넘어섰다.	-11.3035
▁노동당의	-11.3035
▁노스	-11.3035
▁노예로	-11.3035
▁노왁은	-11.3035
▁높다는	-11.3035
▁놓여있다.	-11.3035
▁눈과	-11.3035
▁느꼈다고	-11.3035
▁느낌을	-11.3035
▁늘리는	-11.3035
▁닉	-11.3035
▁다나	-11.3035
▁다량의	-11.3035
▁다리는	-11.3035
▁다시는	-11.3035
▁다우너	-11.3035
▁다이아몬드를	-11.3035
▁다이애나와	-11.3035
▁다쳤으며	-11.3035
▁단계로	-11.3035
▁당내	-11.3035
▁당선됐다.	-11.3035
▁대기업	-11.3035
▁대다수는	-11.3035
▁대변인에따르면	-11.3035
▁대비하고	-11.3035
▁대사관을	-11.3035
▁대선의	-11.3035
▁대응하기	-11.3035
▁대의원이	-11.3035
▁대치	-11.3035
▁대통령직에서	-11.3035
▁대해선	-11.3035
▁덧붙였습니다.	-11.3035
▁도날드	-11.3035
▁도미니크	-11.3035
▁도시와	-11.3035
▁도와주는	-11.3035
▁도왔다.	-11.3035
▁도요타는	-11.3035
▁도중에	-11.3035
▁도청	-11.3035
▁돌아간	-11.3035
▁돌아다니는	-11.3035
▁동남	-11.3035
▁동물원은	-11.3035
▁동생	-11.3035
▁동영상에는	-11.3035
▁되도록	-11.3035
▁되자	-11.3035
▁두려움을	-11.3035
▁두려워하고	-11.3035
▁뒤진	-11.3035
▁드디어	-11.3035
▁들어가지	-11.3035
▁들어갔다고	-11.3035
▁들어설	-11.3035
▁들어있다.	-11.3035
▁등이다.	-11.3035
▁디자인을	-11.3035
▁딜러	-11.3035
▁떨어지고	-11.3035
▁라	-11.3035
▁라드	-11.3035
▁라호르	-11.3035
▁레이스는	-11.3035
▁로게	-11.3035
▁로렌스	-11.3035
▁로빈	-11.3035
▁론스타는	-11.3035
▁론스타의	-11.3035
▁루이	-11.3035
▁루이지애나주	-11.3035
▁를	-11.3035
▁리오	-11.3035
▁마드리드의	-11.3035
▁마련을	-11.3035
▁마련한	-11.3035
▁마신	-11.3035
▁마을은	-11.3035
▁마음에	-11.3035
▁마카오의	-11.3035
▁만났다고	-11.3035
▁만큼의	-11.3035
▁만행을	-11.3035
▁많다”며	-11.3035
▁말레이시아에서	-11.3035
▁매몰된	-11.3035
▁머무는	-11.3035
▁메달을	-11.3035
▁메사추세츠	-11.3035
▁메일	-11.3035
▁면적이	-11.3035
▁명예	-11.3035
▁명예를	-11.3035
▁모델이	-11.3035
▁모술	-11.3035
▁모으고	-11.3035
▁몰아	-11.3035
▁묘사한	-11.3035
▁무기가	-11.3035
▁무기로	-11.3035
▁무척	-11.3035
▁문구가	-11.3035
▁문서는	-11.3035
▁물에서	-11.3035
▁미군측은	-11.3035
▁미확인	-11.3035
▁민주주의가	-11.3035
▁민주주의의	-11.3035
▁민주화를	-11.3035
▁밀려	-11.3035
▁밀어	-11.3035
▁바뀔	-11.3035
▁바란다"고	-11.3035
▁바스크	-11.3035
▁바이든	-11.3035
▁바이에른	-11.3035
▁바하마	-11.3035
▁박사	-11.3035
▁반감을	-11.3035
▁반도체	-11.3035
▁받아들였다.	-11.3035
▁발병	-11.3035
▁발사에	-11.3035
▁발사했다.	-11.3035
▁발생했다는	-11.3035
▁발생했습니다.	-11.3035
▁방법,	-11.3035
▁방송인	-11.3035
▁방식의	-11.3035
▁방지를	-11.3035
▁방침이라고	-11.3035
▁방해가	-11.3035
▁배로	-11.3035
▁배치할	-11.3035
▁버나드	-11.3035
▁벌여왔다.	-11.3035
▁법률을	-11.3035
▁법원으로부터	-11.3035
▁벗어나지	-11.3035
▁벗어난	-11.3035
▁베스트	-11.3035
▁베컴의	-11.3035
▁벨	-11.3035
▁변경	-11.3035
▁변호사의	-11.3035
▁병력의	-11.3035
▁보복으로	-11.3035
▁보상금을	-11.3035
▁보석	-11.3035
▁보았다.	-11.3035
▁보였던	-11.3035
▁보입니다.”	-11.3035
▁보좌관들은	-11.3035
▁본부가	-11.3035
▁본부에서	-11.3035
▁부르고	-11.3035
▁부르며	-11.3035
▁부모들은	-11.3035
▁부모와	-11.3035
▁부산	-11.3035
▁부상당한	-11.3035
▁부장은	-11.3035
▁부족하다는	-11.3035
▁부패와	-11.3035
▁불고	-11.3035
▁불구속	-11.3035
▁불능화를	-11.3035
▁불법적으로	-11.3035
▁브레이크	-11.3035
▁브리핑에서	-11.3035
▁비난에	-11.3035
▁비정부	-11.3035
▁비행기로	-11.3035
▁비행기의	-11.3035
▁빅3	-11.3035
▁빅토르	-11.3035
▁빈곤	-11.3035
▁빛이	-11.3035
▁사랑과	-11.3035
▁사례는	-11.3035
▁사무총장	-11.3035
▁사용된다.	-11.3035
▁사용자들이	-11.3035
▁사원은	-11.3035
▁사원의	-11.3035
▁사진들을	-11.3035
▁사태와	-11.3035
▁사회적인	-11.3035
▁살모넬라	-11.3035
▁삼아	-11.3035
▁상당수의	-11.3035
▁상업적	-11.3035
▁생각에	-11.3035
▁생각한	-11.3035
▁생겨	-11.3035
▁생명이	-11.3035
▁생애	-11.3035
▁생존을	-11.3035
▁샤리프의	-11.3035
▁서둘러	-11.3035
▁서명을	-11.3035
▁서방의	-11.3035
▁서울과	-11.3035
▁선수들에게	-11.3035
▁선출	-11.3035
▁설립했다.	-11.3035
▁설치하고	-11.3035
▁섬은	-11.3035
▁섭씨	-11.3035
▁성격을	-11.3035
▁성공회	-11.3035
▁성과	-11.3035
▁섹스	-11.3035
▁소득을	-11.3035
▁소비에트	-11.3035
▁소비자들에게	-11.3035
▁소비자들은	-11.3035
▁소탕	-11.3035
▁소환	-11.3035
▁속옷을	-11.3035
▁손이	-11.3035
▁쇼에서	-11.3035
▁수백만명의	-11.3035
▁수사관들이	-11.3035
▁수술이	-11.3035
▁수요를	-11.3035
▁수준에서	-11.3035
▁수출이	-11.3035
▁술집	-11.3035
▁숨어	-11.3035
▁쉴	-11.3035
▁스미스가	-11.3035
▁스튜어트	-11.3035
▁스티븐스	-11.3035
▁스페인과	-11.3035
▁승려	-11.3035
▁시도로	-11.3035
▁시리아를	-11.3035
▁시민의	-11.3035
▁시범	-11.3035
▁시위자	-11.3035
▁시의	-11.3035
▁시작된다.	-11.3035
▁시카고의	-11.3035
▁시행	-11.3035
▁신고한	-11.3035
▁신부가	-11.3035
▁신용경색	-11.3035
▁신체적	-11.3035
▁실망감을	-11.3035
▁실업	-11.3035
▁실험이	-11.3035
▁쏟아져	-11.3035
▁쓰레기를	-11.3035
▁쓰인	-11.3035
▁아니라,	-11.3035
▁아돌프	-11.3035
▁아들에게	-11.3035
▁아메드	-11.3035
▁아프가니스탄을	-11.3035
▁아흐마디네자드	-11.3035
▁악수를	-11.3035
▁안보에	-11.3035
▁안전보장이사회	-11.3035
▁안전이	-11.3035
▁않는다"고	-11.3035
▁않았다며	-11.3035
▁알바로	-11.3035
▁압박했다.	-11.3035
▁애널리스트인	-11.3035
▁앤드	-11.3035
▁약속	-11.3035
▁어쩔	-11.3035
▁억류하고	-11.3035
▁언론들은	-11.3035
▁엄마와	-11.3035
▁엄중한	-11.3035
▁업적을	-11.3035
▁업체의	-11.3035
▁에드로간	-11.3035
▁엘리엇	-11.3035
▁여기고	-11.3035
▁여러분이	-11.3035
▁여왕	-11.3035
▁여자친구	-11.3035
▁여학생이	-11.3035
▁여행객	-11.3035
▁여행하는	-11.3035
▁역설했다.	-11.3035
▁역할은	-11.3035
▁연결된	-11.3035
▁연휴	-11.3035
▁열차를	-11.3035
▁영국군이	-11.3035
▁영국으로부터	-11.3035
▁영업을	-11.3035
▁영화제는	-11.3035
▁예상됩니다.	-11.3035
▁예선전에서	-11.3035
▁예술	-11.3035
▁예정2005.08	-11.3035
▁오스트리아의	-11.3035
▁오클라호마	-11.3035
▁오토바이를	-11.3035
▁온난화에	-11.3035
▁온난화의	-11.3035
▁온라인으로	-11.3035
▁올라가는	-11.3035
▁올라갈	-11.3035
▁올라갔다.	-11.3035
▁올림픽이	-11.3035
▁옮기는	-11.3035
▁옮길	-11.3035
▁옳은	-11.3035
▁와인을	-11.3035
▁왕세자와	-11.3035
▁왕자와	-11.3035
▁왜냐하면	-11.3035
▁외국인들을	-11.3035
▁요금	-11.3035
▁용납하지	-11.3035
▁우리나라의	-11.3035
▁운송	-11.3035
▁운영되고	-11.3035
▁운전사	-11.3035
▁위성이	-11.3035
▁위협할	-11.3035
▁윈	-11.3035
▁유엔에	-11.3035
▁유조선	-11.3035
▁유죄가	-11.3035
▁유혈사태를	-11.3035
▁은퇴	-11.3035
▁음식,	-11.3035
▁음주운전으로	-11.3035
▁의상을	-11.3035
▁이겼다.	-11.3035
▁이동하고	-11.3035
▁이란과의	-11.3035
▁이론을	-11.3035
▁이르렀다고	-11.3035
▁이름과	-11.3035
▁이보다	-11.3035
▁이스라엘군이	-11.3035
▁이슬라마바드	-11.3035
▁이어져	-11.3035
▁이용자들은	-11.3035
▁이해하는	-11.3035
▁이후의	-11.3035
▁인권단체는	-11.3035
▁인디아나	-11.3035
▁인명	-11.3035
▁인물이다.	-11.3035
▁인물이라고	-11.3035
▁인사들과	-11.3035
▁인생에서	-11.3035
▁인수는	-11.3035
▁인원을	-11.3035
▁인정	-11.3035
▁인정해야	-11.3035
▁인질극을	-11.3035
▁인플루엔자	-11.3035
▁일방적인	-11.3035
▁일부에	-11.3035
▁일시	-11.3035
▁일으켰다고	-11.3035
▁임명할	-11.3035
▁임무가	-11.3035
▁입원했으며	-11.3035
▁입증할	-11.3035
▁있는지를	-11.3035
▁있다고,	-11.3035
▁있지는	-11.3035
▁자국에서	-11.3035
▁자극을	-11.3035
▁자동	-11.3035
▁자랑하는	-11.3035
▁자말	-11.3035
▁자살폭탄	-11.3035
▁자카르타에서	-11.3035
▁잔해에서	-11.3035
▁잠재적인	-11.3035
▁잡지에	-11.3035
▁장관으로	-11.3035
▁장례식이	-11.3035
▁재건	-11.3035
▁재검토	-11.3035
▁저지	-11.3035
▁적용할	-11.3035
▁적의	-11.3035
▁전달하는	-11.3035
▁전당대회	-11.3035
▁전당대회에서	-11.3035
▁전례	-11.3035
▁전문가가	-11.3035
▁전보다	-11.3035
▁전한	-11.3035
▁전해진	-11.3035
▁절차가	-11.3035
▁점령한	-11.3035
▁접근하지	-11.3035
▁접촉이	-11.3035
▁정당인	-11.3035
▁정상화	-11.3035
▁정신을	-11.3035
▁제거하는	-11.3035
▁제공하기로	-11.3035
▁제기할	-11.3035
▁제네바	-11.3035
▁제인	-11.3035
▁제재조치를	-11.3035
▁제출된	-11.3035
▁조사해	-11.3035
▁조정	-11.3035
▁존스가	-11.3035
▁졸리는	-11.3035
▁종전	-11.3035
▁종합	-11.3035
▁주가를	-11.3035
▁주권을	-11.3035
▁주도	-11.3035
▁주말까지	-11.3035
▁죽음은	-11.3035
▁죽이고	-11.3035
▁줄어	-11.3035
▁줄어든	-11.3035
▁중,	-11.3035
▁중단될	-11.3035
▁중단하기로	-11.3035
▁중단하라고	-11.3035
▁중단하지	-11.3035
▁중단했다고	-11.3035
▁중심	-11.3035
▁증세를	-11.3035
▁증시도	-11.3035
▁지구와	-11.3035
▁지나면	-11.3035
▁지도부와	-11.3035
▁지도자와	-11.3035
▁지목된	-11.3035
▁지배하고	-11.3035
▁지켜봤다.	-11.3035
▁지켜야	-11.3035
▁직면하고	-11.3035
▁직업	-11.3035
▁직업을	-11.3035
▁직전에	-11.3035
▁진상	-11.3035
▁진행자	-11.3035
▁질병이	-11.3035
▁짐을	-11.3035
▁집계됐다.	-11.3035
▁집단의	-11.3035
▁집단이	-11.3035
▁집회가	-11.3035
▁차관보가	-11.3035
▁차림으로	-11.3035
▁착수했다고	-11.3035
▁참가국들은	-11.3035
▁참가하지	-11.3035
▁찾는데	-11.3035
▁채가	-11.3035
▁채널	-11.3035
▁챔피언인	-11.3035
▁철수에	-11.3035
▁체계	-11.3035
▁체중	-11.3035
▁총기난사	-11.3035
▁총선의	-11.3035
▁총알이	-11.3035
▁총재	-11.3035
▁최다	-11.3035
▁출국	-11.3035
▁출발	-11.3035
▁출연할	-11.3035
▁취소하고	-11.3035
▁치매에	-11.3035
▁치명적	-11.3035
▁침대에	-11.3035
▁침대에서	-11.3035
▁침몰한	-11.3035
▁침착하게	-11.3035
▁침체에	-11.3035
▁칭하며	-11.3035
▁카렌	-11.3035
▁캔자스	-11.3035
▁켄	-11.3035
▁코소보는	-11.3035
▁콜	-11.3035
▁크레이그	-11.3035
▁키스	-11.3035
▁키팅	-11.3035
▁탑	-11.3035
▁터키군의	-11.3035
▁테일러는	-11.3035
▁텍사스,	-11.3035
▁텍사스의	-11.3035
▁토지	-11.3035
▁토지를	-11.3035
▁통과를	-11.3035
▁통산	-11.3035
▁통제하고	-11.3035
▁통치	-11.3035
▁투어를	-11.3035
▁투자할	-11.3035
▁팀에서	-11.3035
▁파괴	-11.3035
▁파괴됐다고	-11.3035
▁파비오	-11.3035
▁파손됐다.	-11.3035
▁파손됐다고	-11.3035
▁판사들을	-11.3035
▁팔레스타인이	-11.3035
▁팬이	-11.3035
▁페이지를	-11.3035
▁편에	-11.3035
▁평화롭게	-11.3035
▁폐허가	-11.3035
▁폭발의	-11.3035
▁폭발했다고	-11.3035
▁폭탄테러와	-11.3035
▁표하고	-11.3035
▁표현할	-11.3035
▁풀려난	-11.3035
▁프랑수아	-11.3035
▁피라미드	-11.3035
▁하길	-11.3035
▁하락세로	-11.3035
▁하와스	-11.3035
▁하원의	-11.3035
▁하퍼	-11.3035
▁한국군이	-11.3035
▁한국인을	-11.3035
▁한해	-11.3035
▁할머니는	-11.3035
▁항의하기	-11.3035
▁해결책이	-11.3035
▁해결하고	-11.3035
▁해결해야	-11.3035
▁해변을	-11.3035
▁해산시키기	-11.3035
▁해역에서	-11.3035
▁했는지	-11.3035
▁했었다고	-11.3035
▁행성은	-11.3035
▁행성을	-11.3035
▁행성의	-11.3035
▁허용하지	-11.3035
▁헌법이	-11.3035
▁현명한	-11.3035
▁현상은	-11.3035
▁현수막을	-11.3035
▁현지에	-11.3035
▁형	-11.3035
▁호나우두는	-11.3035
▁호주를	-11.3035
▁호텔로	-11.3035
▁홍콩,	-11.3035
▁화면을	-11.3035
▁화염에	-11.3035
▁확고한	-11.3035
▁확보하고	-11.3035
▁확산되는	-11.3035
▁확신한다고	-11.3035
▁확신할	-11.3035
▁후반에	-11.3035
▁후보는,	-11.3035
▁후속	-11.3035
▁후에는	-11.3035
▁훔친	-11.3035
▁휩싸였다.	-11.3035
▁휩싸인	-11.3035
▁휩쓸고	-11.3035
▁휴대폰으로	-11.3035
▁흔한	-11.3035
▁흥미로운	-11.3035
▁흩어져	-11.3035
▁(원제:	-11.3776
▁,	-11.3776
▁10만명	-11.3776
▁11년	-11.3776
▁12시간	-11.3776
▁12월의	-11.3776
▁13세	-11.3776
▁17명의	-11.3776
▁18개월	-11.3776
▁1945년	-11.3776
▁1976년	-11.3776
▁1급	-11.3776
▁1명으로	-11.3776
▁1인당	-11.3776
▁2.13	-11.3776
▁20%	-11.3776
▁2006.04	-11.3776
▁2006.07	-11.3776
▁2006.09	-11.3776
▁2007.02	-11.3776
▁2007.07	-11.3776
▁200여명이	-11.3776
▁20분	-11.3776
▁2개를	-11.3776
▁2명도	-11.3776
▁2차전에서	-11.3776
▁30명의	-11.3776
▁30여	-11.3776
▁31일까지	-11.3776
▁37명이	-11.3776
▁3살	-11.3776
▁3억	-11.3776
▁40분	-11.3776
▁4명과	-11.3776
▁4번의	-11.3776
▁50%가	-11.3776
▁50명	-11.3776
▁52명이	-11.3776
▁7대	-11.3776
▁8%	-11.3776
▁8개	-11.3776
▁8번째	-11.3776
▁8시간	-11.3776
▁9.11테러	-11.3776
▁911	-11.3776
▁9년	-11.3776
▁9월부터	-11.3776
▁AP와의	-11.3776
▁BEIJING,	-11.3776
▁Former	-11.3776
▁GM은	-11.3776
▁IBM	-11.3776
▁Iran	-11.3776
▁K.	-11.3776
▁LA에	-11.3776
▁LONDON,	-11.3776
▁NBC의	-11.3776
▁Street	-11.3776
▁TV,	-11.3776
▁TV가	-11.3776
▁after	-11.3776
▁aid	-11.3776
▁chief	-11.3776
▁financial	-11.3776
▁head	-11.3776
▁security	-11.3776
▁trial	-11.3776
▁visits	-11.3776
▁́	-11.3776
▁“대부분	-11.3776
▁“대부분의	-11.3776
▁“따라서	-11.3776
▁“지금은	-11.3776
▁가격으로	-11.3776
▁가능	-11.3776
▁가능하도록	-11.3776
▁가두	-11.3776
▁가수인	-11.3776
▁가스와	-11.3776
▁가야	-11.3776
▁가즈프롬은	-11.3776
▁가치의	-11.3776
▁각자의	-11.3776
▁감기	-11.3776
▁감독,	-11.3776
▁감독으로	-11.3776
▁감소와	-11.3776
▁감염이	-11.3776
▁갑작스러운	-11.3776
▁갑작스럽게	-11.3776
▁값비싼	-11.3776
▁강도를	-11.3776
▁강의	-11.3776
▁강행할	-11.3776
▁같다"고	-11.3776
▁개발할	-11.3776
▁개선된	-11.3776
▁개입한	-11.3776
▁건물의	-11.3776
▁걸프	-11.3776
▁검찰과	-11.3776
▁것”	-11.3776
▁것들이	-11.3776
▁결선투표가	-11.3776
▁결승	-11.3776
▁결혼식에	-11.3776
▁결혼할	-11.3776
▁경기부양책을	-11.3776
▁경기서	-11.3776
▁경기에서는	-11.3776
▁경영자	-11.3776
▁경호를	-11.3776
▁고객이	-11.3776
▁고고학자들은	-11.3776
▁고백했다.	-11.3776
▁고소했다.	-11.3776
▁고심하고	-11.3776
▁고유가	-11.3776
▁고의로	-11.3776
▁골든	-11.3776
▁골자로	-11.3776
▁공격과	-11.3776
▁공격수	-11.3776
▁공군이	-11.3776
▁공급에	-11.3776
▁공급하고	-11.3776
▁공급하기	-11.3776
▁공기	-11.3776
▁공동기자회견에서	-11.3776
▁공모	-11.3776
▁공무원들이	-11.3776
▁공연에	-11.3776
▁공장이	-11.3776
▁공화당이	-11.3776
▁관계자를	-11.3776
▁관심	-11.3776
▁관여하지	-11.3776
▁굉장히	-11.3776
▁교도	-11.3776
▁교도소로	-11.3776
▁교섭을	-11.3776
▁교수와	-11.3776
▁교외의	-11.3776
▁교착상태를	-11.3776
▁교통사고	-11.3776
▁구글의	-11.3776
▁구글이	-11.3776
▁구매	-11.3776
▁구성했다.	-11.3776
▁구입하는	-11.3776
▁구제금융	-11.3776
▁국경지역	-11.3776
▁국무장관	-11.3776
▁국민들	-11.3776
▁국적을	-11.3776
▁국제사회는	-11.3776
▁국회를	-11.3776
▁군사력	-11.3776
▁규제가	-11.3776
▁규칙을	-11.3776
▁그때	-11.3776
▁그친	-11.3776
▁극장	-11.3776
▁글렌	-11.3776
▁기관들은	-11.3776
▁기관이	-11.3776
▁기록된	-11.3776
▁기록이	-11.3776
▁기록해	-11.3776
▁기록했던	-11.3776
▁기본적으로	-11.3776
▁기숙사	-11.3776
▁기숙사에서	-11.3776
▁기술적인	-11.3776
▁기억을	-11.3776
▁기자들을	-11.3776
▁기자와	-11.3776
▁김씨는	-11.3776
▁깊게	-11.3776
▁꿈이	-11.3776
▁나노	-11.3776
▁나온다.	-11.3776
▁나왔다”고	-11.3776
▁나타낸	-11.3776
▁난민촌에서	-11.3776
▁남자들은	-11.3776
▁남자친구	-11.3776
▁남학생이	-11.3776
▁납	-11.3776
▁납치됐던	-11.3776
▁내리게	-11.3776
▁내며	-11.3776
▁내용과	-11.3776
▁네,	-11.3776
▁노던	-11.3776
▁노동부는	-11.3776
▁노동자들은	-11.3776
▁노벨상	-11.3776
▁노예	-11.3776
▁노인	-11.3776
▁녹색	-11.3776
▁논의했다고	-11.3776
▁놀라울	-11.3776
▁놀라움을	-11.3776
▁농민들이	-11.3776
▁높을	-11.3776
▁높이는	-11.3776
▁뉴저지	-11.3776
▁늘어난	-11.3776
▁능력	-11.3776
▁다가섰다.	-11.3776
▁다가오는	-11.3776
▁다니던	-11.3776
▁다니며	-11.3776
▁다음과같이	-11.3776
▁다친	-11.3776
▁단속을	-11.3776
▁닫고	-11.3776
▁달러(약	-11.3776
▁달리는	-11.3776
▁당국자가	-11.3776
▁당선을	-11.3776
▁당시를	-11.3776
▁당원	-11.3776
▁대규모의	-11.3776
▁대기하고	-11.3776
▁대다수가	-11.3776
▁대다수의	-11.3776
▁대법원이	-11.3776
▁대법원장을	-11.3776
▁대신할	-11.3776
▁대운하	-11.3776
▁대원들은	-11.3776
▁대원들이	-11.3776
▁대피령을	-11.3776
▁대회는	-11.3776
▁댈러스	-11.3776
▁던지고	-11.3776
▁데이트를	-11.3776
▁덴마크의	-11.3776
▁델타	-11.3776
▁도는	-11.3776
▁도드	-11.3776
▁도미니카	-11.3776
▁도착하자	-11.3776
▁도쿄는	-11.3776
▁독립적인	-11.3776
▁독재자	-11.3776
▁돈세탁	-11.3776
▁돌	-11.3776
▁돌고	-11.3776
▁동등한	-11.3776
▁동물은	-11.3776
▁동물이	-11.3776
▁동티모르의	-11.3776
▁돼야	-11.3776
▁됐다"고	-11.3776
▁되찾을	-11.3776
▁두는	-11.3776
▁들지	-11.3776
▁등도	-11.3776
▁등장한다.	-11.3776
▁등장했다.	-11.3776
▁디얄라	-11.3776
▁디지탈	-11.3776
▁따돌렸다.	-11.3776
▁따돌리고	-11.3776
▁때보다	-11.3776
▁떠나기	-11.3776
▁떠올랐다.	-11.3776
▁떨어지면서	-11.3776
▁뜻하는	-11.3776
▁라스베이거스에서	-11.3776
▁라이브	-11.3776
▁레스토랑에서	-11.3776
▁로마의	-11.3776
▁로봇은	-11.3776
▁로이	-11.3776
▁로켓을	-11.3776
▁롭	-11.3776
▁루니가	-11.3776
▁마닐라	-11.3776
▁마이크로소프트	-11.3776
▁마자	-11.3776
▁만드는데	-11.3776
▁만들어낸	-11.3776
▁만토바니는	-11.3776
▁말부터	-11.3776
▁말하지만	-11.3776
▁맛봤다.	-11.3776
▁망원경을	-11.3776
▁맞서기	-11.3776
▁맡아	-11.3776
▁맡을	-11.3776
▁매번	-11.3776
▁맹세했다.	-11.3776
▁먹은	-11.3776
▁먹지	-11.3776
▁먼지	-11.3776
▁모른다”고	-11.3776
▁목격자들의	-11.3776
▁몰디브	-11.3776
▁몸값을	-11.3776
▁몸집이	-11.3776
▁무기의	-11.3776
▁무기징역을	-11.3776
▁무사	-11.3776
▁무어는	-11.3776
▁무엇보다도	-11.3776
▁무장단체는	-11.3776
▁무장단체를	-11.3776
▁문구를	-11.3776
▁문신을	-11.3776
▁문제”라고	-11.3776
▁물가가	-11.3776
▁물리적	-11.3776
▁미사를	-11.3776
▁미사일과	-11.3776
▁믿는다”고	-11.3776
▁믿음을	-11.3776
▁바그다드와	-11.3776
▁바라지	-11.3776
▁바람	-11.3776
▁바랍니다.	-11.3776
▁바르셀로나	-11.3776
▁바와	-11.3776
▁바이러스를	-11.3776
▁반면에	-11.3776
▁반발을	-11.3776
▁받아들이는	-11.3776
▁받아온	-11.3776
▁발견하게	-11.3776
▁발견하고	-11.3776
▁발리	-11.3776
▁발생을	-11.3776
▁발생한다.	-11.3776
▁발전에	-11.3776
▁밝혀져	-11.3776
▁밝혔습니다.”	-11.3776
▁밝히는	-11.3776
▁밝히면서	-11.3776
▁방식에	-11.3776
▁방해하고	-11.3776
▁배의	-11.3776
▁배치되어	-11.3776
▁버틀러	-11.3776
▁범행	-11.3776
▁법에따라	-11.3776
▁베드로	-11.3776
▁베스트셀러	-11.3776
▁베어스턴스	-11.3776
▁베이비	-11.3776
▁변호사들이	-11.3776
▁변호인은	-11.3776
▁변화로	-11.3776
▁병역	-11.3776
▁보고서에따르면,	-11.3776
▁보내게	-11.3776
▁보내지	-11.3776
▁보도는	-11.3776
▁보도됐다.	-11.3776
▁보수당	-11.3776
▁보장하는	-11.3776
▁보트	-11.3776
▁복귀를	-11.3776
▁복용	-11.3776
▁본선	-11.3776
▁본즈는	-11.3776
▁부대에	-11.3776
▁부문에	-11.3776
▁부부	-11.3776
▁부분에서	-11.3776
▁부실	-11.3776
▁부여	-11.3776
▁부정선거	-11.3776
▁부정적으로	-11.3776
▁부정했다.	-11.3776
▁부족,	-11.3776
▁부족이	-11.3776
▁부착된	-11.3776
▁부채	-11.3776
▁북쪽의	-11.3776
▁분석이	-11.3776
▁분석하고	-11.3776
▁분석한	-11.3776
▁분열된	-11.3776
▁불과하다.	-11.3776
▁불안감을	-11.3776
▁불쾌한	-11.3776
▁불행한	-11.3776
▁브리핑을	-11.3776
▁비디오에서	-11.3776
▁비무장	-11.3776
▁비틀즈가	-11.3776
▁비행이	-11.3776
▁빠졌다고	-11.3776
▁빠지는	-11.3776
▁뼈가	-11.3776
▁사과문을	-11.3776
▁사과의	-11.3776
▁사람에	-11.3776
▁사람이나	-11.3776
▁사립	-11.3776
▁사망이	-11.3776
▁사망했으며,	-11.3776
▁사무	-11.3776
▁사살한	-11.3776
▁사실과	-11.3776
▁사용,	-11.3776
▁사용했다고	-11.3776
▁사장이	-11.3776
▁사장인	-11.3776
▁사진들은	-11.3776
▁사찰단의	-11.3776
▁산맥	-11.3776
▁산업은	-11.3776
▁살아가는	-11.3776
▁살인을	-11.3776
▁샀다.	-11.3776
▁상관	-11.3776
▁상승,	-11.3776
▁상승에	-11.3776
▁상어의	-11.3776
▁상점에서	-11.3776
▁상징인	-11.3776
▁상품	-11.3776
▁생각되는	-11.3776
▁생각한다"며	-11.3776
▁생겼다.	-11.3776
▁생산에	-11.3776
▁생산하고	-11.3776
▁생을	-11.3776
▁서신에서	-11.3776
▁선거법을	-11.3776
▁선관위	-11.3776
▁선제골을	-11.3776
▁선출됐다.	-11.3776
▁선포하고	-11.3776
▁설명하는	-11.3776
▁성분이	-11.3776
▁성인이	-11.3776
▁성적인	-11.3776
▁성화는	-11.3776
▁세금이	-11.3776
▁세대를	-11.3776
▁세르게이	-11.3776
▁세비야는	-11.3776
▁세워	-11.3776
▁센터를	-11.3776
▁소득	-11.3776
▁소란을	-11.3776
▁소련의	-11.3776
▁소방관	-11.3776
▁소속인	-11.3776
▁소송에	-11.3776
▁소식통에따르면	-11.3776
▁소식통을	-11.3776
▁소요를	-11.3776
▁손길을	-11.3776
▁솜차이	-11.3776
▁송환을	-11.3776
▁쇼핑	-11.3776
▁수개월	-11.3776
▁수단의	-11.3776
▁수마트라	-11.3776
▁수상을	-11.3776
▁수석대표가	-11.3776
▁수용소를	-11.3776
▁수하르토	-11.3776
▁순찰대	-11.3776
▁순찰을	-11.3776
▁슈퍼	-11.3776
▁슛을	-11.3776
▁스웨덴의	-11.3776
▁스캔들로	-11.3776
▁스캔들에	-11.3776
▁스튜디오	-11.3776
▁승객들을	-11.3776
▁승리해	-11.3776
▁승무원이	-11.3776
▁승부차기에서	-11.3776
▁시각	-11.3776
▁시계를	-11.3776
▁시내에	-11.3776
▁시니오라	-11.3776
▁시설은	-11.3776
▁시설이	-11.3776
▁시애틀	-11.3776
▁시위와	-11.3776
▁시작을	-11.3776
▁시즌에서	-11.3776
▁시체	-11.3776
▁시켰다.	-11.3776
▁시킬	-11.3776
▁시한이	-11.3776
▁시행될	-11.3776
▁식량,	-11.3776
▁신도	-11.3776
▁신분증을	-11.3776
▁신이	-11.3776
▁신중히	-11.3776
▁신청했다.	-11.3776
▁신형	-11.3776
▁실시하는	-11.3776
▁실업수당	-11.3776
▁실패를	-11.3776
▁실험에서	-11.3776
▁심장에	-11.3776
▁십대	-11.3776
▁싱	-11.3776
▁싸우고	-11.3776
▁쓰나미가	-11.3776
▁쓰이는	-11.3776
▁아민은	-11.3776
▁아서	-11.3776
▁아예	-11.3776
▁아이오와주	-11.3776
▁아파트를	-11.3776
▁안되는	-11.3776
▁안된다고	-11.3776
▁안될	-11.3776
▁안드레이	-11.3776
▁안정된	-11.3776
▁않았지만,	-11.3776
▁알기	-11.3776
▁알려주는	-11.3776
▁알버트	-11.3776
▁암살을	-11.3776
▁압력	-11.3776
▁압박하고	-11.3776
▁앞을	-11.3776
▁애를	-11.3776
▁어기고	-11.3776
▁어깨를	-11.3776
▁어린이와	-11.3776
▁어머니를	-11.3776
▁어쩌면	-11.3776
▁언어로	-11.3776
▁얻어야	-11.3776
▁얻었다고	-11.3776
▁얼굴이	-11.3776
▁없어질	-11.3776
▁없었고	-11.3776
▁에바	-11.3776
▁엔진을	-11.3776
▁여기서	-11.3776
▁여자가	-11.3776
▁여자들이	-11.3776
▁여중생	-11.3776
▁역사에서	-11.3776
▁연구자들은	-11.3776
▁연구한	-11.3776
▁연기될	-11.3776
▁연기로	-11.3776
▁연기할	-11.3776
▁연료로	-11.3776
▁연이은	-11.3776
▁연합군의	-11.3776
▁연합통신은	-11.3776
▁영구	-11.3776
▁예금	-11.3776
▁예루살렘에서	-11.3776
▁오늘의	-11.3776
▁오디오	-11.3776
▁오마바	-11.3776
▁오지	-11.3776
▁온난화	-11.3776
▁온난화가	-11.3776
▁온라인에서	-11.3776
▁올라와	-11.3776
▁올림픽의	-11.3776
▁왔다는	-11.3776
▁왔으며	-11.3776
▁왕세자비가	-11.3776
▁외환은행의	-11.3776
▁요구했었다.	-11.3776
▁요원은	-11.3776
▁우려의	-11.3776
▁우리도	-11.3776
▁우크라이나가	-11.3776
▁움직이지	-11.3776
▁움직일	-11.3776
▁웃음을	-11.3776
▁원인	-11.3776
▁원한다”고	-11.3776
▁웹사이트가	-11.3776
▁웹사이트에는	-11.3776
▁위기의	-11.3776
▁위안화	-11.3776
▁위의	-11.3776
▁윌리엄스가	-11.3776
▁유도	-11.3776
▁유럽으로	-11.3776
▁유물	-11.3776
▁유연한	-11.3776
▁유인	-11.3776
▁육상	-11.3776
▁은행과	-11.3776
▁은행에서	-11.3776
▁음식과	-11.3776
▁응하지	-11.3776
▁의도로	-11.3776
▁의도적으로	-11.3776
▁의사들이	-11.3776
▁의원에게	-11.3776
▁의자에	-11.3776
▁의장	-11.3776
▁의장인	-11.3776
▁이동하던	-11.3776
▁이동했다.	-11.3776
▁이라크군	-11.3776
▁이로인해	-11.3776
▁이루어지지	-11.3776
▁이뤄졌다고	-11.3776
▁이사회	-11.3776
▁이산화탄소를	-11.3776
▁이송됐다고	-11.3776
▁이식	-11.3776
▁이하로	-11.3776
▁인간이	-11.3776
▁인구를	-11.3776
▁인도를	-11.3776
▁인수에	-11.3776
▁인원이	-11.3776
▁인종적	-11.3776
▁인질의	-11.3776
▁인체에	-11.3776
▁인터넷으로	-11.3776
▁인하했다.	-11.3776
▁일"이라고	-11.3776
▁일도	-11.3776
▁일본으로	-11.3776
▁일부에선	-11.3776
▁일어났다고	-11.3776
▁일요일날	-11.3776
▁일으키며	-11.3776
▁일이었다.	-11.3776
▁일정한	-11.3776
▁임명	-11.3776
▁입장이	-11.3776
▁있으므로	-11.3776
▁잉그리드	-11.3776
▁자녀들을	-11.3776
▁자동적으로	-11.3776
▁자료가	-11.3776
▁자본주의	-11.3776
▁자살했다고	-11.3776
▁자서전	-11.3776
▁자행한	-11.3776
▁작가가	-11.3776
▁잔인한	-11.3776
▁잠자리에	-11.3776
▁잡혀있는	-11.3776
▁재개했다.	-11.3776
▁재빨리	-11.3776
▁재활용	-11.3776
▁저스틴	-11.3776
▁저지할	-11.3776
▁적었다.	-11.3776
▁적절치	-11.3776
▁적절하게	-11.3776
▁전대통령은	-11.3776
▁전략	-11.3776
▁전시될	-11.3776
▁전장에	-11.3776
▁전투에	-11.3776
▁절도	-11.3776
▁절차에	-11.3776
▁점령하고	-11.3776
▁접근이	-11.3776
▁정교한	-11.3776
▁정도는	-11.3776
▁정도를	-11.3776
▁정부군의	-11.3776
▁정책과	-11.3776
▁정치국	-11.3776
▁정하지	-11.3776
▁정했다.	-11.3776
▁제1야당인	-11.3776
▁제2의	-11.3776
▁제공,	-11.3776
▁제도	-11.3776
▁제마	-11.3776
▁제바리	-11.3776
▁제시하지	-11.3776
▁제외됐다.	-11.3776
▁제조업체	-11.3776
▁제출했다고	-11.3776
▁제퍼슨	-11.3776
▁제품은	-11.3776
▁조건이	-11.3776
▁조니	-11.3776
▁조사됐다.	-11.3776
▁조사의	-11.3776
▁조선중앙통신은	-11.3776
▁조직원	-11.3776
▁조직원들이	-11.3776
▁조짐을	-11.3776
▁조짐이	-11.3776
▁조차	-11.3776
▁존재	-11.3776
▁좀처럼	-11.3776
▁종지부를	-11.3776
▁주민들과	-11.3776
▁주었습니다.	-11.3776
▁주에서는	-11.3776
▁주위에	-11.3776
▁주인은	-11.3776
▁죽었다고	-11.3776
▁줄기세포를	-11.3776
▁줄리아	-11.3776
▁중간에	-11.3776
▁중단시켰다.	-11.3776
▁중단하겠다고	-11.3776
▁중부와	-11.3776
▁중유	-11.3776
▁중이었다고	-11.3776
▁쥐스틴	-11.3776
▁즐기고	-11.3776
▁지불	-11.3776
▁지원과	-11.3776
▁지점을	-11.3776
▁지지가	-11.3776
▁지지율	-11.3776
▁지지할	-11.3776
▁질렀다.	-11.3776
▁질문이	-11.3776
▁질을	-11.3776
▁징계	-11.3776
▁짧게	-11.3776
▁참의원	-11.3776
▁채의	-11.3776
▁책이	-11.3776
▁처리하고	-11.3776
▁첫째	-11.3776
▁청문회에	-11.3776
▁체포되었다고	-11.3776
▁쳤다.	-11.3776
▁초등학교	-11.3776
▁총재의	-11.3776
▁최근들어	-11.3776
▁최연소	-11.3776
▁추구하고	-11.3776
▁추수감사절	-11.3776
▁추진해	-11.3776
▁출발해	-11.3776
▁출산	-11.3776
▁출전했다.	-11.3776
▁취약한	-11.3776
▁취임식에	-11.3776
▁측면을	-11.3776
▁측에서	-11.3776
▁침묵을	-11.3776
▁카스트로는	-11.3776
▁칼데론	-11.3776
▁캐릭터	-11.3776
▁커플	-11.3776
▁컴퓨터는	-11.3776
▁콘크리트	-11.3776
▁콜로라도주	-11.3776
▁크리스마스를	-11.3776
▁크리스틴	-11.3776
▁클럽을	-11.3776
▁타블로이드	-11.3776
▁타임즈와의	-11.3776
▁탈락했다.	-11.3776
▁탔다.	-11.3776
▁태도에	-11.3776
▁태양계	-11.3776
▁탱크가	-11.3776
▁테드	-11.3776
▁테러리스트들이	-11.3776
▁테러범	-11.3776
▁테스트	-11.3776
▁퇴임	-11.3776
▁투병	-11.3776
▁투자자들에게	-11.3776
▁투자자들을	-11.3776
▁특파원을	-11.3776
▁티벳	-11.3776
▁파란색	-11.3776
▁파리에	-11.3776
▁파병된	-11.3776
▁판매되고	-11.3776
▁판사의	-11.3776
▁팔에	-11.3776
▁패했던	-11.3776
▁팽팽한	-11.3776
▁페더러가	-11.3776
▁페르난데스	-11.3776
▁페일린이	-11.3776
▁펜실베이니아주	-11.3776
▁펼쳐진	-11.3776
▁펼치는	-11.3776
▁평양의	-11.3776
▁평화상을	-11.3776
▁폐기	-11.3776
▁포터	-11.3776
▁폭력사태	-11.3776
▁폭발에	-11.3776
▁폭탄테러에	-11.3776
▁폴리	-11.3776
▁표	-11.3776
▁표현한	-11.3776
▁푸에르토리코	-11.3776
▁풀기	-11.3776
▁프라이머리가	-11.3776
▁피부	-11.3776
▁피트	-11.3776
▁피트는	-11.3776
▁핀란드	-11.3776
▁하늘에	-11.3776
▁하늘에서	-11.3776
▁하다,	-11.3776
▁하락하고	-11.3776
▁하비	-11.3776
▁학교로	-11.3776
▁한국에서는	-11.3776
▁한국은행은	-11.3776
▁한번에	-11.3776
▁한일	-11.3776
▁한쪽	-11.3776
▁함부르크	-11.3776
▁합의했다”고	-11.3776
▁항공기는	-11.3776
▁항공사의	-11.3776
▁항소를	-11.3776
▁항의하며	-11.3776
▁해안으로	-11.3776
▁핵시설의	-11.3776
▁행렬을	-11.3776
▁행복을	-11.3776
▁행위”라고	-11.3776
▁허가했다.	-11.3776
▁헤즈볼라가	-11.3776
▁헤즈볼라는	-11.3776
▁헬기로	-11.3776
▁혁명을	-11.3776
▁협력하고	-11.3776
▁형량을	-11.3776
▁형성하고	-11.3776
▁홈런을	-11.3776
▁홍콩에서	-11.3776
▁화이트	-11.3776
▁화장실을	-11.3776
▁확보를	-11.3776
▁확보하기	-11.3776
▁확인됐다고	-11.3776
▁확정됐다.	-11.3776
▁활기를	-11.3776
▁회사들과	-11.3776
▁후보,	-11.3776
▁후에,	-11.3776
▁흔적을	-11.3776
▁흘러	-11.3776
▁흥행	-11.3776
▁희생자들은	-11.3776
▁힌두교	-11.3776
▁힐러리를	-11.3776
▁힐튼의	-11.3776
▁"미국은	-11.4577
▁"사람들은	-11.4577
▁'더	-11.4577
▁...을	-11.4577
▁1,000명	-11.4577
▁10%를	-11.4577
▁100명의	-11.4577
▁10년이	-11.4577
▁150명의	-11.4577
▁1967년	-11.4577
▁1983년	-11.4577
▁1마리가	-11.4577
▁1주일간	-11.4577
▁2001년에	-11.4577
▁2002년에	-11.4577
▁2006.03	-11.4577
▁2006.05	-11.4577
▁2007.09	-11.4577
▁2008년까지	-11.4577
▁2011년까지	-11.4577
▁250만	-11.4577
▁25만	-11.4577
▁2골을	-11.4577
▁2대의	-11.4577
▁2분	-11.4577
▁2위인	-11.4577
▁300명	-11.4577
▁35명이	-11.4577
▁3만명의	-11.4577
▁3명에	-11.4577
▁3배	-11.4577
▁3번의	-11.4577
▁3위의	-11.4577
▁3위인	-11.4577
▁40년간	-11.4577
▁40명	-11.4577
▁4만	-11.4577
▁4분	-11.4577
▁4분의	-11.4577
▁4차례	-11.4577
▁50억	-11.4577
▁5가지	-11.4577
▁60년	-11.4577
▁60명의	-11.4577
▁6명과	-11.4577
▁6번	-11.4577
▁6월부터	-11.4577
▁7.9의	-11.4577
▁787	-11.4577
▁7개월	-11.4577
▁7살	-11.4577
▁8개의	-11.4577
▁9개월	-11.4577
▁?	-11.4577
▁B.	-11.4577
▁BBC와의	-11.4577
▁BBC의	-11.4577
▁CEO	-11.4577
▁FARC가	-11.4577
▁IAEA는	-11.4577
▁Japan’s	-11.4577
▁KGB	-11.4577
▁Korea's	-11.4577
▁Koreans	-11.4577
▁Pakistan	-11.4577
▁Rights	-11.4577
▁Russia	-11.4577
▁United	-11.4577
▁Uri	-11.4577
▁been	-11.4577
▁between	-11.4577
▁due	-11.4577
▁economy	-11.4577
▁hit	-11.4577
▁leader	-11.4577
▁rate	-11.4577
▁under	-11.4577
▁̋미국	-11.4577
▁‘슈퍼	-11.4577
▁‘시	-11.4577
▁“국민들은	-11.4577
▁“대통령	-11.4577
▁“만약에	-11.4577
▁“북한의	-11.4577
▁“오바마가	-11.4577
▁“이란이	-11.4577
▁“존,	-11.4577
▁가방에	-11.4577
▁가족에	-11.4577
▁가지는	-11.4577
▁가축	-11.4577
▁가파른	-11.4577
▁감독에	-11.4577
▁감독인	-11.4577
▁감면	-11.4577
▁감소하는	-11.4577
▁감시할	-11.4577
▁감옥에서	-11.4577
▁감출	-11.4577
▁강간	-11.4577
▁강렬한	-11.4577
▁강연을	-11.4577
▁강제적으로	-11.4577
▁강타했다.	-11.4577
▁강풍으로	-11.4577
▁강화를	-11.4577
▁개방	-11.4577
▁개정에	-11.4577
▁걱정할	-11.4577
▁걸리지	-11.4577
▁검증	-11.4577
▁것”을	-11.4577
▁것인가에	-11.4577
▁결승전	-11.4577
▁결정적	-11.4577
▁결정하게	-11.4577
▁경감은	-11.4577
▁경기장에	-11.4577
▁경비	-11.4577
▁경제학자인	-11.4577
▁경찰청	-11.4577
▁경찰청장은	-11.4577
▁계속했다.	-11.4577
▁계획도	-11.4577
▁고객들은	-11.4577
▁고등	-11.4577
▁고려하지	-11.4577
▁고릴라	-11.4577
▁고발	-11.4577
▁고층	-11.4577
▁고통스러운	-11.4577
▁곳곳에	-11.4577
▁곳에서는	-11.4577
▁공백을	-11.4577
▁공연이	-11.4577
▁공화당과	-11.4577
▁과잉	-11.4577
▁관계자들을	-11.4577
▁관련되어	-11.4577
▁굉장한	-11.4577
▁교도통신은	-11.4577
▁교회를	-11.4577
▁구간	-11.4577
▁구매를	-11.4577
▁국가평의회	-11.4577
▁국무장관,	-11.4577
▁국방성	-11.4577
▁국회가	-11.4577
▁군인이	-11.4577
▁규정에	-11.4577
▁그것에	-11.4577
▁그라운드	-11.4577
▁그래미	-11.4577
▁그러면	-11.4577
▁그로부터	-11.4577
▁그룹에	-11.4577
▁그리스의	-11.4577
▁그만	-11.4577
▁그보다	-11.4577
▁극복하고	-11.4577
▁근거를	-11.4577
▁근거한	-11.4577
▁근교의	-11.4577
▁근로자들은	-11.4577
▁금액을	-11.4577
▁금지령을	-11.4577
▁금지했다.	-11.4577
▁기계	-11.4577
▁기관에	-11.4577
▁기대에	-11.4577
▁기대했던	-11.4577
▁기사가	-11.4577
▁기소됐다고	-11.4577
▁기소되었습니다.	-11.4577
▁기소할	-11.4577
▁기억	-11.4577
▁기업이	-11.4577
▁기자회견	-11.4577
▁기차를	-11.4577
▁긴밀히	-11.4577
▁끊이지	-11.4577
▁나누고	-11.4577
▁나도	-11.4577
▁나무로	-11.4577
▁나서지	-11.4577
▁나아가	-11.4577
▁나오게	-11.4577
▁나체	-11.4577
▁나체로	-11.4577
▁난민이	-11.4577
▁날씨를	-11.4577
▁날씨에	-11.4577
▁날짜가	-11.4577
▁남기고	-11.4577
▁남서쪽으로	-11.4577
▁남성들은	-11.4577
▁남자들이	-11.4577
▁남한이	-11.4577
▁납치했다고	-11.4577
▁났다.	-11.4577
▁내렸다”고	-11.4577
▁내정자는	-11.4577
▁넘을	-11.4577
▁노대통령이	-11.4577
▁노력해	-11.4577
▁노력해야	-11.4577
▁노조의	-11.4577
▁논란에	-11.4577
▁논쟁	-11.4577
▁놀란	-11.4577
▁누구를	-11.4577
▁누구인지	-11.4577
▁능력에	-11.4577
▁늦은	-11.4577
▁다음날인	-11.4577
▁다음에	-11.4577
▁다짐했다.	-11.4577
▁단계에서	-11.4577
▁단독으로	-11.4577
▁단서를	-11.4577
▁단호한	-11.4577
▁달링	-11.4577
▁달의	-11.4577
▁닮은	-11.4577
▁당선될	-11.4577
▁당했습니다.	-11.4577
▁대법원장은	-11.4577
▁대변인도	-11.4577
▁대변인은,	-11.4577
▁대변하는	-11.4577
▁대사관에서	-11.4577
▁대서양을	-11.4577
▁대중교통	-11.4577
▁대통합민주신당의	-11.4577
▁대표단과	-11.4577
▁대피시켰다.	-11.4577
▁대피하는	-11.4577
▁대학살	-11.4577
▁대학을	-11.4577
▁대해,	-11.4577
▁대화에	-11.4577
▁덮친	-11.4577
▁데이터	-11.4577
▁도운	-11.4577
▁도전에	-11.4577
▁도착하는	-11.4577
▁독재	-11.4577
▁동계	-11.4577
▁동굴	-11.4577
▁동굴에서	-11.4577
▁동물로	-11.4577
▁동부지역에서	-11.4577
▁동의하지	-11.4577
▁되지는	-11.4577
▁된다"고	-11.4577
▁두뇌	-11.4577
▁둘러	-11.4577
▁드물게	-11.4577
▁들었다”며	-11.4577
▁등과	-11.4577
▁디즈니의	-11.4577
▁딸과	-11.4577
▁딸에게	-11.4577
▁때문입니다.”	-11.4577
▁띄게	-11.4577
▁라이츠	-11.4577
▁러시아에	-11.4577
▁레비	-11.4577
▁로마는	-11.4577
▁루이스는	-11.4577
▁루프트한자	-11.4577
▁리서치	-11.4577
▁리우	-11.4577
▁마돈나는	-11.4577
▁마련하는	-11.4577
▁마사지를	-11.4577
▁마시지	-11.4577
▁막아야	-11.4577
▁막지	-11.4577
▁만의	-11.4577
▁만화가	-11.4577
▁많다”고	-11.4577
▁많았다.	-11.4577
▁말만	-11.4577
▁말이다.	-11.4577
▁말하며,	-11.4577
▁말했다	-11.4577
▁맞이할	-11.4577
▁매들린을	-11.4577
▁매력을	-11.4577
▁매릴랜드	-11.4577
▁매춘	-11.4577
▁매춘을	-11.4577
▁멕시코에서	-11.4577
▁명이다.	-11.4577
▁명확하지	-11.4577
▁모가디슈에서	-11.4577
▁목격자인	-11.4577
▁목적의	-11.4577
▁목표로한	-11.4577
▁몸에서	-11.4577
▁못하다고	-11.4577
▁못하며	-11.4577
▁묘사하고	-11.4577
▁무시한	-11.4577
▁무장세력에	-11.4577
▁묶인	-11.4577
▁뭘	-11.4577
▁미국계	-11.4577
▁미국에게	-11.4577
▁미국으로부터	-11.4577
▁미드필더	-11.4577
▁미드필더인	-11.4577
▁미성년자	-11.4577
▁미시건	-11.4577
▁미주리	-11.4577
▁미주리주	-11.4577
▁민주당을	-11.4577
▁믿는다고	-11.4577
▁바꾸어	-11.4577
▁바에따르면	-11.4577
▁바쿠바	-11.4577
▁박물관이	-11.4577
▁박스	-11.4577
▁박스오피스	-11.4577
▁반대한	-11.4577
▁반대한다고	-11.4577
▁반도	-11.4577
▁반란을	-11.4577
▁발간되는	-11.4577
▁발굴	-11.4577
▁발로	-11.4577
▁발사해	-11.4577
▁발전소를	-11.4577
▁발표하기	-11.4577
▁방문하기	-11.4577
▁방문했던	-11.4577
▁방법이라고	-11.4577
▁방송된	-11.4577
▁방안이	-11.4577
▁방영했다.	-11.4577
▁방화로	-11.4577
▁배경을	-11.4577
▁배우가	-11.4577
▁배우고	-11.4577
▁배터리를	-11.4577
▁백	-11.4577
▁백만	-11.4577
▁뱀을	-11.4577
▁버클리	-11.4577
▁버튼을	-11.4577
▁번에	-11.4577
▁벌금형을	-11.4577
▁벌어져	-11.4577
▁범죄가	-11.4577
▁법무	-11.4577
▁베이징올림픽	-11.4577
▁벨몬트였습니다.	-11.4577
▁변화하는	-11.4577
▁병원과	-11.4577
▁보고한	-11.4577
▁보면,	-11.4577
▁보복	-11.4577
▁보석을	-11.4577
▁보장을	-11.4577
▁보존	-11.4577
▁보좌관이	-11.4577
▁보트에	-11.4577
▁복부	-11.4577
▁복역	-11.4577
▁복제를	-11.4577
▁복지	-11.4577
▁본다.	-11.4577
▁봉쇄했다.	-11.4577
▁봐야	-11.4577
▁부검을	-11.4577
▁부는	-11.4577
▁부모	-11.4577
▁부모에게	-11.4577
▁부분	-11.4577
▁부상당했다고	-11.4577
▁부족과	-11.4577
▁부족해	-11.4577
▁부탁했다.	-11.4577
▁분리	-11.4577
▁분리독립	-11.4577
▁분석가	-11.4577
▁분석을	-11.4577
▁분위기는	-11.4577
▁불만	-11.4577
▁붐비는	-11.4577
▁붙여진	-11.4577
▁브라운이	-11.4577
▁브라이언트	-11.4577
▁브라질에서	-11.4577
▁비교할	-11.4577
▁비디오가	-11.4577
▁비서실장	-11.4577
▁비용과	-11.4577
▁비자금	-11.4577
▁비준을	-11.4577
▁비판적인	-11.4577
▁비행에	-11.4577
▁빛나는	-11.4577
▁뽑는	-11.4577
▁사격을	-11.4577
▁사람들보다	-11.4577
▁사람이다.	-11.4577
▁사르코지와	-11.4577
▁사막에서	-11.4577
▁사망을	-11.4577
▁사망자와	-11.4577
▁사망해	-11.4577
▁사무실로	-11.4577
▁사용에	-11.4577
▁사용자	-11.4577
▁사용자들은	-11.4577
▁사용자의	-11.4577
▁사이먼	-11.4577
▁사인은	-11.4577
▁사진에서	-11.4577
▁사항에	-11.4577
▁사형선고를	-11.4577
▁사회는	-11.4577
▁사회당	-11.4577
▁사회당의	-11.4577
▁살모넬라균	-11.4577
▁살상	-11.4577
▁살아가고	-11.4577
▁삼고	-11.4577
▁상담을	-11.4577
▁상당	-11.4577
▁상원의원으로	-11.4577
▁상태	-11.4577
▁상태이며	-11.4577
▁상하이에서	-11.4577
▁상향	-11.4577
▁상황과	-11.4577
▁샘플	-11.4577
▁생산되는	-11.4577
▁생산한	-11.4577
▁생존자들은	-11.4577
▁서명할	-11.4577
▁서부텍사스산	-11.4577
▁서비스에	-11.4577
▁서울시	-11.4577
▁석방이	-11.4577
▁석방했다고	-11.4577
▁선거관리위원회	-11.4577
▁선고받은	-11.4577
▁선원들이	-11.4577
▁선포	-11.4577
▁선호하는	-11.4577
▁설명은	-11.4577
▁설명하며	-11.4577
▁설치	-11.4577
▁성공,	-11.4577
▁성당에서	-11.4577
▁성장할	-11.4577
▁성화봉송을	-11.4577
▁세계랭킹	-11.4577
▁세트를	-11.4577
▁센트럴	-11.4577
▁소렌스탐은	-11.4577
▁소방	-11.4577
▁소비자에게	-11.4577
▁소송이	-11.4577
▁소식으로	-11.4577
▁소유즈	-11.4577
▁소장	-11.4577
▁소재를	-11.4577
▁소지가	-11.4577
▁소탕하기	-11.4577
▁쇼핑몰	-11.4577
▁수감돼	-11.4577
▁수감자들은	-11.4577
▁수감자들이	-11.4577
▁수리	-11.4577
▁수배	-11.4577
▁수사의	-11.4577
▁수상의	-11.4577
▁수여하는	-11.4577
▁수용	-11.4577
▁숨지는	-11.4577
▁슈스터	-11.4577
▁스위스의	-11.4577
▁스타벅스는	-11.4577
▁스턴은	-11.4577
▁스톤은	-11.4577
▁스파이스	-11.4577
▁슬픔을	-11.4577
▁승자와	-11.4577
▁시간의	-11.4577
▁시기는	-11.4577
▁시도하고	-11.4577
▁시선을	-11.4577
▁시신들이	-11.4577
▁시작하자	-11.4577
▁시작했습니다.	-11.4577
▁시장으로	-11.4577
▁시즌이	-11.4577
▁시체가	-11.4577
▁시키는	-11.4577
▁신발	-11.4577
▁신분을	-11.4577
▁신임을	-11.4577
▁심각성을	-11.4577
▁심리	-11.4577
▁심문	-11.4577
▁심정을	-11.4577
▁싶어하지	-11.4577
▁쓰러진	-11.4577
▁아니라며	-11.4577
▁아닙니다.”	-11.4577
▁아라비아	-11.4577
▁아르빌에	-11.4577
▁아르헨티나의	-11.4577
▁아이디어가	-11.4577
▁아프간과	-11.4577
▁아프간인	-11.4577
▁악화로	-11.4577
▁안보리가	-11.4577
▁안전보장이사회는	-11.4577
▁안정에	-11.4577
▁않고,	-11.4577
▁않기를	-11.4577
▁않았었다.	-11.4577
▁알려	-11.4577
▁알리고	-11.4577
▁알리지	-11.4577
▁암시했다.	-11.4577
▁압수	-11.4577
▁앞서는	-11.4577
▁애리조나주	-11.4577
▁애완동물	-11.4577
▁약세를	-11.4577
▁약하게	-11.4577
▁양보를	-11.4577
▁어린이의	-11.4577
▁어울리는	-11.4577
▁언급	-11.4577
▁언급하는	-11.4577
▁언급하면서	-11.4577
▁언덕을	-11.4577
▁언론인	-11.4577
▁얼어붙은	-11.4577
▁엄격히	-11.4577
▁없었다"고	-11.4577
▁없었으나	-11.4577
▁에이즈에	-11.4577
▁엔진	-11.4577
▁여부	-11.4577
▁여부가	-11.4577
▁여성에	-11.4577
▁여정을	-11.4577
▁여행에	-11.4577
▁연구소가	-11.4577
▁연구소에서	-11.4577
▁연구원	-11.4577
▁연구할	-11.4577
▁연극	-11.4577
▁연설에	-11.4577
▁연설했다.	-11.4577
▁연안에서	-11.4577
▁연행됐다.	-11.4577
▁열을	-11.4577
▁영광을	-11.4577
▁영국에서는	-11.4577
▁영변의	-11.4577
▁영예를	-11.4577
▁영유권	-11.4577
▁영화,	-11.4577
▁영화제에	-11.4577
▁예방하기	-11.4577
▁예상치	-11.4577
▁예측을	-11.4577
▁오가는	-11.4577
▁오딩가는	-11.4577
▁오염된	-11.4577
▁오차범위	-11.4577
▁오토바이	-11.4577
▁오프	-11.4577
▁오해를	-11.4577
▁올라왔다.	-11.4577
▁올랐고	-11.4577
▁와지리스탄	-11.4577
▁완화를	-11.4577
▁외각	-11.4577
▁외교관	-11.4577
▁외교관을	-11.4577
▁외교관이	-11.4577
▁외부의	-11.4577
▁요구는	-11.4577
▁요구사항을	-11.4577
▁요리를	-11.4577
▁요청은	-11.4577
▁요청하고	-11.4577
▁욕구를	-11.4577
▁용도로	-11.4577
▁우간다	-11.4577
▁우려,	-11.4577
▁우려와	-11.4577
▁우수한	-11.4577
▁우위를	-11.4577
▁우주에	-11.4577
▁운동가	-11.4577
▁운동가들이	-11.4577
▁움직임	-11.4577
▁웃는	-11.4577
▁워싱턴으로	-11.4577
▁워싱턴을	-11.4577
▁워커	-11.4577
▁원내	-11.4577
▁원숭이를	-11.4577
▁원정경기에서	-11.4577
▁웹사이트에따르면	-11.4577
▁위반했다고	-11.4577
▁위원은	-11.4577
▁위험할	-11.4577
▁유나이티드가	-11.4577
▁유나이티드와	-11.4577
▁유대	-11.4577
▁유동성	-11.4577
▁유럽축구연맹(UEFA)	-11.4577
▁유명해졌다.	-11.4577
▁유지하며	-11.4577
▁유지해	-11.4577
▁유출된	-11.4577
▁유치	-11.4577
▁유태인	-11.4577
▁윤광웅	-11.4577
▁은신처로	-11.4577
▁은퇴한	-11.4577
▁음모에	-11.4577
▁음악과	-11.4577
▁음악이	-11.4577
▁의대	-11.4577
▁의약품	-11.4577
▁의지가	-11.4577
▁의향이	-11.4577
▁의회와	-11.4577
▁이곳에는	-11.4577
▁이루고	-11.4577
▁이루기	-11.4577
▁이루는	-11.4577
▁이뤄	-11.4577
▁이르렀다.	-11.4577
▁이른다고	-11.4577
▁이미지는	-11.4577
▁이민자들이	-11.4577
▁이반	-11.4577
▁이사회가	-11.4577
▁이송됐으나	-11.4577
▁이스탄불	-11.4577
▁이안	-11.4577
▁이은	-11.4577
▁이의	-11.4577
▁이전부터	-11.4577
▁이행하지	-11.4577
▁인근의	-11.4577
▁인기있는	-11.4577
▁인도네시아에서는	-11.4577
▁인물이	-11.4577
▁인사가	-11.4577
▁인상적인	-11.4577
▁인생을	-11.4577
▁인정했지만	-11.4577
▁일”이라며	-11.4577
▁일반에	-11.4577
▁일본에서는	-11.4577
▁일시적인	-11.4577
▁일원으로	-11.4577
▁일이지만	-11.4577
▁잃었다”고	-11.4577
▁임기는	-11.4577
▁임할	-11.4577
▁입	-11.4577
▁입게	-11.4577
▁잇따른	-11.4577
▁있어서는	-11.4577
▁있으면	-11.4577
▁있을까?	-11.4577
▁자료에따르면	-11.4577
▁자메이카	-11.4577
▁자살폭탄테러를	-11.4577
▁자세하게	-11.4577
▁자원을	-11.4577
▁자유당	-11.4577
▁자유무역협정을	-11.4577
▁자치구	-11.4577
▁작전은	-11.4577
▁잘라	-11.4577
▁잘린	-11.4577
▁잡는	-11.4577
▁장군의	-11.4577
▁장례식을	-11.4577
▁장소	-11.4577
▁장소는	-11.4577
▁장시간	-11.4577
▁재선을	-11.4577
▁재확인했다.	-11.4577
▁저녁에	-11.4577
▁저질렀다고	-11.4577
▁적용	-11.4577
▁적을	-11.4577
▁적자를	-11.4577
▁전에,	-11.4577
▁전쟁과	-11.4577
▁전해왔습니다.	-11.4577
▁전했으나	-11.4577
▁절대적인	-11.4577
▁접근하는	-11.4577
▁정교회	-11.4577
▁정보기관의	-11.4577
▁정상으로	-11.4577
▁정신적인	-11.4577
▁정유	-11.4577
▁정치인들은	-11.4577
▁정하는	-11.4577
▁제공되는	-11.4577
▁제기되고	-11.4577
▁제도에	-11.4577
▁제시	-11.4577
▁제외하면	-11.4577
▁제작을	-11.4577
▁제조사인	-11.4577
▁제출해야	-11.4577
▁조명	-11.4577
▁조언했다.	-11.4577
▁조작한	-11.4577
▁조코비치는	-11.4577
▁종교를	-11.4577
▁종파	-11.4577
▁죄로	-11.4577
▁주도했던	-11.4577
▁주식의	-11.4577
▁주인공으로	-11.4577
▁주장하며,	-11.4577
▁주장해왔다.	-11.4577
▁주장했으나	-11.4577
▁주최하는	-11.4577
▁주택을	-11.4577
▁주택이	-11.4577
▁죽는	-11.4577
▁죽인	-11.4577
▁준비할	-11.4577
▁중이라는	-11.4577
▁쥐	-11.4577
▁쥐의	-11.4577
▁증가가	-11.4577
▁증거라고	-11.4577
▁증세로	-11.4577
▁증시에서	-11.4577
▁증진을	-11.4577
▁지난해보다	-11.4577
▁지난해에는	-11.4577
▁지낼	-11.4577
▁지명되기	-11.4577
▁지배하는	-11.4577
▁지불한	-11.4577
▁지속되고	-11.4577
▁지어	-11.4577
▁지었다.	-11.4577
▁지원금을	-11.4577
▁지원은	-11.4577
▁지원하기로	-11.4577
▁지의	-11.4577
▁지적	-11.4577
▁지지자들	-11.4577
▁지지하지	-11.4577
▁지지해	-11.4577
▁지친	-11.4577
▁지켜볼	-11.4577
▁지휘하고	-11.4577
▁진심으로	-11.4577
▁진압에	-11.4577
▁진압하는	-11.4577
▁진전	-11.4577
▁진출할	-11.4577
▁집계에따르면	-11.4577
▁집어	-11.4577
▁집중할	-11.4577
▁집행을	-11.4577
▁집회는	-11.4577
▁징계를	-11.4577
▁짝짓기를	-11.4577
▁차지하며	-11.4577
▁참배를	-11.4577
▁참석한다.	-11.4577
▁참석했던	-11.4577
▁창기라이	-11.4577
▁찾아온	-11.4577
▁채택했다.	-11.4577
▁책	-11.4577
▁책과	-11.4577
▁처리할	-11.4577
▁처벌	-11.4577
▁척	-11.4577
▁철군을	-11.4577
▁철수시킬	-11.4577
▁청문회	-11.4577
▁청문회를	-11.4577
▁청소년들이	-11.4577
▁청소년이	-11.4577
▁청와대에서	-11.4577
▁체첸	-11.4577
▁체포해	-11.4577
▁체포했으며	-11.4577
▁초고속	-11.4577
▁초까지	-11.4577
▁촉구할	-11.4577
▁촉구했다고	-11.4577
▁총선은	-11.4577
▁최루탄과	-11.4577
▁최소한의	-11.4577
▁추락했다고	-11.4577
▁추문에	-11.4577
▁추세를	-11.4577
▁추적을	-11.4577
▁추측했다.	-11.4577
▁추한	-11.4577
▁출발을	-11.4577
▁출시된	-11.4577
▁출신이며	-11.4577
▁출연하여	-11.4577
▁출연했던	-11.4577
▁출전해	-11.4577
▁충격에	-11.4577
▁치렀다.	-11.4577
▁친구들의	-11.4577
▁카라치	-11.4577
▁카라치에서	-11.4577
▁카라카스	-11.4577
▁카메론	-11.4577
▁카페	-11.4577
▁칼라	-11.4577
▁칼리드	-11.4577
▁칼을	-11.4577
▁캠페인	-11.4577
▁케냐에서	-11.4577
▁콘서트는	-11.4577
▁콘서트에	-11.4577
▁쿠퍼는	-11.4577
▁크기	-11.4577
▁클라라	-11.4577
▁클라렌스	-11.4577
▁클라크는	-11.4577
▁클럽에	-11.4577
▁클린트	-11.4577
▁키가	-11.4577
▁킬로미터	-11.4577
▁킴	-11.4577
▁타디치	-11.4577
▁타지	-11.4577
▁탄원서를	-11.4577
▁탄핵을	-11.4577
▁탈레반을	-11.4577
▁탈세	-11.4577
▁탈출했다고	-11.4577
▁탓으로	-11.4577
▁태풍은	-11.4577
▁태풍이	-11.4577
▁터널	-11.4577
▁테러단체로	-11.4577
▁테이프가	-11.4577
▁템펠호프	-11.4577
▁토네이도	-11.4577
▁토네이도로	-11.4577
▁토론회는	-11.4577
▁톱	-11.4577
▁통과	-11.4577
▁통과시킨	-11.4577
▁통신을	-11.4577
▁통제할	-11.4577
▁퇴역	-11.4577
▁퇴장	-11.4577
▁투입될	-11.4577
▁트리폴리	-11.4577
▁특유의	-11.4577
▁팀장은	-11.4577
▁파바로티는	-11.4577
▁파악하지	-11.4577
▁파커는	-11.4577
▁파키스탄군이	-11.4577
▁파키스탄으로	-11.4577
▁판매에	-11.4577
▁팔레스타인을	-11.4577
▁팔레스타인인	-11.4577
▁패해	-11.4577
▁페드로	-11.4577
▁페일린의	-11.4577
▁편집자인	-11.4577
▁펼쳐지는	-11.4577
▁평화에	-11.4577
▁평화유지군	-11.4577
▁평화협상을	-11.4577
▁포셋은	-11.4577
▁포함되지	-11.4577
▁폭격으로	-11.4577
▁폭력적인	-11.4577
▁폭이	-11.4577
▁폭풍의	-11.4577
▁폴락은	-11.4577
▁표현의	-11.4577
▁푸른	-11.4577
▁푸틴이	-11.4577
▁프라이머리(예비선거)를	-11.4577
▁프로젝트는	-11.4577
▁프로젝트의	-11.4577
▁프리킥을	-11.4577
▁피가	-11.4577
▁피랍됐던	-11.4577
▁피켓을	-11.4577
▁피하고	-11.4577
▁피해자인	-11.4577
▁필립스	-11.4577
▁하나였다.	-11.4577
▁하늘로	-11.4577
▁하니야	-11.4577
▁하락,	-11.4577
▁하락에	-11.4577
▁하락이	-11.4577
▁하락했고	-11.4577
▁하려고	-11.4577
▁하여	-11.4577
▁하와이를	-11.4577
▁한,	-11.4577
▁한국인의	-11.4577
▁한번의	-11.4577
▁할머니	-11.4577
▁항공사인	-11.4577
▁항생제	-11.4577
▁해결하지	-11.4577
▁해군이	-11.4577
▁해달라고	-11.4577
▁해병	-11.4577
▁해병대는	-11.4577
▁해야만	-11.4577
▁핸드폰	-11.4577
▁행사한	-11.4577
▁행운을	-11.4577
▁행위라고	-11.4577
▁행정부를	-11.4577
▁향할	-11.4577
▁허리	-11.4577
▁헌법재판소의	-11.4577
▁헬리콥터	-11.4577
▁혁신적인	-11.4577
▁현존하는	-11.4577
▁협력이	-11.4577
▁협약에	-11.4577
▁협회의	-11.4577
▁형식으로	-11.4577
▁형식의	-11.4577
▁형제	-11.4577
▁형제는	-11.4577
▁형태를	-11.4577
▁호날두는	-11.4577
▁호주오픈	-11.4577
▁혼란스러운	-11.4577
▁화재의	-11.4577
▁화제를	-11.4577
▁확고히	-11.4577
▁확대하는	-11.4577
▁확대할	-11.4577
▁확보,	-11.4577
▁확보하는	-11.4577
▁확산됐다.	-11.4577
▁확실치	-11.4577
▁회사들을	-11.4577
▁회사와	-11.4577
▁회원들은	-11.4577
▁회원들이	-11.4577
▁회의의	-11.4577
▁횟수가	-11.4577
▁효력이	-11.4577
▁효율적으로	-11.4577
▁효율적인	-11.4577
▁훈련에	-11.4577
▁휴먼	-11.4577
▁휴스턴	-11.4577
▁흐르는	-11.4577
▁희망하는	-11.4577
▁히스패닉	-11.4577
▁히틀러의	-11.4577
▁힐튼과	-11.4577
▁힘과	-11.4577
▁"다른	-11.5447
▁"매우	-11.5447
▁"아프간	-11.5447
▁"현재	-11.5447
▁(=	-11.5447
▁10여	-11.5447
▁11	-11.5447
▁11월,	-11.5447
▁12월부터	-11.5447
▁16강전에서	-11.5447
▁16명의	-11.5447
▁1964년	-11.5447
▁1972년	-11.5447
▁1997년에	-11.5447
▁19일(현지시각)	-11.5447
▁1분	-11.5447
▁1세트	-11.5447
▁1시	-11.5447
▁1주	-11.5447
▁2-2	-11.5447
▁2003년에	-11.5447
▁2004년에는	-11.5447
▁2005년에는	-11.5447
▁2006.06	-11.5447
▁2007.01	-11.5447
▁20년간	-11.5447
▁20여	-11.5447
▁22명의	-11.5447
▁2마리가	-11.5447
▁2배로	-11.5447
▁2억	-11.5447
▁2연패를	-11.5447
▁300명의	-11.5447
▁40여	-11.5447
▁4대의	-11.5447
▁4살	-11.5447
▁4일간의	-11.5447
▁500명	-11.5447
▁500명의	-11.5447
▁5년간의	-11.5447
▁60주년	-11.5447
▁6월,	-11.5447
▁7%	-11.5447
▁7개의	-11.5447
▁7월까지	-11.5447
▁8강	-11.5447
▁90%	-11.5447
▁90분	-11.5447
▁ABC의	-11.5447
▁AP뉴스	-11.5447
▁AP에	-11.5447
▁AU	-11.5447
▁BBK	-11.5447
▁CD	-11.5447
▁California	-11.5447
▁Control	-11.5447
▁D가	-11.5447
▁FBI가	-11.5447
▁General	-11.5447
▁IOC는	-11.5447
▁International	-11.5447
▁Iraqi	-11.5447
▁No	-11.5447
▁OECD	-11.5447
▁PGA	-11.5447
▁PPP	-11.5447
▁UEFA	-11.5447
▁UFO	-11.5447
▁Wall	-11.5447
▁calls	-11.5447
▁consumer	-11.5447
▁cut	-11.5447
▁de	-11.5447
▁minister	-11.5447
▁one's	-11.5447
▁police	-11.5447
▁president	-11.5447
▁soldiers	-11.5447
▁start	-11.5447
▁test	-11.5447
▁this	-11.5447
▁war	-11.5447
▁who	-11.5447
▁~	-11.5447
▁~을	-11.5447
▁“그들의	-11.5447
▁“대통령은	-11.5447
▁“무샤라프	-11.5447
▁“물론	-11.5447
▁“북한은	-11.5447
▁“이것이	-11.5447
▁“자신의	-11.5447
▁가동	-11.5447
▁가리지	-11.5447
▁가사를	-11.5447
▁가정의	-11.5447
▁가져왔다.	-11.5447
▁각각의	-11.5447
▁각료	-11.5447
▁감각을	-11.5447
▁감독상을	-11.5447
▁감소로	-11.5447
▁감염으로	-11.5447
▁감원	-11.5447
▁강요	-11.5447
▁강으로	-11.5447
▁강재섭	-11.5447
▁강풍이	-11.5447
▁강화에	-11.5447
▁강화해	-11.5447
▁갖기로	-11.5447
▁갖추지	-11.5447
▁갖췄다.	-11.5447
▁같았다”고	-11.5447
▁개념을	-11.5447
▁개봉하는	-11.5447
▁개선에	-11.5447
▁개선할	-11.5447
▁개인이	-11.5447
▁개입하지	-11.5447
▁개최하는	-11.5447
▁개헌안에	-11.5447
▁개혁에	-11.5447
▁객실	-11.5447
▁거두지	-11.5447
▁거래되고	-11.5447
▁거머쥐었다.	-11.5447
▁거부해	-11.5447
▁건너	-11.5447
▁건설에	-11.5447
▁검문소에서	-11.5447
▁검시관은	-11.5447
▁검은색	-11.5447
▁것,	-11.5447
▁것”이라는	-11.5447
▁것의	-11.5447
▁것이라고는	-11.5447
▁것이라고도	-11.5447
▁게시판에	-11.5447
▁게재했다.	-11.5447
▁격차는	-11.5447
▁겪었던	-11.5447
▁견딜	-11.5447
▁결선투표에서	-11.5447
▁결심했다.	-11.5447
▁경고가	-11.5447
▁경비를	-11.5447
▁경신했다.	-11.5447
▁경은	-11.5447
▁경제학자들이	-11.5447
▁경주	-11.5447
▁경찰서에서	-11.5447
▁경호원들이	-11.5447
▁계속해	-11.5447
▁계좌	-11.5447
▁계획”이라고	-11.5447
▁고국으로	-11.5447
▁고래가	-11.5447
▁고려해야	-11.5447
▁고무적인	-11.5447
▁공간을	-11.5447
▁공간이	-11.5447
▁공격에서	-11.5447
▁공룡	-11.5447
▁공방을	-11.5447
▁공사	-11.5447
▁공이	-11.5447
▁공판	-11.5447
▁공판에서	-11.5447
▁과시했다.	-11.5447
▁과테말라	-11.5447
▁관계자들에게	-11.5447
▁관리에	-11.5447
▁관리의	-11.5447
▁관중	-11.5447
▁관해서는	-11.5447
▁광대역	-11.5447
▁교량	-11.5447
▁교외에	-11.5447
▁교환	-11.5447
▁구글과	-11.5447
▁구단	-11.5447
▁구성되어	-11.5447
▁구속했다고	-11.5447
▁구조됐다고	-11.5447
▁구조작업이	-11.5447
▁구출	-11.5447
▁구호단체	-11.5447
▁국가보안법	-11.5447
▁국가안보	-11.5447
▁국무	-11.5447
▁국무부가	-11.5447
▁국민당	-11.5447
▁국방성은	-11.5447
▁국영방송은	-11.5447
▁국장	-11.5447
▁국제공항에서	-11.5447
▁국제축구연맹(FIFA)	-11.5447
▁국회의원들은	-11.5447
▁군중들이	-11.5447
▁군함	-11.5447
▁궁극적으로	-11.5447
▁권한	-11.5447
▁귀국했다.	-11.5447
▁규모로	-11.5447
▁규정이	-11.5447
▁균형	-11.5447
▁그래픽	-11.5447
▁그래함	-11.5447
▁그레그	-11.5447
▁그레이스	-11.5447
▁그리스에서	-11.5447
▁극단주의자들을	-11.5447
▁극도의	-11.5447
▁근로	-11.5447
▁근본	-11.5447
▁금강산	-11.5447
▁금융제재	-11.5447
▁금지시켰다.	-11.5447
▁기관과	-11.5447
▁기네스	-11.5447
▁기록될	-11.5447
▁기록에	-11.5447
▁기록하는	-11.5447
▁기번스는	-11.5447
▁기뻐했다.	-11.5447
▁기쁜	-11.5447
▁기여했다.	-11.5447
▁기울일	-11.5447
▁기이한	-11.5447
▁기자였습니다.	-11.5447
▁기지의	-11.5447
▁기차	-11.5447
▁길로	-11.5447
▁깁스	-11.5447
▁까다로운	-11.5447
▁꺾었다.	-11.5447
▁꺾은	-11.5447
▁꽃을	-11.5447
▁끌	-11.5447
▁끌었다.	-11.5447
▁끝나고	-11.5447
▁끝내기	-11.5447
▁끼치는	-11.5447
▁나달이	-11.5447
▁나라에서는	-11.5447
▁나쁘지	-11.5447
▁나오기	-11.5447
▁나이는	-11.5447
▁나이를	-11.5447
▁나타냈다고	-11.5447
▁난자를	-11.5447
▁난폭한	-11.5447
▁날,	-11.5447
▁남부로	-11.5447
▁남북한,	-11.5447
▁남아시아	-11.5447
▁남았다.	-11.5447
▁남자아이	-11.5447
▁남한은	-11.5447
▁낮출	-11.5447
▁내년에는	-11.5447
▁내다	-11.5447
▁내린다.	-11.5447
▁넘겼다.	-11.5447
▁네팔의	-11.5447
▁넬슨은	-11.5447
▁년에	-11.5447
▁노동자들의	-11.5447
▁노력과	-11.5447
▁노박	-11.5447
▁노예를	-11.5447
▁논의될	-11.5447
▁농담을	-11.5447
▁농민들은	-11.5447
▁농축을	-11.5447
▁누구의	-11.5447
▁뉴델리에서	-11.5447
▁뉴스입니다.	-11.5447
▁뉴욕으로	-11.5447
▁뉴욕을	-11.5447
▁뉴욕타임스는	-11.5447
▁뉴잉글랜드	-11.5447
▁느낌이	-11.5447
▁닐	-11.5447
▁다국적군이	-11.5447
▁다닐	-11.5447
▁다윈의	-11.5447
▁다이아몬드는	-11.5447
▁단체와	-11.5447
▁단편	-11.5447
▁달렸다.	-11.5447
▁달을	-11.5447
▁답을	-11.5447
▁답한	-11.5447
▁당선인,	-11.5447
▁당하고	-11.5447
▁대규모로	-11.5447
▁대만과	-11.5447
▁대만에서	-11.5447
▁대슐	-11.5447
▁대통령으로서	-11.5447
▁대통령인	-11.5447
▁대피소로	-11.5447
▁대항해	-11.5447
▁대화할	-11.5447
▁데이	-11.5447
▁데이비스컵	-11.5447
▁덴버에서	-11.5447
▁도로와	-11.5447
▁도로의	-11.5447
▁도요타	-11.5447
▁도입할	-11.5447
▁도주	-11.5447
▁도착한다.	-11.5447
▁돌아오지	-11.5447
▁동맹관계를	-11.5447
▁동물원을	-11.5447
▁동원됐다.	-11.5447
▁동쪽	-11.5447
▁됐다는	-11.5447
▁두려워하지	-11.5447
▁두른	-11.5447
▁둘은	-11.5447
▁뒤인	-11.5447
▁뒷받침할	-11.5447
▁득점을	-11.5447
▁들어왔다.	-11.5447
▁등록을	-11.5447
▁등장한	-11.5447
▁디자인	-11.5447
▁따냈다.	-11.5447
▁때까지는	-11.5447
▁때에는	-11.5447
▁똑같이	-11.5447
▁뚜렷한	-11.5447
▁라운드에서	-11.5447
▁라호르에서	-11.5447
▁랜스	-11.5447
▁러닝메이트로	-11.5447
▁레바논군이	-11.5447
▁레슬링	-11.5447
▁로마가	-11.5447
▁로즈	-11.5447
▁로켓이	-11.5447
▁로한의	-11.5447
▁루카스	-11.5447
▁리가	-11.5447
▁리처드슨은	-11.5447
▁리츠	-11.5447
▁리트비넨코	-11.5447
▁린치	-11.5447
▁마드리드는	-11.5447
▁마드리드에	-11.5447
▁마찬가지로	-11.5447
▁막아	-11.5447
▁많고	-11.5447
▁많다고	-11.5447
▁말레이시아,	-11.5447
▁말하면	-11.5447
▁말해왔다.	-11.5447
▁말했으나	-11.5447
▁맞붙는다.	-11.5447
▁맞이하게	-11.5447
▁맞이했다.	-11.5447
▁맞추기	-11.5447
▁매장에서	-11.5447
▁맥캔은	-11.5447
▁맨유가	-11.5447
▁맨유의	-11.5447
▁맺을	-11.5447
▁머물렀다.	-11.5447
▁멀지	-11.5447
▁메시지	-11.5447
▁면역	-11.5447
▁면치	-11.5447
▁모델은	-11.5447
▁모래	-11.5447
▁모술에서	-11.5447
▁목격자들이	-11.5447
▁목격했다.	-11.5447
▁목소리	-11.5447
▁목요일날	-11.5447
▁몸무게가	-11.5447
▁몹시	-11.5447
▁못했습니다.	-11.5447
▁무서운	-11.5447
▁묵념을	-11.5447
▁문서가	-11.5447
▁묻자	-11.5447
▁물질	-11.5447
▁미끄러져	-11.5447
▁미래가	-11.5447
▁미만	-11.5447
▁미시건주	-11.5447
▁민영	-11.5447
▁밀란	-11.5447
▁바꾸고	-11.5447
▁바꾸기	-11.5447
▁바꾼	-11.5447
▁바뀌는	-11.5447
▁바나프샤는	-11.5447
▁바다가	-11.5447
▁바란다.	-11.5447
▁박힌	-11.5447
▁반격을	-11.5447
▁반대한다는	-11.5447
▁반테러	-11.5447
▁반해	-11.5447
▁받는다는	-11.5447
▁받지는	-11.5447
▁발견되었다고	-11.5447
▁발견되었습니다.	-11.5447
▁발급	-11.5447
▁발사됐다.	-11.5447
▁발생했고	-11.5447
▁발생했었다.	-11.5447
▁발의	-11.5447
▁발표해	-11.5447
▁발표했지만	-11.5447
▁밝혀내지	-11.5447
▁밝혔으며,	-11.5447
▁방문으로	-11.5447
▁방문했다고	-11.5447
▁방안	-11.5447
▁방안도	-11.5447
▁방에	-11.5447
▁방으로	-11.5447
▁방출을	-11.5447
▁방콕의	-11.5447
▁배럴의	-11.5447
▁배치된	-11.5447
▁배치될	-11.5447
▁백신을	-11.5447
▁버리는	-11.5447
▁번역	-11.5447
▁벌어졌던	-11.5447
▁범위	-11.5447
▁범인의	-11.5447
▁법과	-11.5447
▁법무부는	-11.5447
▁베네수엘라는	-11.5447
▁변함이	-11.5447
▁변호인단은	-11.5447
▁변화와	-11.5447
▁병사들에게	-11.5447
▁보고됐다.	-11.5447
▁보고할	-11.5447
▁보내온	-11.5447
▁보내졌다.	-11.5447
▁보도에서	-11.5447
▁보며	-11.5447
▁보안군은	-11.5447
▁보였습니다.	-11.5447
▁보유	-11.5447
▁보인다”며	-11.5447
▁보호에	-11.5447
▁복구를	-11.5447
▁복귀했다.	-11.5447
▁본다고	-11.5447
▁본사	-11.5447
▁본사에서	-11.5447
▁본선에	-11.5447
▁본토	-11.5447
▁부검	-11.5447
▁부과했다.	-11.5447
▁부국장은	-11.5447
▁부분적으로	-11.5447
▁부상당했다.	-11.5447
▁부상자들을	-11.5447
▁부서장은	-11.5447
▁부수고	-11.5447
▁부시,	-11.5447
▁부인의	-11.5447
▁부정하고	-11.5447
▁부족에	-11.5447
▁부족하다고	-11.5447
▁부활절	-11.5447
▁북동쪽으로	-11.5447
▁분명하다.	-11.5447
▁분야를	-11.5447
▁분위기가	-11.5447
▁불러일으켰다.	-11.5447
▁블랙은	-11.5447
▁블루	-11.5447
▁비공식적으로	-11.5447
▁비난했었다.	-11.5447
▁비롯하여	-11.5447
▁비밀을	-11.5447
▁비유했다.	-11.5447
▁비참한	-11.5447
▁비틀즈의	-11.5447
▁비티	-11.5447
▁비판이	-11.5447
▁빅	-11.5447
▁빌라로사	-11.5447
▁빠져나갔다.	-11.5447
▁뼈를	-11.5447
▁사드르가	-11.5447
▁사라졌다고	-11.5447
▁사람들로	-11.5447
▁사람들로부터	-11.5447
▁사람들에게는	-11.5447
▁사망으로	-11.5447
▁사망하기	-11.5447
▁사망하자	-11.5447
▁사무차장은	-11.5447
▁사본을	-11.5447
▁사용하게	-11.5447
▁사용하던	-11.5447
▁사우스	-11.5447
▁사의	-11.5447
▁사이클론이	-11.5447
▁사이트인	-11.5447
▁사진에는	-11.5447
▁사찰단을	-11.5447
▁사퇴할	-11.5447
▁사퇴했다.	-11.5447
▁살해됐다고	-11.5447
▁살해하는	-11.5447
▁삼림	-11.5447
▁상당수가	-11.5447
▁상대를	-11.5447
▁상반된	-11.5447
▁상병의	-11.5447
▁상사의	-11.5447
▁상승세로	-11.5447
▁상에	-11.5447
▁상원의원도	-11.5447
▁상황에서도	-11.5447
▁상황이라고	-11.5447
▁색다른	-11.5447
▁샌	-11.5447
▁생각하기	-11.5447
▁생각하며	-11.5447
▁생각하지만	-11.5447
▁생산량	-11.5447
▁생일	-11.5447
▁생중계된	-11.5447
▁샤	-11.5447
▁서면으로	-11.5447
▁서부에	-11.5447
▁서안	-11.5447
▁서안을	-11.5447
▁석방은	-11.5447
▁석유가	-11.5447
▁섞인	-11.5447
▁선글라스를	-11.5447
▁선박은	-11.5447
▁선언문을	-11.5447
▁선택하는	-11.5447
▁설치했다.	-11.5447
▁섰다.	-11.5447
▁성공시켜	-11.5447
▁성공은	-11.5447
▁성에	-11.5447
▁성을	-11.5447
▁성장률	-11.5447
▁성장의	-11.5447
▁성행위를	-11.5447
▁세계로	-11.5447
▁세르지오	-11.5447
▁세무	-11.5447
▁세실리아	-11.5447
▁세실리아는	-11.5447
▁소녀를	-11.5447
▁소리는	-11.5447
▁소문을	-11.5447
▁소방차	-11.5447
▁소식통들이	-11.5447
▁소식통에	-11.5447
▁소탕을	-11.5447
▁소폭	-11.5447
▁손	-11.5447
▁수감생활을	-11.5447
▁수감중인	-11.5447
▁수니	-11.5447
▁수단과	-11.5447
▁수로	-11.5447
▁수류탄을	-11.5447
▁수명이	-11.5447
▁수반의	-11.5447
▁수소	-11.5447
▁수송	-11.5447
▁수입한	-11.5447
▁수준은	-11.5447
▁수준이	-11.5447
▁수하물	-11.5447
▁수행하기	-11.5447
▁숫자가	-11.5447
▁숫자를	-11.5447
▁숲	-11.5447
▁슈나이더는	-11.5447
▁슈웨	-11.5447
▁스몰	-11.5447
▁스타일의	-11.5447
▁승무원들이	-11.5447
▁승무원을	-11.5447
▁승인이	-11.5447
▁시간대에	-11.5447
▁시대를	-11.5447
▁시리아가	-11.5447
▁시몬	-11.5447
▁시민권	-11.5447
▁시민들과	-11.5447
▁시상식이	-11.5447
▁시작했던	-11.5447
▁시작했을	-11.5447
▁시점을	-11.5447
▁시즌에	-11.5447
▁시행한	-11.5447
▁시험에	-11.5447
▁식량이	-11.5447
▁신념을	-11.5447
▁신도들이	-11.5447
▁신병을	-11.5447
▁신성한	-11.5447
▁신행정수도	-11.5447
▁실정이다.	-11.5447
▁실직	-11.5447
▁실행할	-11.5447
▁실험은	-11.5447
▁심리적인	-11.5447
▁심장마비	-11.5447
▁심장을	-11.5447
▁심판을	-11.5447
▁싱글	-11.5447
▁싸우는	-11.5447
▁싸운	-11.5447
▁써	-11.5447
▁쏴	-11.5447
▁쓰일	-11.5447
▁씨와	-11.5447
▁아기는	-11.5447
▁아니다"며	-11.5447
▁아닌,	-11.5447
▁아래서	-11.5447
▁아마드	-11.5447
▁아버지로	-11.5447
▁아빠가	-11.5447
▁아시아,	-11.5447
▁아프리카에	-11.5447
▁아흐메드	-11.5447
▁안락사	-11.5447
▁안전과	-11.5447
▁안전보장이사회의	-11.5447
▁안정적인	-11.5447
▁앉아서	-11.5447
▁앉아있는	-11.5447
▁않는다며	-11.5447
▁않더라도	-11.5447
▁않습니다.”	-11.5447
▁알을	-11.5447
▁알카티리	-11.5447
▁압승을	-11.5447
▁앙리는	-11.5447
▁애완견을	-11.5447
▁애완용	-11.5447
▁애틀랜틱	-11.5447
▁얀	-11.5447
▁양육권을	-11.5447
▁언어	-11.5447
▁엄마	-11.5447
▁엄마는	-11.5447
▁엄마인	-11.5447
▁엄청나게	-11.5447
▁업체는	-11.5447
▁업체들은	-11.5447
▁업체에	-11.5447
▁없었을	-11.5447
▁엉덩이	-11.5447
▁에베레스트산	-11.5447
▁에어	-11.5447
▁엔	-11.5447
▁엔진이	-11.5447
▁엘비스	-11.5447
▁여당의	-11.5447
▁여러분은	-11.5447
▁여론조사에따르면	-11.5447
▁여론조사에서는	-11.5447
▁여명의	-11.5447
▁여성,	-11.5447
▁여자친구가	-11.5447
▁여자친구와	-11.5447
▁여자친구인	-11.5447
▁여행객들은	-11.5447
▁여행객들이	-11.5447
▁여행객이	-11.5447
▁역사에	-11.5447
▁연관되어	-11.5447
▁연구원들이	-11.5447
▁연락이	-11.5447
▁연방법원에	-11.5447
▁연방의	-11.5447
▁연장하는	-11.5447
▁열쇠를	-11.5447
▁열악한	-11.5447
▁염려하고	-11.5447
▁영상이	-11.5447
▁영향은	-11.5447
▁옆	-11.5447
▁예비선거에서	-11.5447
▁예상을	-11.5447
▁예선전을	-11.5447
▁예수	-11.5447
▁예정돼	-11.5447
▁예정됐던	-11.5447
▁예정이다”고	-11.5447
▁예정이며,	-11.5447
▁예정이었던	-11.5447
▁예측하기	-11.5447
▁예측할	-11.5447
▁옐레나	-11.5447
▁오던	-11.5447
▁오락	-11.5447
▁오리건주	-11.5447
▁오면	-11.5447
▁오페라	-11.5447
▁오하이오와	-11.5447
▁옥스포드	-11.5447
▁올드	-11.5447
▁올라간다.	-11.5447
▁올렸다고	-11.5447
▁올리며	-11.5447
▁올리버	-11.5447
▁올메르트는	-11.5447
▁완화하는	-11.5447
▁왔다”고	-11.5447
▁왔었다.	-11.5447
▁왕세자가	-11.5447
▁외곽의	-11.5447
▁외무부가	-11.5447
▁외무장관	-11.5447
▁외상은	-11.5447
▁외출을	-11.5447
▁우드	-11.5447
▁우리와	-11.5447
▁우선적으로	-11.5447
▁우울증	-11.5447
▁우주선에	-11.5447
▁우파	-11.5447
▁운전자	-11.5447
▁워싱턴과	-11.5447
▁원유를	-11.5447
▁원인이라고	-11.5447
▁원한다는	-11.5447
▁원화는	-11.5447
▁위독한	-11.5447
▁위원장을	-11.5447
▁위험성이	-11.5447
▁유권자는	-11.5447
▁유네스코	-11.5447
▁유연하게	-11.5447
▁유예	-11.5447
▁유지했다.	-11.5447
▁유튜브	-11.5447
▁유혈사태가	-11.5447
▁윤리	-11.5447
▁음란물	-11.5447
▁음료	-11.5447
▁음료를	-11.5447
▁음식이	-11.5447
▁음악에	-11.5447
▁음주운전	-11.5447
▁의도를	-11.5447
▁의미	-11.5447
▁의상	-11.5447
▁의심할	-11.5447
▁의장을	-11.5447
▁이긴	-11.5447
▁이끌던	-11.5447
▁이드리스	-11.5447
▁이라크군은	-11.5447
▁이라크서	-11.5447
▁이뤘다.	-11.5447
▁이르면	-11.5447
▁이르지	-11.5447
▁이스라엘로	-11.5447
▁이슬람교	-11.5447
▁이야기하고	-11.5447
▁이재정	-11.5447
▁이해찬	-11.5447
▁이후인	-11.5447
▁익명으로	-11.5447
▁인도가	-11.5447
▁인도인	-11.5447
▁인도적	-11.5447
▁인도주의	-11.5447
▁인명피해는	-11.5447
▁인물”이라고	-11.5447
▁인부	-11.5447
▁인사들은	-11.5447
▁인생에	-11.5447
▁인원	-11.5447
▁인천	-11.5447
▁인터넷의	-11.5447
▁인플레이션이	-11.5447
▁인형을	-11.5447
▁일과	-11.5447
▁일년	-11.5447
▁일류	-11.5447
▁일부인	-11.5447
▁일어났으며	-11.5447
▁일인당	-11.5447
▁읽을	-11.5447
▁잃었으며	-11.5447
▁임명됐다.	-11.5447
▁입법	-11.5447
▁입장에서	-11.5447
▁있는가?	-11.5447
▁잉글랜드는	-11.5447
▁자동차와	-11.5447
▁자랑스럽게	-11.5447
▁자료에서	-11.5447
▁자르다리	-11.5447
▁자바	-11.5447
▁자살로	-11.5447
▁자유롭고	-11.5447
▁자제를	-11.5447
▁자진	-11.5447
▁자파르	-11.5447
▁자회사인	-11.5447
▁작가들의	-11.5447
▁작가인	-11.5447
▁작곡가	-11.5447
▁작위를	-11.5447
▁작전에서	-11.5447
▁잔해가	-11.5447
▁잠비아	-11.5447
▁잠재적으로	-11.5447
▁잡혔다.	-11.5447
▁장군과	-11.5447
▁장비	-11.5447
▁장소가	-11.5447
▁장소인	-11.5447
▁잦은	-11.5447
▁재건축	-11.5447
▁재무장관	-11.5447
▁저지를	-11.5447
▁저지하기	-11.5447
▁저항하는	-11.5447
▁적십자사	-11.5447
▁적용되는	-11.5447
▁적합하지	-11.5447
▁전달하기	-11.5447
▁전두환	-11.5447
▁전략은	-11.5447
▁전력이	-11.5447
▁전비	-11.5447
▁전세계를	-11.5447
▁전투는	-11.5447
▁전했다”고	-11.5447
▁전후	-11.5447
▁젊은이들의	-11.5447
▁정계	-11.5447
▁정몽구	-11.5447
▁정보국	-11.5447
▁정부에서는	-11.5447
▁정전이	-11.5447
▁제거하고	-11.5447
▁제공	-11.5447
▁제라드는	-11.5447
▁제방이	-11.5447
▁제압했다.	-11.5447
▁제외하고는	-11.5447
▁제작,	-11.5447
▁제작사는	-11.5447
▁제작에	-11.5447
▁제작자들은	-11.5447
▁제작자인	-11.5447
▁조국을	-11.5447
▁조끼를	-11.5447
▁조선	-11.5447
▁조씨가	-11.5447
▁조약에	-11.5447
▁조엘	-11.5447
▁조의를	-11.5447
▁조작에	-11.5447
▁조직으로	-11.5447
▁조항을	-11.5447
▁존재를	-11.5447
▁존재하고	-11.5447
▁종식시키기	-11.5447
▁종이	-11.5447
▁좋다”고	-11.5447
▁주도인	-11.5447
▁주마	-11.5447
▁주문할	-11.5447
▁주민의	-11.5447
▁주석의	-11.5447
▁주었다고	-11.5447
▁주장할	-11.5447
▁주장합니다.	-11.5447
▁주장했으며	-11.5447
▁주제가	-11.5447
▁주차된	-11.5447
▁주택과	-11.5447
▁주택시장	-11.5447
▁주한미군의	-11.5447
▁죽었다.	-11.5447
▁줄여	-11.5447
▁줄였다.	-11.5447
▁중”이라고	-11.5447
▁중년	-11.5447
▁중년의	-11.5447
▁중동을	-11.5447
▁중동평화	-11.5447
▁중심가	-11.5447
▁중심가에	-11.5447
▁중장은	-11.5447
▁중질유(WTI)는	-11.5447
▁쥐고	-11.5447
▁즐겨	-11.5447
▁즐긴다.	-11.5447
▁증가했으며	-11.5447
▁증명하는	-11.5447
▁지가	-11.5447
▁지나는	-11.5447
▁지나면서	-11.5447
▁지도자,	-11.5447
▁지불을	-11.5447
▁지불하지	-11.5447
▁지불했다.	-11.5447
▁지붕에	-11.5447
▁지식을	-11.5447
▁지역,	-11.5447
▁지원하지	-11.5447
▁지은	-11.5447
▁지장이	-11.5447
▁지적한	-11.5447
▁지지한다는	-11.5447
▁지하에	-11.5447
▁직면하게	-11.5447
▁직원의	-11.5447
▁진정시키기	-11.5447
▁진짜	-11.5447
▁진행을	-11.5447
▁질병	-11.5447
▁질환으로	-11.5447
▁집권당	-11.5447
▁집단으로	-11.5447
▁집중적인	-11.5447
▁집행유예	-11.5447
▁짓는	-11.5447
▁징후는	-11.5447
▁차이나	-11.5447
▁차지,	-11.5447
▁차지했으며	-11.5447
▁착륙했다.	-11.5447
▁찰리	-11.5447
▁참가하고	-11.5447
▁참전	-11.5447
▁책임감을	-11.5447
▁처리를	-11.5447
▁처했다.	-11.5447
▁천명의	-11.5447
▁천안문	-11.5447
▁철회	-11.5447
▁청문회가	-11.5447
▁청원서를	-11.5447
▁체	-11.5447
▁체결한	-11.5447
▁첼시가	-11.5447
▁첼시와	-11.5447
▁촉구하며	-11.5447
▁촛불	-11.5447
▁최고령	-11.5447
▁최적의	-11.5447
▁추진한	-11.5447
▁추측하고	-11.5447
▁출두했다.	-11.5447
▁출발했다.	-11.5447
▁출생	-11.5447
▁출석해	-11.5447
▁출연을	-11.5447
▁충돌할	-11.5447
▁취임식을	-11.5447
▁취임했다.	-11.5447
▁측정하는	-11.5447
▁친구이자	-11.5447
▁친한	-11.5447
▁침공	-11.5447
▁침략을	-11.5447
▁칭했다.	-11.5447
▁카불의	-11.5447
▁카운티에	-11.5447
▁카터는	-11.5447
▁카페인이	-11.5447
▁칼리	-11.5447
▁컴퓨터,	-11.5447
▁컴퓨터로	-11.5447
▁코치는	-11.5447
▁코커스	-11.5447
▁코커스를	-11.5447
▁쿠바를	-11.5447
▁쿠즈	-11.5447
▁쿠즈넷소바는	-11.5447
▁크리스티	-11.5447
▁크리스티는	-11.5447
▁키드먼은	-11.5447
▁키우고	-11.5447
▁키우는	-11.5447
▁타밀타이거	-11.5447
▁타이완	-11.5447
▁타임즈의	-11.5447
▁터널을	-11.5447
▁테마	-11.5447
▁테이프는	-11.5447
▁테일러의	-11.5447
▁텍사스에서	-11.5447
▁토레	-11.5447
▁토튼햄은	-11.5447
▁통신사는	-11.5447
▁통합민주당은	-11.5447
▁퇴원했다.	-11.5447
▁투명한	-11.5447
▁투표로	-11.5447
▁투표했다.	-11.5447
▁특사를	-11.5447
▁티모시	-11.5447
▁파바로티가	-11.5447
▁파손되고	-11.5447
▁파키스탄,	-11.5447
▁판결문을	-11.5447
▁판매되는	-11.5447
▁팔린	-11.5447
▁패트로스	-11.5447
▁패할	-11.5447
▁팻	-11.5447
▁페라로는	-11.5447
▁펼쳐	-11.5447
▁펼쳤다”며	-11.5447
▁평화의	-11.5447
▁폐기를	-11.5447
▁폐쇄됐다.	-11.5447
▁폐쇄하기	-11.5447
▁포경을	-11.5447
▁포럼	-11.5447
▁포럼에	-11.5447
▁포로로	-11.5447
▁포셋의	-11.5447
▁포털	-11.5447
▁폭넓게	-11.5447
▁폭발했다.	-11.5447
▁폭행한	-11.5447
▁폴란드와	-11.5447
▁표결을	-11.5447
▁표시로	-11.5447
▁풀어줄	-11.5447
▁품고	-11.5447
▁품목을	-11.5447
▁프란시스	-11.5447
▁프리메라리가	-11.5447
▁플레이어	-11.5447
▁플레이오프	-11.5447
▁피닉스	-11.5447
▁피로	-11.5447
▁피아노를	-11.5447
▁피추시킨은	-11.5447
▁피해자들이	-11.5447
▁필요하며	-11.5447
▁하계	-11.5447
▁하라는	-11.5447
▁하루만에	-11.5447
▁하원의원	-11.5447
▁하원이	-11.5447
▁학위	-11.5447
▁한-미	-11.5447
▁한국은행이	-11.5447
▁한덕수	-11.5447
▁할로윈	-11.5447
▁함께한	-11.5447
▁합법적	-11.5447
▁합의했으나	-11.5447
▁합쳐	-11.5447
▁항구도시	-11.5447
▁해군과	-11.5447
▁해들리	-11.5447
▁해리슨	-11.5447
▁해명했다.	-11.5447
▁해방	-11.5447
▁해병을	-11.5447
▁해수면이	-11.5447
▁해적에	-11.5447
▁해제	-11.5447
▁해체	-11.5447
▁했으며,	-11.5447
▁했지만,	-11.5447
▁행렬이	-11.5447
▁행사의	-11.5447
▁허리케인으로	-11.5447
▁허용할	-11.5447
▁허위	-11.5447
▁헌법상	-11.5447
▁헐리우드	-11.5447
▁현금이	-11.5447
▁현재로서는	-11.5447
▁혈액	-11.5447
▁협조하고	-11.5447
▁형인	-11.5447
▁형태가	-11.5447
▁호주와	-11.5447
▁호텔의	-11.5447
▁호흡기	-11.5447
▁혼인	-11.5447
▁혼자서	-11.5447
▁홈구장인	-11.5447
▁홍석현	-11.5447
▁홍수와	-11.5447
▁화석	-11.5447
▁화성에서	-11.5447
▁화요일날	-11.5447
▁화학적	-11.5447
▁화해	-11.5447
▁확률은	-11.5447
▁확실하게	-11.5447
▁확인했으며	-11.5447
▁환경부	-11.5447
▁환호했다.	-11.5447
▁활동의	-11.5447
▁활발히	-11.5447
▁황박사의	-11.5447
▁회사로	-11.5447
▁회원이	-11.5447
▁후에야	-11.5447
▁휩싸여	-11.5447
▁휴대	-11.5447
▁흔들고	-11.5447
▁희망이	-11.5447
▁희생자를	-11.5447
▁히틀러	-11.5447
▁힐은	-11.5447
▁힘들다고	-11.5447
▁"우리	-11.64
▁"이라크	-11.64
▁'디스	-11.64
▁'얼리	-11.64
▁1/4분기	-11.64
▁1000명	-11.64
▁100년	-11.64
▁100여명의	-11.64
▁100지수는	-11.64
▁10개의	-11.64
▁10월,	-11.64
▁10일간의	-11.64
▁11명을	-11.64
▁150억	-11.64
▁15개	-11.64
▁15만	-11.64
▁16개월	-11.64
▁18세의	-11.64
▁1962년	-11.64
▁1966년	-11.64
▁1977년	-11.64
▁1978년	-11.64
▁19명이	-11.64
▁19세의	-11.64
▁1달러	-11.64
▁1대	-11.64
▁1대를	-11.64
▁1회	-11.64
▁2000년에	-11.64
▁2000명이	-11.64
▁2001년부터	-11.64
▁2005년까지	-11.64
▁2006년까지	-11.64
▁2007.03	-11.64
▁2009년에	-11.64
▁200억	-11.64
▁2014년	-11.64
▁27년	-11.64
▁2곳에서	-11.64
▁2인자인	-11.64
▁3000명	-11.64
▁35세의	-11.64
▁3개월간	-11.64
▁3일부터	-11.64
▁3차례에	-11.64
▁400명이	-11.64
▁40대	-11.64
▁40만	-11.64
▁50	-11.64
▁500	-11.64
▁500만	-11.64
▁500명이	-11.64
▁5년이	-11.64
▁5일부터	-11.64
▁6개의	-11.64
▁8번	-11.64
▁8살	-11.64
▁90%가	-11.64
▁9개의	-11.64
▁BMW	-11.64
▁Ban	-11.64
▁B조	-11.64
▁C.	-11.64
▁CIA가	-11.64
▁CIA의	-11.64
▁Disease	-11.64
▁ETA는	-11.64
▁F.	-11.64
▁FRB가	-11.64
▁France	-11.64
▁G20	-11.64
▁Hong	-11.64
▁IMF	-11.64
▁Illinois	-11.64
▁Korea,	-11.64
▁MDC	-11.64
▁NK’s	-11.64
▁Red	-11.64
▁Spain	-11.64
▁Supreme	-11.64
▁Taliban	-11.64
▁UK	-11.64
▁USB	-11.64
▁WHO	-11.64
▁White	-11.64
▁ahead	-11.64
▁candidate	-11.64
▁claim	-11.64
▁had	-11.64
▁home	-11.64
▁investigation	-11.64
▁market	-11.64
▁party	-11.64
▁protest	-11.64
▁return	-11.64
▁workers	-11.64
▁world	-11.64
▁~에	-11.64
▁̋코리아	-11.64
▁‘창어	-11.64
▁“다이애나가	-11.64
▁“당신은	-11.64
▁“또한	-11.64
▁“미국인들은	-11.64
▁“미군	-11.64
▁“북한	-11.64
▁“심각한	-11.64
▁“아프간	-11.64
▁“유엔	-11.64
▁“이스라엘은	-11.64
▁“이슬람	-11.64
▁“중국의	-11.64
▁가구에	-11.64
▁가능할	-11.64
▁가르시아	-11.64
▁가르치고	-11.64
▁가린	-11.64
▁가석방	-11.64
▁가스로	-11.64
▁가자시티	-11.64
▁가즈니주	-11.64
▁가지게	-11.64
▁간첩	-11.64
▁갈등이	-11.64
▁감당할	-11.64
▁감독에게	-11.64
▁감독한	-11.64
▁감소는	-11.64
▁감행할	-11.64
▁강도가	-11.64
▁강연에서	-11.64
▁강을	-11.64
▁개들은	-11.64
▁개발하는	-11.64
▁개시했다.	-11.64
▁개인용	-11.64
▁개체	-11.64
▁개최한	-11.64
▁개편을	-11.64
▁개헌안을	-11.64
▁객실에서	-11.64
▁거기에	-11.64
▁거둘	-11.64
▁거래된	-11.64
▁거리는	-11.64
▁거세지고	-11.64
▁거액의	-11.64
▁걱정을	-11.64
▁걸려있다.	-11.64
▁걸어서	-11.64
▁검찰,	-11.64
▁것보다는	-11.64
▁것에서	-11.64
▁것이다”	-11.64
▁게임인	-11.64
▁격리	-11.64
▁결과라고	-11.64
▁결론지었다.	-11.64
▁결백을	-11.64
▁결승골로	-11.64
▁결정에따라	-11.64
▁결정해야	-11.64
▁결혼식이	-11.64
▁결혼은	-11.64
▁결혼해	-11.64
▁경고문을	-11.64
▁경고하는	-11.64
▁경기부양책에	-11.64
▁경기장을	-11.64
▁경력	-11.64
▁경비대는	-11.64
▁경비원이	-11.64
▁경상을	-11.64
▁경영진과	-11.64
▁경쟁에	-11.64
▁경제성장률이	-11.64
▁경찰관들이	-11.64
▁경험	-11.64
▁계좌를	-11.64
▁계획에따라	-11.64
▁계획했다고	-11.64
▁고(故)	-11.64
▁고래의	-11.64
▁고작	-11.64
▁고향	-11.64
▁곤잘레스는	-11.64
▁공개를	-11.64
▁공개해야	-11.64
▁공격했다고	-11.64
▁공동성명을	-11.64
▁공동의	-11.64
▁공무원	-11.64
▁공사를	-11.64
▁공습은	-11.64
▁공안은	-11.64
▁공유하는	-11.64
▁공포에	-11.64
▁과거를	-11.64
▁과격한	-11.64
▁과다	-11.64
▁과정	-11.64
▁과학자가	-11.64
▁관리자인	-11.64
▁관방장관은	-11.64
▁관여하고	-11.64
▁관장은	-11.64
▁광고가	-11.64
▁광고는	-11.64
▁광산에서	-11.64
▁교사를	-11.64
▁교사인	-11.64
▁교육에	-11.64
▁교전에서	-11.64
▁교체됐다.	-11.64
▁교통부	-11.64
▁교회가	-11.64
▁구류	-11.64
▁구소련	-11.64
▁구속영장을	-11.64
▁구속했다.	-11.64
▁구역에서	-11.64
▁구조조정을	-11.64
▁구하고	-11.64
▁구형	-11.64
▁국립공원의	-11.64
▁국민들과	-11.64
▁국방부에서	-11.64
▁국방성의	-11.64
▁국왕	-11.64
▁국왕과	-11.64
▁국제공항에	-11.64
▁국제사회에	-11.64
▁국회의사당	-11.64
▁군대의	-11.64
▁군에서	-11.64
▁군용	-11.64
▁군인과	-11.64
▁군인들의	-11.64
▁군함이	-11.64
▁권리와	-11.64
▁귀국을	-11.64
▁그녀	-11.64
▁그다지	-11.64
▁그룹으로	-11.64
▁그룹을	-11.64
▁그릇된	-11.64
▁그린피스는	-11.64
▁그중에는	-11.64
▁극단적인	-11.64
▁근로자들을	-11.64
▁근육	-11.64
▁금요일,	-11.64
▁금융시장	-11.64
▁급등으로	-11.64
▁급증했다.	-11.64
▁급진	-11.64
▁기간은	-11.64
▁기관을	-11.64
▁기구가	-11.64
▁기내에서	-11.64
▁기능	-11.64
▁기능이	-11.64
▁기다렸다.	-11.64
▁기를	-11.64
▁기름을	-11.64
▁기반이	-11.64
▁기억하고	-11.64
▁기억하지	-11.64
▁기자실을	-11.64
▁기자회견에	-11.64
▁기조	-11.64
▁기증	-11.64
▁기후변화	-11.64
▁길고	-11.64
▁깨끗이	-11.64
▁깨달았다.	-11.64
▁꺼내	-11.64
▁끝	-11.64
▁끝났다고	-11.64
▁끝에,	-11.64
▁나가야	-11.64
▁나누는	-11.64
▁나누어	-11.64
▁나눠	-11.64
▁나뉘어	-11.64
▁나라로	-11.64
▁나면	-11.64
▁나무가	-11.64
▁나무에	-11.64
▁나오자	-11.64
▁나을	-11.64
▁나이지리아에서	-11.64
▁나이지리아의	-11.64
▁나지	-11.64
▁나토가	-11.64
▁낙하산	-11.64
▁난관에	-11.64
▁난민촌을	-11.64
▁날개가	-11.64
▁날려	-11.64
▁남극에서	-11.64
▁남동부에	-11.64
▁남북간	-11.64
▁남성들이	-11.64
▁남자친구인	-11.64
▁났다고	-11.64
▁낮아질	-11.64
▁내년부터	-11.64
▁내려질	-11.64
▁내렸으며	-11.64
▁내용으로	-11.64
▁내용입니다.	-11.64
▁내주며	-11.64
▁냉전	-11.64
▁넘은	-11.64
▁넘지	-11.64
▁넘치는	-11.64
▁넣는	-11.64
▁노는	-11.64
▁노동부	-11.64
▁노동자들에게	-11.64
▁노력했다.	-11.64
▁논쟁으로	-11.64
▁놀랐다”고	-11.64
▁농장	-11.64
▁농촌	-11.64
▁높아져	-11.64
▁높아질	-11.64
▁놓을	-11.64
▁뇌가	-11.64
▁눈보라가	-11.64
▁뉴저지,	-11.64
▁뉴질랜드에서	-11.64
▁느낀	-11.64
▁느낀다”고	-11.64
▁늘어나는	-11.64
▁다녔다.	-11.64
▁다수가	-11.64
▁다수를	-11.64
▁다큐멘터리를	-11.64
▁다툼을	-11.64
▁단계는	-11.64
▁단속에	-11.64
▁단체,	-11.64
▁단체에서	-11.64
▁달라이라마의	-11.64
▁달리던	-11.64
▁달성했다.	-11.64
▁달이	-11.64
▁담당한	-11.64
▁당수가	-11.64
▁당연한	-11.64
▁당할	-11.64
▁당했다는	-11.64
▁대국민	-11.64
▁대니	-11.64
▁대답한	-11.64
▁대대적으로	-11.64
▁대도시	-11.64
▁대량으로	-11.64
▁대립이	-11.64
▁대비한	-11.64
▁대사관의	-11.64
▁대상에	-11.64
▁대신,	-11.64
▁대위는	-11.64
▁대통령직	-11.64
▁대표단	-11.64
▁대표단을	-11.64
▁대표팀은	-11.64
▁대피령이	-11.64
▁더글라스	-11.64
▁던질	-11.64
▁데이비드에서	-11.64
▁도달하지	-11.64
▁도보로	-11.64
▁도시가	-11.64
▁도와줄	-11.64
▁도움	-11.64
▁도입된	-11.64
▁도착하기	-11.64
▁독일이	-11.64
▁돈은	-11.64
▁돌고래를	-11.64
▁돌로	-11.64
[...]
