<unk>	0
<s>	0
</s>	0
.	-3.32425
을	-3.76437
▁	-3.82617
의	-3.8616
를	-4.21211
는	-4.27519
에	-4.38281
이	-4.41393
가	-4.45009
은	-4.49689
,	-4.53396
고	-4.60163
에서	-5.12671
▁“	-5.15696
로	-5.18146
”	-5.2015
한	-5.23908
인	-5.34203
일	-5.34893
)	-5.36704
(	-5.3993
▁이	-5.49702
과	-5.51284
▁있다	-5.5561
으로	-5.57945
와	-5.60885
▁수	-5.71645
도	-5.76982
▁밝혔다	-5.78566
▁말했다	-5.80522
할	-5.82324
년	-5.90881
지	-5.92583
▁있는	-5.98814
며	-6.09205
▁그	-6.12464
하고	-6.13233
다	-6.1339
하는	-6.15459
했다	-6.17371
▁그는	-6.1962
▁전	-6.20808
▁2	-6.21797
▁1	-6.27581
▁대한	-6.29065
▁위해	-6.3091
만	-6.34765
월	-6.37081
▁전했다	-6.37459
▁한	-6.38524
▁미국	-6.43098
해	-6.43493
▁이번	-6.44834
▁3	-6.4543
기	-6.4629
▁지난	-6.47341
현지시간	-6.48336
▁중	-6.55485
▁대해	-6.5641
자	-6.57004
"	-6.59185
된	-6.6046
▁미	-6.60641
▁것으로	-6.63485
▁‘	-6.64446
에게	-6.65521
스	-6.65982
▁것이라고	-6.69113
명이	-6.69585
▁"	-6.7015
▁것	-6.70242
이라고	-6.7219
▁있다고	-6.75601
▁것을	-6.78878
s	-6.81017
▁4	-6.82079
나	-6.82492
’	-6.84062
▁6	-6.8653
▁이라크	-6.87909
시	-6.88912
▁그러나	-6.89158
리	-6.89379
▁5	-6.89411
게	-6.9112
▁더	-6.91894
▁다른	-6.93373
히	-6.94157
들이	-6.99458
▁대통령	-6.99632
하게	-7.00442
▁중국	-7.01573
운	-7.02349
▁한편	-7.02382
하기	-7.03835
라	-7.04956
▁10	-7.05051
라고	-7.05862
▁북한	-7.08158
하지	-7.09807
던	-7.09811
명의	-7.11291
▁후	-7.12116
▁주	-7.14395
적인	-7.14847
대	-7.15596
▁이후	-7.18382
주	-7.18603
어	-7.19166
▁통해	-7.20203
사	-7.20583
-	-7.20748
▁정부	-7.21072
▁많은	-7.21131
들은	-7.21428
▁또	-7.21545
▁위한	-7.22058
▁대통령은	-7.22541
서	-7.23193
▁두	-7.24051
▁부시	-7.24315
▁영국	-7.25014
명	-7.25855
▁8	-7.27349
▁가장	-7.27622
▁동안	-7.27821
드	-7.28378
▁내	-7.29145
▁같은	-7.29175
▁것이다	-7.29261
▁7	-7.30304
▁대변인은	-7.30742
▁바	-7.31483
세	-7.31551
▁한국	-7.33634
트	-7.34559
▁등	-7.34983
까지	-7.36299
될	-7.37204
▁주장했다	-7.39951
이다	-7.40971
▁알	-7.41547
수	-7.42861
▁될	-7.43086
▁약	-7.43337
▁것은	-7.43714
▁한다	-7.44048
▁세계	-7.44347
▁할	-7.45401
▁또한	-7.45525
▁때	-7.4637
아	-7.46723
개	-7.47104
▁현재	-7.47314
비	-7.47667
됐다	-7.48901
했다고	-7.49031
적	-7.4943
르	-7.49711
▁12	-7.49879
▁경우	-7.50044
▁보도했다	-7.50106
▁이상	-7.50786
▁덧붙였다	-7.51247
▁관련	-7.51505
▁있었다	-7.52066
▁않았다	-7.52074
및	-7.5238
▁9	-7.52414
성	-7.52806
▁문제	-7.53311
▁최근	-7.53429
▁오바마	-7.53628
▁했다	-7.54051
했으며	-7.5448
하며	-7.54786
▁영화	-7.548
야	-7.56384
▁일	-7.5675
e	-7.56801
니	-7.57756
했던	-7.5805
에는	-7.58715
면	-7.58825
들을	-7.59171
▁자신의	-7.59626
부	-7.60631
▁뒤	-7.61306
'	-7.62027
▁함께	-7.62639
▁것이	-7.6277
▁11	-7.62894
▁일부	-7.63433
▁새로	-7.64046
▁'	-7.64397
미	-7.64603
크	-7.64787
▁당시	-7.64936
▁경제	-7.65099
▁20	-7.65111
상	-7.66972
▁모든	-7.67326
▁그리고	-7.67543
▁일본	-7.68249
진	-7.68523
▁때문에	-7.69181
전	-7.69326
소	-7.69352
▁말	-7.6983
▁예정이다	-7.71624
▁수도	-7.71778
▁19	-7.719
▁없다	-7.72391
치	-7.72601
▁조사	-7.72663
▁있습니다	-7.73529
▁설명했다	-7.73677
▁지	-7.74178
▁제	-7.74462
▁몇	-7.74561
선	-7.75039
▁있으며	-7.75686
해야	-7.76263
보	-7.76769
▁경찰은	-7.76931
원	-7.77022
▁비	-7.77217
▁모두	-7.77291
▁아	-7.77393
차	-7.78675
▁미군	-7.79054
마	-7.79464
▁정부는	-7.80253
▁파키스탄	-7.8051
에서는	-7.80924
한다	-7.80982
▁프랑스	-7.81042
▁유엔	-7.81064
분	-7.81232
보다	-7.81567
억	-7.81955
▁국가	-7.81975
▁계속	-7.81978
당	-7.82075
약	-7.82495
▁큰	-7.82554
▁공격	-7.82932
파	-7.83011
▁마	-7.84558
▁30	-7.84686
하다	-7.84728
▁시	-7.84915
▁사	-7.84969
▁하는	-7.85039
화	-7.855
▁계획	-7.85694
▁이들	-7.86356
▁러시아	-7.86371
▁지난해	-7.87007
▁이스라엘	-7.8732
장	-7.8734
적으로	-7.87986
타	-7.88548
▁경찰	-7.88799
▁민주당	-7.88865
▁사고	-7.88969
▁(	-7.89356
명을	-7.89358
▁열린	-7.89412
▁나	-7.89836
▁오	-7.90332
▁대통령이	-7.90333
▁않을	-7.90366
▁지역	-7.90821
들	-7.91755
▁올해	-7.92245
여	-7.92558
제	-7.93283
용	-7.93936
오	-7.94015
하	-7.94086
2	-7.94119
▁이날	-7.94254
프	-7.94599
▁총리는	-7.94619
▁우리	-7.9491
그	-7.95025
▁the	-7.9508
바	-7.95752
▁반	-7.95983
▁발표했다	-7.96012
▁경기	-7.96125
▁핵	-7.96177
▁클린턴	-7.9656
▁발생한	-7.96703
즈	-7.96872
▁지원	-7.97141
정	-7.97179
▁15	-7.97375
했습니다	-7.97456
신	-7.97964
▁받고	-7.98529
티	-7.98966
▁후보	-7.99288
d	-7.99684
▁테러	-8.00139
라는	-8.00648
조	-8.01145
간	-8.01885
에따르면	-8.01976
▁부	-8.02046
▁하고	-8.02304
▁해	-8.0246
▁결과	-8.02646
▁있을	-8.02815
▁거	-8.03521
디	-8.03818
었다	-8.0387
▁가운데	-8.04138
우	-8.04282
레	-8.04617
▁미국의	-8.04993
위	-8.05008
▁달러	-8.05111
▁안	-8.05291
▁존	-8.05314
▁16	-8.05553
시간	-8.05583
▁데	-8.05725
▁to	-8.06199
내	-8.06274
이나	-8.06549
m	-8.06607
▁달	-8.07019
▁군	-8.07835
▁의해	-8.07874
▁여성	-8.07987
▁이란	-8.08056
▁다	-8.08088
▁된다	-8.08307
▁선거	-8.08412
▁국제	-8.08486
부터	-8.08486
▁회담	-8.08497
▁대	-8.08566
▁사건	-8.0874
으며	-8.08811
▁주요	-8.09015
▁사람들이	-8.09318
▁정부가	-8.0948
카	-8.09602
▁에	-8.09619
1	-8.09999
▁18	-8.10013
▁다시	-8.10715
▁연구	-8.10821
)’	-8.10897
면서	-8.11193
▁인해	-8.11382
▁보고	-8.11478
▁관계	-8.11609
▁됐다	-8.11733
산	-8.11772
에도	-8.11805
▁세	-8.12202
입니다	-8.12466
▁발표	-8.12504
▁않은	-8.13295
▁총리	-8.13743
길	-8.13855
▁of	-8.14197
토	-8.14229
▁초	-8.14422
질	-8.14658
러	-8.1471
▁보	-8.15109
.”	-8.1513
▁13	-8.15265
노	-8.15715
▁첫	-8.15848
▁혐의로	-8.15966
▁결정	-8.16208
▁시간	-8.16214
하면서	-8.16608
▁무	-8.16621
S	-8.16675
▁총	-8.16927
려	-8.17122
▁있다는	-8.17362
계	-8.17393
▁채	-8.17424
▁정	-8.17426
되는	-8.17715
y	-8.1804
코	-8.18753
모	-8.18798
린	-8.19253
▁조	-8.19269
▁노	-8.19457
▁불	-8.19537
▁조치	-8.19717
되어	-8.19776
▁이미	-8.20261
▁프로그램	-8.20499
▁시위	-8.20862
들의	-8.21262
▁14	-8.21466
▁위치한	-8.21581
▁받았다	-8.21606
km	-8.2166
▁기	-8.2199
구	-8.22044
▁우려	-8.22731
▁강	-8.22892
▁팔레스타인	-8.23221
국	-8.23335
호	-8.23335
▁아프간	-8.23374
▁줄	-8.23398
번	-8.23519
브	-8.2354
▁인도	-8.23665
a	-8.23711
▁없는	-8.2396
식	-8.2409
지만	-8.24179
▁방문	-8.24326
돼	-8.2441
▁성	-8.25077
▁승리	-8.25267
권	-8.25295
하여	-8.25351
▁차	-8.25603
▁아직	-8.25796
▁TV	-8.25954
▁유	-8.26373
▁감독	-8.26987
▁피해	-8.27004
▁파	-8.27325
▁모	-8.27327
이라며	-8.27359
▁추가	-8.27628
▁사실을	-8.28133
로부터	-8.28725
▁25	-8.28941
▁하	-8.29194
단	-8.29231
▁혐의	-8.29547
▁관계자는	-8.29653
▁뉴욕	-8.29949
▁않고	-8.30118
▁간	-8.30349
관	-8.30555
▁유럽	-8.30616
루	-8.31081
/	-8.31096
▁독일	-8.31304
▁회사	-8.31376
▁한다고	-8.31537
▁지적했다	-8.31653
▁''	-8.31711
더	-8.31818
▁최고	-8.32081
▁대선	-8.32299
▁지지	-8.32303
▁17	-8.32368
▁피	-8.32403
습니다	-8.32528
▁지금	-8.3254
달러	-8.32598
▁W	-8.32867
되고	-8.32972
▁잘	-8.33036
▁포함	-8.33189
▁기록	-8.33455
▁구	-8.33464
▁활동	-8.3351
▁아이	-8.33594
A	-8.33622
▁명의	-8.33642
▁신	-8.33705
▁협상	-8.33862
년간	-8.33878
▁조지	-8.33917
▁매우	-8.34063
▁자	-8.34064
▁소속	-8.34105
▁카	-8.3442
▁원	-8.34537
▁재	-8.34552
▁내용	-8.34944
▁시장	-8.35074
▁올림픽	-8.35075
살	-8.35146
▁이슬람	-8.35271
▁당국은	-8.35285
물	-8.35437
실	-8.35444
▁관리	-8.35508
▁탈레반	-8.36113
▁대부분	-8.36209
직	-8.36455
난	-8.36531
▁매케인	-8.36711
든	-8.36986
중	-8.3709
동	-8.37282
▁in	-8.37284
▁호주	-8.37291
개월	-8.37375
ing	-8.37634
▁없다고	-8.37894
▁차량	-8.38186
▁대학	-8.3838
▁타	-8.38465
법	-8.38832
▁이는	-8.38843
▁받은	-8.38844
였다	-8.38909
▁예정	-8.38934
▁못했다	-8.39204
체	-8.39289
처럼	-8.39358
▁않는다	-8.39364
점	-8.39416
▁상원의원	-8.39679
▁인터넷	-8.39962
안	-8.40381
회	-8.4053
▁사람	-8.40536
▁이에	-8.40718
3	-8.40824
ed	-8.41041
▁비난	-8.4132
공	-8.41406
되지	-8.41607
?	-8.41685
▁2006	-8.41923
▁많	-8.42052
5	-8.42192
▁어떤	-8.42237
▁24	-8.42288
▁주장	-8.42423
▁오늘	-8.42662
▁부상	-8.42695
o	-8.4278
▁시작	-8.4289
▁여러	-8.42897
▁하지	-8.42926
▁판매	-8.43059
력	-8.43219
▁새	-8.433
▁하지만	-8.43438
▁폭탄	-8.43481
▁사망	-8.44078
▁100	-8.44181
▁있던	-8.4436
▁공	-8.44429
▁물	-8.44445
▁오후	-8.44674
▁21	-8.44855
▁석방	-8.44886
무	-8.45089
▁50	-8.45201
유	-8.45464
▁입장	-8.45513
발	-8.45795
▁생각	-8.45797
▁A	-8.45866
▁전쟁	-8.46068
▁당	-8.46204
명은	-8.46497
▁매	-8.46649
▁양	-8.46822
▁검찰	-8.4703
재	-8.47054
▁방송	-8.47276
▁상	-8.47304
종	-8.47469
경	-8.4759
▁도	-8.4761
▁날	-8.47765
터	-8.47801
▁미얀마	-8.47924
▁27	-8.47931
▁기자	-8.48231
형	-8.4839
되었다	-8.48429
릴	-8.4844
반	-8.48441
▁배	-8.48611
임	-8.48741
들에게	-8.48856
▁정책	-8.48952
피	-8.49273
▁있어	-8.49455
하는데	-8.4949
▁해결	-8.49701
이며	-8.49762
▁리	-8.49798
데	-8.49814
▁자동차	-8.49845
개의	-8.49921
▁23	-8.50049
▁된	-8.50272
▁반대	-8.50493
▁인터뷰에서	-8.50591
▁준비	-8.50596
▁소	-8.5063
이었다	-8.5073
▁병원	-8.50798
▁22	-8.50852
▁우주	-8.5103
▁라	-8.51135
▁김	-8.5133
▁컴퓨터	-8.51331
▁발	-8.51354
▁강조했다	-8.51566
▁것에	-8.51849
▁이러	-8.51905
했지만	-8.51906
▁갖고	-8.51943
했고	-8.51957
▁노력	-8.52005
▁스	-8.52092
포	-8.52124
▁그들은	-8.52162
▁개발	-8.52267
감	-8.52269
▁기술	-8.52653
▁공화당	-8.52655
▁점	-8.52704
▁도시	-8.52873
i	-8.52948
▁합의	-8.53032
들과	-8.53224
▁S	-8.53327
▁개	-8.53385
▁앞서	-8.53474
▁산	-8.53497
▁떨어진	-8.53555
석	-8.54004
▁원문기사보기	-8.54146
▁있도록	-8.54149
▁오전	-8.54269
▁대표	-8.54316
▁서	-8.54362
▁사이	-8.54541
▁발생	-8.549
▁마지막	-8.54945
▁남부	-8.55109
t	-8.55367
▁비난했다	-8.5542
▁투표	-8.55443
▁이어	-8.5568
▁북한이	-8.55906
:	-8.56109
▁터키	-8.5612
키	-8.56264
온	-8.56327
▁안전	-8.56422
▁가진	-8.56466
▁폭발	-8.56545
▁경찰이	-8.5673
▁증가	-8.56769
연	-8.56822
▁오는	-8.56869
▁변화	-8.56938
에따라	-8.56975
하기로	-8.5709
▁2005	-8.57525
심	-8.57549
했으나	-8.58036
▁미국과	-8.58174
▁의사	-8.58202
▁볼	-8.583
네	-8.58443
7	-8.58464
▁장관은	-8.58507
c	-8.58556
▁이를	-8.58822
▁인근	-8.59058
▁외	-8.59078
▁자신이	-8.59219
▁처음으로	-8.59248
▁상황	-8.59274
▁그녀	-8.59444
방	-8.59547
버	-8.59707
▁처음	-8.59967
거	-8.60073
al	-8.60099
▁그녀는	-8.60166
C	-8.60266
이라는	-8.60289
문	-8.60324
▁위협	-8.60417
▁규모	-8.60449
했었다	-8.60473
▁사용	-8.60486
▁생산	-8.60638
▁남자	-8.60729
▁버락	-8.60766
▁성명	-8.60879
으로부터	-8.60976
▁지난달	-8.61018
▁반군	-8.61158
군	-8.61182
▁아시아	-8.61201
▁치료	-8.61251
P	-8.61262
▁없었다	-8.61309
▁여행	-8.61427
▁26	-8.61464
▁선	-8.61465
▁힐러리	-8.61528
▁이탈리아	-8.6174
학	-8.61872
▁40	-8.61912
▁최소	-8.61982
▁지역에서	-8.62155
▁코	-8.62274
▁금융	-8.62452
▁정치	-8.62604
거나	-8.6262
▁연방	-8.62815
▁앞으로	-8.62855
▁CNN	-8.62969
▁있지만	-8.63124
▁a	-8.63128
▁영향	-8.63238
하도록	-8.63476
▁야당	-8.63505
▁열	-8.63548
▁없이	-8.63568
6	-8.63654
▁보인다	-8.63925
▁보도	-8.64179
▁관한	-8.64285
위원회	-8.64362
▁̋	-8.64372
▁사망했다	-8.64453
지는	-8.64511
▁장	-8.64837
▁다음	-8.65391
▁불법	-8.65487
▁실	-8.65571
와의	-8.65606
n	-8.65613
▁이용	-8.65636
▁스페인	-8.65644
교	-8.65799
요	-8.66074
▁중단	-8.66198
▁않다	-8.66272
▁사망자	-8.66307
▁만에	-8.66426
▁좋은	-8.66549
▁의회	-8.6657
▁살해	-8.666
됐다고	-8.66634
▁미국이	-8.66807
강	-8.66843
배	-8.66934
▁29	-8.67059
▁사람들	-8.67068
▁이름	-8.67165
츠	-8.6719
스트	-8.67238
▁현지	-8.6733
er	-8.67416
▁가격	-8.67431
번째	-8.67625
_	-8.67654
E	-8.67955
된다	-8.68121
▁당국	-8.68158
▁발견	-8.68259
▁상태	-8.68471
▁은행	-8.6857
▁공식	-8.68771
우리는	-8.68917
란	-8.6895
▁사태	-8.69201
▁런던	-8.69314
N	-8.69341
▁행사	-8.69385
▁언론	-8.6946
▁미사일	-8.69477
▁가능성	-8.69483
▁팀	-8.69484
는데	-8.6962
▁밤	-8.69788
▁사람들은	-8.69918
▁평화	-8.70036
▁28	-8.70245
▁거래	-8.70283
▁어	-8.7043
건	-8.70437
론	-8.70606
▁무기	-8.70739
article	-8.7076
▁백악관	-8.70835
▁적	-8.70971
▁이들은	-8.71005
▁주둔	-8.71007
▁알려졌다	-8.71354
M	-8.71541
날	-8.71692
▁자신	-8.71932
천	-8.72056
▁AP	-8.72077
▁논의	-8.72132
▁벌이	-8.72574
▁심	-8.72879
▁불구하고	-8.73116
▁중요한	-8.73286
▁연기	-8.73331
▁오바마는	-8.73604
됐으며	-8.73616
u	-8.7365
▁집	-8.73787
▁발언	-8.74067
▁말했습니다	-8.74068
▁바그다드	-8.74246
▁이전	-8.74348
▁발생했다	-8.74448
▁박사는	-8.74458
p	-8.74604
▁명	-8.74622
▁대통령과	-8.74627
▁사망한	-8.74757
▁게임	-8.74846
두	-8.74933
▁필요	-8.74989
병	-8.75032
행	-8.75309
▁우	-8.75387
▁것입니다	-8.75393
청	-8.75502
▁지구	-8.75598
▁자금	-8.75726
▁용의자	-8.75803
▁B	-8.75825
▁이런	-8.75977
급	-8.75985
▁정도	-8.75988
▁미국은	-8.76068
▁역할	-8.76167
▁반면	-8.76484
▁돈	-8.76567
▁조직	-8.76572
너	-8.76586
I	-8.76627
▁관심	-8.76657
▁올	-8.76941
▁법원	-8.77001
▁코리아	-8.77092
▁2008	-8.77444
▁비행기	-8.77541
▁공동	-8.77623
▁투자	-8.77663
▁인질	-8.77756
▁역사	-8.77799
▁이야기	-8.77907
▁상승	-8.78178
D	-8.78256
▁학교	-8.78358
’’	-8.78386
and	-8.78493
▁공급	-8.78514
T	-8.78593
▁최대	-8.78665
▁법	-8.78819
▁동	-8.78955
▁포	-8.78997
▁무샤라프	-8.79108
저	-8.79313
▁보안	-8.79317
▁북부	-8.79426
▁고위	-8.79487
▁보다	-8.79645
울	-8.79657
▁회장	-8.79697
▁사망했다고	-8.79765
장은	-8.79918
▁치	-8.79946
▁서비스	-8.80073
2005.08	-8.80129
▁방	-8.80193
▁메	-8.80293
F	-8.80379
▁살	-8.80574
▁위험	-8.80591
마리	-8.80626
▁정치적	-8.80658
설	-8.80876
래	-8.80943
워	-8.80972
▁의하면	-8.81073
▁단체	-8.81141
▁입	-8.81152
▁알카에다	-8.81156
▁자신들	-8.81247
▁앞	-8.81264
▁모습을	-8.81268
▁2005.08	-8.81296
금	-8.81371
▁건물	-8.81399
포인트	-8.81418
CNN	-8.81426
▁워싱턴	-8.81558
▁의원	-8.81582
▁지도자	-8.8164
▁부족	-8.81675
▁충돌	-8.81785
▁수사	-8.81811
▁발사	-8.8189
▁위	-8.81894
▁군사	-8.81952
시킬	-8.82057
▁것이라는	-8.82155
▁건강	-8.82172
▁자살	-8.82348
▁요구	-8.82373
친	-8.82401
▁행위	-8.82404
하면	-8.8245
▁공항	-8.82471
▁우승	-8.82665
▁출신	-8.8267
▁감소	-8.82686
▁여	-8.82865
▁가능성이	-8.82876
▁높은	-8.82955
▁더욱	-8.82961
▁지난주	-8.83126
▁왔다	-8.83167
기를	-8.8322
▁뜻	-8.83297
류	-8.83398
4	-8.83428
▁국경	-8.83597
▁인용	-8.83604
▁행동	-8.83751
팀	-8.83874
▁전에	-8.83891
후	-8.83946
r	-8.84035
’(	-8.8407
▁막	-8.84326
슨	-8.84338
▁성명에서	-8.84358
▁뉴스	-8.84387
▁서울	-8.8457
작	-8.84598
▁하마스	-8.84731
하자	-8.84783
▁&	-8.84804
▁지역에	-8.84983
세의	-8.85321
간의	-8.85481
▁말을	-8.85655
▁보호	-8.85687
만달러	-8.85709
▁N	-8.85792
판	-8.85845
▁힘	-8.85888
▁하나	-8.86043
▁가족	-8.8605
▁이와	-8.86143
한다고	-8.86191
속	-8.86264
▁아니다	-8.86327
B	-8.86331
▁것이며	-8.8656
▁인쇄	-8.86585
▁레	-8.86658
▁검사	-8.86729
▁알고	-8.86855
▁2004	-8.86942
이번	-8.86992
▁총리가	-8.87006
초	-8.87074
▁for	-8.87075
▁호	-8.87269
▁않는	-8.87329
▁분	-8.87427
▁길	-8.87446
▁독립	-8.87594
▁부토	-8.87604
ar	-8.87622
▁전화	-8.87929
민	-8.88135
였던	-8.88252
양	-8.88293
▁캘리포니아	-8.88322
▁석유	-8.88408
▁폭탄테러	-8.88413
▁않았다고	-8.88451
h	-8.88513
하겠다고	-8.88523
▁나라	-8.88746
▁병력	-8.88767
▁철수	-8.89007
%	-8.89286
▁시신	-8.89415
▁기간	-8.8951
▁기자회견에서	-8.8956
▁F	-8.89656
▁어제	-8.89714
▁핵무기	-8.89715
▁되는	-8.89759
▁H	-8.89793
▁에서	-8.89857
▁직접	-8.90093
도록	-8.90153
▁하루	-8.90211
하던	-8.90395
▁금지	-8.90575
▁필요한	-8.90622
▁폐쇄	-8.90633
▁아침	-8.9072
▁라이스	-8.90884
▁관련된	-8.90898
층	-8.90903
미국	-8.90914
▁아니라	-8.90941
▁체포	-8.91197
증	-8.912
▁곳	-8.91232
▁각	-8.91248
▁여부	-8.91272
통	-8.91285
▁동영상	-8.91332
설명	-8.91444
▁회의	-8.91486
억원	-8.91546
▁확보	-8.91677
▁손	-8.91679
스는	-8.91735
▁문	-8.91749
해서	-8.91751
▁증거	-8.91776
▁국방부	-8.91784
▁방법	-8.91849
▁아들	-8.92042
▁재개	-8.9209
▁베이징	-8.92153
▁우리는	-8.92166
▁들	-8.9219
▁사람이	-8.92479
▁시도	-8.92736
“	-8.92819
JO	-8.92834
년에	-8.9286
an	-8.92911
▁사르코지	-8.92941
년대	-8.93018
긴	-8.93151
▁요청	-8.93163
▁C	-8.93164
차례	-8.93178
▁타고	-8.93182
▁경	-8.93216
g	-8.93218
▁정보	-8.93411
▁주택	-8.93448
▁협력	-8.93545
O	-8.93784
▁아버지	-8.93786
▁위기	-8.9387
▁있고	-8.93881
▁정상	-8.93882
INS	-8.93907
그러나	-8.93933
▁받을	-8.94021
G	-8.94044
▁작전	-8.94119
▁골	-8.94217
색	-8.94221
▁원문	-8.94303
▁티베트	-8.9444
함	-8.94509
년까지	-8.94788
▁노무현	-8.95065
▁콜롬비아	-8.95122
▁결국	-8.95176
▁생활	-8.95204
▁상원	-8.95248
인한	-8.9529
품	-8.9534
R	-8.95458
▁폴	-8.95566
▁건설	-8.95635
▁납치	-8.95762
▁역시	-8.95773
▁번째	-8.95798
▁딸	-8.95817
졌다	-8.95837
en	-8.95893
▁신문	-8.95983
출	-8.96146
▁사진	-8.96236
▁비행	-8.96418
▁확인	-8.96448
▁하락	-8.96467
▁아이들	-8.96506
하려	-8.96643
다고	-8.96725
▁보내	-8.96825
▁애	-8.9706
▁드	-8.97109
▁열리는	-8.97132
▁2003	-8.97236
▁곧	-8.97285
▁공개	-8.97336
▁사회	-8.97363
▁이유로	-8.97373
▁진행	-8.97429
▁기업	-8.97502
예	-8.97561
▁제안	-8.97642
▁숨졌다	-8.97662
▁60	-8.97906
▁페	-8.97908
▁수준	-8.97963
▁사건에	-8.98015
▁친구	-8.9818
▁언급	-8.98192
독해	-8.98216
▁국무부	-8.98355
▁맥	-8.98394
▁문제에	-8.98409
▁눈	-8.9842
▁단	-8.98458
▁온	-8.9862
▁부인	-8.9865
▁타임즈	-8.98739
▁Korea	-8.98775
&	-8.98845
▁전망	-8.98946
▁결혼	-8.98957
▁구조	-8.99006
▁의견	-8.99085
▁저	-8.99159
▁호텔	-8.9929
▁판결	-8.99327
▁연	-8.99355
으나	-8.99672
▁도로	-8.99672
▁연설	-8.99818
이자	-8.99841
▁속	-8.99863
편	-8.99884
▁빌	-8.99986
있는	-9.0041
▁인정	-9.00435
탄	-9.00464
▁예정이라고	-9.00476
▁남	-9.00488
매	-9.00546
▁어떻게	-9.00637
하라	-9.00689
▁최초	-9.00852
▁훈련	-9.01193
▁본	-9.01201
져	-9.01271
영	-9.01273
▁키	-9.0146
▁추	-9.01605
▁범죄	-9.01633
▁까지	-9.01664
본	-9.01689
측	-9.0177
▁현	-9.01813
▁경선	-9.01874
▁같다	-9.01884
▁보였다	-9.02035
▁못	-9.02224
▁주변	-9.0224
▁예상	-9.02295
▁레바논	-9.02487
▁이동	-9.02516
▁베	-9.02522
일간	-9.0256
▁성장	-9.02653
메	-9.02706
▁시작했다	-9.02762
▁국민	-9.02927
하려는	-9.02976
▁M	-9.03012
▁선수	-9.03028
▁승인	-9.03044
▁에너지	-9.03098
▁전문가들은	-9.03103
▁한국인	-9.03112
▁요구했다	-9.03122
▁맞	-9.03187
▁산업	-9.03213
나는	-9.03225
▁이같	-9.0334
▁환경	-9.03367
만원	-9.03372
▁정보를	-9.03447
f	-9.03467
▁방안	-9.03519
▁해외	-9.03605
▁200	-9.03728
▁시설	-9.03804
▁성공	-9.03806
▁일정	-9.03844
▁인구	-9.03856
in	-9.03956
▁또는	-9.04065
▁음악	-9.04096
위를	-9.04229
▁있게	-9.04364
▁개인	-9.04492
▁데이비드	-9.04583
▁대선후보	-9.04587
에서도	-9.04643
명과	-9.0465
▁발견했다	-9.04694
했을	-9.04695
▁루	-9.04706
▁T	-9.04842
▁2000	-9.04979
▁사업	-9.05019
베	-9.05119
▁아프가니스탄	-9.05247
▁과학자들	-9.05272
▁내년	-9.05541
▁보고서	-9.05626
만명	-9.05735
생	-9.05737
▁시위대	-9.05972
시켰다	-9.05975
▁수술	-9.06
▁선택	-9.06015
▁운동	-9.06131
▁앞두고	-9.06205
▁비디오	-9.06282
▁대변인	-9.06363
지역	-9.06391
추	-9.06456
▁한나라당	-9.065
▁이제	-9.06601
▁사망하고	-9.0661
▁비롯	-9.06619
▁교육	-9.06633
▁생각한다	-9.06812
▁너무	-9.06918
▁통	-9.06932
▁P	-9.07192
▁나타났다	-9.07495
업	-9.07609
케	-9.07624
처	-9.07677
com	-9.07784
▁어린이	-9.07886
▁통과	-9.07975
▁팔	-9.07982
▁관할	-9.08012
▁대사관	-9.08139
▁폭력	-9.08538
▁민간인	-9.08691
커	-9.088
▁장관	-9.08919
▁전투	-9.08938
▁있었던	-9.09119
▁전세계	-9.09291
l	-9.09306
▁변	-9.09364
▁포함한	-9.09372
▁경쟁	-9.09427
▁행정부	-9.09618
▁회복	-9.09623
▁멕시코	-9.09627
▁가지	-9.09655
▁바로	-9.09741
▁네	-9.09857
혀	-9.09934
▁대규모	-9.09963
렌	-9.10182
or	-9.10261
▁운영	-9.10311
테	-9.10392
▁출전	-9.10482
역	-9.10569
▁제작	-9.10578
억달러	-9.10583
박	-9.10641
▁판사	-9.1075
▁화재	-9.1078
▁아닌	-9.10822
▁토	-9.10887
▁D	-9.10916
L	-9.11082
▁안에	-9.11232
▁여전	-9.11301
▁경고	-9.11353
▁인도네시아	-9.11587
▁로버트	-9.11671
▁만	-9.11704
▁전체	-9.11784
▁브라운	-9.11838
씨는	-9.11885
▁아프리카	-9.11964
▁버	-9.11967
▁인권	-9.11996
▁교수는	-9.12279
▁얻	-9.12326
▁지방	-9.12447
▁출연	-9.12601
▁가지고	-9.1273
▁의원은	-9.12762
투	-9.12805
▁촉구했다	-9.12805
▁했다고	-9.1292
▁G	-9.12978
▁밝혀졌다	-9.12979
▁벌	-9.12982
퍼센트	-9.12991
▁무장	-9.13018
le	-9.13064
▁주민	-9.13087
▁받아	-9.1317
합니다	-9.13185
승	-9.13239
▁시스템	-9.13287
▁건	-9.1341
▁온라인	-9.13415
▁2002	-9.13451
▁입은	-9.13646
독	-9.13659
)'	-9.13779
▁31	-9.13841
▁규정	-9.13854
우리	-9.13935
현	-9.14046
▁수단	-9.1406
8	-9.14114
▁태국	-9.14123
▁스타	-9.14246
등	-9.14247
량	-9.14324
▁안보	-9.14345
▁입었다	-9.14349
▁특히	-9.14474
▁인간	-9.14487
▁디	-9.14589
▁그들의	-9.14742
it	-9.14748
엔	-9.1476
▁대신	-9.14797
▁동물	-9.14814
▁수입	-9.15006
▁배우	-9.15037
▁예	-9.1504
▁임무	-9.15115
▁수치	-9.15181
▁경기에서	-9.15196
▁국내	-9.15222
▁제재	-9.15267
▁일을	-9.15534
▁유지	-9.15586
남	-9.15697
▁LA	-9.15706
▁마을	-9.15886
▁말한다	-9.15925
▁살고	-9.1597
▁대회	-9.16092
▁이상이	-9.16144
▁만나	-9.16198
료	-9.16225
on	-9.16262
▁항공	-9.16344
▁홍콩	-9.16537
▁작은	-9.16596
▁암	-9.16646
▁여자	-9.16677
▁직원	-9.16732
▁알리	-9.16741
▁관계자가	-9.16774
k	-9.16891
월에	-9.16953
▁최종	-9.16999
▁열차	-9.17279
▁일이	-9.17305
▁심각한	-9.17398
▁정당	-9.17436
▁푸틴	-9.1745
로서	-9.17573
K	-9.17977
▁필요하다	-9.17985
▁있기	-9.18136
▁경고했다	-9.18286
▁연합	-9.18302
▁메시지	-9.18368
▁밝힌	-9.18372
▁연료	-9.18381
▁대의원	-9.18383
▁친	-9.18384
▁중인	-9.18414
▁돌	-9.18489
▁걸	-9.1854
▁사임	-9.1856
▁관리들	-9.1856
▁가치	-9.18666
▁없을	-9.18831
▁개선	-9.18934
~	-9.18984
곳	-9.18989
▁주도	-9.19055
▁파업	-9.1906
▁부대	-9.19165
▁플로리다	-9.1922
▁종	-9.1935
▁여객기	-9.19439
▁번	-9.1946
▁반응	-9.19525
▁명이	-9.1958
▁아무	-9.19598
▁무장세력	-9.19608
달	-9.19617
▁주식	-9.19667
절	-9.19733
▁발표한	-9.1974
▁아기	-9.19946
장을	-9.20002
▁환자	-9.20023
▁캐나다	-9.20233
▁광고	-9.20318
▁표	-9.20334
▁도움	-9.20413
▁별	-9.20437
▁원인	-9.20698
▁마이클	-9.20835
▁벌였다	-9.20943
▁동부	-9.21027
▁라디오	-9.2132
▁헤	-9.21339
쳐	-9.21341
▁비해	-9.21389
▁갈	-9.21437
▁변호사	-9.21503
▁계약	-9.21576
▁얼마	-9.21602
▁시험	-9.21668
▁편	-9.21706
▁대만	-9.21735
▁기록했다	-9.21763
▁난	-9.21809
표	-9.21895
▁외국인	-9.21899
▁이라크에서	-9.22139
▁담당	-9.22421
▁서로	-9.22467
▁미국인	-9.22629
퍼	-9.22693
▁화요일	-9.22799
▁지역의	-9.22838
▁힐	-9.2289
록	-9.23015
▁이유	-9.23044
H	-9.2313
톤	-9.2335
es	-9.23398
▁중동	-9.23449
▁빈	-9.23526
▁브라질	-9.23582
▁책임	-9.23647
▁감시	-9.23661
년부터	-9.23715
▁헬기	-9.23716
▁결	-9.23726
하겠다	-9.23731
각	-9.24016
▁제한	-9.24036
▁스미스	-9.2407
▁작품	-9.24075
▁여름	-9.24081
▁지명	-9.24176
▁들어	-9.24255
이었던	-9.24385
▁해안	-9.24397
하거나	-9.24399
▁나는	-9.24514
▁실시	-9.2455
▁케냐	-9.24564
▁사실	-9.24698
▁실험	-9.24702
▁구성	-9.24709
골	-9.24755
▁재판	-9.24996
▁진	-9.25096
▁외국	-9.25155
▁짐바브웨	-9.25156
▁국영	-9.25181
▁학생	-9.25201
▁내렸다	-9.25214
▁후보가	-9.25227
▁남편	-9.25252
▁거리	-9.25267
자들은	-9.2547
▁비용	-9.25518
▁각각	-9.25562
▁같이	-9.25647
▁식량	-9.25771
▁국회	-9.2581
▁양국	-9.2582
▁시아파	-9.26046
들에	-9.26048
▁차례	-9.26065
▁소송	-9.26258
되기	-9.26415
▁해군	-9.26432
격	-9.26433
▁밖에	-9.26462
▁쇼	-9.26489
▁평균	-9.26548
▁대변인이	-9.26595
▁권리	-9.26601
▁마련	-9.26738
▁국민들	-9.26846
▁시즌	-9.26951
▁남성	-9.27022
▁배치	-9.27171
불	-9.27195
▁인상	-9.27201
▁잡	-9.27214
▁가스	-9.27407
쉬	-9.27413
▁개최	-9.27518
▁자유	-9.27741
▁내려	-9.27817
▁총선	-9.27974
▁전달	-9.28026
한다는	-9.2803
▁발견됐다	-9.28181
▁않아	-9.28201
b	-9.2824
▁과정에서	-9.28258
▁감	-9.28273
▁K	-9.28293
집	-9.28319
▁일본의	-9.2833
▁여론조사	-9.28371
센터	-9.2843
▁과거	-9.28501
시켜	-9.28507
▁텍사스	-9.28532
▁버스	-9.28568
이란	-9.28631
▁특별	-9.28651
▁천	-9.28679
ch	-9.28853
▁정권	-9.28868
▁처리	-9.28935
▁약속	-9.29021
▁경찰에	-9.29107
▁파병	-9.29129
▁부상했다	-9.2915
▁위원회	-9.29157
▁강제	-9.29187
▁주말	-9.29348
열	-9.29355
▁앤	-9.29361
▁다양	-9.29451
30	-9.29507
줄	-9.29556
튼	-9.29558
▁몸	-9.29565
기도	-9.29584
▁담	-9.29623
▁제품	-9.29649
회사	-9.29705
▁사건이	-9.29807
▁공연	-9.29844
▁당신	-9.29914
50	-9.29958
렸다	-9.3004
일까지	-9.30054
▁L	-9.30127
▁걸쳐	-9.30128
▁/	-9.30199
▁센터	-9.30233
거리	-9.30294
▁다리	-9.30414
▁사이에	-9.30471
▁설치	-9.30526
▁통제	-9.30542
▁강화	-9.30568
됐	-9.3059
▁자료	-9.30658
가지	-9.30723
갈	-9.3078
▁500	-9.30904
▁항공사	-9.30955
▁질	-9.31058
▁U	-9.31073
개국	-9.311
▁부통령	-9.31186
▁결정했다	-9.31287
여명	-9.31308
망	-9.31326
▁2007	-9.31379
링	-9.31648
▁엘	-9.31677
▁평가	-9.31714
목	-9.31976
았다	-9.3202
▁섬	-9.3204
▁목표	-9.32054
복	-9.32094
책	-9.32128
▁주재	-9.32147
▁발전	-9.32161
액	-9.32202
▁제공	-9.32319
대로	-9.3232
▁대상으로	-9.32446
▁박	-9.32505
9	-9.32513
머	-9.32516
▁선고	-9.32534
음	-9.3254
해왔다	-9.32743
▁이에앞서	-9.32749
▁논쟁	-9.32749
▁진압	-9.32972
▁것과	-9.33007
▁지나	-9.33009
▁수출	-9.33015
▁기소	-9.33041
▁되어	-9.33043
▁그룹	-9.33072
▁유일	-9.33078
외	-9.33212
▁사퇴	-9.33298
▁s	-9.33317
▁나이	-9.3334
▁샤	-9.33387
▁바이러스	-9.33445
▁주민들	-9.33535
결	-9.33618
▁관계자들은	-9.33651
▁The	-9.33768
▁공습	-9.33833
▁외교	-9.34024
▁무역	-9.34112
▁미국에서	-9.34262
▁희망	-9.34278
▁그런	-9.34365
▁f	-9.34367
▁알려진	-9.34373
▁on	-9.34429
▁올라	-9.34431
▁인물	-9.34436
▁대해서는	-9.34466
▁발견된	-9.34469
▁참석	-9.34574
▁사과	-9.3459
▁받는	-9.34602
▁부분	-9.3462
▁한다는	-9.34667
동안	-9.34744
힌	-9.349
▁차베스	-9.3491
▁압력	-9.34919
▁후세인	-9.34944
범	-9.34976
하였다	-9.34985
▁요청했다	-9.35093
▁하기	-9.35094
▁기지	-9.35257
입	-9.35373
▁EU	-9.35479
▁기대	-9.35574
중인	-9.35614
명으로	-9.35628
▁위성	-9.35677
▁완전	-9.35679
플	-9.35726
W	-9.35736
라며	-9.35772
▁거부	-9.35899
▁US	-9.3592
▁상대로	-9.35976
▁바란다	-9.3601
시키는	-9.36025
▁서부	-9.3603
▁그들이	-9.36045
▁기사	-9.36056
▁파괴	-9.36214
▁찾아	-9.36234
▁커	-9.36428
▁변호사는	-9.3652
것	-9.36522
쿠	-9.36575
▁익명	-9.36686
▁만들어	-9.36824
▁북	-9.36874
▁병	-9.37001
▁왕자	-9.37002
w	-9.37026
▁후보는	-9.37125
▁예상된다	-9.3722
있다	-9.37232
▁총격	-9.37343
림	-9.37376
▁집단	-9.37455
▁사는	-9.3764
▁복귀	-9.37669
이라크	-9.37805
▁질문	-9.37806
▁수상	-9.37875
▁불만	-9.37895
▁귀	-9.38091
▁야	-9.38131
업체	-9.38133
▁이명박	-9.3823
▁밝혔습니다	-9.38235
▁크게	-9.38287
락	-9.38293
▁로마	-9.38371
합	-9.38421
▁아직까지	-9.38426
▁누	-9.38442
▁남한	-9.38455
▁있지	-9.38553
▁탑승	-9.3878
▁북핵	-9.38797
채	-9.3885
▁전국	-9.38914
▁받지	-9.39002
▁죽	-9.3903
태	-9.39089
▁붕괴	-9.39456
▁저장	-9.39551
리아	-9.39602
▁책	-9.39777
흐	-9.39868
▁인터뷰	-9.39872
▁이곳	-9.39892
▁설명	-9.39935
▁나온	-9.40034
▁체	-9.40038
▁놓	-9.4009
▁요	-9.4009
▁사람은	-9.401
▁접근	-9.40211
사건	-9.40236
일부터	-9.40326
▁선정	-9.4038
▁합니다	-9.4046
▁안정	-9.40479
▁인기	-9.4048
자인	-9.40497
블	-9.40515
▁중국은	-9.40559
▁인수	-9.40609
▁베네수엘라	-9.40617
▁이집트	-9.40644
▁하원	-9.40686
▁헌법	-9.40712
리는	-9.40719
▁되고	-9.4077
▁극	-9.40828
▁어머니	-9.40888
▁음식	-9.40927
▁추진	-9.40936
▁사실이	-9.40941
▁아니라고	-9.41053
▁성폭행	-9.41078
▁따른	-9.41093
▁국무장관	-9.41111
▁적이	-9.41202
▁세력	-9.41219
▁민주주의	-9.41289
▁살인	-9.4134
▁사람들을	-9.41479
▁넘	-9.41488
▁정부와	-9.41524
▁위해서는	-9.41553
▁때까지	-9.41562
▁부부	-9.41674
▁여론	-9.41695
▁기관	-9.41716
▁교수	-9.41792
▁마크	-9.41809
0	-9.41827
▁머리	-9.42005
▁암살	-9.42138
▁최악	-9.42257
▁쿠바	-9.42295
▁받게	-9.42312
▁일반	-9.42328
▁시민	-9.42333
▁모델	-9.42531
▁임기	-9.42616
▁신고	-9.42874
▁2001	-9.42961
ation	-9.43043
기로	-9.43053
▁비판	-9.43156
▁문화	-9.43194
▁상원의원이	-9.43247
백	-9.43276
▁장면	-9.43309
랑	-9.43339
먼	-9.4337
주의	-9.43376
▁차이	-9.43406
▁무장단체	-9.4348
▁부모	-9.43516
▁매년	-9.43565
▁가졌다	-9.43601
▁명령	-9.43678
▁촬영	-9.43729
▁유권자들	-9.43781
▁의미	-9.43784
▁못하고	-9.43789
▁내부	-9.43801
▁사원	-9.43831
립	-9.43837
▁선출	-9.43845
▁수색	-9.43934
▁진출	-9.44046
▁공격으로	-9.44119
▁b	-9.44127
페	-9.44206
▁뿐	-9.44207
▁긴장	-9.44234
상을	-9.44265
▁패	-9.44277
▁달리	-9.44314
v	-9.44317
ic	-9.44423
▁계획이다	-9.44457
▁언급했다	-9.44595
▁금	-9.44601
▁일요일	-9.44628
▁고용	-9.44721
▁도착	-9.44738
자가	-9.44782
▁보냈다	-9.44813
▁두고	-9.44827
광	-9.44978
때	-9.45021
측은	-9.45065
▁강력한	-9.45069
▁참가	-9.45096
▁도움이	-9.45133
기구	-9.4518
▁확인했다	-9.45181
▁목적	-9.45218
▁이끄는	-9.4523
▁필리핀	-9.45303
▁수많은	-9.45339
자회담	-9.45355
▁나왔다	-9.4539
만이	-9.45435
▁선수들	-9.45498
▁못한	-9.45512
▁사항	-9.45545
▁정부에	-9.45605
되었다고	-9.45644
그는	-9.45694
시키고	-9.45749
단체	-9.45832
▁권력	-9.45851
▁강한	-9.45853
▁웹사이트	-9.45867
▁동료	-9.45898
▁밝히지	-9.45936
▁개혁	-9.45982
북	-9.46012
st	-9.46026
▁거대	-9.46032
▁월요일	-9.46071
▁보고서는	-9.46132
장이	-9.46144
▁끝	-9.46177
▁집중	-9.46267
▁병사	-9.46269
만한	-9.46351
이라	-9.46405
담	-9.46449
▁의료	-9.4646
▁오른	-9.46465
하기도	-9.46513
▁향해	-9.46554
▁마약	-9.46645
10	-9.46703
▁파리	-9.46714
▁구매	-9.46736
▁c	-9.46854
▁사랑	-9.46885
말	-9.47001
▁쿠	-9.4706
하지만	-9.47132
▁항공기	-9.47151
성을	-9.47179
▁E	-9.47292
‘	-9.47373
령	-9.47383
▁통신	-9.47451
▁상대	-9.47455
자들이	-9.47459
▁탄	-9.47542
▁가자지구	-9.47652
=2	-9.47662
▁군대	-9.47705
▁사형	-9.47782
20	-9.47784
▁80	-9.47846
▁중앙	-9.48056
하다고	-9.4806
▁관해	-9.48199
다른	-9.48221
▁중에	-9.48273
▁흑인	-9.48301
▁긴급	-9.48309
▁임시	-9.48315
▁작년	-9.48393
ri	-9.4845
▁되었다	-9.48477
▁제거	-9.48711
▁증시	-9.48817
▁되	-9.48818
▁나머지	-9.48923
▁주지사는	-9.49061
un	-9.49096
▁지진	-9.49126
▁참여	-9.49144
씨	-9.49148
ID	-9.49149
▁위반	-9.49166
▁대응	-9.49259
협회	-9.49269
▁북한에	-9.49314
정부	-9.49328
른	-9.49541
▁상황이	-9.49659
▁올랐다	-9.49687
▁사우디	-9.49748
빌	-9.49774
▁막기	-9.49831
▁주지사	-9.49841
▁부상자	-9.49866
왔다	-9.50136
▁목숨	-9.50185
re	-9.50205
▁소재	-9.50243
▁감염	-9.50244
▁J	-9.50301
▁숨지고	-9.50319
▁퍼	-9.50385
500	-9.50493
▁축구	-9.50629
▁교	-9.50675
항	-9.50712
▁허가	-9.50728
국가	-9.50817
▁다음달	-9.50845
▁되지	-9.50993
▁1000	-9.51094
대의	-9.51165
경기	-9.51201
▁교회	-9.51242
▁희생자	-9.51356
▁뇌	-9.51509
▁국방장관	-9.51536
▁전기	-9.51567
스타	-9.51652
총	-9.5168
▁생	-9.51711
앙	-9.51733
샤	-9.51788
▁유권자	-9.51837
▁후에	-9.51866
▁전력	-9.51916
은행	-9.51963
▁관광객	-9.51979
▁칸	-9.51986
▁직원들	-9.52058
▁주장하고	-9.52109
레이	-9.52116
▁어느	-9.52119
▁비밀	-9.5213
랜드	-9.52164
▁아내	-9.52172
▁제임스	-9.52215
▁접	-9.52288
시키기	-9.52452
▁사람들에게	-9.52526
▁받았다고	-9.52614
▁업체	-9.52658
▁따라	-9.52668
▁소리	-9.52734
▁학생들	-9.52735
리스	-9.52754
▁가능한	-9.52806
▁만큼	-9.52827
▁제기	-9.52906
▁넘는	-9.53023
리자	-9.53172
▁착륙	-9.5327
▁질문에	-9.53291
▁남북	-9.53408
▁외무부	-9.5341
▁충격	-9.53415
▁출발	-9.53419
▁전시	-9.53457
▁제출	-9.53505
▁있다며	-9.53757
▁UN	-9.53773
▁시리아	-9.5381
▁야후	-9.53983
런	-9.53991
▁정도로	-9.53993
▁적어도	-9.54069
▁대비	-9.54116
▁잠	-9.54123
▁끝에	-9.54174
▁수요일	-9.54174
▁것이라	-9.54418
되면서	-9.54445
엘	-9.54656
▁곳에서	-9.54659
▁칼	-9.54708
▁작업을	-9.54731
▁해리	-9.54802
▁여당	-9.54817
▁O	-9.54857
여명이	-9.5503
▁만들	-9.55215
▁어떠한	-9.55397
▁패배	-9.55417
▁선두	-9.55439
▁허리케인	-9.55478
▁시기	-9.55575
▁높이	-9.55642
▁수십	-9.55647
▁교전	-9.5572
sp	-9.5585
▁혼란	-9.55859
▁캐	-9.559
▁고통	-9.55936
▁여성이	-9.5606
▁접촉	-9.56071
▁자체	-9.56116
▁항의	-9.56141
▁R	-9.56163
▁입고	-9.56193
름	-9.56197
▁보여주	-9.56373
▁이래	-9.5642
▁발생했다고	-9.56492
▁시행	-9.56569
▁수천명	-9.56583
▁허용	-9.56645
▁이달	-9.56701
▁일자리	-9.5677
▁출마	-9.56774
▁임명	-9.56936
▁교통	-9.56949
▁수천	-9.57061
세기	-9.57097
회의	-9.57114
▁집회	-9.57131
▁수행	-9.5714
▁선언	-9.57152
▁유명한	-9.57273
클	-9.57378
▁확대	-9.57424
▁압박	-9.57428
▁삶	-9.57492
기간	-9.57496
▁자리	-9.57527
▁유명	-9.5755
▁팬들	-9.57702
▁합의했다	-9.57711
▁발생해	-9.57714
▁300	-9.57739
▁전문가	-9.57794
▁씨	-9.57813
▁35	-9.57815
▁제조	-9.57823
▁영	-9.57877
존	-9.57894
▁신원	-9.58005
5000	-9.58047
겠다	-9.58086
▁노동	-9.58115
▁미군이	-9.58127
▁오바마가	-9.58257
▁사진을	-9.58285
▁종교	-9.58362
▁누구	-9.58412
▁사상	-9.58423
▁등의	-9.58525
▁태	-9.58589
▁세금	-9.58596
악	-9.58609
▁피해자	-9.58673
▁행	-9.58745
▁수백	-9.58778
▁어려움	-9.588
언	-9.58818
▁찰스	-9.58832
▁해야	-9.58928
▁민	-9.58945
▁아주	-9.58968
▁표현	-9.59136
▁대중	-9.59172
▁수익	-9.59209
밀	-9.59268
▁비슷	-9.59277
대가	-9.5928
▁관광	-9.59439
▁인사	-9.59445
▁쓰	-9.59452
▁외무장관	-9.59493
▁밀	-9.59546
▁존스	-9.59571
▁대해서	-9.59636
▁승객	-9.59671
▁마음	-9.59781
▁병원에	-9.59788
▁지도자인	-9.59855
▁노조	-9.5987
관계	-9.59953
▁총기	-9.60008
at	-9.60021
되었습니다	-9.60023
▁작업	-9.60029
▁대표는	-9.60035
▁이라크에	-9.6008
▁백	-9.60161
▁be	-9.60168
▁로켓	-9.60179
▁파견	-9.602
▁체포됐다	-9.60207
▁소말리아	-9.60278
▁대화	-9.60292
▁것인지	-9.6034
▁테	-9.60347
▁투	-9.60492
▁추락	-9.60521
▁사이트	-9.60548
창	-9.60662
▁왕	-9.60672
▁주민들이	-9.60728
누	-9.60762
ra	-9.60781
▁심장	-9.60788
▁그리스	-9.60799
냐	-9.60831
▁마리	-9.60835
향	-9.60844
▁현장	-9.60846
▁않았지만	-9.60897
▁국립	-9.60903
▁유죄	-9.60968
▁판	-9.61005
▁가질	-9.61006
▁지도자들	-9.61055
▁감사	-9.61084
▁연장	-9.61096
▁자국	-9.61112
변	-9.61257
▁공군	-9.61261
▁소비자	-9.61272
▁능력	-9.61279
▁나가	-9.61302
▁해제	-9.61303
▁나오	-9.61306
▁상당	-9.61311
▁시간이	-9.61408
▁연구소	-9.61551
▁언론은	-9.61572
▁숨진	-9.61642
월부터	-9.61689
▁적용	-9.617
▁카운티	-9.61846
▁고문	-9.61887
안을	-9.61948
▁군인	-9.6204
축	-9.62093
▁경제적	-9.62206
▁검토	-9.62216
▁보여	-9.62232
▁사무실	-9.62256
했다는	-9.62301
맨	-9.62317
▁게이츠	-9.62331
▁절차	-9.62343
▁용	-9.62462
▁폭력사태	-9.62652
▁카메라	-9.62658
▁목표로	-9.62743
받	-9.62767
▁관련해	-9.62903
센	-9.62915
▁한반도	-9.62955
▁re	-9.62961
▁반대하는	-9.62971
▁그것은	-9.63019
▁걱정	-9.6304
싼	-9.6304
▁말레이시아	-9.6304
▁휴대폰	-9.63041
▁대법원	-9.63156
▁프로젝트	-9.6316
▁아베	-9.63173
했는데	-9.6319
▁트럭	-9.63257
▁사건은	-9.63263
▁전문	-9.63306
▁강력	-9.63322
▁취소	-9.63422
▁보이는	-9.63556
▁최고의	-9.63645
겠다고	-9.63722
빈	-9.63738
▁연결	-9.63738
▁청와대	-9.63765
▁아무런	-9.63776
▁여왕	-9.63776
▁장소	-9.63799
▁내무부	-9.63811
▁당선인	-9.63814
▁물론	-9.6382
▁방문한	-9.63832
▁오래	-9.6385
▁개의	-9.64032
지도	-9.64231
준	-9.64256
였습니다	-9.64304
▁넣	-9.64319
▁시카고	-9.64324
▁가까	-9.64379
▁젊은	-9.64425
자는	-9.64435
▁관계자들	-9.6445
▁구속	-9.64464
환	-9.64482
알	-9.64492
▁항상	-9.64521
▁뛰어	-9.64522
▁동결	-9.64523
▁순간	-9.64559
el	-9.64567
율	-9.64583
▁삼	-9.64607
▁영어	-9.64641
스러운	-9.64658
is	-9.64668
▁허	-9.64773
▁경찰관	-9.64802
▁등을	-9.64915
▁현대	-9.64928
▁약물	-9.65077
되	-9.65106
▁싶다	-9.65178
별	-9.65225
▁마드리드	-9.6523
▁들고	-9.65233
손	-9.65262
▁신화통신	-9.65266
▁목요일	-9.65277
▁지역을	-9.65389
▁미래	-9.65443
▁수석	-9.65492
▁법안을	-9.65503
▁과정	-9.65625
중국	-9.65645
▁시작된	-9.65691
▁보장	-9.65815
▁선거에서	-9.65908
▁운행	-9.65975
▁대사	-9.65996
▁밝혀지지	-9.66014
다면	-9.66036
The	-9.66044
▁폐	-9.66162
▁박물관	-9.66177
▁당했다	-9.66207
▁놓고	-9.6628
으로서	-9.66303
▁창	-9.66431
▁넘어	-9.66558
규	-9.66599
▁만약	-9.66619
▁단계	-9.66656
▁신뢰	-9.66714
▁국제사회	-9.66736
▁법률	-9.66738
▁따	-9.66741
방송	-9.66807
▁전략	-9.66819
▁목	-9.66828
▁도중	-9.66892
▁기억	-9.66909
순	-9.66942
▁구호	-9.66968
▁이전에	-9.67025
션	-9.6706
▁도전	-9.67086
▁게	-9.67253
▁분쟁	-9.67299
▁실패	-9.67307
▁술	-9.67312
▁고려	-9.67382
▁평	-9.67395
▁죽음	-9.67396
▁없어	-9.67438
▁나타나	-9.67469
▁수니파	-9.67469
▁이수지	-9.67479
▁집권	-9.67495
▁판단	-9.67513
▁효과	-9.67578
▁있는지	-9.67582
▁좀	-9.67594
관리	-9.67627
et	-9.67639
기가	-9.67677
▁90	-9.67725
▁회담에서	-9.67756
▁있음을	-9.67763
▁청	-9.67798
▁체포했다	-9.67817
이것은	-9.68048
▁조건	-9.68073
▁미군은	-9.68141
▁얼굴	-9.68227
▁오르	-9.6824
▁연속	-9.68255
로써	-9.68363
▁소식	-9.68374
장에서	-9.68435
▁베컴	-9.68474
▁전자	-9.68502
)/	-9.6855
▁소장	-9.68584
▁가수	-9.68629
▁저지	-9.6879
ro	-9.68811
칠	-9.68812
▁물질	-9.68878
▁전까지	-9.68883
이지만	-9.68924
롭	-9.6894
졌	-9.68947
술	-9.68967
▁올메르트	-9.68989
▁만든	-9.69007
▁애플	-9.69007
▁장기	-9.69072
▁잉글랜드	-9.691
▁과학	-9.69103
#	-9.6911
▁기회	-9.6919
▁영상	-9.69225
▁포기	-9.6924
▁윌리엄	-9.69267
▁수정	-9.69292
▁지지자들	-9.69323
탈	-9.69356
분기	-9.69373
ion	-9.69399
▁정말	-9.69425
▁연설에서	-9.69498
▁도쿄	-9.69552
드는	-9.69564
▁주의	-9.69589
▁예측	-9.69664
▁차기	-9.69665
5%	-9.69673
렸	-9.69701
움	-9.69716
▁사상자	-9.69781
사는	-9.69792
▁분노	-9.69827
ment	-9.69919
문제	-9.69947
▁망명	-9.69985
▁급	-9.70032
▁연합군	-9.7007
▁자주	-9.7009
마일	-9.70421
▁공장	-9.70471
▁겪고	-9.70534
패	-9.70542
▁직후	-9.70548
▁마무리	-9.7058
▁씨는	-9.70584
▁홍보	-9.70623
▁당선	-9.70639
▁대형	-9.70644
▁부정	-9.70649
수가	-9.70652
▁환영	-9.70689
▁곳에	-9.70738
▁제시	-9.70885
▁한국은	-9.70906
▁자녀	-9.70937
▁촉구	-9.70972
▁이라크전	-9.71079
씩	-9.71177
▁버지니아	-9.71277
▁블레어	-9.71315
▁핵심	-9.71424
▁분석	-9.71454
만명이	-9.71476
▁옷	-9.71497
▁소녀	-9.71505
섬	-9.71513
▁주민들은	-9.71534
as	-9.71596
▁영국의	-9.71644
▁그들	-9.71644
▁시대	-9.7169
▁사기	-9.71745
▁글	-9.71759
▁근무	-9.71801
능	-9.71925
착	-9.71961
▁주가	-9.71977
▁성인	-9.72032
올	-9.72102
▁고양이	-9.72103
▁근	-9.72108
▁벤	-9.7222
▁전통	-9.72336
▁소지	-9.7237
▁마감	-9.72446
▁뉴	-9.72626
스터	-9.7264
▁가능	-9.727
해졌다	-9.72753
▁집행	-9.72756
▁하며	-9.72762
▁그러	-9.72764
족	-9.7284
▁스포츠	-9.72896
▁협의	-9.72896
▁스스로	-9.72899
▁비상사태	-9.729
▁몇몇	-9.72904
▁머물	-9.72913
▁원자로	-9.7292
▁나토	-9.72923
▁약간	-9.72925
▁산불	-9.72928
▁때문	-9.72991
했는지	-9.72992
▁이란이	-9.73003
▁병원에서	-9.73004
▁군부	-9.73009
한국	-9.73072
▁맞아	-9.73173
▁프리	-9.73202
▁브	-9.7322
▁수감	-9.73248
▁기념	-9.73367
▁관계자	-9.73382
▁슈	-9.73409
시장	-9.73458
랜	-9.73502
▁보이고	-9.73523
었으며	-9.73652
▁격	-9.73683
▁빠른	-9.73696
▁이밖에	-9.73696
▁탁신	-9.73696
▁처벌	-9.73701
▁빠르	-9.73703
▁BBC	-9.73705
▁감축	-9.73707
▁돌아가	-9.73744
글	-9.73808
볼	-9.73901
▁떠나	-9.73952
▁동시	-9.73968
▁단지	-9.74037
▁실시된	-9.74096
▁보안관	-9.74204
▁완화	-9.74213
▁차지했다	-9.74228
▁국	-9.7423
▁실수	-9.74251
▁않	-9.7429
▁대책	-9.74292
슈	-9.74318
▁순	-9.74364
▁높다	-9.74502
▁떨어져	-9.74502
▁일어난	-9.74507
▁고속도로	-9.74512
▁절반	-9.74516
함으로써	-9.74519
70	-9.74538
3%	-9.7455
▁조금	-9.74574
▁문서	-9.74581
갔다	-9.74586
▁난민	-9.74675
▁나무	-9.74791
▁증가했다	-9.7485
il	-9.74983
▁보건	-9.75003
▁투입	-9.75247
joins	-9.75313
겐	-9.75315
▁스피어스	-9.75317
▁오랜	-9.75354
▁나타냈다	-9.75366
▁조작	-9.75386
▁받기	-9.75393
▁알려지	-9.75413
cat	-9.75416
▁프로	-9.7542
▁지배	-9.75421
▁내각	-9.7543
▁북한과	-9.75464
▁발생할	-9.75488
▁치안	-9.75502
▁의원이	-9.75557
▁코소보	-9.7556
철	-9.75571
▁이미지	-9.75607
하길	-9.75699
례	-9.75704
▁성적	-9.75758
200	-9.75805
▁중이다	-9.75832
몬	-9.7593
월까지	-9.75937
▁부인했다	-9.75945
▁윌리엄스	-9.76028
▁보기	-9.76122
딘	-9.76134
▁찾기	-9.76135
▁크리스토퍼	-9.76135
▁할리우드	-9.76135
▁민병대	-9.76136
▁가량	-9.76153
▁낮은	-9.76177
▁고래	-9.76191
▁소식을	-9.76197
▁이와같	-9.76227
▁매일	-9.76252
▁대화를	-9.76257
▁중심	-9.76326
▁국가들	-9.76328
▁사망했으며	-9.7634
▁초기	-9.76344
▁않겠다	-9.76448
▁폭풍	-9.76461
▁취	-9.76486
▁실제	-9.76506
▁그에게	-9.76638
▁동의	-9.76642
▁70	-9.76668
염	-9.76695
▁보낸	-9.76818
▁둔	-9.76852
▁지불	-9.76876
cnn	-9.7696
▁개봉	-9.76978
새	-9.76985
▁확실히	-9.77004
▁프라이머리	-9.77011
▁위기에	-9.77033
▁노래	-9.77036
▁의심	-9.77083
▁원조	-9.77104
▁오랫동안	-9.77136
▁의혹	-9.7714
▁유로	-9.7714
폭	-9.77149
▁폭	-9.77173
▁알게	-9.77188
▁Korean	-9.77193
▁보좌관	-9.77282
▁말하고	-9.77289
힐	-9.77301
▁집에서	-9.77402
니다	-9.77454
▁굴	-9.77514
시설	-9.7758
▁상황에서	-9.7761
킬	-9.77612
▁약속했다	-9.77613
▁아마	-9.7762
▁제외	-9.77644
▁등록	-9.77772
▁빠져	-9.77792
▁그렇게	-9.77795
▁차지	-9.77796
▁개입	-9.77827
▁대표팀	-9.77867
▁풀	-9.77869
▁고든	-9.77884
2%	-9.78011
애	-9.78076
▁후반	-9.78092
▁이용해	-9.78145
활동	-9.78151
▁후보에	-9.78155
▁소식통은	-9.78244
▁필	-9.78253
었습니다	-9.78316
▁I	-9.7833
▁맺	-9.78371
주년	-9.78392
ht	-9.78437
▁속에	-9.78517
▁의한	-9.78565
▁나섰다	-9.78635
▁다쳤다	-9.78666
▁네덜란드	-9.7872
▁원유	-9.78729
▁화성	-9.78729
백만	-9.78744
▁참석한	-9.78774
▁확산	-9.78793
▁민간	-9.78823
▁후보로	-9.78845
▁모습	-9.7885
▁단어	-9.78864
▁기자회견	-9.78874
▁수백명	-9.78949
▁블로그에	-9.79044
▁중국이	-9.79083
▁월드컵	-9.79096
▁경찰과	-9.79183
▁전반	-9.79266
▁p	-9.79319
▁찬성	-9.79322
▁처	-9.79343
상태	-9.79371
▁2009	-9.79448
://	-9.7948
▁무가베	-9.79483
▁먼저	-9.7949
▁하워드	-9.79491
▁색	-9.79492
▁담배	-9.79512
tp	-9.79533
▁콜	-9.79608
▁합	-9.79629
▁정신	-9.79629
평	-9.79647
이어	-9.79695
▁휴가	-9.797
▁대통령에게	-9.79764
▁바다	-9.7977
▁비상	-9.79842
들도	-9.79853
▁방해	-9.7993
▁남성이	-9.79945
턴	-9.79997
▁이끌	-9.80091
40	-9.80242
▁기회를	-9.80299
▁작가	-9.80318
북한	-9.80319
ers	-9.8032
Total	-9.80337
▁찾는	-9.80337
▁캠프	-9.80337
code	-9.80338
▁법적	-9.80345
▁있었으며	-9.80347
▁배럴	-9.80351
▁철회	-9.80356
▁박사	-9.80358
▁사례	-9.8038
▁크리스마스	-9.80438
▁대체	-9.80471
▁150	-9.80474
▁증명	-9.80507
ur	-9.80515
▁연구진	-9.80589
▁관	-9.80619
▁목소리	-9.80629
▁세르비아	-9.80652
돌	-9.80691
연합	-9.80747
낼	-9.80753
달러를	-9.80847
▁긴	-9.80862
▁구성된	-9.80883
▁한미	-9.80904
▁위험한	-9.80923
▁날씨	-9.80962
▁못할	-9.80983
▁비자	-9.80994
▁#	-9.81039
▁사용하는	-9.81098
▁주에서	-9.81104
▁조정	-9.8113
▁듯	-9.81195
▁알려져	-9.81204
▁외교부	-9.81225
▁교체	-9.81232
▁연루	-9.81257
▁우크라이나	-9.81324
▁지급	-9.8134
▁돼	-9.81414
▁다이애나	-9.81497
인지	-9.81516
트는	-9.8152
▁측	-9.81545
하려고	-9.81547
▁대표단	-9.81658
▁위원장은	-9.8167
사를	-9.81672
us	-9.81703
영화	-9.81734
ate	-9.81827
▁400	-9.81897
▁시작됐다	-9.81917
▁집계	-9.82003
la	-9.82018
▁자연	-9.82056
▁모하메드	-9.82071
▁침체	-9.82078
▁진입	-9.82086
▁1999	-9.82098
▁손실	-9.82128
ent	-9.82143
▁기후	-9.82148
▁의장	-9.82176
됐지만	-9.82208
이었다고	-9.82259
60	-9.82274
스가	-9.82287
▁인정했다	-9.82324
혈	-9.82333
시킨	-9.82364
▁무사	-9.8248
▁니콜라	-9.82575
▁홍수	-9.82618
▁광	-9.82648
▁말한	-9.82789
▁실시한	-9.82831
U	-9.82906
▁빨리	-9.82946
▁정확한	-9.82946
▁분위기	-9.82955
▁NASA	-9.8301
▁재정	-9.83032
▁45	-9.83098
▁대피	-9.83104
▁웹사이트에	-9.83143
▁영향력	-9.83163
틀	-9.83215
▁조종사	-9.83222
▁그린	-9.83275
극	-9.83278
▁여성들	-9.83287
▁본부	-9.83331
조치	-9.83509
▁수는	-9.83553
▁하락했다	-9.83556
▁않기	-9.83592
▁당선자	-9.8361
th	-9.83661
▁테러로	-9.83673
ce	-9.83724
▁부패	-9.83757
ol	-9.83829
쯤	-9.83831
▁부동산	-9.83832
▁규제	-9.83834
▁스티브	-9.83836
▁엄마	-9.83845
▁현장에	-9.83893
▁그중	-9.83898
슬	-9.83898
▁도착했다	-9.83967
▁기자는	-9.84002
▁위해서	-9.84015
전에	-9.84071
마다	-9.84077
▁얻었다	-9.84085
80	-9.84119
▁시상식	-9.8412
침	-9.84185
▁추정	-9.84194
자들	-9.84214
막	-9.84277
▁들었다	-9.84293
▁직	-9.84306
▁생명	-9.84315
거래	-9.84384
정책	-9.84404
람	-9.84533
킨	-9.84553
▁있는데	-9.84594
▁경계	-9.84723
▁저녁	-9.84724
▁자살폭탄테러	-9.84727
▁사무총장은	-9.84727
▁콘돌	-9.84727
▁장난감	-9.84729
▁태풍	-9.84729
▁바람	-9.84768
▁보이지	-9.84797
▁통치	-9.8491
▁32	-9.84924
▁들어가	-9.85006
▁정상회담	-9.85083
▁왜	-9.85088
▁임	-9.85126
▁아부	-9.8513
▁태도	-9.85143
였다고	-9.85145
▁받았	-9.85151
▁작성	-9.85168
▁가격이	-9.852
▁당한	-9.85341
▁시민들	-9.8535
▁증언	-9.85418
▁유세	-9.85454
▁문제로	-9.85455
op	-9.85553
se	-9.85559
견	-9.85622
▁유사	-9.85649
▁아바스	-9.85693
▁이웃	-9.85694
▁지도부	-9.85755
취	-9.86018
지에	-9.86075
▁가족들	-9.86101
▁취임	-9.86154
▁강도	-9.86341
▁신청	-9.86347
▁울	-9.86361
▁살해한	-9.86384
ist	-9.86451
장에	-9.86456
개월간	-9.86485
▁승무원	-9.8651
▁밝혀	-9.86518
▁토요일	-9.86535
2009.06	-9.86536
▁네팔	-9.86542
▁최소한	-9.86557
▁축하	-9.86563
센트	-9.86653
▁방어	-9.86771
▁운전	-9.86781
▁않으면	-9.86833
▁떨어졌다	-9.86858
▁주는	-9.86866
▁자신들이	-9.8716
▁아직도	-9.87191
▁대상	-9.87269
▁FBI	-9.87274
항공	-9.87374
▁피터	-9.87418
셔	-9.87426
▁징역	-9.87431
인들이	-9.87443
▁질병	-9.87481
▁점령	-9.87482
인들은	-9.87546
▁지출	-9.87573
▁입국	-9.87582
▁반발	-9.87598
▁테이프	-9.87626
경찰	-9.87642
▁크리스	-9.8767
▁기타	-9.87673
▁아파트	-9.8777
▁위치	-9.87792
▁주로	-9.87868
▁시리즈	-9.87871
▁케	-9.8793
명에	-9.87946
▁향	-9.87952
위로	-9.88001
왕	-9.88008
▁일본은	-9.88045
었다고	-9.88092
▁아랍	-9.881
▁진정	-9.88159
▁인질들	-9.88196
▁억류	-9.88242
▁쿠르드	-9.88372
젠	-9.88377
▁내린	-9.88399
▁결론	-9.88409
▁소비	-9.88427
▁형성	-9.88449
▁사용할	-9.88508
▁평양	-9.88567
▁만들었다	-9.88616
경제	-9.88648
▁지휘	-9.88665
성이	-9.88707
▁역	-9.88712
레스	-9.88807
주간	-9.88891
▁상황에	-9.88916
▁교황	-9.89112
▁준	-9.8912
▁구입	-9.89129
좌	-9.89302
렛	-9.89312
▁쉽게	-9.89313
▁깊	-9.89345
▁타격	-9.89357
▁침해	-9.89381
▁즉시	-9.8941
▁통화	-9.89511
▁힐튼	-9.89513
▁살아	-9.89565
▁놀라	-9.89613
▁요구하는	-9.8969
▁복제	-9.8975
▁숨	-9.89754
필	-9.89881
▁그것	-9.89911
위에	-9.90014
▁요구한	-9.9002
▁사령관	-9.90029
▁전문가들	-9.90075
▁오하이오	-9.90078
같은	-9.90133
▁움직임	-9.90162
달하는	-9.90173
州	-9.90255
▁수반	-9.90258
▁한번	-9.90267
▁유럽연합	-9.90283
▁기준	-9.90295
표를	-9.90322
▁벨	-9.90322
▁수용	-9.90351
▁결과가	-9.90363
이드	-9.90372
▁재산	-9.904
▁한국과	-9.90414
▁의문	-9.90423
▁쉬	-9.90424
▁웹	-9.90495
▁등이	-9.90546
자로	-9.90555
▁베이	-9.906
▁팬	-9.90646
▁의장은	-9.90666
▁것처럼	-9.90816
낸	-9.90862
필드	-9.90918
▁진행되	-9.9092
테러	-9.90925
4%	-9.90973
오바마	-9.90973
▁가는	-9.91016
▁가정	-9.91034
대표	-9.9114
▁모른다	-9.91146
으면	-9.91163
닝	-9.91181
▁엘리자베스	-9.91208
ir	-9.91215
사가	-9.91265
▁남북한	-9.91307
▁속에서	-9.91345
▁토니	-9.91354
▁중요하다	-9.91402
15	-9.91415
냈다	-9.91421
▁벌금	-9.91432
▁우주선	-9.91447
▁설립	-9.91486
▁방식	-9.916
▁선포	-9.91642
▁상품	-9.91698
▁오픈	-9.9174
자금	-9.91775
▁동맹	-9.91861
▁0	-9.91927
숙	-9.91933
▁유리	-9.9196
▁전망이	-9.91971
▁공화당의	-9.92017
들로	-9.92042
▁토론	-9.92127
x	-9.92151
ot	-9.92162
▁협조	-9.92169
▁활용	-9.9217
▁론스타	-9.92174
▁심각	-9.92197
▁구글	-9.92199
▁끝난	-9.92206
▁육군	-9.92224
▁잭슨	-9.9223
▁소프트웨어	-9.92244
▁대출	-9.92254
▁현장에서	-9.92272
▁신용	-9.92344
▁장치	-9.92402
▁대북	-9.92409
▁회담은	-9.92464
▁해당	-9.92494
▁소년	-9.92523
▁매장	-9.92526
▁찬	-9.92559
▁총선에서	-9.9256
▁범인	-9.92563
▁이르는	-9.9258
▁되면	-9.92654
▁스위스	-9.92667
▁""	-9.92744
▁자산	-9.92778
▁실제로	-9.92832
▁h	-9.92847
푸	-9.92866
▁해고	-9.92887
J	-9.92893
▁대처	-9.93006
했	-9.93043
▁밝	-9.93051
▁실종	-9.93054
▁시위자들	-9.93063
▁기구	-9.93087
▁대사는	-9.931
▁잘못	-9.93109
▁김정일	-9.93141
▁핵실험	-9.93145
▁즉	-9.93149
▁갖추	-9.9315
▁페르베	-9.93151
▁축제	-9.93181
▁자격	-9.93193
▁영국군	-9.9322
함에따라	-9.93241
▁예방	-9.93279
▁우선	-9.93287
▁조사하고	-9.93331
▁개정	-9.93413
▁못하	-9.93481
▁어린	-9.93618
▁임신	-9.9362
습	-9.93654
▁연락	-9.93768
었던	-9.93788
ies	-9.93883
베이	-9.93956
▁송	-9.9401
▁is	-9.94014
▁동원	-9.94078
덴	-9.94098
멘	-9.9411
;	-9.94121
▁기독교	-9.94121
▁사이클론	-9.94128
▁지도	-9.94138
▁1997	-9.94139
▁신속	-9.94193
▁귀국	-9.94196
▁주고	-9.942
▁공공	-9.94204
▁공식적으로	-9.94254
▁아래	-9.94254
▁이틀	-9.94305
▁동물원	-9.94353
▁결혼식	-9.9436
▁일부는	-9.94506
▁영국에서	-9.94605
ve	-9.94655
▁소유	-9.94699
▁지연	-9.9471
▁추방	-9.94721
▁요구를	-9.94738
▁클럽	-9.94836
▁법안	-9.94856
▁지지자	-9.94913
▁체포된	-9.94942
▁나와	-9.95087
▁North	-9.95111
▁뉴질랜드	-9.95111
▁매들린	-9.95111
▁헤럴드	-9.95111
▁1998	-9.9513
▁모습이	-9.95131
7%	-9.9523
▁구제	-9.95234
▁총리와	-9.95239
▁심리	-9.95249
한다면	-9.95273
▁아르헨티나	-9.95298
▁농	-9.95358
▁구체적인	-9.95369
▁걸어	-9.95423
쳤다	-9.95436
▁성공했다	-9.95438
드리	-9.95481
▁인식	-9.95583
서는	-9.95609
▁w	-9.95638
ut	-9.95647
▁혹	-9.95652
▁레이	-9.95702
▁경험	-9.95712
시키	-9.95749
▁인하	-9.95779
▁확정	-9.95876
25	-9.9593
▁예산	-9.95983
▁마치	-9.96057
▁포함되어	-9.9608
▁의도	-9.96104
▁CBS	-9.96111
▁드러났다	-9.96111
▁있으나	-9.96122
▁가입	-9.96157
▁의료진	-9.96187
▁수용소	-9.96189
▁나달	-9.96197
▁지지하는	-9.96205
▁올렸다	-9.96221
▁압둘라	-9.9623
▁대단	-9.96284
기관	-9.9642
기에	-9.96442
▁킹	-9.96474
▁협정	-9.96521
▁m	-9.96582
▁독	-9.96594
▁성화	-9.96609
▁길이	-9.96648
▁경매	-9.96662
▁중이라고	-9.96789
▁중국과	-9.9679
▁회담에	-9.96861
▁포드	-9.96889
▁트	-9.96948
충	-9.96977
▁응	-9.97035
랄	-9.97043
▁언제	-9.97108
▁얘기	-9.97121
▁캠페인	-9.97121
▁변경	-9.97172
▁이곳에서	-9.97219
▁신경	-9.97231
▁강경	-9.97242
▁손상	-9.97293
였으며	-9.97368
▁형	-9.97446
▁미국에	-9.97603
▁좋아	-9.97664
웠다	-9.97665
▁달성	-9.97785
황	-9.97874
엄	-9.97978
만큼	-9.98037
▁경선에서	-9.98115
▁그와	-9.98126
▁싱가포르	-9.98141
▁좋지	-9.98141
▁케네디	-9.98141
▁주인공	-9.98159
▁폭행	-9.98162
▁불참	-9.98164
▁에이즈	-9.98166
kg	-9.98171
▁만드는	-9.98187
▁민주화	-9.98192
▁실행	-9.98202
▁지수는	-9.98203
▁보수	-9.98234
▁지진으로	-9.98241
▁루이스	-9.98242
▁리버풀	-9.98267
▁몰	-9.98372
▁학대	-9.98401
▁소개	-9.98402
▁지적	-9.98407
▁포함해	-9.98417
▁곳으로	-9.9842
▁작	-9.98448
▁충분	-9.98469
당한	-9.98526
린다	-9.98578
▁터	-9.98637
▁주석	-9.98688
▁대부분은	-9.98692
▁안보리	-9.98698
▁투자자들	-9.98808
▁휴	-9.98841
자와	-9.98867
대에	-9.98883
▁저는	-9.98891
▁이혼	-9.98909
들어	-9.98919
▁스티븐	-9.98937
둔	-9.9894
▁부문	-9.9902
컵	-9.99047
▁최신	-9.99135
▁우라늄	-9.99172
▁드라마	-9.99174
▁DNA	-9.99176
▁벌어진	-9.99178
▁음반	-9.99187
▁않도록	-9.9919
▁1980	-9.99223
▁반정부	-9.99231
▁행진	-9.99245
회사인	-9.99284
▁받	-9.99325
▁열린우리당	-9.99344
▁맨체스터	-9.99344
▁맞서	-9.99388
▁화	-9.99461
▁테러가	-9.99491
▁경기에	-9.99542
▁진술	-9.99545
부시	-9.99619
▁수백만	-9.99818
▁요구하고	-9.99874
▁터키군	-9.99926
느	-9.99983
▁집에	-10.0009
벌	-10.0011
계획	-10.0015
욕	-10.0017
▁속도	-10.0019
▁휘발유	-10.0021
▁페일린	-10.0021
▁첼시	-10.0022
▁가득	-10.0022
▁질환	-10.0023
▁음모	-10.0023
▁벌인	-10.003
▁때문이다	-10.003
▁조사에서	-10.0032
▁포르투갈	-10.0034
▁잔해	-10.0036
▁자세	-10.0039
▁장식	-10.0043
▁장관이	-10.0045
▁회담이	-10.005
▁중에는	-10.0053
▁언급하지	-10.0056
우스	-10.0058
▁유치	-10.0068
▁공개했다	-10.0075
▁문제는	-10.0104
스와	-10.0107
▁MS	-10.0111
▁펜실베이니아	-10.0112
EU	-10.0124
▁무릎	-10.0127
▁믿고	-10.0127
▁훨씬	-10.0127
죠	-10.0127
▁국제유가	-10.0127
▁향후	-10.0128
▁회원국	-10.0128
▁장비	-10.0129
▁휴전	-10.013
▁1990	-10.013
▁거절	-10.014
▁베트남	-10.0142
▁전면	-10.0143
▁해결하기	-10.0156
▁폐지	-10.0166
▁250	-10.0171
▁협회	-10.0173
▁평화적	-10.0177
▁지시	-10.0182
주일	-10.0185
▁용의자들	-10.0187
▁불안	-10.0191
검	-10.0193
시아	-10.0194
▁이들이	-10.0197
▁공원	-10.02
▁소니	-10.0207
▁거주하는	-10.0209
라운드	-10.0211
봉	-10.0223
▁낮	-10.0229
▁희생자들	-10.023
▁페더러	-10.0233
▁샌프란시스코	-10.0233
▁로봇	-10.0233
▁운항	-10.0233
▁하다	-10.0235
▁밀란	-10.0236
▁묘사	-10.0236
▁영토	-10.0238
▁악화	-10.0238
▁예정이며	-10.0245
▁주간	-10.0248
▁추적	-10.025
▁목격자들	-10.0254
▁외부	-10.026
▁붙	-10.0272
19	-10.0274
▁단체는	-10.0277
▁지하	-10.028
렉	-10.0282
까	-10.0286
▁학생들이	-10.0289
▁내에	-10.0289
ly	-10.029
▁한국군	-10.0297
▁워싱턴에서	-10.0304
▁불리는	-10.0313
▁주장하는	-10.032
▁편지	-10.0323
▁생존자	-10.0324
▁면	-10.0325
텔	-10.0326
▁방문했다	-10.033
▁학	-10.0335
척	-10.0336
!	-10.0341
▁밖으로	-10.0341
▁콘서트	-10.0341
▁검색	-10.0341
▁반기문	-10.0341
▁맨유	-10.0342
▁나쁜	-10.0342
▁선거운동	-10.0343
오늘	-10.0344
▁폭우	-10.0345
▁대결	-10.0347
▁시절	-10.035
▁이것이	-10.0364
▁기본	-10.037
▁랭킹	-10.038
▁푸	-10.038
▁무대	-10.0383
▁치르	-10.0386
▁전개	-10.0388
▁향하	-10.039
려는	-10.0393
겨	-10.0395
률	-10.0398
개발	-10.0407
▁계획에	-10.0408
되면	-10.0408
▁방문할	-10.041
▁노동자	-10.0412
▁상징	-10.0414
군이	-10.0436
슨은	-10.0438
TV	-10.044
▁방지	-10.044
▁아카데미	-10.0444
▁며칠	-10.0447
웰	-10.0447
▁온난화	-10.0449
▁세계대전	-10.0449
▁금요일	-10.0449
▁이메일	-10.045
▁접속	-10.0452
▁둘러	-10.0452
암	-10.0452
▁소환	-10.0452
▁입양	-10.0454
▁방법으로	-10.0457
▁밑	-10.046
▁South	-10.0463
▁쥐	-10.0469
▁잃었다	-10.0469
▁진행된	-10.0475
▁바그다드에서	-10.0475
▁니	-10.0477
▁회사들	-10.0477
▁꿈	-10.048
▁심슨	-10.049
▁장애	-10.0504
▁충분한	-10.0506
▁짐	-10.0507
▁잡지	-10.0507
▁당선인은	-10.051
▁목격자	-10.0522
▁계획이	-10.0524
▁것보다	-10.0525
위원회는	-10.0532
▁파악	-10.0545
▁의원들은	-10.0554
▁생각하고	-10.0556
닉	-10.0559
현지시각	-10.0559
▁특파원	-10.0559
▁9.11	-10.0559
▁영변	-10.056
▁학살	-10.0562
▁리비아	-10.0563
▁성향	-10.0563
▁티	-10.0565
▁정부군	-10.0568
▁말합니다	-10.0571
▁참	-10.0577
▁밖에서	-10.0578
▁있	-10.0578
▁존재	-10.0579
▁의무	-10.0583
▁선물	-10.0586
지르	-10.0587
▁앨범	-10.059
6%	-10.0593
▁자기	-10.0594
▁성과	-10.0597
▁취할	-10.0598
▁내전	-10.06
▁이란은	-10.06
운동	-10.0607
통신	-10.0609
▁지켜	-10.0618
▁CIA	-10.0629
▁수집	-10.0631
lo	-10.0632
ap	-10.0635
▁중국에서	-10.0644
▁국제적	-10.0647
▁예상했다	-10.0647
선수	-10.0651
▁다니	-10.0651
치는	-10.0654
달러에	-10.0655
""	-10.0666
딩	-10.0669
▁사무총장	-10.067
송	-10.0671
어야	-10.0671
▁허락	-10.0672
▁리콜	-10.0672
▁화산	-10.0672
▁저항	-10.0672
▁카페	-10.0675
▁특별한	-10.0675
▁출시	-10.0678
▁원하는	-10.0682
▁분야	-10.0683
▁체니	-10.0687
▁기도	-10.0688
모든	-10.0694
▁경기장	-10.0697
▁보상	-10.0699
▁이익	-10.0711
▁레이스	-10.0713
▁해변	-10.0717
▁파타	-10.0734
▁존슨	-10.0739
그들은	-10.0739
벨	-10.0742
▁이번주	-10.0744
▁논란	-10.0745
조사	-10.0746
▁에드	-10.078
픽	-10.0783
▁유나이티드	-10.0783
헤	-10.0783
▁대부분이	-10.0784
▁않았으며	-10.0785
▁생존	-10.0786
찬	-10.0786
▁마이크	-10.0792
▁사살	-10.0795
▁예비	-10.0797
▁마시	-10.08
▁지키	-10.0803
안에	-10.0807
▁철도	-10.081
세계	-10.0812
▁늘	-10.0813
▁아일랜드	-10.0824
려고	-10.0831
▁모양	-10.084
▁기업들	-10.0842
▁보면	-10.0844
녀	-10.0845
▁프	-10.0846
▁사건과	-10.0856
▁입원	-10.0857
스코	-10.0872
▁환	-10.0873
▁선박	-10.0873
▁바라고	-10.0874
주의자	-10.0875
▁총재	-10.0884
▁나서	-10.0884
제를	-10.0887
▁유가	-10.0888
▁챔피언	-10.0896
▁찾고	-10.0896
▁쿠데타	-10.0896
▁헤즈볼라	-10.0896
▁대다수	-10.0897
▁수요	-10.0897
▁봄	-10.0898
▁덮	-10.09
▁확신	-10.09
▁기능	-10.0901
▁핵시설	-10.0901
▁격차	-10.0902
완	-10.0904
귀	-10.0905
폰	-10.0905
▁여기	-10.0905
▁서방	-10.0906
쇼	-10.0906
▁슬	-10.0907
▁사건으로	-10.0908
▁고객	-10.0913
▁이해	-10.0919
▁처음이다	-10.0925
▁발표된	-10.0926
장관은	-10.0937
▁달라	-10.0951
년에는	-10.0953
▁서명	-10.0961
▁차드	-10.0966
▁빛	-10.0967
▁가까이	-10.0972
ia	-10.0974
cm	-10.0974
▁공격이	-10.0975
▁폭발물	-10.098
▁잔	-10.0983
▁경찰서장	-10.0995
▁전투기	-10.0997
▁황	-10.1007
▁Iraq	-10.1009
▁멸종	-10.1011
▁with	-10.1011
▁여자친구	-10.1011
▁겨울	-10.1012
▁마틴	-10.1014
▁체결	-10.1015
▁복구	-10.1015
▁악	-10.1015
▁걸릴	-10.1016
▁만날	-10.1017
ow	-10.1018
니는	-10.1027
▁노출	-10.1031
▁파티	-10.1033
▁힘들	-10.1038
▁이송	-10.1039
est	-10.1044
100	-10.1047
▁톰	-10.1049
법원	-10.1059
물을	-10.108
였	-10.1081
▁강조	-10.1085
▁시점	-10.109
학교	-10.1091
▁부르	-10.1096
했기	-10.1101
▁샤리프	-10.1103
▁현재까지	-10.1109
▁의회의	-10.111
▁남아	-10.1123
▁국왕	-10.1125
갑	-10.1125
▁알래스카	-10.1127
▁다르푸르	-10.1128
근	-10.113
▁특정	-10.113
▁탈	-10.1132
▁답	-10.1135
▁심문	-10.1135
▁동반	-10.1136
▁일환으로	-10.1136
▁업무	-10.1141
대통령	-10.1142
▁무력	-10.1142
장관	-10.1142
됐고	-10.1142
째	-10.1145
라도	-10.1145
공격	-10.1147
▁다이아몬드	-10.115
▁마르	-10.115
▁절대	-10.1151
▁통합	-10.1166
▁수감자	-10.1167
▁제도	-10.1168
▁CEO	-10.1168
대학	-10.1174
▁추정되는	-10.1177
▁최초로	-10.1181
▁웨스트	-10.1185
▁신호	-10.1185
▁요원	-10.1192
왔	-10.1196
▁둘	-10.1211
ry	-10.1214
찰	-10.1219
▁알아	-10.1232
잡	-10.1233
▁대통령에	-10.1234
▁사용되	-10.1242
▁다우존스	-10.1245
▁달라이라마	-10.1245
▁전해	-10.1245
▁설득	-10.1245
▁교환	-10.1246
▁오염	-10.1251
▁라고	-10.1252
▁탐사	-10.1252
▁보통	-10.1255
▁치러진	-10.1256
▁일주일	-10.1257
▁떠	-10.1257
▁사실상	-10.1259
쓰	-10.1262
▁되기	-10.1262
▁잠시	-10.1264
▁파산	-10.1265
스키	-10.1265
ak	-10.1266
칸	-10.1267
▁현상	-10.1268
허	-10.1269
▁땅	-10.1269
V	-10.1273
▁이스라엘과	-10.1276
▁머	-10.1291
▁아이들이	-10.1295
익	-10.1296
▁37	-10.1299
▁이스라엘군	-10.1299
▁FTA	-10.1302
▁상점	-10.1304
▁여사	-10.1306
원제	-10.1308
▁통신은	-10.1308
▁제안했다	-10.1315
차전	-10.1321
ig	-10.1321
▁결정은	-10.1328
▁엔	-10.1334
내가	-10.1335
▁보고했다	-10.1337
▁묻	-10.1343
▁가자	-10.1345
되어야	-10.1351
▁시작한	-10.1354
▁광산	-10.1356
▁근거	-10.1357
주는	-10.1357
▁업계	-10.136
젤	-10.1363
선거	-10.1364
]	-10.1364
▁더불어	-10.1364
▁발굴	-10.1365
▁바꾸	-10.1366
▁않지만	-10.1368
▁행복	-10.1368
▁어려운	-10.1368
▁커피	-10.1369
▁50%	-10.1374
▁강요	-10.1376
관은	-10.1377
▁경보	-10.1382
▁이하	-10.1388
▁솔	-10.1391
▁내용이	-10.1394
▁된다고	-10.1396
었고	-10.1398
▁경찰서	-10.1399
▁라이	-10.1417
▁법정	-10.142
▁회원	-10.1426
▁de	-10.143
▁폐기	-10.143
▁밝히고	-10.1432
▁협상이	-10.1435
▁갖	-10.1442
▁FARC	-10.1443
▁목적으로	-10.1446
▁외교적	-10.145
▁깨	-10.1454
▁올리	-10.1462
▁직면	-10.1465
▁시장에서	-10.1473
▁시위에	-10.1478
닥	-10.1478
▁말라	-10.1478
▁스리랑카	-10.1485
▁에드워즈	-10.1485
후드	-10.1485
▁일본에서	-10.1485
▁갑자	-10.1485
▁출석	-10.1486
연맹	-10.1487
▁매각	-10.149
▁도입	-10.1491
▁일본이	-10.1491
▁신임	-10.1498
▁적은	-10.1498
▁거두	-10.1498
▁고대	-10.1506
▁낸	-10.1507
▁계속되고	-10.1509
▁서울에서	-10.1513
▁적절한	-10.1519
▁36	-10.1521
400	-10.1532
▁사전	-10.1539
▁영화제	-10.1541
트리	-10.1543
▁상승했다	-10.1545
▁다수	-10.1547
▁있어서	-10.1548
▁감정	-10.1562
▁타이	-10.1564
▁다우	-10.1565
▁교도소	-10.1566
▁책임자	-10.157
▁대기	-10.1575
▁투어	-10.1577
▁시드	-10.1579
▁의지	-10.1584
id	-10.1585
▁본사	-10.1587
▁st	-10.159
▁식	-10.1592
▁수상자	-10.1597
▁늘어	-10.1599
▁의식	-10.1606
▁방글라데시	-10.1607
▁오스트리아	-10.1607
▁칠레	-10.1607
▁노동자들	-10.1607
▁NBC	-10.1608
▁단순	-10.1609
▁합동	-10.161
▁성관계	-10.1611
▁기존	-10.1612
▁됩니다	-10.1613
▁넓	-10.1613
▁것이라며	-10.1619
▁의회는	-10.1623
▁보유	-10.1626
▁샌	-10.1627
▁아동	-10.1632
▁북측	-10.1634
뿐	-10.1637
사회	-10.1637
▁회	-10.164
▁소수	-10.1642
▁국회의원	-10.1648
사태	-10.1648
▁그림	-10.1655
▁무시	-10.1661
▁세상	-10.1661
▁부근에서	-10.1663
▁중부	-10.1666
뉴스	-10.1668
▁오브	-10.1669
▁중요	-10.1676
▁만족	-10.1682
▁승리했다	-10.1684
했음	-10.1684
▁실시되	-10.1687
만약	-10.1693
▁소식이	-10.17
니아	-10.1704
▁이것	-10.1705
▁크	-10.171
로운	-10.1716
▁부과	-10.1717
▁노력하고	-10.1719
▁야생	-10.1723
▁벗어나	-10.1723
▁노스캐롤라이나	-10.173
▁봉쇄	-10.173
▁폭동	-10.1734
▁치열	-10.1734
ational	-10.1734
▁고소	-10.1736
▁부담	-10.1737
▁후원	-10.1739
▁버마	-10.1742
▁린	-10.1749
▁많다	-10.1753
최	-10.1753
▁美	-10.1753
▁가했다	-10.1756
▁복용	-10.1758
▁최	-10.176
▁부여	-10.1762
둘	-10.1762
곡	-10.1763
이슬람	-10.1764
▁각국	-10.1766
▁공산당	-10.1767
▁중독	-10.177
세력	-10.1771
im	-10.1774
빠진	-10.1774
▁로한	-10.1775
정도	-10.1779
▁조성	-10.1797
▁해병대	-10.18
▁말까지	-10.1806
▁모인	-10.1808
브라	-10.1809
▁일간	-10.181
▁행성	-10.181
▁공항에서	-10.181
▁추측	-10.1811
▁사인	-10.1814
장치	-10.1817
상의	-10.1821
▁크기	-10.1825
▁테러리스트	-10.1825
세인	-10.183
te	-10.183
▁내놓	-10.1834
혼	-10.1834
년이	-10.1838
▁순찰	-10.1838
▁의회에	-10.1843
▁충	-10.1845
▁블랙	-10.1854
▁없으며	-10.1855
▁마카오	-10.1855
▁흡연	-10.1855
▁검거	-10.1855
▁카르자이	-10.1855
▁농축	-10.1856
▁가옥	-10.1856
▁하늘	-10.1856
으로써	-10.186
▁청소년	-10.1862
▁재무장관	-10.1863
▁소설	-10.1863
▁공중	-10.1869
▁보관	-10.187
▁나이지리아	-10.1873
▁측정	-10.1876
ma	-10.1882
참	-10.1886
▁만화	-10.1888
▁현실	-10.189
파키스탄	-10.1892
▁조사에	-10.1893
▁워	-10.1917
▁식품	-10.192
조직	-10.1922
조원	-10.1933
▁명단	-10.1934
▁환자들	-10.1943
▁전날	-10.1944
▁북쪽	-10.1944
▁나갈	-10.1951
사의	-10.1952
▁증가하고	-10.1966
으	-10.1975
▁자리에서	-10.1978
▁이끌어	-10.1982
▁네트워크	-10.1982
▁훌륭	-10.1982
▁파예드	-10.1982
▁습격	-10.1982
▁카스트로	-10.1982
더라도	-10.1982
▁복잡	-10.1982
▁목록	-10.1983
수를	-10.1984
▁취재	-10.1985
▁최선	-10.1986
▁말하는	-10.1986
잔	-10.1986
▁시드니	-10.1988
▁페루	-10.199
▁구출	-10.199
가격	-10.1991
▁개방	-10.1992
▁헌	-10.1997
업자	-10.1999
▁공격에	-10.2002
de	-10.2005
▁있었고	-10.2007
▁아니	-10.2008
▁고등학교	-10.2014
▁내릴	-10.202
▁야기	-10.2021
버그	-10.2026
상황	-10.2029
분의	-10.2035
▁탐	-10.2042
당국	-10.2047
▁태평양	-10.2051
관련	-10.2057
▁기다리고	-10.2058
되며	-10.2065
▁선언했다	-10.2068
▁기반	-10.2088
▁움직이	-10.2088
▁이유는	-10.2099
괴	-10.2103
▁왕세자	-10.2104
▁이루	-10.2107
▁항소	-10.2109
▁북동부	-10.211
▁스웨덴	-10.211
▁혜택	-10.211
▁훼손	-10.211
▁숫자	-10.211
되자	-10.2111
▁남아공	-10.2112
▁순방	-10.2113
▁체제	-10.2113
▁했지만	-10.2115
▁분리	-10.2116
▁상처	-10.2117
▁거뒀다	-10.2117
▁발병	-10.2119
▁윌	-10.212
▁삼성	-10.2123
▁유감	-10.2124
▁불러	-10.2132
델	-10.2135
▁숙	-10.2139
▁이주	-10.2145
▁성공적	-10.2146
균	-10.2147
▁모여	-10.2147
▁방화	-10.215
폴	-10.2152
빙	-10.2153
▁그동안	-10.2162
▁대답	-10.2163
▁니콜	-10.2165
▁분석가	-10.2167
이션	-10.2179
데이	-10.2185
▁의회에서	-10.2189
지난	-10.2191
▁델	-10.2193
드라	-10.2205
▁사라	-10.2212
▁지도자들은	-10.2216
도시	-10.2217
▁베이징에서	-10.2225
▁주제	-10.2227
▁되찾	-10.224
▁이렇게	-10.224
▁정확히	-10.224
멋진	-10.224
▁덴마크	-10.224
▁고향	-10.2244
▁지진이	-10.2247
▁진실	-10.2247
▁사담	-10.2248
▁2010	-10.225
▁특사	-10.2253
▁작동	-10.2257
▁로비	-10.2259
▁스테	-10.2259
▁현금	-10.226
▁이뤄지	-10.2269
▁Re	-10.2272
드시	-10.2274
웨	-10.2277
▁10%	-10.2277
풍	-10.2278
▁거부했다	-10.2279
▁올린	-10.2284
▁시내	-10.2286
▁지속	-10.2286
▁탈출	-10.2291
▁목사	-10.2293
▁명은	-10.231
▁AC	-10.2316
▁반군이	-10.232
▁카드	-10.2321
로스	-10.2334
▁했으며	-10.2334
▁표시	-10.234
▁말리키	-10.2346
▁본선	-10.2347
▁주지	-10.2352
명에게	-10.2354
펠	-10.2359
▁세포	-10.2365
▁플레이	-10.2366
국인	-10.2366
켓	-10.2367
▁군인들	-10.2367
▁수영	-10.2368
▁마찬가지	-10.2371
▁명확	-10.2371
▁will	-10.2372
▁커플	-10.2373
▁중지	-10.2374
▁레알	-10.2374
▁자극	-10.2375
▁입증	-10.2377
▁일리노이주	-10.2381
▁만난	-10.2381
▁챔피언스리그	-10.2382
▁실패했다	-10.2383
▁고발	-10.2384
▁선발	-10.2385
▁끼	-10.2387
▁승	-10.2389
▁웨	-10.239
검사	-10.2397
▁발생했으며	-10.2402
▁제공하는	-10.2404
십	-10.2404
듯	-10.241
▁대가로	-10.2412
▁형태	-10.2417
행위	-10.2419
해주	-10.2422
▁육	-10.2423
정보	-10.2425
웨이	-10.2426
현재	-10.2428
▁시위대는	-10.2431
▁공화국	-10.2432
300	-10.2434
있	-10.2436
▁600	-10.2446
▁권한	-10.2452
금을	-10.2461
▁클레	-10.2466
▁빅	-10.2476
▁답변	-10.2484
▁함	-10.249
객	-10.2492
▁방침	-10.25
▁붉은	-10.2503
▁남동부	-10.2505
▁예루살렘	-10.2505
▁청문회	-10.2505
▁새끼	-10.2506
▁마치고	-10.2506
▁있다면	-10.2507
짜리	-10.2511
▁결정에	-10.2512
PA	-10.2513
▁소요	-10.2515
▁노예	-10.2515
▁IAEA	-10.2518
▁Japan	-10.2521
지금	-10.2533
스티	-10.2535
자들의	-10.2536
▁진화	-10.2541
▁이양	-10.2542
▁초점	-10.2543
됐을	-10.2544
화를	-10.2546
▁an	-10.2554
지수	-10.2556
그룹	-10.2558
▁항	-10.2561
연구소	-10.2562
▁화학	-10.2562
▁안에서	-10.2568
600	-10.2568
릭	-10.2569
▁발생하지	-10.2576
대회	-10.2591
▁얻기	-10.2599
▁대회에서	-10.26
▁보안군	-10.2601
▁차관	-10.2601
▁대선에서	-10.2602
천만	-10.2605
▁끌어	-10.2605
▁보인다고	-10.2611
▁수업	-10.2613
▁바이	-10.2613
럴	-10.2615
▁체계	-10.2617
99	-10.2625
해줄	-10.2627
▁하면	-10.2627
▁노벨	-10.263
▁그것이	-10.2631
▁외교관	-10.2632
▁장군	-10.2634
사인	-10.2634
▁사장은	-10.2634
팅	-10.2636
▁진전	-10.2638
▁활주로	-10.264
▁외교통상부	-10.264
▁완벽	-10.264
▁폴란드	-10.264
▁다니엘	-10.2641
▁분열	-10.2644
▁철	-10.2648
▁멀	-10.2649
▁이중	-10.265
기업	-10.2653
▁근처	-10.2653
90	-10.2656
▁어린이들	-10.2657
▁38	-10.2663
▁받아야	-10.2663
▁중순	-10.2666
▁보석	-10.2667
시키려	-10.2674
▁인사들	-10.2678
age	-10.2679
▁봉사	-10.268
산업	-10.268
▁열대	-10.268
압	-10.2683
▁사장	-10.2685
▁이행	-10.269
곤	-10.2691
▁결의안	-10.2693
홍	-10.2698
칼	-10.2698
생활	-10.2706
▁희생	-10.2717
▁납치된	-10.2721
▁돌아	-10.2723
쳤	-10.2733
▁군정	-10.2733
▁폭격	-10.2746
▁측근	-10.2747
▁위원회는	-10.275
▁원한다	-10.2756
▁실망	-10.2757
적이고	-10.2758
▁의학	-10.2762
어스	-10.2764
당국은	-10.2765
▁절	-10.2769
▁뉴욕에서	-10.2775
웅	-10.2776
▁잃은	-10.2777
▁리조트	-10.2777
▁삭제	-10.2777
▁시장에	-10.2777
▁타이틀	-10.2777
▁관찰	-10.2777
▁아이디어	-10.2778
▁있었지만	-10.2778
▁복무	-10.2778
▁크루즈	-10.2779
▁표했다	-10.2779
▁합병	-10.2779
▁모기지	-10.278
▁생긴	-10.278
▁고립	-10.2782
▁아니면	-10.2782
▁철군	-10.2782
▁PC	-10.2783
▁무죄	-10.2785
▁분명히	-10.2786
▁런던에서	-10.2789
▁인디애나	-10.2791
▁대량	-10.2792
▁구금	-10.2792
▁견해	-10.2792
수록	-10.2797
6000	-10.2797
▁부정적	-10.2798
▁발간	-10.2799
▁공유	-10.2803
▁높아지	-10.2803
▁난사	-10.2805
▁방향	-10.2805
▁호세	-10.2805
▁노대통령	-10.2805
▁양측	-10.2807
BC	-10.2812
▁기상	-10.2814
▁실적	-10.2814
▁유전자	-10.2815
▁싸움	-10.2816
▁폭탄이	-10.2822
육	-10.2825
▁피해가	-10.2827
▁달러에	-10.2831
접	-10.2835
팔	-10.2837
싱	-10.2838
된다고	-10.2842
▁수감자들	-10.2844
▁빙하	-10.2844
▁수상했다	-10.2846
사고	-10.2849
▁신체	-10.2852
▁지시했다	-10.2854
▁위원장	-10.2861
▁하던	-10.2863
▁부서	-10.2867
▁방송국	-10.287
피트	-10.2877
▁증권	-10.2878
이던	-10.288
보다는	-10.2894
▁주지사가	-10.2897
▁보고서에서	-10.2899
닌	-10.2906
징	-10.2912
▁라스베이거스	-10.2916
▁봤다	-10.2916
▁태어난	-10.2916
▁토마스	-10.2916
all	-10.2916
▁운송	-10.2916
▁은퇴	-10.2918
▁채택	-10.2918
▁회동	-10.2919
▁청구	-10.2923
▁일반적으로	-10.2925
ity	-10.2926
▁돌아오	-10.2926
▁계획이라고	-10.2927
▁갖게	-10.2927
▁위조	-10.2934
▁안전한	-10.2936
분간	-10.2936
▁서신	-10.2937
▁총격전	-10.2938
▁크라이슬러	-10.2942
▁캘리포니아주	-10.2949
▁누리	-10.2951
▁크레	-10.2956
▁과학자	-10.2957
▁리그	-10.2958
영국	-10.2958
▁경영	-10.2963
▁고어	-10.2964
▁기대하고	-10.2971
대한	-10.2995
▁그래	-10.3
▁의미한다	-10.3003
되었고	-10.3003
▁한국에서	-10.3005
▁트리	-10.3009
건의	-10.3012
▁지역으로	-10.3013
-1	-10.3016
치를	-10.3017
명도	-10.3018
▁주기	-10.303
12	-10.3032
▁여성의	-10.3035
▁나누	-10.3036
▁하게	-10.3036
력이	-10.3039
▁교사	-10.304
ter	-10.3041
트라	-10.3044
▁방법이	-10.3047
▁성화봉송	-10.3047
▁재단	-10.3051
800	-10.3051
▁선거에	-10.3052
▁값	-10.3055
탑	-10.3056
▁맞춰	-10.3056
▁앓고	-10.3056
▁협박	-10.3056
▁사우디아라비아	-10.3057
▁심지어	-10.3057
▁보여줬다	-10.3057
▁면담	-10.3058
▁하원의원	-10.3058
▁데이터	-10.3059
▁2012	-10.3061
▁보낼	-10.3061
▁거쳐	-10.3066
▁유발	-10.3073
▁재난	-10.3073
겠지만	-10.3074
▁기금	-10.3074
▁실종된	-10.3076
▁위로	-10.3079
▁보유하고	-10.3082
▁승리한	-10.3083
ck	-10.3085
▁이루어지	-10.3086
▁무선	-10.3094
▁시청	-10.3094
▁콩고	-10.3095
틴	-10.3097
자들에게	-10.31
▁즐	-10.3103
▁토론회	-10.3105
궁	-10.3108
j	-10.3109
기술	-10.311
▁이사회	-10.3116
▁영장	-10.312
▁혁명	-10.3121
롤	-10.3124
▁뼈	-10.3127
▁자세한	-10.3129
부대	-10.313
700	-10.3133
▁사회적	-10.3147
하고자	-10.3149
일본	-10.3154
▁죄	-10.3154
▁생각하는	-10.3173
타운	-10.3173
때문에	-10.3174
리스트	-10.3178
▁호텔에서	-10.3182
▁전역	-10.3191
▁주목	-10.3191
▁태양	-10.3199
릿	-10.3199
▁바르셀로나	-10.3199
▁휴대전화	-10.3199
▁나오는	-10.32
▁엄격	-10.32
▁케이블	-10.32
▁1994	-10.3202
▁앞에	-10.3202
▁논평	-10.3203
▁하와이	-10.3203
▁경제에	-10.3203
▁해결책	-10.3205
▁단속	-10.3205
▁마쳤다	-10.3205
▁명예	-10.3206
기지	-10.3208
▁형제	-10.3208
▁무료	-10.3209
현지	-10.3209
▁강타	-10.3214
▁대학교	-10.3214
▁신발	-10.3215
▁유력	-10.3216
▁치러	-10.3217
▁48	-10.3218
▁추정된다	-10.3218
▁계획은	-10.3218
▁획득	-10.3224
▁도달	-10.3227
회담	-10.3232
▁만들어진	-10.3235
▁보이	-10.3236
▁누군가	-10.3239
▁못하게	-10.3248
택	-10.3251
▁클린턴이	-10.3252
▁경쟁자	-10.3258
▁스키	-10.3258
▁상태에	-10.326
▁조합	-10.3269
협상	-10.3272
▁얻어	-10.3275
▁전쟁에	-10.3276
▁사용한	-10.3277
되었던	-10.3287
련	-10.3292
됐었다	-10.3293
▁국장	-10.3302
들로부터	-10.3302
▁것이고	-10.3305
작전	-10.3311
▁책임이	-10.3311
▁3000	-10.3317
해진	-10.332
▁초대	-10.3322
▁빚	-10.3322
▁동성애자	-10.3326
▁주식시장	-10.3326
▁도시에서	-10.3328
▁측은	-10.3334
핑	-10.334
세가	-10.334
멸	-10.3342
▁찾을	-10.3344
▁쓰나미	-10.3344
▁에어버스	-10.3344
▁외환은행	-10.3345
▁급등	-10.3346
▁이후로	-10.3346
▁-	-10.3347
▁디자인	-10.3347
▁두바이	-10.3352
▁펼쳤다	-10.3356
▁시각	-10.3357
▁여권	-10.3358
▁중심부	-10.3359
▁신중	-10.3362
진다	-10.3364
▁간단	-10.3364
▁동티모르	-10.3365
▁녹	-10.3367
▁참석했다	-10.3368
▁기계	-10.337
▁못한다	-10.3371
▁보트	-10.3373
▁사령관은	-10.3374
네스	-10.3375
으려	-10.3375
▁주한미군	-10.3379
라스	-10.3385
지역에서	-10.3388
▁비교	-10.3388
▁한때	-10.3388
▁논란이	-10.3395
▁잇	-10.3398
▁펜	-10.3405
▁공간	-10.3405
걸	-10.3409
장인	-10.3414
▁마비	-10.3414
▁물가	-10.3418
▁말하며	-10.3419
▁사드르	-10.342
▁회의에서	-10.3421
스타인	-10.3422
▁홀	-10.3437
지구	-10.3443
▁곡	-10.3445
▁신부	-10.3447
▁운동을	-10.3448
▁해양	-10.3449
▁비용이	-10.3449
▁분명	-10.3449
▁발생하는	-10.3451
사항	-10.3451
▁의석	-10.3456
▁당신이	-10.3464
스카	-10.3465
험	-10.3466
활	-10.3467
스톤	-10.347
▁지정	-10.3477
▁테러범	-10.3484
▁주한	-10.349
킬로미터	-10.3491
▁그렇지	-10.3491
▁불능화	-10.3491
▁일으킨	-10.3491
▁송환	-10.3492
▁저지른	-10.3493
▁(=	-10.3493
▁기밀	-10.3498
▁나올	-10.3499
▁이루어졌다	-10.35
▁견	-10.3503
▁공포	-10.3505
▁자문	-10.3507
▁보복	-10.3508
▁주인	-10.3514
▁존중	-10.3515
학자	-10.3516
▁점차	-10.3518
▁첫번째	-10.3521
▁케리	-10.353
▁피트	-10.353
▁이곳에	-10.3535
▁우리당	-10.3536
▁응답자	-10.3543
▁차관보는	-10.3554
되었으며	-10.3555
군은	-10.3556
▁일으키	-10.3557
▁감독이	-10.3561
▁지켜보	-10.3563
칭	-10.3566
맥	-10.3571
▁시티	-10.3572
▁마감했다	-10.3573
널	-10.3591
▁민주	-10.3595
▁망	-10.3595
주에서	-10.3597
▁물건	-10.3604
이기	-10.3604
▁못해	-10.3613
▁몰아	-10.3615
▁지목	-10.3615
▁제기했다	-10.3623
▁생일	-10.3625
▁그리	-10.3629
▁아이오와	-10.3629
▁리처드	-10.363
제대로	-10.3634
▁자유를	-10.3634
▁죽은	-10.3635
▁배출	-10.3641
▁레스토랑	-10.3641
▁선거캠프	-10.3641
▁옆에	-10.3641
▁plan	-10.3641
▁흥분	-10.3641
qu	-10.3641
▁중재	-10.3642
our	-10.3643
▁우리나라	-10.3643
▁종류	-10.3646
▁받았으며	-10.3646
츠는	-10.3647
▁임금	-10.3649
▁노동당	-10.3649
▁개표	-10.365
▁유출	-10.3651
▁세계은행	-10.3655
▁표명	-10.3658
▁김대중	-10.3662
▁발전소	-10.3664
▁공약	-10.3669
▁검사는	-10.3671
▁파손	-10.3673
▁것이었다	-10.3674
ant	-10.3675
▁중국에	-10.3678
▁답했다	-10.3678
물이	-10.3679
▁아니었다	-10.3684
▁우주비행사	-10.3686
되었	-10.3692
▁상어	-10.3698
▁가구	-10.3701
디스	-10.3703
셀	-10.3713
▁법안이	-10.3719
▁역사적	-10.372
이었으며	-10.372
▁주문	-10.372
▁목격	-10.3725
이스라엘	-10.3728
파운드	-10.3729
펜	-10.3729
▁비판했다	-10.3731
제도	-10.374
▁주장에	-10.3743
▁발언에	-10.3747
번째로	-10.3748
-2	-10.3751
오는	-10.3752
국장은	-10.3755
▁국방	-10.3755
▁130	-10.3756
79	-10.376
▁42	-10.3767
▁방영	-10.377
▁지지율	-10.3771
▁세워	-10.3772
다시	-10.3773
▁압둘	-10.3774
놓	-10.3775
▁백악관은	-10.3776
돼있다	-10.3779
▁싶어	-10.378
원은	-10.3783
▁당수	-10.3784
▁조기	-10.3789
▁백인	-10.3792
0,000	-10.3792
▁가슴	-10.3792
▁곤잘레스	-10.3792
▁헨리	-10.3792
▁프로그램에	-10.3793
▁핵프로그램	-10.3793
▁숀	-10.3794
▁지상	-10.3795
▁강풍	-10.3795
▁인생	-10.3796
▁테스트	-10.3796
▁경영진	-10.3797
▁1970	-10.38
ay	-10.3804
-3	-10.3805
▁예전	-10.3808
▁보도에따르면	-10.3811
조차	-10.3816
▁차단	-10.3817
▁요소	-10.3818
▁불길	-10.3818
▁만났다	-10.382
▁기자들에게	-10.382
▁일리노이	-10.382
▁다루	-10.3821
세트	-10.3824
바이	-10.3825
▁법원에	-10.3826
원을	-10.3827
쪽	-10.3829
▁미국측	-10.3831
▁그래서	-10.3832
▁사망자수	-10.3835
ang	-10.3836
세로	-10.3841
▁외곽	-10.3845
▁뿐만아니라	-10.3848
▁콘	-10.385
아이	-10.3852
▁지속적	-10.3855
▁하이	-10.3859
65	-10.3859
▁따라서	-10.3861
▁없었	-10.3862
스크	-10.3862
슬리	-10.3866
▁개장	-10.3867
▁중간	-10.3875
시위	-10.3875
▁800	-10.3876
▁자원	-10.388
▁총장은	-10.3881
홀	-10.3882
Y	-10.3882
45	-10.3907
47	-10.3907
▁이민	-10.3908
트로	-10.3912
국제	-10.3915
▁사용자	-10.3915
▁선전	-10.3925
시대	-10.3929
퇴	-10.393
▁특	-10.393
겼다	-10.3932
▁열어	-10.3939
롱	-10.3943
82	-10.3944
▁나스닥	-10.3946
▁북서부	-10.3946
▁와인하우스	-10.3946
▁침입	-10.3947
▁화장실	-10.3948
▁들어갔다	-10.3948
해질	-10.3948
▁이라크와	-10.3948
▁자유롭	-10.3948
▁직업	-10.3948
▁ABC	-10.3948
▁진영	-10.395
▁산림	-10.3952
▁사막	-10.3953
▁화면	-10.3955
▁40%	-10.3957
▁배경	-10.396
시에	-10.3961
▁올려	-10.3961
▁쓴	-10.3961
▁왔	-10.3963
▁인류	-10.3971
▁해임	-10.3971
차량	-10.3976
▁앨	-10.3977
▁얼음	-10.398
▁논의하기	-10.398
▁사용될	-10.3984
▁짓	-10.3992
▁집으로	-10.3993
▁가능하다	-10.3999
▁음	-10.4
▁말해	-10.4002
▁보지	-10.4002
▁리드	-10.4003
one	-10.4005
▁돼지	-10.4012
▁세대	-10.4012
▁셀	-10.4012
미군	-10.4019
▁두번째	-10.4024
▁재건	-10.4031
석을	-10.4031
▁감지	-10.4032
▁식당	-10.4034
ill	-10.4038
▁아프가니스탄에서	-10.4038
콘	-10.4039
▁리치	-10.4044
▁걸리	-10.4045
▁근로자	-10.4047
러시아	-10.4047
▁경비	-10.4047
국이	-10.405
비치	-10.4053
간에	-10.4053
▁결과는	-10.4062
대사	-10.4062
▁생각했다	-10.4063
11	-10.4067
▁베르	-10.4067
▁블	-10.4067
ne	-10.4067
▁시민들이	-10.4072
▁혐의에	-10.4072
18	-10.4083
▁주었다	-10.4096
▁건축	-10.4097
▁장례식	-10.41
▁요르단	-10.41
▁President	-10.4102
▁떠났다	-10.4102
▁블라디미	-10.4102
▁없지만	-10.4102
▁궤도	-10.4102
▁촉발	-10.4102
▁활약	-10.4102
닷컴	-10.4102
▁둘러싸	-10.4102
▁라이벌	-10.4103
▁대륙	-10.4103
▁패션	-10.4103
▁자치정부	-10.4104
▁법무부	-10.4105
▁맞추	-10.4107
▁축소	-10.4107
▁왕실	-10.4108
▁언어	-10.411
▁성격	-10.4111
▁불편	-10.4114
달라고	-10.4118
▁다우지수	-10.4119
▁스코틀랜드	-10.4121
▁백악관에서	-10.4122
▁극복	-10.4122
▁공모	-10.4123
▁해적	-10.4123
드로	-10.4124
▁직전	-10.4129
▁연안	-10.4133
▁전원	-10.4134
▁라이트	-10.4135
소를	-10.4138
▁북미	-10.4147
16	-10.4148
▁시기에	-10.415
측이	-10.4151
▁맥주	-10.4151
▁홈	-10.4151
▁독도	-10.4154
▁홍	-10.4155
▁세금을	-10.4168
르는	-10.4171
▁대치	-10.4171
▁폭락	-10.4172
▁가해	-10.4172
비아	-10.4175
▁자신에게	-10.4178
▁개시	-10.4178
▁연금	-10.4183
▁농장	-10.4186
▁합류	-10.4189
우주	-10.4191
▁나타내	-10.4192
얼	-10.4192
폐	-10.4194
▁진술했다	-10.4195
킹	-10.4195
▁보내는	-10.4195
▁맡은	-10.4197
▁55	-10.4198
▁등장	-10.42
희	-10.42
놀	-10.4203
뿐만아니라	-10.4203
▁결의안을	-10.4208
▁영국인	-10.4209
▁윤	-10.4222
안보	-10.4222
▁즉각	-10.4228
▁위에	-10.4236
▁불과	-10.424
베나	-10.4241
▁프레	-10.4242
탕	-10.4247
ance	-10.4252
▁동쪽	-10.4253
▁자사	-10.4256
춘	-10.4257
뜨	-10.4258
▁샤라포바	-10.4261
▁일찍	-10.4261
▁남서부	-10.4261
▁리차드	-10.4261
▁가택연금	-10.4261
▁받아들일	-10.4261
▁겨냥	-10.4261
▁천주교	-10.4261
▁패트릭	-10.4261
▁거듭	-10.4262
▁수석대표	-10.4262
▁빈곤	-10.4262
▁적극적	-10.4263
▁관영	-10.4263
▁잡고	-10.4266
▁상업	-10.4266
▁구축	-10.4266
▁낸시	-10.4275
▁일어나	-10.4275
▁들여	-10.4278
▁대항	-10.4282
아야	-10.4284
▁정신적	-10.4285
즉각적인	-10.4285
▁도착한	-10.4287
▁해산	-10.429
결과	-10.4299
▁주장하며	-10.43
ight	-10.4301
▁전환	-10.4305
위의	-10.4312
▁지내	-10.4323
▁120	-10.4325
▁한국에	-10.4325
버리	-10.4332
▁일제	-10.4336
▁자제	-10.4337
▁만들고	-10.434
▁의원들	-10.4343
▁모스크바	-10.4345
▁병사들	-10.4345
▁꾸	-10.4347
▁소득	-10.4347
▁무엇	-10.4347
▁앉아	-10.4349
▁at	-10.4349
▁프레스	-10.4351
▁사법	-10.436
윈	-10.4361
▁벌였	-10.4364
몰	-10.4365
man	-10.4366
▁부근	-10.4368
▁감염된	-10.4368
카운티	-10.4368
▁즐기	-10.4371
▁조약	-10.4379
매우	-10.4382
▁눈에	-10.4389
▁공항에	-10.4391
▁싸	-10.4394
▁애도	-10.4398
투표	-10.4399
▁메이	-10.4401
▁오바마와	-10.4408
▁월드	-10.4411
▁전역에	-10.4412
▁수송	-10.4418
틸	-10.4421
켄	-10.4422
▁쌍둥이	-10.4422
▁알코올	-10.4422
▁상하이	-10.4423
▁탄핵	-10.4423
▁영웅	-10.4423
▁다섯	-10.4423
▁케빈	-10.4423
▁비난하고	-10.4425
▁상태로	-10.4427
▁공사	-10.4428
▁사람에게	-10.4428
▁폭파	-10.443
▁거리에	-10.4431
▁입법	-10.4433
▁오사마빈라덴	-10.4435
▁스타일	-10.4439
▁카터	-10.444
▁공개된	-10.4442
▁초반	-10.4443
▁혼	-10.4446
▁것인가	-10.4446
▁회사가	-10.4448
▁묵	-10.4449
▁달려	-10.4452
▁나토군	-10.4457
▁데이	-10.4458
▁시장이	-10.4459
▁이재민	-10.4459
▁던지	-10.4461
▁보호하기	-10.4462
▁타임스	-10.4462
▁들어오	-10.4463
▁확실한	-10.4468
▁투표에서	-10.4469
▁날아	-10.4472
▁폭스	-10.4473
▁국민들에게	-10.4474
▁금리	-10.4481
▁동기	-10.4482
ine	-10.4484
뉴	-10.4489
식을	-10.4492
▁계	-10.4495
co	-10.4498
리가	-10.45
av	-10.4505
세이	-10.4505
▁이론	-10.4508
▁평가했다	-10.4511
▁인근에	-10.4512
미터	-10.4516
▁논	-10.4519
▁하락세	-10.4524
▁떨어졌	-10.4528
답	-10.453
▁증가한	-10.4531
농	-10.4532
▁친구들	-10.4533
PS	-10.4538
냈	-10.4539
▁여행객	-10.4541
됐으나	-10.4542
▁감행	-10.4542
▁가져	-10.4552
▁연관	-10.4552
▁와인	-10.4554
▁포로	-10.4564
▁대상이	-10.4577
▁완전한	-10.4582
촉	-10.4585
콤	-10.4586
▁디지털	-10.4586
▁마이애미	-10.4586
▁유튜브	-10.4586
▁캄보디아	-10.4586
▁비타민	-10.4586
▁천연가스	-10.4586
▁오딩가	-10.4586
▁침몰	-10.4586
▁날짜	-10.4587
▁지하철	-10.4587
▁로이터	-10.4588
▁새벽	-10.4588
▁급격	-10.4588
▁소련	-10.4589
▁산사태	-10.4589
돼야	-10.4589
▁채널	-10.4589
▁사찰단	-10.459
라드	-10.4591
▁감금	-10.4591
▁게재	-10.4592
▁엔진	-10.4593
▁분류	-10.4594
▁보험	-10.4596
▁취임식	-10.4597
▁전세계적으로	-10.4601
▁미시시피	-10.4603
▁상공	-10.4603
가족	-10.4605
▁75	-10.4607
▁증상	-10.4609
▁쌀	-10.461
14	-10.4612
위기	-10.4613
▁경력	-10.4614
▁미칠	-10.4616
ts	-10.4623
▁원화	-10.4626
▁관광객들	-10.4633
원이	-10.4634
▁윈	-10.4637
▁예수	-10.4639
▁전부터	-10.4641
▁연구팀	-10.4642
▁낙	-10.4645
▁줄어들	-10.4646
텐	-10.4647
▁장면이	-10.4654
▁가상	-10.4661
▁이사	-10.4662
▁딕	-10.4669
mp	-10.467
국의	-10.467
13	-10.4673
▁옮겨	-10.4674
▁단체들	-10.4675
▁상승세	-10.469
ain	-10.4691
납	-10.4693
▁코트	-10.4694
▁거주	-10.4696
삼	-10.4697
▁인종	-10.4697
짓	-10.47
▁걸린	-10.4702
▁합의했다고	-10.4706
▁보는	-10.4708
안전	-10.4715
▁모색	-10.473
▁34	-10.4736
▁44	-10.4736
▁문제들	-10.4738
▁의존	-10.4742
▁엄청	-10.4743
▁33	-10.4743
▁쇼핑	-10.4752
▁비핵화	-10.4753
▁뿌리	-10.4753
▁쓰촨성	-10.4753
▁좋다	-10.4753
▁호랑이	-10.4753
▁결선투표	-10.4753
▁사냥	-10.4753
▁근육	-10.4754
▁이뤄졌다	-10.4754
▁경호	-10.4756
▁다윈	-10.4757
▁받으며	-10.4758
▁포경	-10.4759
▁소집	-10.476
▁유럽의	-10.476
▁재무부	-10.4761
▁대립	-10.4762
▁연주	-10.4763
▁오늘날	-10.4766
▁공개적으로	-10.477
량이	-10.4772
▁호소	-10.4772
▁마무	-10.4773
▁가동	-10.4774
년만에	-10.4774
▁부채	-10.4778
64	-10.4779
▁참여한	-10.4782
▁디즈니	-10.4784
▁조각	-10.4787
ens	-10.4794
부는	-10.4799
께	-10.4799
▁형사	-10.4799
▁했었다	-10.481
▁권고	-10.4814
▁제조업체	-10.4819
▁방식으로	-10.482
▁기다리	-10.4823
국은	-10.4826
▁내리	-10.4829
▁이라크군	-10.4839
▁차량에	-10.4841
▁연구에	-10.4842
▁부총리	-10.4852
▁만들기	-10.4854
▁월요일에	-10.4856
넬	-10.4866
▁전복	-10.487
벽	-10.4871
니스	-10.4873
▁나오지	-10.4879
▁이에따라	-10.4882
▁올랐	-10.4882
▁언론에	-10.489
▁공정	-10.4896
ear	-10.4899
▁g	-10.4904
▁최저	-10.4909
▁지점	-10.4913
효	-10.4913
이상	-10.4914
얀	-10.492
▁골키퍼	-10.4922
▁늦게	-10.4922
▁블라고예비치	-10.4922
▁알렉산더	-10.4922
▁인플레이션	-10.4922
▁토네이도	-10.4922
▁키바키	-10.4922
▁필라델피아	-10.4922
▁리히터	-10.4922
▁원숭이	-10.4922
▁오히려	-10.4922
▁갖춘	-10.4923
▁탄압	-10.4923
▁보스턴	-10.4925
▁영업	-10.4925
당신	-10.4926
▁무엇보다	-10.4927
▁만남	-10.4928
▁*	-10.4932
▁물품	-10.4933
▁자본	-10.4933
▁차량이	-10.4949
자리	-10.4952
▁스캔들	-10.4954
▁가족과	-10.496
▁상상	-10.4962
마자	-10.4964
▁에도	-10.4972
▁표명했다	-10.4976
▁노선	-10.4977
▁소문	-10.4978
▁일간지	-10.4979
lu	-10.498
▁소위	-10.4987
.8%	-10.4987
러스	-10.4989
포드	-10.4993
▁한국이	-10.4994
▁그대로	-10.4997
지수는	-10.4998
▁들어간	-10.4999
역을	-10.5004
▁국민들이	-10.5007
▁키스	-10.5008
▁노인	-10.5008
▁세계적	-10.5014
▁것임	-10.5015
▁호수	-10.5015
해왔	-10.5016
▁사람들과	-10.502
▁유대인	-10.5022
군의	-10.5027
▁입수	-10.5038
▁털	-10.504
헌	-10.504
▁기록한	-10.5044
위인	-10.5044
▁기소됐다	-10.5047
꺼	-10.5049
벤	-10.5051
적이	-10.5052
솔	-10.5053
▁공대	-10.5066
▁아프간에서	-10.5066
▁정치인	-10.5073
▁응급	-10.5074
▁년간	-10.5079
▁운영하	-10.5081
▁총상	-10.5082
▁일본과	-10.5088
유로	-10.5091
넷	-10.5093
▁파트너	-10.5094
랙	-10.5094
▁마이크로소프트	-10.5095
▁화이트	-10.5095
▁은신처	-10.5095
▁남자친구	-10.5095
▁있었으나	-10.5095
▁종결	-10.5098
▁징역형	-10.5099
▁통일부	-10.51
▁뒤에	-10.5101
▁로저	-10.5102
▁체코	-10.5104
▁다음날	-10.5105
▁이스라엘은	-10.5106
시티	-10.5107
▁투르	-10.5109
바르	-10.511
▁소형	-10.5111
▁젊은이들	-10.5111
▁초청	-10.5112
▁확인됐다	-10.5113
▁증	-10.5113
▁보여준다	-10.5114
▁중대한	-10.5114
받았다	-10.5116
▁정식	-10.5123
▁시체	-10.5129
▁밥	-10.5131
디아	-10.5133
▁52	-10.5136
▁증시는	-10.5138
▁보고서에	-10.5142
▁가족들이	-10.5144
▁알카에다와	-10.5146
▁조사에따르면	-10.5148
▁사태에	-10.5149
▁얻을	-10.5153
었지만	-10.5154
▁51	-10.5156
▁근로자들	-10.5157
ell	-10.5159
▁러시아는	-10.5165
었는지	-10.5165
▁공격은	-10.5167
▁해병	-10.5171
▁진행자	-10.5171
▁홍수로	-10.5182
▁가게	-10.5188
▁관여	-10.519
장의	-10.519
▁제공할	-10.5192
▁했습니다	-10.5194
▁이식	-10.5195
▁부상으로	-10.5199
▁세우	-10.5204
▁시한	-10.5208
ty	-10.5209
▁의사들	-10.5211
▁여학생	-10.5212
▁세력이	-10.5212
▁구조대원들	-10.5215
▁비행사	-10.5216
▁문제의	-10.5228
X	-10.5228
햄	-10.5229
▁출판	-10.5229
해야만	-10.5239
▁일치	-10.5246
▁구역	-10.5248
ca	-10.5259
분에	-10.5265
Z	-10.5267
▁코미디	-10.5269
졌으며	-10.527
▁후진타오	-10.527
▁선관위	-10.527
▁펀드	-10.527
▁국제공항	-10.5272
▁원칙	-10.5272
▁소탕	-10.5272
▁남극	-10.5273
▁1996	-10.5273
므로	-10.5276
▁브랜드	-10.5276
▁특수	-10.5278
▁체중	-10.5278
▁경험이	-10.528
▁진단	-10.528
▁결과에	-10.5281
▁배후	-10.5282
▁음주	-10.5282
▁보고서에따르면	-10.5285
▁화재로	-10.5286
▁물러나	-10.529
▁기온	-10.5292
▁성장률	-10.5294
▁일으켰다	-10.5296
▁화해	-10.5303
성에	-10.5305
▁법무장관	-10.5308
▁부산	-10.5308
▁중앙일보	-10.5312
▁쓸	-10.5315
▁일어났다	-10.5317
▁사실은	-10.5323
▁화상	-10.533
전에서	-10.5337
으면서	-10.5338
▁날개	-10.5341
▁사용했다	-10.5342
점이	-10.5344
▁Co	-10.5346
▁행정	-10.5348
AN	-10.535
▁변호사가	-10.5355
▁받는다	-10.5355
▁낼	-10.5356
▁이란에	-10.536
▁직장	-10.5361
▁위협이	-10.5364
▁하나인	-10.5365
점으로	-10.5371
▁~	-10.5374
▁웃	-10.5375
▁결승	-10.5375
▁급속	-10.5377
▁여론조사에서	-10.5379
▁양국간	-10.538
단은	-10.5381
▁여성과	-10.5387
▁갔다	-10.5388
▁신문사	-10.5388
▁이란과	-10.539
▁바라	-10.5395
시킨다	-10.5402
▁남쪽	-10.5412
시스템	-10.5412
▁코스	-10.5414
레나	-10.5415
▁골프	-10.5415
▁대피했다	-10.5417
▁기대한다	-10.5417
▁보잉	-10.542
▁밝히	-10.542
념	-10.542
▁폭발이	-10.5428
▁발생하고	-10.5429
▁수리	-10.5433
▁PPP	-10.5435
▁정지	-10.5437
▁내무부는	-10.5437
버스	-10.5441
▁통계	-10.5441
▁가졌	-10.5447
켈	-10.5448
▁뭄바이	-10.5449
▁연쇄	-10.5449
▁탱크	-10.5449
▁섭취	-10.5449
▁택시	-10.5449
▁정치인들	-10.5449
▁공기	-10.5449
▁과격	-10.545
▁교통사고	-10.545
▁구멍	-10.545
▁1993	-10.5451
▁소규모	-10.5451
▁할머니	-10.5451
ive	-10.5451
▁폭설	-10.5452
77	-10.5453
▁줄리아니	-10.5453
▁라덴	-10.5453
▁사생활	-10.5454
▁벨기에	-10.5454
▁관측	-10.5455
▁보존	-10.5457
▁감바리	-10.5462
▁꼭	-10.5463
▁구조대	-10.5463
▁초안	-10.5463
▁악어	-10.5464
▁조류	-10.5465
▁경호원	-10.5465
▁가방	-10.5473
▁수퍼	-10.5474
▁46	-10.5474
않게	-10.548
▁여사는	-10.5486
▁벽	-10.5487
▁국적	-10.5494
▁출	-10.5497
▁제작한	-10.5498
▁올라가	-10.5498
▁주장한	-10.5506
▁방송사	-10.5507
z	-10.5508
▁피부	-10.5511
▁자신과	-10.552
▁아메리카	-10.5523
▁살았	-10.5523
▁록	-10.5529
▁투쟁	-10.5536
▁근처에서	-10.554
▁남부에서	-10.5541
겠습니다	-10.5544
▁맡고	-10.5547
▁참석할	-10.5547
▁700	-10.5548
▁1%	-10.5548
▁수립	-10.555
▁관계에	-10.5551
▁주위	-10.5553
▁모리	-10.5554
▁통신이	-10.5554
▁생기	-10.5564
많은	-10.5565
▁자택	-10.5567
▁GM	-10.5576
▁파도	-10.5585
▁선포했다	-10.559
na	-10.5592
▁높아	-10.5593
콜	-10.5594
덕	-10.5594
▁펼쳐	-10.5606
▁비난하는	-10.5611
▁나왔	-10.5611
▁극장	-10.5615
▁북극	-10.5615
▁신사	-10.5621
▁착수	-10.5626
▁출산	-10.5627
▁China	-10.5631
▁기쁘다	-10.5631
▁돕기	-10.5631
▁무슬림	-10.5631
▁밴드	-10.5631
▁재검토	-10.5631
▁횡령	-10.5631
▁쓰레기	-10.5631
▁테일러	-10.5631
▁가벼	-10.5631
▁다시한번	-10.5631
▁모아	-10.5631
민감한	-10.5632
▁포럼	-10.5632
▁지붕	-10.5632
▁침공	-10.5632
사업	-10.5632
▁예멘	-10.5633
▁농업	-10.5633
▁번째로	-10.5633
▁황금	-10.5633
▁1991	-10.5634
▁아이폰	-10.5635
▁사용하지	-10.5635
▁결함	-10.5636
▁제출했다	-10.5636
▁판정	-10.564
▁반복	-10.5643
Ch	-10.5644
▁적발	-10.5645
국민	-10.5645
▁미국인들이	-10.5646
▁하나로	-10.5649
▁재임	-10.565
▁기자들	-10.565
▁종식	-10.5651
▁개정안	-10.5653
▁마친	-10.5653
▁수사관	-10.5656
▁비교적	-10.5658
▁든	-10.5659
▁진행되는	-10.566
▁상호	-10.566
▁뇌물	-10.5664
▁늘어나	-10.567
▁곳이다	-10.5682
▁에이	-10.5683
▁북쪽으로	-10.5687
나무	-10.5688
만개	-10.5694
▁인원	-10.5696
▁피랍	-10.5697
▁생물	-10.57
▁해도	-10.5706
▁재판관	-10.5708
▁민족	-10.5712
▁복	-10.5715
▁근거로	-10.5718
▁압	-10.5721
금지	-10.5723
▁생각하지	-10.5728
▁스톤	-10.5728
▁중단했다	-10.5743
▁중이었다	-10.5747
▁해안에서	-10.5748
▁수십명	-10.5749
▁이용하는	-10.5752
▁회견	-10.5756
측에	-10.5756
▁세계적으로	-10.5759
있었다	-10.5761
▁다가	-10.5763
▁물이	-10.5764
조건	-10.5765
▁수상한	-10.5766
특	-10.5769
▁구체적	-10.5769
▁후보자	-10.5772
▁소식통이	-10.5775
▁따르	-10.5776
▁지수	-10.5781
▁전통적	-10.5784
7000	-10.5786
캐	-10.5787
▁적십자	-10.5787
▁예상되	-10.5789
구를	-10.5789
▁맡	-10.579
▁순위	-10.5792
이었습니다	-10.5798
▁여성들이	-10.58
▁놀	-10.5803
▁관계당국	-10.5803
▁조명	-10.5804
탁	-10.5805
▁피해자들	-10.5805
▁센	-10.5806
▁처해	-10.5809
신문	-10.5811
어로	-10.5811
▁물에	-10.5813
훈	-10.5815
▁DVD	-10.5816
▁광범위	-10.5816
▁안전보장이사회	-10.5816
▁협약	-10.5816
▁메르켈	-10.5816
▁스트레스	-10.5816
▁봉송	-10.5816
▁파나마	-10.5817
▁억제	-10.5818
즈는	-10.5819
▁싸우	-10.582
▁정찰	-10.582
▁신규	-10.5822
▁차별	-10.5823
▁고장	-10.5823
▁사우스캐롤라이나	-10.583
▁성직자	-10.5831
▁반박	-10.5831
▁제목	-10.5831
▁이륙	-10.5832
▁자행	-10.5833
▁레드	-10.5833
▁결과로	-10.5833
▁승리로	-10.5835
▁치명적인	-10.5839
▁가족이	-10.584
▁맛	-10.5843
▁뉴햄프셔	-10.5843
▁빼	-10.5843
▁거짓말	-10.5843
▁산타	-10.5846
혔다	-10.5854
▁예정인	-10.5859
▁성당	-10.5859
▁요리	-10.5861
▁차지하고	-10.5865
▁많아	-10.5866
▁39	-10.5869
▁정상화	-10.587
▁확실	-10.5884
정부는	-10.5892
▁정전	-10.5894
▁단체가	-10.5895
▁여러분	-10.5896
IC	-10.5898
▁데에	-10.5905
▁먼	-10.5906
▁지점에서	-10.5908
▁보여주고	-10.5909
▁끝나	-10.591
▁맞는	-10.5913
▁IOC	-10.5914
자유	-10.5915
▁계속될	-10.5917
▁환호	-10.5918
▁미치는	-10.5919
▁미군과	-10.593
▁경관	-10.593
▁완	-10.5936
▁합의한	-10.594
▁연행	-10.5948
음을	-10.5953
▁적절	-10.5958
▁품	-10.596
46	-10.5964
닐	-10.5967
▁손에	-10.5971
68	-10.5977
규모	-10.5978
▁군은	-10.5979
교육	-10.5981
▁출연한	-10.5981
민주당	-10.5982
84	-10.599
▁사용해	-10.599
▁범	-10.6002
▁`	-10.6002
▁보일	-10.6002
▁척	-10.6003
▁쏟아	-10.6003
▁nuclear	-10.6004
▁다큐멘터리	-10.6004
▁식료품	-10.6004
▁왼쪽	-10.6004
▁쿠웨이트	-10.6004
▁과반수	-10.6004
▁전당대회	-10.6004
▁위안부	-10.6005
▁롬니	-10.6005
▁난민촌	-10.6005
▁일어날	-10.6005
▁균형	-10.6005
▁완료	-10.6006
▁출두	-10.6006
사와	-10.6007
▁귀환	-10.6007
▁팝	-10.6007
▁표준	-10.6007
▁검은	-10.6007
▁1995	-10.6008
▁최고치	-10.6008
▁검문소	-10.6009
▁탑승객	-10.6009
▁이름이	-10.601
▁항구	-10.6011
▁화려	-10.6011
▁비율	-10.6011
잘못된	-10.6011
▁잭	-10.6012
▁동생	-10.6012
▁인민	-10.6012
▁조언	-10.6012
분만에	-10.6014
▁숲	-10.6019
라이트	-10.6019
▁중단할	-10.6022
▁설	-10.6022
▁군사적	-10.6023
▁공산주의	-10.6023
▁나에게	-10.6024
▁모임	-10.6026
스럽게	-10.6032
▁지원할	-10.6036
▁스타디움에서	-10.6042
▁수배	-10.6044
▁조용	-10.6046
▁냈다	-10.6048
▁총재는	-10.605
▁골드	-10.605
에게서	-10.6052
▁당국에	-10.6053
원들이	-10.6054
▁하미	-10.6054
▁흘	-10.6059
▁over	-10.6061
▁얼	-10.6061
380	-10.6062
▁입을	-10.6071
▁있어야	-10.6071
▁달러화	-10.6079
▁예술	-10.608
단계	-10.6083
▁주장한다	-10.6088
▁쓰고	-10.609
▁펼치	-10.6094
▁선원	-10.6103
킨스	-10.6106
▁연구원들	-10.6118
의회	-10.6119
▁달린	-10.612
▁실시할	-10.6121
▁무게	-10.6121
▁충돌이	-10.6124
▁십	-10.6131
▁후보인	-10.6131
▁정원	-10.6145
호가	-10.6145
▁일어났	-10.6145
▁보냈	-10.6146
기록	-10.6152
끼	-10.6162
▁제정	-10.6164
▁운전자	-10.6168
않	-10.6169
▁64	-10.6173
돈	-10.6176
▁해리포터	-10.6182
mm	-10.6182
▁선보	-10.6187
비용	-10.6187
첸	-10.6193
컬	-10.6194
둥	-10.6194
님	-10.6195
▁출입	-10.6195
랭	-10.6196
▁국제원자력기구	-10.6197
▁듣고	-10.6197
▁먹이	-10.6197
▁않았던	-10.6197
▁없게	-10.6197
▁없고	-10.6197
▁이산화탄소	-10.6197
▁캐릭터	-10.6197
▁펠로시	-10.6197
▁에콰도르	-10.6197
▁확장	-10.6197
▁매니저	-10.6197
▁받아들여	-10.6197
▁흥미	-10.6197
▁퇴임	-10.6197
▁붙잡	-10.6197
▁득표율	-10.6197
▁플라	-10.6198
▁낮추	-10.6199
▁쉽지	-10.6199
▁부위	-10.6199
▁복역	-10.6199
▁떠난	-10.6201
▁레이건	-10.6201
▁케이트	-10.6204
▁일련	-10.6205
버린	-10.6205
▁범행	-10.6206
▁t	-10.6206
▁상영	-10.6208
▁조지아주	-10.6208
▁AT	-10.6209
▁당초	-10.6209
▁노리	-10.6212
▁매체	-10.6217
ard	-10.6217
▁인력	-10.6217
▁뛰	-10.6217
▁운영하고	-10.6219
▁후보와	-10.6222
▁코끼리	-10.6225
▁승려들	-10.6226
▁침대	-10.6227
▁신조	-10.6228
▁조치는	-10.6237
▁아난	-10.6238
▁다르다	-10.6241
▁생산량	-10.6243
▁남성은	-10.6243
▁회원국들	-10.6243
▁계속되는	-10.6243
▁기차	-10.6247
▁촬영한	-10.6249
▁부상당	-10.625
▁텍사스주	-10.6252
▁운전사	-10.6253
시켰다고	-10.6254
긍정적인	-10.6255
플레	-10.6256
▁어렵다	-10.6257
▁전달했다	-10.6257
▁공개됐다	-10.6258
화된	-10.6258
져야	-10.6259
um	-10.6261
▁론	-10.6263
▁창문	-10.6263
▁자랑	-10.6264
ho	-10.6264
▁발표하고	-10.6267
▁늘리	-10.6271
▁뉴욕시	-10.6272
▁무어	-10.6286
▁만일	-10.6287
ab	-10.6289
▁조건으로	-10.6291
▁확신한다	-10.6295
병원	-10.6297
▁요금	-10.6298
▁정의	-10.6308
▁미국인들	-10.6312
역사적인	-10.6316
▁소식에	-10.6317
공사	-10.6319
▁보게	-10.6319
라면	-10.6325
▁발견되었다	-10.6327
스테	-10.6332
▁긍정적	-10.6334
▁지도자가	-10.6335
위안	-10.6338
▁칼리	-10.6341
▁인근에서	-10.6341
▁발견한	-10.6344
▁한나라당은	-10.6344
▁일본에	-10.6351
▁고객들	-10.6352
▁행사에	-10.6359
▁작업에	-10.6363
▁회담의	-10.6365
속도로	-10.6367
IAEA	-10.6374
쪽으로	-10.6374
48	-10.6375
▁월가	-10.6376
▁n	-10.638
▁거절했다	-10.6382
▁권	-10.6383
▁서장	-10.6386
되거나	-10.6386
시오	-10.6387
럽	-10.6387
렐	-10.639
▁우리에게	-10.639
▁스턴	-10.639
▁교도소에	-10.6392
Q	-10.6393
▁from	-10.6393
▁샌디에이고	-10.6393
▁일으킬	-10.6393
넨	-10.6393
룸	-10.6393
▁외무성	-10.6393
▁마라톤	-10.6393
▁여겨지	-10.6393
▁어깨	-10.6393
▁졸업	-10.6394
▁상륙	-10.6394
▁생방송	-10.6395
▁최근에	-10.6396
▁창출	-10.6396
▁탄생	-10.6397
전쟁	-10.6397
▁몰려	-10.6398
▁끝날	-10.6398
▁드러냈다	-10.6399
장과	-10.6399
▁방출	-10.6401
보는	-10.6402
▁1960	-10.6403
▁거부권	-10.6403
▁음성	-10.6403
▁부모들	-10.6404
▁분석가들은	-10.6404
▁이뤄진	-10.6406
타임	-10.6408
▁밝혀진	-10.6409
▁발포	-10.641
▁최저치	-10.6411
▁방문하는	-10.6412
▁진보	-10.6413
▁알렸다	-10.6416
▁마리아	-10.6424
식이	-10.6425
▁증세	-10.643
▁오하이오주	-10.643
▁분량	-10.6433
상으로	-10.6433
▁상태이다	-10.6438
▁기여	-10.6439
▁비난하며	-10.6442
▁th	-10.6445
▁테니스	-10.6449
▁예정이었다	-10.6452
▁식사	-10.6453
▁깊이	-10.6453
▁거부하	-10.6458
▁포함돼	-10.6458
▁세부	-10.6459
▁유럽에서	-10.6463
▁휘	-10.6463
▁자택에서	-10.6466
min	-10.647
▁정책에	-10.6473
▁미디어	-10.6473
ast	-10.6474
▁동의했다	-10.6478
▁브리	-10.6483
▁틀	-10.6483
▁무장대원	-10.6483
63	-10.6485
리고	-10.6494
26	-10.6497
▁화물	-10.6498
워터	-10.6499
▁하루에	-10.65
▁싱	-10.6504
▁수여	-10.6504
바로	-10.6505
원들은	-10.6506
BA	-10.6506
▁카불	-10.6528
줬다	-10.6531
아나	-10.6531
▁상태에서	-10.6532
Ma	-10.6534
지역에	-10.6549
럼	-10.655
▁토지	-10.6559
▁용기	-10.6561
▁화요일에	-10.6562
▁치러지	-10.6568
▁하락한	-10.6569
김	-10.6578
NASA	-10.6578
동맹	-10.6579
21	-10.6581
▁한국인들	-10.6584
롬	-10.6586
데스	-10.6587
▁겨	-10.6587
▁여지	-10.6589
▁외국인들	-10.659
▁로스	-10.6592
▁느낄	-10.6593
▁프리미어리그	-10.6593
▁자카르타	-10.6593
▁new	-10.6593
▁줄기세포	-10.6593
▁유혈사태	-10.6593
▁특징	-10.6593
▁샘플	-10.6593
▁탐험	-10.6593
▁로딕	-10.6593
▁앤드류	-10.6593
앞으로	-10.6594
▁계좌	-10.6594
▁불리	-10.6594
수술	-10.6594
▁MBC	-10.6595
▁빌딩	-10.6595
▁밝혔지만	-10.6595
▁국가들은	-10.6595
연방	-10.6595
고문	-10.6596
▁표결	-10.6597
▁실업률	-10.6597
tor	-10.6599
▁무리	-10.66
▁다국적군	-10.66
▁5%	-10.66
▁서울시	-10.6603
▁서양	-10.6605
▁원래	-10.6609
▁선임	-10.661
▁발행	-10.6612
에이커	-10.6616
버트	-10.6617
▁벗	-10.662
.9%	-10.662
▁법안은	-10.6621
▁테러와	-10.6623
▁동일한	-10.6624
▁보조	-10.6625
▁문제와	-10.6627
▁방법은	-10.6631
▁교황은	-10.6634
기자	-10.6635
▁돌고래	-10.6636
당했다	-10.6637
▁소유하고	-10.6638
▁해당하는	-10.6638
▁소매	-10.6652
▁2500	-10.6656
▁국기	-10.6658
▁얻고	-10.6658
▁국가에서	-10.6667
▁In	-10.667
었을	-10.6674
▁코커스	-10.6674
▁기부	-10.6675
▁심의	-10.6682
76	-10.6689
▁외치	-10.669
▁실종자	-10.6691
▁아르	-10.6695
▁지지한다	-10.6696
어진	-10.6697
장으로	-10.67
▁학교에	-10.6703
마르	-10.6705
▁멜	-10.6705
ver	-10.6706
정부가	-10.6707
▁반영	-10.6707
행사	-10.6715
▁해주	-10.6721
▁로드	-10.6724
▁발표됐다	-10.6736
▁세트	-10.6737
▁페이지	-10.6738
▁아들이	-10.6739
▁실시했다	-10.6742
▁국가로	-10.6742
tion	-10.6746
▁알지	-10.6747
▁바라는	-10.6749
씨가	-10.6753
▁일본인	-10.676
▁마을에서	-10.6766
▁양측은	-10.6766
▁해상	-10.6767
▁최대의	-10.6768
35	-10.6769
▁유전	-10.6769
▁자리에	-10.6781
ail	-10.6781
▁pro	-10.6781
24	-10.6783
▁상원의원과	-10.6784
됩니다	-10.6785
핵	-10.6786
힘	-10.6788
1000	-10.6789
객들	-10.6789
잉	-10.6793
헨	-10.6797
소리	-10.6797
감독	-10.6797
▁마흐디	-10.6797
▁멤버	-10.6797
▁애완견	-10.6797
▁윔블던	-10.6797
▁프랭크	-10.6797
▁항공우주국	-10.6797
▁힘입어	-10.6797
넌	-10.6797
▁예를들어	-10.6797
▁좌절	-10.6797
▁검증	-10.6797
▁정거장	-10.6797
▁잇따	-10.6797
▁노르웨이	-10.6797
▁돌파	-10.6797
▁브리핑	-10.6797
▁암컷	-10.6797
▁청사	-10.6798
2007.11	-10.6798
▁요인	-10.6798
▁녹음	-10.6799
▁화합	-10.6799
▁않았으나	-10.6799
▁부부가	-10.6799
▁밝혔으며	-10.68
▁쿠퍼	-10.68
▁영화배우	-10.68
▁오마르	-10.6801
▁포착	-10.6801
▁종료	-10.6802
▁선수가	-10.6802
▁내려졌다	-10.6802
▁통증	-10.6804
▁잡스	-10.6804
▁매달	-10.6806
▁개편	-10.681
미국은	-10.6811
▁리처드슨	-10.6811
4000	-10.6811
▁이슬람교	-10.6812
▁키우	-10.6814
▁접전	-10.6818
▁격렬한	-10.682
▁재직	-10.6822
▁협상에	-10.6822
▁사설	-10.6823
▁열렸다	-10.6824
▁HIV	-10.6831
89	-10.6837
▁위대	-10.6838
▁부실	-10.684
본부	-10.6842
17	-10.6843
▁화장	-10.6846
▁라이언	-10.6851
수는	-10.6852
▁투표에	-10.6854
▁헬	-10.6854
39	-10.6856
▁1500	-10.6856
내용	-10.6857
▁보이며	-10.686
이런	-10.686
▁포장	-10.6863
▁판다	-10.6864
▁법안에	-10.6867
▁득점	-10.6868
▁정권이	-10.6876
▁가족은	-10.6877
리그	-10.6879
▁파운드	-10.6883
▁l	-10.6885
▁중심가	-10.6888
렸으며	-10.6889
하우스	-10.689
▁not	-10.6894
▁추세	-10.6895
ie	-10.6896
▁소식은	-10.6897
▁요청을	-10.6906
▁기울이	-10.6907
▁전부	-10.6913
▁NATO	-10.6919
▁상승한	-10.6922
▁FRB	-10.6924
▁후보들	-10.6925
ary	-10.6929
▁지분	-10.6929
▁막아	-10.6929
▁소식통	-10.693
▁생각이	-10.6934
▁목표는	-10.6935
ta	-10.694
커스	-10.6943
▁65	-10.6951
▁이용한	-10.6954
겼	-10.6954
▁받아들이	-10.6959
▁이로	-10.6961
▁커지	-10.6968
▁운명	-10.6968
▁살해했다	-10.697
▁장착	-10.6971
▁장군은	-10.6972
▁온도	-10.6975
▁카라	-10.6976
▁팀이	-10.6979
보호	-10.6984
켜	-10.6985
▁다이	-10.6986
응	-10.6988
리안	-10.6988
900	-10.699
첼	-10.699
▁프라이머리에서	-10.6993
▁회의에	-10.6995
▁잡아	-10.6997
렘	-10.6999
폭탄	-10.6999
프랑스	-10.7
연구	-10.7002
내내	-10.7004
짝	-10.7005
▁않았고	-10.7005
▁없습니다	-10.7005
▁피라미드	-10.7005
▁마돈나	-10.7005
▁배터리	-10.7005
▁객실	-10.7005
▁데이빗	-10.7005
▁서식지	-10.7005
▁침략	-10.7005
▁라파엘	-10.7006
▁여섯	-10.7006
▁졸리	-10.7006
▁빠지	-10.7006
▁몰고	-10.7006
▁감소했다	-10.7006
2005.09	-10.7007
▁his	-10.7007
▁비틀즈	-10.7007
▁탈락	-10.7007
▁1992	-10.7008
▁자선단체	-10.7008
▁물러	-10.7008
▁금액	-10.7009
사이	-10.7009
▁승무원들	-10.7011
▁테러조직	-10.7011
▁세웠다	-10.7012
▁산책	-10.7013
▁인형	-10.7015
평화	-10.7016
▁전국적으로	-10.7019
▁4000	-10.702
▁않는다면	-10.702
▁고급	-10.702
▁본토	-10.7022
▁government	-10.7022
▁강행	-10.7024
▁불구	-10.7025
▁보급	-10.7026
▁58	-10.7026
▁아마디	-10.7027
▁자동	-10.7029
▁상당히	-10.7034
▁30%	-10.7035
▁남용	-10.7037
카르	-10.704
▁유산	-10.704
▁댄	-10.7041
▁약화	-10.7041
▁단체인	-10.7041
▁등으로	-10.7042
▁광장	-10.7044
▁담은	-10.705
▁BA	-10.7052
▁제리	-10.7057
▁사실에	-10.7059
라인	-10.706
▁건물이	-10.7061
지방	-10.7061
▁방향으로	-10.7064
▁유인	-10.7065
▁일이다	-10.707
▁카르	-10.7072
▁플로리다주	-10.7075
to	-10.7076
▁88	-10.7085
98	-10.7086
▁손해	-10.7103
▁흔	-10.7106
▁수면	-10.7132
▁약세	-10.7139
▁포함됐다	-10.7147
▁처한	-10.7152
▁국가들이	-10.7153
▁지휘관	-10.7155
▁취하	-10.7156
▁유도	-10.7159
▁53	-10.716
혔	-10.7169
▁sh	-10.717
때까지	-10.7171
▁지지자들이	-10.7172
▁글로	-10.7187
▁수위	-10.7189
카드	-10.7189
▁강세	-10.7201
▁제시했다	-10.7203
촌	-10.7213
iz	-10.7216
탈레반	-10.7217
▁관타나모	-10.7218
▁오토바이	-10.7218
▁우주왕복선	-10.7218
▁울포위츠	-10.7218
▁자유무역협정	-10.7218
▁파바로티	-10.7218
▁플라스틱	-10.7218
社	-10.7218
밍	-10.7218
▁퍼거슨	-10.7218
▁벌써	-10.7218
▁경기부양책	-10.7218
▁헌법재판소	-10.7219
▁롤링	-10.7219
▁낙태	-10.7219
▁넘겨	-10.722
▁저희	-10.722
▁드러내	-10.7221
▁점검	-10.7222
▁영양	-10.7223
▁오른쪽	-10.7224
▁상대방	-10.7224
▁NK	-10.7225
▁백신	-10.7229
▁집권당	-10.7229
▁멀리	-10.7234
▁연계	-10.7234
▁군함	-10.7237
▁실린	-10.724
▁도심	-10.7242
▁표면	-10.7242
▁죽음을	-10.7243
▁존경	-10.7248
▁운동가들	-10.7251
▁모금	-10.7251
▁요구하며	-10.7254
▁촉진	-10.7255
▁지원하는	-10.7257
▁법원에서	-10.7266
▁햄	-10.7268
후보	-10.7269
위성	-10.727
▁중요성	-10.7272
▁못했	-10.7274
22	-10.7276
▁다음주	-10.7279
▁로브	-10.7282
▁이틀간	-10.7284
▁자치	-10.7285
▁내려진	-10.7292
코프	-10.7295
포트	-10.7296
▁딸이	-10.7299
▁제보	-10.7304
사진	-10.7304
85	-10.7309
▁모건	-10.7315
▁남자는	-10.7318
▁참여할	-10.732
▁계속된	-10.7324
▁유지하고	-10.7324
75	-10.7326
▁각자	-10.7329
ph	-10.733
▁갈라	-10.7331
▁대학생	-10.7343
▁여부에	-10.7343
▁대전	-10.7345
▁전역에서	-10.7348
▁대학에서	-10.7349
▁브라운은	-10.735
▁노력이	-10.7351
타르	-10.7354
▁UEFA	-10.7355
▁나이트	-10.7358
분께	-10.7361
제품	-10.7364
▁본다	-10.737
▁인질들을	-10.737
▁계기	-10.7375
소한	-10.7376
▁승객들	-10.7377
▁기소된	-10.7379
▁제공한	-10.7388
줬	-10.7395
▁향상	-10.7406
▁용의자로	-10.7409
▁뉴욕주	-10.7418
▁콜로라도	-10.7422
▁위원	-10.7422
▁제출한	-10.7424
작업	-10.7424
▁북부에	-10.7426
▁출생	-10.7427
웬	-10.7431
컴	-10.7432
▁Obama	-10.7435
▁경기침체	-10.7435
▁루아얄	-10.7435
▁뮤지컬	-10.7435
▁싶지	-10.7435
▁옮기	-10.7435
▁허커비	-10.7435
톨	-10.7435
▁아테네	-10.7435
▁게릴라	-10.7435
▁징후	-10.7435
▁포르노	-10.7435
▁시라크	-10.7435
▁불가리아	-10.7435
값	-10.7436
▁벽돌	-10.7436
▁옐친	-10.7436
▁2005.10	-10.7436
▁본격적	-10.7436
▁공룡	-10.7436
▁관람	-10.7436
▁있었습니다	-10.7438
▁살아남	-10.7438
`	-10.7438
▁거주하	-10.7438
▁탄광	-10.7438
▁함유	-10.7439
서비스	-10.744
▁갖는	-10.7441
베르토	-10.7442
▁형식	-10.7446
복을	-10.7447
베리	-10.7447
▁조절	-10.7449
▁공판	-10.745
▁국방성	-10.745
▁자신감	-10.745
American	-10.745
▁점거	-10.7453
▁실무	-10.7453
▁연간	-10.7455
▁기분	-10.7456
▁소동	-10.7458
▁통보	-10.7459
▁지대	-10.7459
▁승부	-10.7459
▁접수	-10.746
▁남편이	-10.7463
▁지지하고	-10.7463
▁한국은행	-10.7463
▁벌어졌다	-10.7463
▁얼마전	-10.7465
▁범위	-10.7469
▁희망한다	-10.747
▁케이	-10.7472
▁뱀	-10.7472
▁1,000	-10.7472
▁사용하고	-10.7473
▁7000	-10.7474
▁호소했다	-10.7478
per	-10.7478
▁사체	-10.7478
▁냉	-10.7479
▁신분	-10.7481
▁좋아하는	-10.7481
▁발표했습니다	-10.7483
▁겸	-10.7486
▁140	-10.7493
▁제이	-10.7498
▁고려하고	-10.7499
아직	-10.7502
저는	-10.7503
▁취한	-10.7505
자료	-10.7505
▁PKK	-10.7507
▁데일리	-10.7508
▁몸에	-10.7511
▁떨어지	-10.7511
▁도시인	-10.7512
▁출동	-10.7514
▁나선	-10.7516
(1	-10.7516
▁곰	-10.7521
▁승인했다	-10.7524
▁브로	-10.7529
디는	-10.7533
▁테러리스트들	-10.7535
▁수행하	-10.7536
▁성명은	-10.7541
▁불어	-10.7545
램	-10.7548
▁포함된	-10.755
▁베를린	-10.7552
▁해소	-10.7558
▁r	-10.7562
55	-10.7563
▁지원하고	-10.7566
과정	-10.7569
▁축	-10.7573
▁래	-10.7577
▁Y	-10.758
과학	-10.7591
28	-10.7591
58	-10.7593
▁직원이	-10.7602
▁대통령직	-10.7611
었으나	-10.762
▁조사한	-10.762
▁동맹국	-10.7621
▁열고	-10.7622
에르	-10.7628
▁대법원장	-10.7628
▁타임	-10.7635
IS	-10.7636
der	-10.7645
퀴	-10.7651
▁매춘	-10.7654
▁시인	-10.7656
늘	-10.7656
▁금메달	-10.7658
▁디자이너	-10.7658
▁먹는	-10.7658
▁아닙니다	-10.7658
▁지지선언	-10.7658
▁카트리나	-10.7658
▁징계	-10.7658
▁보이콧	-10.7658
▁이자율	-10.7658
▁개막	-10.7658
▁멈추	-10.7658
▁V	-10.7659
2006.08	-10.7659
▁디스크	-10.7659
휴	-10.766
▁알렉스	-10.766
강전에서	-10.766
▁막대한	-10.766
▁떠날	-10.7661
▁흘러	-10.7661
ite	-10.7662
▁경향	-10.7662
▁사이클	-10.7663
▁오스카	-10.7663
▁핵개발	-10.7665
▁정착	-10.7666
▁상담	-10.7666
▁않으며	-10.7666
아프간	-10.7667
어떤	-10.7667
way	-10.7667
▁인터	-10.7667
▁인공	-10.7668
사령관	-10.7669
금융	-10.7669
▁플레이어	-10.7671
▁래리	-10.7671
▁서류	-10.7672
▁애리조나	-10.7672
▁준수	-10.7672
▁미첼	-10.7672
▁통과시켰다	-10.7673
▁장교	-10.7673
▁쏘	-10.7675
▁무고	-10.7677
▁발발	-10.7678
▁도청	-10.7678
▁러드	-10.7679
▁밝혔	-10.768
업자들	-10.768
생산	-10.7683
▁선수로	-10.7684
▁탄소	-10.7687
▁포함하여	-10.7688
▁참석하지	-10.7692
▁정계	-10.7696
▁흔들	-10.7701
▁주연	-10.7705
▁챔피언십	-10.7706
▁56	-10.7708
▁부당	-10.7708
▁정보부	-10.771
스턴	-10.7711
▁에어	-10.7712
91	-10.7716
▁흔적	-10.7716
▁기상청	-10.7723
나와	-10.7726
업계	-10.7729
▁취해	-10.7729
▁보도에	-10.7732
야드	-10.7735
▁테러에	-10.7737
▁서서	-10.7737
▁160	-10.7739
▁59	-10.7741
▁확산되고	-10.7743
다란	-10.7743
스런	-10.7744
인데	-10.7744
ish	-10.775
▁러	-10.7754
▁지도자는	-10.7756
▁바스라	-10.7762
2000	-10.7763
▁영화에	-10.7766
▁모르	-10.7771
▁취했다	-10.7776
▁WHO	-10.7776
▁풍	-10.7776
명인	-10.7779
▁43	-10.7781
▁했으나	-10.7781
▁미국으로	-10.7783
▁불이	-10.7786
▁레바논군	-10.7789
▁정상회담을	-10.7795
44	-10.7796
▁풀어	-10.7801
▁게리	-10.7806
▁어렵	-10.7814
▁동물들	-10.7817
29	-10.7822
▁정상들	-10.7825
▁당해	-10.7827
▁옥	-10.7828
▁건강이	-10.7829
▁아메리칸	-10.7831
▁철저	-10.7833
▁일이라고	-10.7834
▁포인트	-10.7834
회전	-10.7835
요원	-10.7841
▁건너	-10.7841
죄	-10.7843
▁지불하	-10.7846
률이	-10.7848
▁유기	-10.7853
▁메일	-10.7855
해달라	-10.786
▁필요로	-10.7861
▁준비하고	-10.787
▁미스	-10.7871
널리	-10.7876
▁장관과	-10.788
▁에베레스트	-10.7882
왈	-10.7883
▁아름다	-10.7884
겁	-10.7885
▁베네딕	-10.7885
▁오클라호마	-10.7885
▁이브라힘	-10.7885
▁찾지	-10.7885
▁최첨단	-10.7885
▁평화유지군	-10.7885
▁히틀러	-10.7885
▁로드리게스	-10.7885
▁심장마비	-10.7885
셨	-10.7885
▁따뜻	-10.7885
▁빼앗	-10.7885
▁중남미	-10.7885
▁스크린	-10.7885
▁아마디네자드	-10.7885
▁압바스	-10.7885
▁2008.10	-10.7885
▁인터폴	-10.7885
▁의약품	-10.7885
▁터널	-10.7886
▁가짜	-10.7886
▁품목	-10.7886
2007.12	-10.7886
▁NBA	-10.7887
년과	-10.7887
▁술집	-10.7888
▁연례	-10.7888
▁거짓	-10.7889
▁세탁	-10.7889
▁들어갈	-10.7889
▁1989	-10.789
▁풍부	-10.789
▁계산	-10.789
▁이루어진	-10.789
▁새롭	-10.7891
▁채취	-10.7892
▁구름	-10.7893
▁벗어	-10.7895
▁단행	-10.7895
▁조항	-10.7895
▁신장	-10.7897
▁되며	-10.7897
앤	-10.7899
자동차	-10.7899
▁공격했다	-10.7899
▁발급	-10.7901
▁회수	-10.7901
범죄	-10.7901
▁대대적	-10.7902
▁악화되	-10.7905
▁휴대	-10.7905
▁에티오피아	-10.7908
ha	-10.7908
▁뿐이다	-10.791
▁침	-10.7914
▁암호	-10.7916
스에서	-10.7917
▁당국자들	-10.7917
▁언급하며	-10.7917
▁보건부	-10.7922
▁임대	-10.7924
▁해체	-10.7925
▁5000	-10.7927
▁신화	-10.7933
▁테러단체	-10.7933
▁변호	-10.7935
▁결승전에서	-10.7936
▁하나는	-10.7937
▁73	-10.7939
▁곳이	-10.7943
▁엘리	-10.7947
원인	-10.7949
▁트레	-10.7951
▁여행객들	-10.7953
▁달간	-10.7954
▁경비원	-10.7955
▁동료들	-10.7958
▁사진이	-10.7963
곳에	-10.7964
▁있을지	-10.7965
노조	-10.797
▁문구	-10.7973
old	-10.7974
ure	-10.7979
▁입었	-10.798
▁총장	-10.7983
▁원인이	-10.7985
▁조지아	-10.7988
▁서안	-10.7995
▁요원들	-10.7996
▁경매에	-10.7999
부를	-10.8004
▁법정에서	-10.8005
ess	-10.8009
▁코치	-10.8011
▁열기	-10.8022
▁불가능	-10.8026
▁등에	-10.8029
▁경로	-10.8029
▁기업의	-10.803
▁프라	-10.8032
▁모르는	-10.8034
▁선거법	-10.8035
▁넘기	-10.804
os	-10.8047
▁벌여	-10.8047
▁up	-10.8049
주전	-10.8053
▁지식	-10.8053
▁의상	-10.8055
▁주최	-10.8059
▁가리	-10.8063
▁조사할	-10.8064
룬	-10.8069
▁달한다	-10.8078
▁학교에서	-10.8082
대에서	-10.8084
지원	-10.8088
▁모자	-10.809
▁일어나는	-10.809
ood	-10.8097
▁잠재적	-10.8102
▁목격했다	-10.8102
▁브라이언	-10.8106
▁해서	-10.8106
흉	-10.8109
▁착용	-10.8112
쾌	-10.8113
▁알려	-10.8113
▁맨	-10.8115
▁하면서	-10.8117
낭	-10.8117
5,000	-10.8117
▁again	-10.8117
▁고이즈미	-10.8117
▁뉴올리언스	-10.8117
▁느낌	-10.8117
▁망원경	-10.8117
▁성추행	-10.8117
▁쇠고기	-10.8117
▁시나리오	-10.8117
▁우울증	-10.8117
▁조승희	-10.8117
▁노트북	-10.8117
▁두려움	-10.8117
▁기숙사	-10.8117
▁무승부	-10.8117
▁허드슨	-10.8117
▁수류탄	-10.8117
▁활발	-10.8117
▁당부했다	-10.8118
▁맥캔	-10.8118
▁교섭	-10.8118
▁저항세력	-10.8118
▁남아프리카	-10.8118
▁무덤	-10.812
▁받아왔다	-10.8122
▁아니지만	-10.8122
▁외환	-10.8123
▁착수했다	-10.8123
▁체류	-10.8124
▁사육	-10.8124
▁돌려	-10.8124
▁소행성	-10.8125
▁모술	-10.8125
▁붙여	-10.8125
▁타밀	-10.8125
▁구호단체	-10.8126
논	-10.8127
연패	-10.8127
▁밀려	-10.8127
▁있은	-10.8128
▁고위급	-10.8129
▁낮아	-10.813
관이	-10.8132
▁무너지	-10.8132
▁열심	-10.8134
▁유통	-10.8135
▁구류	-10.8135
해리포터	-10.8136
PPP	-10.8136
▁모래	-10.8137
▁목사는	-10.8138
▁위하여	-10.8138
▁저질렀다	-10.8138
▁as	-10.8139
▁예약	-10.8139
▁전반적인	-10.814
▁빠졌다	-10.814
▁사라졌다	-10.814
▁옹호	-10.814
▁담당자	-10.8141
▁보인	-10.8144
▁모터	-10.8145
▁가중	-10.8147
▁바위	-10.8148
교회	-10.8151
ag	-10.8154
▁경쟁력	-10.8155
▁경비대	-10.8155
▁좁	-10.8161
▁움직임은	-10.8163
▁2%	-10.8163
인들에게	-10.8165
▁작업이	-10.8166
스케	-10.8167
▁정리	-10.8167
04	-10.8167
▁상을	-10.8167
▁X	-10.8171
키로	-10.8173
▁범인이	-10.8177
▁입지	-10.818
ti	-10.8181
▁동성애	-10.8182
ong	-10.8184
▁양국은	-10.8185
▁은행에	-10.8187
▁듀	-10.8189
▁가을	-10.819
▁우세	-10.819
▁향한	-10.8192
곳에서	-10.8195
▁사면	-10.8195
▁대가	-10.8199
▁중심지	-10.8199
▁공안	-10.82
▁상금	-10.8207
▁느끼고	-10.821
▁추구하	-10.8215
▁때문이라	-10.8218
용으로	-10.8219
has	-10.822
▁나타내는	-10.822
▁군인들이	-10.822
점에	-10.8222
▁수행할	-10.8225
▁시인했다	-10.8226
▁힘들다	-10.8228
▁St	-10.8229
▁반대로	-10.823
▁부검	-10.8232
▁가족들과	-10.8238
게임	-10.8241
▁4%	-10.8241
어질	-10.8243
▁성공한	-10.8245
'(	-10.8246
▁맞고	-10.8246
상에서	-10.8247
▁슈퍼	-10.8249
▁남성들	-10.8252
▁66	-10.8254
49	-10.8254
▁회장이	-10.8255
▁62	-10.8262
▁예술가	-10.8264
▁아프	-10.8271
▁49	-10.8272
▁항의하	-10.8274
▁변호인	-10.8277
호주	-10.8279
▁섹스	-10.8284
▁인권단체	-10.8285
▁부족하다	-10.8287
▁방문해	-10.8295
▁출연했다	-10.8298
▁분야에서	-10.8299
▁바르	-10.8301
▁지역인	-10.8304
▁하자	-10.8309
▁out	-10.8313
▁제작사	-10.8314
▁부지	-10.8315
위원	-10.8317
▁시작했다고	-10.8317
▁기아	-10.8324
더스	-10.8329
▁사용자들	-10.8334
▁행위에	-10.8334
▁스파이	-10.8343
▁독일인	-10.8345
쉽	-10.8349
▁발휘	-10.835
▁점수	-10.8351
▁농민들	-10.8351
27	-10.8354
틱	-10.8355
▁높게	-10.8356
▁뉴델리	-10.8356
▁유죄판결	-10.8356
▁자르다리	-10.8356
▁펼친	-10.8356
▁플루토늄	-10.8356
▁확률	-10.8356
박근혜	-10.8356
▁도요타	-10.8356
찌	-10.8356
▁삭감	-10.8356
▁출구조사	-10.8356
▁국립공원	-10.8356
▁빅토리아	-10.8356
▁알바니아	-10.8356
▁부사장	-10.8357
▁talks	-10.8357
▁숨졌으며	-10.8358
▁증강	-10.8358
▁중앙은행	-10.8358
▁1987	-10.8359
▁남학생	-10.8359
▁교외	-10.8359
카를로스	-10.8359
▁취급	-10.836
▁물고기	-10.8361
▁델타	-10.8363
됐는지	-10.8363
▁하원의장	-10.8363
▁are	-10.8363
▁완성	-10.8364
▁복원	-10.8364
▁예배	-10.8365
▁왕세자비	-10.8366
▁업적	-10.8367
▁비서실장	-10.8368
▁모른다고	-10.8371
▁포터	-10.8372
▁양쪽	-10.8374
▁영국과	-10.8375
▁총통	-10.8375
▁써	-10.8381
▁물체	-10.8381
▁맡았다	-10.8381
최근	-10.8382
▁배제	-10.8386
▁게시	-10.8389
▁미래에	-10.8389
▁남아있다	-10.8395
▁차질	-10.8395
▁제시한	-10.8399
▁묻는	-10.84
베르	-10.84
▁대서양	-10.8401
▁도디	-10.8401
▁선고했다	-10.8405
▁인터넷에	-10.8406
▁안내	-10.8408
▁양보	-10.8408
▁오바마에	-10.8414
▁상관	-10.8415
▁제공했다	-10.8418
▁일에	-10.8418
동물	-10.8425
▁남자아이	-10.8426
▁사고는	-10.8426
▁대리인	-10.8429
▁퀸	-10.8433
▁희	-10.8437
▁상당수	-10.8439
크리	-10.8441
▁이내에	-10.8444
▁의원들이	-10.8445
▁웨인	-10.8445
▁내렸	-10.8454
▁턱	-10.8455
▁제치	-10.8456
▁고위관리	-10.8461
▁두려워	-10.8461
▁파리에서	-10.8462
▁정기적	-10.8464
▁도구	-10.8466
▁남아있는	-10.8467
▁건강에	-10.8469
▁남부에	-10.8476
▁도착할	-10.8476
▁정기	-10.8479
97	-10.8482
▁테리	-10.8483
▁참가자들	-10.8485
▁암시	-10.8485
▁익	-10.8486
▁압수	-10.8493
일부	-10.8501
▁상황이다	-10.8501
▁진지	-10.8502
▁베리	-10.8506
▁지위	-10.8517
로우	-10.8521
96	-10.8521
메르	-10.8528
▁체포되었다	-10.8531
▁부분이	-10.8537
▁시작으로	-10.8538
편의	-10.8541
▁당황	-10.8546
해지고	-10.8548
오르	-10.8549
▁신도들	-10.8549
우드	-10.8549
▁됐	-10.8554
▁씨가	-10.8554
▁강진이	-10.8559
▁나타났	-10.8567
주가	-10.8567
▁석방됐다	-10.8579
▁판결이	-10.8579
시장에서	-10.8583
▁오리	-10.8588
▁일대	-10.8588
▁피난	-10.8592
흑	-10.8597
▁사과했다	-10.8598
놈	-10.8599
·	-10.8599
븐	-10.8599
▁visit	-10.8599
▁나눴다	-10.8599
▁메드베데프	-10.8599
▁않았습니다	-10.8599
▁앞섰다	-10.8599
▁잃어버	-10.8599
▁최루탄	-10.8599
▁하이브리드	-10.8599
▁해수면	-10.8599
▁첩보	-10.8599
▁온실가스	-10.86
대와	-10.86
▁에드워드	-10.86
됨에따라	-10.86
▁교착상태	-10.86
▁권총	-10.8601
▁Roh	-10.8601
▁its	-10.8601
▁우간다	-10.8601
▁급습	-10.8601
▁이뤄질	-10.8602
▁금융위기	-10.8602
ke	-10.8603
▁호송	-10.8603
▁에릭	-10.8603
▁갈등	-10.8605
▁데리고	-10.8605
▁추격	-10.8606
▁송금	-10.8606
▁지역사회	-10.8607
▁연출	-10.8608
▁줄이기	-10.8608
▁실현	-10.8609
▁정밀	-10.861
국으로	-10.8613
▁60%	-10.8613
▁매매	-10.8613
▁뚫	-10.8613
▁포스트	-10.8614
▁톰슨	-10.8615
▁개체수	-10.8615
르게	-10.8616
▁수색작업	-10.8617
▁부처	-10.862
▁위험성	-10.862
▁보증	-10.862
▁부품	-10.8622
▁물어	-10.8624
▁고안	-10.8625
싸	-10.8626
▁시사	-10.8626
▁실려	-10.8626
▁드러	-10.8626
▁군사력	-10.8627
▁해저	-10.8629
▁사용된	-10.8629
8000	-10.863
port	-10.863
팔레스타인	-10.8631
▁건물에	-10.8632
▁도살	-10.8634
▁2-1	-10.8635
▁글로벌	-10.8636
▁가난한	-10.8637
▁Ar	-10.8641
▁20%	-10.8643
키는	-10.8646
경찰이	-10.865
구가	-10.8652
▁공개하지	-10.8655
▁남성의	-10.8656
▁얻게	-10.8657
▁패스	-10.8661
하에	-10.8662
▁방송에	-10.8663
▁너무나	-10.8665
▁밝혀내	-10.8666
▁Ca	-10.8672
▁관객	-10.8672
상은	-10.8673
▁열었다	-10.8675
▁상세	-10.8676
▁재미있	-10.8679
▁남측	-10.8683
▁화가	-10.8683
학과	-10.8686
▁경험을	-10.8686
▁셰	-10.8686
간다	-10.8689
▁노스	-10.8689
▁가고	-10.8691
▁해적들	-10.8694
▁이름으로	-10.8695
▁출신으로	-10.8698
된다면	-10.87
▁v	-10.8702
▁크다	-10.8702
▁위원장이	-10.8704
▁토대	-10.8705
▁연구원은	-10.8709
▁아는	-10.8717
번호	-10.8718
▁판매량	-10.8722
▁인정하지	-10.8728
AP	-10.8732
▁이슈	-10.8735
▁MD	-10.8737
수사	-10.8738
월드	-10.8741
▁주에	-10.8743
?”	-10.875
▁담당자는	-10.8754
▁종교적	-10.8757
▁응답	-10.8762
ice	-10.8764
▁중이며	-10.8774
▁방콕	-10.8778
▁외상	-10.8787
▁차지하는	-10.8789
▁필립	-10.8795
▁일하고	-10.8802
▁개인적	-10.8804
받고	-10.8805
회를	-10.8807
▁준다	-10.8811
sh	-10.8816
인권	-10.8816
▁미리	-10.8821
▁폰	-10.8824
▁블루	-10.8827
▁금리를	-10.883
일에는	-10.8839
룰	-10.8845
▁데이비스	-10.8849
▁IBM	-10.8849
▁국가비상사태	-10.8849
▁국제우주정거장	-10.8849
▁먹고	-10.8849
▁메릴랜드	-10.8849
▁서브프라임	-10.8849
▁파파라치	-10.8849
▁바티칸	-10.8849
▁깨끗	-10.8849
▁주유소	-10.8849
▁윈도우	-10.885
▁퇴진	-10.885
▁좌석	-10.885
▁자전거	-10.885
oo	-10.885
▁야생동물	-10.885
▁행렬	-10.885
▁켈리	-10.885
▁바꿀	-10.885
▁데뷔	-10.8851
▁국민투표	-10.8851
▁인접	-10.8851
▁긴밀	-10.8852
95	-10.8852
▁동참	-10.8853
▁2008.12	-10.8853
▁다룬	-10.8853
▁설계	-10.8854
▁가택	-10.8854
▁유괴	-10.8855
▁서식하	-10.8855
▁어려	-10.8856
▁단독	-10.8857
▁재배치	-10.8857
▁절약	-10.8857
▁추모	-10.8859
▁위생	-10.8859
▁통행	-10.8859
성근	-10.8861
▁연임	-10.8863
당시	-10.8864
스텔	-10.8865
▁상병	-10.8868
▁야구	-10.887
▁무슨	-10.8872
▁혼자	-10.8875
▁불교	-10.8875
벨리	-10.8876
▁공격한	-10.8879
~2	-10.888
▁출장	-10.888
▁지구에	-10.8881
▁방법에	-10.8884
풀	-10.8887
▁진전이	-10.8889
▁미성년자	-10.8892
▁un	-10.8894
▁연구에서	-10.8896
▁IMF	-10.8898
유엔	-10.89
연승	-10.8909
31	-10.891
▁절도	-10.8912
▁고무	-10.8913
▁공개한	-10.8913
▁카리	-10.8914
▁동영상에서	-10.8915
▁하에	-10.8916
▁조선	-10.8916
▁돌아와	-10.8919
▁내정	-10.892
▁권고했다	-10.892
▁양성	-10.8921
▁69	-10.8927
▁공정한	-10.893
년전	-10.8936
▁반전	-10.8937
▁지나가	-10.8937
▁고조	-10.8938
▁궁	-10.8938
▁국민의	-10.894
▁활동에	-10.8944
▁이뤄	-10.8946
▁국가에	-10.8946
▁안으로	-10.8952
▁전격	-10.8954
▁경주	-10.8954
▁칭	-10.8957
ee	-10.8963
▁사라지	-10.8964
▁매수	-10.8965
ER	-10.8968
▁휴일	-10.8969
▁결정적인	-10.897
▁광부	-10.8972
▁나치	-10.8972
▁e	-10.8973
▁61	-10.8976
▁우즈	-10.8981
받은	-10.8985
북한이	-10.8987
pr	-10.8991
▁탈레반이	-10.8991
▁곤	-10.8992
▁클	-10.8993
마크	-10.8994
월에는	-10.8996
▁수감된	-10.8996
▁업체들	-10.8997
연대	-10.8998
▁여기에	-10.9005
해준	-10.9008
▁김치	-10.9008
▁68	-10.9013
달러로	-10.9017
▁폴리	-10.9025
미니	-10.9032
▁관객들	-10.9032
▁공무원	-10.9036
▁고조되	-10.9055
▁맞은	-10.906
티스	-10.9061
치료	-10.9065
▁서쪽	-10.9071
▁거부한	-10.9076
▁유해	-10.9077
▁급증	-10.9077
▁이스라엘에	-10.9082
▁대로	-10.9083
05	-10.9088
▁참가한	-10.9093
▁네바다	-10.9094
▁파월	-10.9097
52	-10.91
칙	-10.9103
튜	-10.9103
호를	-10.9104
졸	-10.9104
▁담고	-10.9105
▁꺾고	-10.9106
▁믿는다	-10.9106
▁인명피해	-10.9106
▁저렴	-10.9106
▁창기라이	-10.9106
▁최우선	-10.9106
랩	-10.9106
▁선거관리위원회	-10.9106
▁세속주의	-10.9106
▁모니터	-10.9106
▁아스날	-10.9106
▁내무장관	-10.9106
▁언덕	-10.9106
▁오바마를	-10.9106
▁시티그룹	-10.9106
▁54	-10.9107
▁AIG	-10.9107
▁앨런	-10.9107
▁포셋	-10.9107
▁교착	-10.9108
▁Minister	-10.9108
▁돌아갈	-10.9108
▁후임	-10.9108
▁국무총리	-10.9109
▁1986	-10.9109
▁산맥	-10.9109
쳤으며	-10.9111
▁개막식	-10.9111
▁창설	-10.9111
▁연말	-10.9111
바라데이	-10.9111
▁존스턴	-10.9112
▁행동에	-10.9112
▁역임	-10.9112
▁회계	-10.9112
▁않습니다	-10.9114
▁72	-10.9114
▁환율	-10.9115
▁의심되는	-10.9115
56	-10.9115
mo	-10.9116
▁현상이	-10.9117
▁던진	-10.9118
▁by	-10.9118
▁심판	-10.9119
▁시민권	-10.9119
▁모집	-10.9119
▁아웅산수치	-10.912
▁못했지만	-10.9122
▁파커	-10.9123
▁수컷	-10.9125
▁주거	-10.9125
▁재활용	-10.9126
▁던졌다	-10.9128
▁시골	-10.9128
▁구조작업	-10.9128
▁의견이	-10.913
▁걸렸다	-10.9132
▁소년이	-10.9132
▁돌아왔다	-10.9134
▁여러번	-10.9138
▁정유	-10.914
▁윌슨	-10.9141
▁도난	-10.9141
▁적합한	-10.9143
▁전해지	-10.9143
멜	-10.9144
▁리버	-10.9144
▁불가능하다	-10.9148
컨	-10.9148
▁말이	-10.9148
▁진행될	-10.915
윤	-10.9152
분경	-10.9153
▁투표율	-10.9153
환경	-10.9157
▁출전하지	-10.9157
▁미국인들은	-10.9158
▁해석	-10.9165
▁불과하다	-10.9166
▁납치한	-10.9166
▁원자력	-10.9167
▁산하	-10.9168
▁느끼	-10.917
▁주류	-10.9171
▁발견되지	-10.9172
▁덜	-10.9173
팬	-10.9173
담당	-10.9175
하러	-10.9177
버렸다	-10.9179
▁루니	-10.918
▁관련하여	-10.9185
▁맞이	-10.9191
▁알라	-10.9199
▁소비자들	-10.92
▁학생들에게	-10.9202
▁알바	-10.9204
▁내일	-10.9207
분야	-10.9208
트릭	-10.921
▁유물	-10.9213
▁꽃	-10.9214
▁합의에	-10.9214
▁찾아내	-10.922
▁학생이	-10.922
▁열리	-10.9222
▁지원금	-10.9223
▁군과	-10.9224
▁피하기	-10.9227
▁전범	-10.9228
▁호주에서	-10.9229
▁이어지	-10.9241
▁하거나	-10.9241
▁계속할	-10.9245
▁진행중	-10.9249
69	-10.9252
▁독재	-10.9252
까지도	-10.9256
이제	-10.926
▁포트	-10.9263
명에서	-10.9263
▁교도소에서	-10.9264
▁이슬라마바드	-10.9265
▁간에	-10.9267
83	-10.9271
세르	-10.9278
54	-10.9281
▁간부	-10.9281
▁거리에서	-10.9289
세포	-10.9294
쟁	-10.9299
팀이	-10.93
▁국회에서	-10.93
체제	-10.9301
▁전체가	-10.9302
▁직접적	-10.9302
▁취하고	-10.9305
▁재무	-10.9308
out	-10.9309
▁매력	-10.9321
▁가담	-10.9326
▁초에	-10.933
▁해안에	-10.9334
▁의제	-10.9334
▁위치해	-10.9335
▁기각	-10.9339
▁방송에서	-10.9341
▁일원	-10.9344
사이트	-10.9346
정치	-10.9348
▁반대하고	-10.9351
▁대변	-10.9352
▁똑같	-10.9354
▁이들에게	-10.9358
▁con	-10.9362
▁윈프리	-10.9365
혜	-10.9368
꼬	-10.9369
뷰	-10.9369
▁Seoul	-10.9369
▁박격포	-10.9369
▁스타벅스	-10.9369
▁없애	-10.9369
▁찾았다	-10.9369
▁토크쇼	-10.9369
▁호나우두	-10.9369
▁후지모리	-10.9369
껏	-10.9369
캄	-10.9369
head	-10.9369
▁음주운전	-10.9369
▁켄터키	-10.9369
WTO	-10.9369
▁고유가	-10.9369
▁가져올	-10.937
▁포획	-10.937
▁돌아올	-10.937
▁기획	-10.9371
▁상사	-10.9371
▁가끔	-10.9371
▁자동차업계	-10.9371
▁워렌	-10.9372
▁자발적	-10.9372
▁안드레	-10.9373
▁클라크	-10.9373
▁참배	-10.9373
▁드레스	-10.9374
▁결합	-10.9374
▁지속되	-10.9374
▁연구결과	-10.9374
▁설정	-10.9374
▁독감	-10.9375
▁맞았다	-10.9375
▁카라치	-10.9375
▁처형	-10.9376
▁로켓포	-10.9377
해서는	-10.9377
▁마찰	-10.9378
▁포경선	-10.9378
ence	-10.9379
▁매입	-10.9379
▁치매	-10.938
▁밀러	-10.938
▁예선	-10.9381
▁던져	-10.9382
▁개헌안	-10.9382
▁재배	-10.9384
▁넣었다	-10.9386
▁부결	-10.9386
▁피랍된	-10.9389
ial	-10.939
▁약탈	-10.939
▁반등	-10.939
▁기증	-10.9392
▁사살했다	-10.9393
▁펄	-10.9396
▁부속	-10.9396
CC	-10.9398
정권	-10.9399
▁전형적	-10.94
▁서브	-10.94
▁이득	-10.9401
준다	-10.9405
▁정체	-10.9406
▁해방	-10.9407
▁일시적	-10.9408
▁소유주	-10.9408
선에	-10.9417
res	-10.9417
▁명성	-10.9419
▁기울	-10.942
▁강간	-10.942
빅	-10.942
말리키	-10.942
FBI	-10.9421
▁석	-10.9421
몬드	-10.9422
뉴욕	-10.9423
시즌	-10.9423
보고서	-10.9424
tr	-10.9424
▁대우	-10.9428
▁방문은	-10.9431
▁내지	-10.9431
▁재판에서	-10.9432
▁죽이	-10.9436
oll	-10.9436
▁콰	-10.9437
▁납	-10.9437
▁FDA	-10.9438
▁업무를	-10.9447
어져	-10.9447
▁하비	-10.9452
▁대비해	-10.9454
▁재정적	-10.9456
▁일단	-10.9456
▁다르	-10.9461
▁배상	-10.9466
▁내리는	-10.9468
ome	-10.9473
43	-10.9475
▁정부군과	-10.9476
율이	-10.9477
▁쪽	-10.9478
▁De	-10.948
▁분석했다	-10.9483
▁단장	-10.9485
▁아미	-10.9486
▁표시했다	-10.9492
▁개성	-10.9492
전략	-10.9494
▁선택했다	-10.9497
바리	-10.9499
▁출신인	-10.9504
받아	-10.9504
▁춤	-10.9509
▁로이	-10.9514
▁무샤라프는	-10.9517
▁줄리	-10.9519
▁평화상	-10.9522
▁북부에서	-10.9525
하드	-10.9528
▁수락	-10.9529
▁세운	-10.9529
▁결심	-10.953
▁기원	-10.9532
▁아시아에서	-10.9535
자들과	-10.9538
▁간주	-10.954
▁국무	-10.954
▁못하다	-10.9541
▁호텔에	-10.9541
장비	-10.9544
학생	-10.9544
▁주권	-10.955
▁끝내	-10.9556
▁말에	-10.9558
▁제작자	-10.9559
▁크기의	-10.9559
구조	-10.956
▁변화에	-10.9566
▁탈레반측	-10.9568
▁벌어지	-10.957
▁이적	-10.9573
감시	-10.9583
▁클린턴에	-10.9589
▁만났	-10.959
▁영화에서	-10.9594
▁은행들	-10.9598
푸르	-10.9599
▁수사에	-10.9602
▁보유한	-10.9604
▁입어	-10.9605
▁위장	-10.9606
▁소유한	-10.9606
까요	-10.961
▁맡았	-10.9611
▁지방에서	-10.9614
▁파키스탄군	-10.9616
▁르	-10.9617
▁뉴저지	-10.9625
▁가르	-10.9633
냥	-10.9635
섭	-10.9636
▁휩쓸	-10.9636
덤	-10.9636
▁클린턴과	-10.9638
팩	-10.9639
딜	-10.9639
▁맨해튼	-10.9639
▁Bush	-10.9639
▁러닝메이트	-10.9639
▁애완동물	-10.9639
▁유람선	-10.9639
▁활성화	-10.9639
끔찍한	-10.9639
▁라호르	-10.9639
▁하버드	-10.9639
▁섹시	-10.9639
▁라모스	-10.9639
▁기다려	-10.9639
▁남아프리카공화국	-10.9639
▁알제리	-10.9639
▁넬슨	-10.964
▁사안	-10.964
▁브레이크	-10.964
▁슈퍼볼	-10.964
부분	-10.9641
▁밝혀냈다	-10.9641
▁머레이	-10.9641
▁아빠	-10.9643
▁외쳤다	-10.9644
▁연령	-10.9645
▁미셸	-10.9646
▁진료	-10.9646
▁생명체	-10.9646
▁연구원	-10.9647
▁만료	-10.9648
▁불안정	-10.9648
▁대테러	-10.9649
▁승점	-10.965
▁케이시	-10.9652
▁교내	-10.9654
▁리오	-10.9655
▁응원	-10.9656
▁연대	-10.9659
▁사이버	-10.9661
▁특사는	-10.9663
▁기념식	-10.9663
▁유행	-10.9663
con	-10.9666
▁거친	-10.9667
▁사회당	-10.9669
점에서	-10.9675
▁유럽과	-10.9676
▁상자	-10.9676
▁사라진	-10.9676
단이	-10.9677
▁단식	-10.9677
▁화제	-10.9679
▁생성	-10.968
▁걸려	-10.968
▁실패한	-10.9681
▁받아들이지	-10.9684
▁먼지	-10.9688
▁피신	-10.9689
프라	-10.9691
년형	-10.9691
교수	-10.9692
같이	-10.9692
▁버지니아주	-10.9692
▁기분이	-10.9693
아버지	-10.9693
▁이어졌다	-10.9694
▁소화	-10.9695
떼	-10.9696
▁지지자들에게	-10.9697
착륙	-10.9698
그것은	-10.9699
잘	-10.9699
▁남쪽으로	-10.9699
3000	-10.97
▁병력이	-10.9702
음악	-10.9702
▁인도분	-10.9702
▁수사관들은	-10.9704
▁발매	-10.9706
진압	-10.9707
변화	-10.9712
▁산소	-10.9713
▁예측했다	-10.9714
이었지만	-10.9717
▁프랑스에서	-10.972
be	-10.9721
▁템	-10.9722
문서	-10.9723
었	-10.9724
▁아프간에	-10.9724
▁이라크인	-10.9726
브레	-10.9726
▁성분	-10.9727
▁거래됐다	-10.9733
▁그랜드	-10.9734
체계	-10.9735
마라	-10.9738
▁강타한	-10.9742
▁성명서	-10.9746
라이브	-10.9748
▁확인하기	-10.9748
▁이민자들	-10.9753
▁근처에	-10.9753
▁일어나지	-10.9754
올해	-10.9756
▁메리	-10.9756
▁민주당이	-10.9758
▁war	-10.9762
▁이른	-10.9764
▁즐기는	-10.9765
▁차지한	-10.9765
▁약속한	-10.9782
▁눈물	-10.9783
▁탄도	-10.9786
▁양자	-10.9786
▁느끼는	-10.9789
▁폭력사태로	-10.979
▁본드	-10.9791
▁총리직	-10.9791
▁최고위	-10.9796
▁명단에	-10.9797
▁포기하	-10.9805
리오	-10.9809
▁파키스탄에서	-10.9817
▁위협에	-10.9823
▁전용	-10.9823
평방	-10.9825
▁대안	-10.9827
▁이라크내	-10.983
▁사무	-10.983
78	-10.9832
티드	-10.9841
▁57	-10.9847
MS	-10.9848
▁소속의	-10.985
▁매케인이	-10.9852
▁성공을	-10.9852
▁종이	-10.9852
워드	-10.9859
▁취소했다	-10.9863
able	-10.9865
▁노대통령은	-10.9868
▁재해	-10.9869
▁민간인들	-10.9871
▁소비자들이	-10.9872
37	-10.9872
▁계속하고	-10.9876
▁확산되	-10.9887
▁가즈니	-10.9888
da	-10.9889
그들이	-10.989
▁파크	-10.9892
▁바지	-10.9892
mb	-10.9897
▁개발한	-10.9898
▁목요일에	-10.9899
▁신원이	-10.9899
대는	-10.9901
▁행동이	-10.9903
레오	-10.9904
TA	-10.9904
▁월스트리트	-10.9908
▁철수시키	-10.9909
▁용납	-10.991
▁전하고	-10.991
건물	-10.9913
슐	-10.9913
▁언급한	-10.9914
겔	-10.9917
닛	-10.9917
▁듣지	-10.9917
▁디트로이트	-10.9917
▁럼스펠드	-10.9917
▁스탈린	-10.9917
▁억만장자	-10.9917
▁텔레비전	-10.9917
▁피츠버그	-10.9917
▁헬리콥터	-10.9917
▁최고경영자	-10.9917
▁브루니	-10.9917
▁딜러	-10.9917
▁덴버	-10.9917
▁돌아다니	-10.9917
▁낭비	-10.9917
▁코카인	-10.9917
▁티벳	-10.9917
▁고등법원	-10.9917
▁텐트	-10.9917
2007.09	-10.9917
time	-10.9918
▁친환경	-10.9918
▁왜곡	-10.9918
▁동굴	-10.9918
▁복합	-10.9918
▁처방	-10.9919
▁생겨	-10.9919
▁대선주자	-10.992
▁요르단강	-10.992
▁장벽	-10.992
▁절감	-10.9921
▁도망	-10.9922
▁구호품	-10.9922
▁위축	-10.9923
달라	-10.9923
▁문제점	-10.9924
▁출국	-10.9924
▁치른	-10.9924
▁불황	-10.9925
▁유혈	-10.9925
▁70%	-10.9925
▁소총	-10.9926
▁보수당	-10.9928
▁느낀다	-10.9929
▁수요일에	-10.9929
▁추천	-10.9929
▁반환	-10.9931
▁유골	-10.9932
▁매출	-10.9932
▁중점	-10.9933
▁라울	-10.9937
실질적인	-10.9938
▁합의문	-10.9939
▁아랍에미리트	-10.9939
▁다가오	-10.994
▁파편	-10.9941
▁배포	-10.9942
▁첫날	-10.9945
▁분야에	-10.9948
▁밀어	-10.9948
▁엄	-10.995
▁휴식	-10.995
▁그들에게	-10.9951
▁비평	-10.9951
▁남자들	-10.9951
▁그곳에서	-10.9953
▁해왔다	-10.9954
티아	-10.9954
▁달러가	-10.9955
▁과제	-10.9956
▁없다며	-10.9957
▁방문에	-10.9959
이라면	-10.996
▁비난한	-10.9961
▁총회	-10.9967
▁집회에	-10.9968
▁유명하다	-10.9968
▁아니며	-10.9968
▁재고	-10.997
▁명백한	-10.997
블리	-10.997
▁아라비아	-10.9971
▁구타	-10.9973
▁샤리프는	-10.9977
몽	-10.9978
아메리칸	-10.9983
▁제프	-10.9984
유럽	-10.9984
▁이른다	-10.9984
잠	-10.9985
클린턴	-10.9985
▁중단됐다	-10.9986
▁리비	-10.9989
▁국경지역	-10.9995
부의	-10.9996
▁심화	-10.9999
▁시작될	-11
건강	-11.0001
▁41	-11.0002
▁구단	-11.0006
▁상위	-11.0007
▁장성	-11.0009
여행	-11.0017
▁반미	-11.0019
▁조치로	-11.0019
▁선적	-11.0023
▁군중들	-11.0027
보드	-11.0039
▁무엇이	-11.0042
▁언론과	-11.0043
▁연구가	-11.0045
▁전합니다	-11.0049
▁복장	-11.005
사실	-11.0051
▁선박이	-11.0052
문화	-11.0053
자들에	-11.0053
▁원주민	-11.0056
▁취하지	-11.0057
▁조직원	-11.006
73	-11.0072
▁입수한	-11.0072
▁봉	-11.0073
▁Ro	-11.0076
▁법적으로	-11.008
회에서	-11.0082
▁통해서	-11.0084
수단	-11.0085
▁페리	-11.0088
▁투기	-11.0101
차이	-11.0103
기때문에	-11.0106
▁형태로	-11.0106
▁그레	-11.0109
군과	-11.0109
라니	-11.011
▁편집	-11.0113
▁미라	-11.0122
▁참여했다	-11.0124
▁인정받	-11.0126
호프	-11.0136
▁들어와	-11.0136
▁원하지	-11.0136
프리	-11.0138
▁피살	-11.014
▁덧붙	-11.0143
▁기본적	-11.0147
▁남성과	-11.0149
베스	-11.0149
▁난민들	-11.015
▁급락	-11.0155
▁측이	-11.0156
▁명백	-11.0157
▁웨이	-11.0158
▁An	-11.0158
▁당일	-11.0164
▁발생했	-11.0164
94	-11.0165
죄로	-11.0175
▁정부에서	-11.0183
▁자녀들	-11.0184
▁피고인	-11.0185
me	-11.0188
▁지역이	-11.0191
레이크	-11.0192
▁청소	-11.0193
기금	-11.0194
(2	-11.0195
▁종합	-11.0196
▁가기	-11.0201
덩	-11.0203
▁끝났다	-11.0203
▁느껴	-11.0203
▁버냉키	-11.0203
▁브래드	-11.0203
▁스튜디오	-11.0203
▁규칙	-11.0203
▁유수프	-11.0203
▁침묵	-11.0203
▁바하마	-11.0203
▁take	-11.0203
▁부양책	-11.0203
▁휴스턴	-11.0203
▁놀랄	-11.0204
▁쓰는	-11.0204
▁스콧	-11.0204
▁안토니오	-11.0204
▁가혹	-11.0205
▁전사	-11.0205
▁반체제	-11.0207
▁국방위원장	-11.0207
▁집필	-11.0208
▁부활	-11.0208
▁새겨	-11.0209
▁장소에서	-11.021
▁금속	-11.021
▁대선에	-11.021
▁90%	-11.0211
▁화석	-11.0212
▁장거리	-11.0213
코트	-11.0214
▁CD	-11.0214
▁네바다주	-11.0217
▁추문	-11.0217
▁보조금	-11.0217
▁모았다	-11.0217
▁처분	-11.0217
▁대령	-11.0218
리나	-11.0221
▁한달	-11.0222
▁개설	-11.0222
▁의자	-11.0224
▁시청자들	-11.0228
▁예선전	-11.0229
▁움직임이	-11.0231
▁지나치	-11.0232
▁구경	-11.0234
▁환수	-11.0235
▁입원했다	-11.0239
원으로	-11.0239
▁아민	-11.024
▁밝히며	-11.024
▁피어	-11.0244
▁지질	-11.0244
▁태우고	-11.0246
▁움직	-11.0247
▁병사들이	-11.0248
되도록	-11.0249
ick	-11.0255
였고	-11.0256
▁무산	-11.0256
▁어디	-11.0258
▁투명	-11.0258
▁나체	-11.0259
▁가족들에게	-11.0263
▁해역	-11.0265
▁확인되	-11.027
▁증언했다	-11.027
▁된다면	-11.0271
옥	-11.0271
▁지고	-11.0274
▁제외하고	-11.0279
▁CDC	-11.0279
타스	-11.028
▁생각해	-11.0282
▁공무원들	-11.0282
재판소	-11.0282
▁선원들	-11.0294
▁서한	-11.0299
▁바닥에	-11.03
▁탈북자	-11.0302
BO	-11.0302
▁결정이	-11.0302
▁47	-11.0304
▁선출된	-11.0307
▁밝히기	-11.032
▁나아	-11.0322
퍼스	-11.0325
▁주말에	-11.0327
터키	-11.0333
.6%	-11.0334
▁치를	-11.0337
▁같	-11.0346
▁조씨	-11.0347
ga	-11.0349
▁엠	-11.035
▁할지	-11.035
▁AI	-11.0352
▁롤	-11.0354
▁대회에	-11.0355
우디	-11.0359
▁일으키는	-11.0367
▁착용하	-11.037
▁강화할	-11.0371
▁대리	-11.0372
▁이송됐다	-11.0373
▁부인하고	-11.0374
▁확인하고	-11.0376
▁배심원	-11.0378
▁대답했다	-11.0381
▁축출	-11.0382
▁명령했다	-11.0383
▁중반	-11.0387
▁상원에서	-11.0387
비행기	-11.0388
▁모두에게	-11.0391
▁부리	-11.0398
▁유지할	-11.04
▁돌입	-11.0401
▁갖기	-11.041
혐의로	-11.0416
▁고수	-11.0425
▁추락한	-11.0426
ian	-11.0427
▁군중	-11.0428
발전	-11.0432
▁발표는	-11.044
▁경찰청	-11.0441
스탄	-11.0442
예프	-11.0442
▁이외	-11.0443
▁mo	-11.0444
08	-11.0445
ame	-11.0449
▁재판이	-11.045
▁국가인	-11.0451
▁71	-11.0452
룩	-11.0452
단체가	-11.0454
rea	-11.0456
인치	-11.0462
67	-11.0467
▁부르는	-11.0471
US	-11.0471
▁재선	-11.0472
▁있었기	-11.0473
사람	-11.0474
하였으며	-11.0475
▁투자자	-11.0475
▁우승자	-11.0476
▁한다면	-11.0478
▁촉구하	-11.0478
▁재활	-11.0479
▁음료	-11.0479
공장	-11.0482
▁구제금융	-11.0486
어졌다	-11.0486
지오	-11.0486
▁경제학자	-11.0487
럭	-11.0487
▁180	-11.0493
셉	-11.0494
▁전쟁이	-11.0494
첩	-11.0494
셋	-11.0495
▁램	-11.0496
즘	-11.0496
쿨	-11.0497
▁military	-11.0497
▁괜찮	-11.0497
▁기준금리	-11.0497
▁끊임없	-11.0497
▁뒷받침	-11.0497
▁마이스페이스	-11.0497
▁마케팅	-11.0497
▁애틀랜타	-11.0497
▁에르도간	-11.0497
▁풀려났다	-11.0497
▁호날두	-11.0497
맘	-11.0497
▁브리트니	-11.0497
▁1-0	-11.0497
▁좌파	-11.0497
▁기뻐	-11.0497
▁나눠	-11.0497
▁바바라	-11.0497
▁신용카드	-11.0498
▁요즘	-11.0498
▁세인트	-11.0498
▁감바	-11.0498
▁무소속	-11.0498
▁밝혔으나	-11.0498
▁화염	-11.0499
▁Day	-11.0499
▁조짐	-11.0499
되었는데	-11.05
▁코스피	-11.05
▁영광	-11.05
▁돌아온	-11.0501
▁제작된	-11.0501
▁잡았다	-11.0502
▁도핑	-11.0503
▁170	-11.0504
권이	-11.0504
유지	-11.0505
▁동성	-11.0506
중이다	-11.0506
▁레이저	-11.0506
▁대기업	-11.0507
▁금연	-11.0508
▁히트	-11.0508
▁때문입니다	-11.0508
▁소유권	-11.0508
▁사우스	-11.0509
▁들어온	-11.0509
▁나와즈	-11.051
▁타결	-11.051
▁보좌관들	-11.0511
▁닭	-11.0514
▁배심원단	-11.0515
▁급진	-11.0516
세대	-11.0517
▁배급	-11.0518
9000	-11.0519
▁su	-11.0519
▁내용에	-11.052
▁비극	-11.0522
▁대통령으로	-11.0523
▁대폭	-11.0523
▁당연	-11.0524
▁멈	-11.0526
▁사회에	-11.0526
▁교육부	-11.0526
▁쉬운	-11.0527
▁주주들	-11.0527
▁포위	-11.0529
▁식수	-11.053
구역	-11.0532
▁헐	-11.0533
▁석방된	-11.0534
▁구간	-11.0535
▁스카이	-11.0535
나라	-11.0535
▁예정되어	-11.0537
▁앞선	-11.0538
▁장기간	-11.0543
▁복지	-11.0544
▁리더	-11.0546
▁활동이	-11.0546
▁약품	-11.0546
▁미치지	-11.0548
▁여유	-11.0549
▁보호하고	-11.0552
▁여아	-11.0553
▁저지르	-11.0556
▁전시회	-11.0556
▁연방정부	-11.0557
▁8%	-11.0558
▁클로	-11.0559
물질	-11.0562
▁참사	-11.0567
▁시카고에서	-11.0567
▁가자지구에서	-11.0568
▁77	-11.0571
위원장은	-11.0573
▁좋아한다	-11.0574
축구	-11.0574
▁의장이	-11.0574
▁엑	-11.0575
▁전쟁에서	-11.0576
▁발달	-11.0582
▁남기	-11.0582
또	-11.0582
36	-11.0582
▁있기를	-11.0583
▁빌리	-11.0585
▁가로	-11.0587
▁슛	-11.0587
▁확신했다	-11.0589
▁에스	-11.0592
관광	-11.0595
▁논의했다	-11.0598
▁반도	-11.0602
증권	-11.0603
▁죽었다	-11.0616
▁실업	-11.0618
▁나아가	-11.0619
▁칼라	-11.0624
▁적자	-11.0627
▁금년	-11.063
▁여사와	-11.0631
사람들이	-11.0631
▁적극	-11.0631
▁중심에	-11.0632
87	-11.0636
▁독재자	-11.0637
▁통신사	-11.0642
▁회견에서	-11.0645
▁파손됐다	-11.0647
▁재판에	-11.0649
▁도주	-11.0649
▁것이기	-11.065
▁주소	-11.0654
타이거	-11.0656
▁제공하고	-11.0656
▁강화하고	-11.066
ba	-11.0662
전선	-11.0662
▁추락했다	-11.0663
머리	-11.0664
▁판결에	-11.0676
로프	-11.0679
▁78	-11.0683
▁가족에게	-11.0688
▁일어나고	-11.0689
▁내리고	-11.0694
▁76	-11.0695
▁장악하	-11.0698
▁생산하는	-11.0698
▁보도한	-11.0701
조정	-11.0704
▁성지	-11.0704
▁과정에	-11.0706
▁전파	-11.0707
시키며	-11.0707
▁폭로	-11.0708
▁AS	-11.0715
▁바닥	-11.0715
▁다수의	-11.0721
민주	-11.0721
▁달러로	-11.0723
▁분쟁이	-11.0723
되었지만	-11.0725
▁사임했다	-11.0726
▁확인된	-11.0729
▁관광지	-11.0734
▁특이	-11.0735
▁개최된	-11.0736
▁러시아와	-11.0738
▁잃었	-11.0741
가량	-11.0742
▁국회에	-11.0743
▁평양에서	-11.0743
부족	-11.0744
▁줄이는	-11.0745
▁요청할	-11.0749
▁중계	-11.0754
달간	-11.0754
이기도	-11.0757
▁기술자	-11.076
53	-11.0762
▁pre	-11.0764
▁전임	-11.0765
건설	-11.0767
▁대원들	-11.0772
세트에서	-11.0772
▁작용	-11.0774
▁사람과	-11.078
량의	-11.079
▁하여	-11.0791
▁베어	-11.0793
끔	-11.0797
▁득표	-11.0799
▁끌려	-11.08
렁	-11.08
▁Show	-11.08
▁가즈프롬	-11.08
▁골든글로브	-11.08
▁떨어질	-11.08
▁베탕쿠르	-11.08
▁시애틀	-11.08
▁썼다	-11.08
▁애니메이션	-11.08
▁엘리베이터	-11.08
▁원자바오	-11.08
▁일으켜	-11.08
▁테러지원국	-11.08
▁식민지	-11.08
▁아칸소	-11.08
▁되돌아	-11.08
▁캔자스	-11.08
▁맥케인	-11.08
▁혈액	-11.08
▁양키스	-11.08
▁트로피	-11.08
▁고릴라	-11.08
▁북극곰	-11.08
▁유적지	-11.08
▁크레이그	-11.08
▁멸종위기	-11.0801
▁몸값	-11.0801
▁숨겨	-11.0801
▁떠올	-11.0801
▁출범	-11.0802
▁가죽	-11.0802
▁적응	-11.0802
▁운반	-11.0803
▁저택	-11.0803
▁1988	-11.0803
▁대략	-11.0803
▁군사작전	-11.0803
▁남녀	-11.0803
▁프랑스와	-11.0803
▁논문	-11.0803
▁입학	-11.0803
▁개념	-11.0804
통신은	-11.0804
▁패리스	-11.0804
▁폭등	-11.0804
레즈	-11.0805
▁모험	-11.0805
▁일상	-11.0806
▁참모	-11.0808
▁영감	-11.0809
▁안된다	-11.0809
▁거둔	-11.081
▁입었으며	-11.081
▁농민	-11.0811
▁탐사선	-11.0811
▁창조	-11.0814
▁편안	-11.0815
▁받아들였다	-11.0815
▁설문	-11.0816
▁지낸	-11.0816
▁평소	-11.0819
▁때마다	-11.082
▁New	-11.0821
▁입력	-11.0821
▁그곳에	-11.0822
▁분실	-11.0823
▁연방준비제도이사회	-11.0824
▁신병	-11.0826
ah	-11.0826
▁겪었다	-11.0826
▁1950	-11.0827
▁주장했지만	-11.0829
▁손자	-11.0829
▁줬다	-11.0829
▁관점에서	-11.0831
▁파문	-11.0832
▁알려주	-11.0833
▁타이어	-11.0833
▁열려	-11.0833
있거나	-11.0836
▁팜	-11.0838
▁선장	-11.0841
▁가져다	-11.0841
벨트	-11.0845
구의	-11.0845
▁요구에	-11.0847
▁공조	-11.0848
▁3%	-11.085
▁차원에서	-11.085
▁하산	-11.085
모어	-11.0851
23	-11.0852
▁여야	-11.0853
▁조사는	-11.0853
▁라파	-11.0857
▁자정	-11.0861
▁폴슨	-11.0861
▁유용	-11.0861
▁시일	-11.0864
▁권위	-11.0864
▁붕괴된	-11.0874
▁비치	-11.0876
▁공학	-11.0878
▁tr	-11.088
▁인도주의적	-11.0881
▁여단	-11.0883
▁기록하며	-11.0884
▁맹	-11.0886
▁안전에	-11.0889
셰	-11.089
[	-11.0891
아프리카	-11.0893
▁끄	-11.0893
알카에다	-11.0894
스페인	-11.0895
페이지	-11.0895
섹스	-11.0896
▁이해할	-11.0896
▁싶어한다	-11.0896
▁원치	-11.09
▁관리자	-11.0902
대부분	-11.0904
▁소방	-11.0906
▁들어가는	-11.0906
해져	-11.0906
▁dis	-11.0908
▁회사에	-11.0909
천명	-11.091
시경	-11.091
주택	-11.0911
▁명시	-11.0915
▁인도네시아에서	-11.0917
▁요청한	-11.0919
▁데비	-11.092
▁현지경찰	-11.0926
▁물었다	-11.0931
59	-11.0931
▁사용한다	-11.0936
▁열렸	-11.0937
봐야	-11.0939
▁제공하기	-11.0939
▁성사	-11.0956
리언	-11.0962
▁루이	-11.0962
▁필요성을	-11.0965
▁아바	-11.0966
▁유지하기	-11.0966
up	-11.0967
▁쳐	-11.0971
▁비만	-11.0972
day	-11.0975
low	-11.0979
▁내고	-11.0982
▁주차	-11.0983
▁작성한	-11.0985
▁미끄러	-11.0989
▁FA	-11.0989
▁지도자들과	-11.0999
▁보였다고	-11.1
▁교전이	-11.1002
▁추구	-11.1009
▁나빠	-11.1009
▁국회의원들	-11.101
교류	-11.1011
▁남아있	-11.1014
▁나타난	-11.1028
ide	-11.1031
▁안나	-11.1032
야당	-11.1034
▁시위자	-11.1034
▁끝나는	-11.1041
▁기술이	-11.1042
▁조국	-11.1047
41	-11.1052
▁지원하기	-11.1054
▁친척	-11.1057
▁방문객들	-11.1058
▁헤이	-11.1064
▁부문에서	-11.1064
▁이래로	-11.1066
▁올리고	-11.1067
▁목적이	-11.1071
▁벌어졌	-11.1074
▁연예	-11.1089
위원장	-11.1089
▁기리	-11.1095
▁에디	-11.1095
쁜	-11.1108
▁중동평화	-11.1109
흡	-11.1111
▁2-0	-11.1112
▁전체에	-11.1112
왓	-11.1112
눌	-11.1112
▁구호물품	-11.1112
▁국회의사당	-11.1112
▁다운로드	-11.1112
▁머리카락	-11.1112
▁베어스턴스	-11.1112
▁비즈니스	-11.1112
▁슬픔	-11.1112
▁에스토니아	-11.1112
▁티셔츠	-11.1112
▁펭귄	-11.1112
▁흰색	-11.1112
▁베이루트	-11.1112
▁have	-11.1112
▁그린피스	-11.1112
▁착취	-11.1112
▁추산했다	-11.1112
▁니케이	-11.1112
▁오렌지	-11.1112
▁대한민국	-11.1112
▁원문기사	-11.1112
WFP	-11.1113
▁덕분에	-11.1113
▁취득	-11.1113
▁칭찬	-11.1113
2007.07	-11.1113
▁맥도날드	-11.1113
▁소탕작전	-11.1113
▁마사지	-11.1113
▁바꿔	-11.1113
2007.08	-11.1113
▁진흙	-11.1113
2006.02	-11.1113
▁동유럽	-11.1114
▁오늘밤	-11.1114
▁troops	-11.1115
2006.05	-11.1115
▁같습니다	-11.1115
▁명칭	-11.1116
▁평화협상	-11.1116
▁발효	-11.1116
▁하얀	-11.1117
나갈	-11.1119
▁근교	-11.112
▁금융시장	-11.112
▁탈레반과	-11.112
2006.10	-11.1121
▁아이돌	-11.1122
▁받았지만	-11.1122
▁기습	-11.1122
▁볼튼	-11.1124
▁모르겠다	-11.1125
돌프	-11.1126
▁현행	-11.1126
▁플로	-11.1127
▁마침	-11.1127
▁포도	-11.1127
▁인체	-11.1128
▁회부	-11.1128
▁상반기	-11.113
여성	-11.1131
▁테마	-11.1132
▁보호하는	-11.1133
▁다이애나비	-11.1133
▁죄수	-11.1136
▁했고	-11.1137
▁인기가	-11.1137
▁코피	-11.1138
▁복수	-11.1139
▁영원	-11.1139
▁조속	-11.114
po	-11.114
▁느꼈다	-11.1141
▁미셀	-11.1141
09	-11.1143
▁뒤집	-11.1144
▁예보	-11.1144
▁묘지	-11.1144
▁제프리	-11.1148
더는	-11.1149
▁호화	-11.1151
▁예상보다	-11.1152
▁시판	-11.1152
▁격리	-11.1154
▁참여하지	-11.1155
▁결의안에	-11.1155
▁죽어	-11.1155
▁알렌	-11.1158
▁2008.11	-11.1159
▁지도자로	-11.1159
▁부유	-11.116
▁이룩	-11.116
▁적십자사	-11.1161
▁미술	-11.1162
▁채권	-11.1163
▁기권	-11.1166
하자는	-11.1167
▁참여하는	-11.1168
▁시달리고	-11.117
▁제방	-11.117
▁확실하지	-11.117
▁참석해	-11.1172
▁과시	-11.1173
대책	-11.1173
▁지문	-11.1174
▁비유	-11.1175
▁경제학자들	-11.1177
▁줄여	-11.1178
▁선고받	-11.1179
▁거주지	-11.1183
▁투표할	-11.1183
▁제압	-11.1183
▁출연해	-11.1185
▁중령	-11.1187
▁2,000	-11.1187
▁폭격기	-11.1187
▁전염	-11.119
▁괴한	-11.1192
▁머리에	-11.1193
▁자크	-11.12
▁주최측은	-11.1203
▁실어	-11.1203
ext	-11.1206
▁면제	-11.1207
굴	-11.1209
▁이어질	-11.121
털	-11.1212
론자들	-11.1214
마이어	-11.1215
▁제약	-11.1216
▁OPEC	-11.1216
▁실력	-11.1221
▁15%	-11.1223
▁드립니다	-11.1223
니까	-11.1226
▁상의	-11.1229
▁정치적으로	-11.1229
▁오프라	-11.123
▁킨	-11.1236
▁불평	-11.1238
▁행사에서	-11.1241
▁청년	-11.1242
ub	-11.1243
▁For	-11.1244
62	-11.1247
배우	-11.1247
▁아크	-11.1253
▁사제	-11.1256
였지만	-11.1258
▁당국과	-11.1264
▁나간	-11.1266
▁미만	-11.1266
리어	-11.1266
▁불화	-11.1267
▁정신과	-11.1268
▁인정한	-11.1268
▁제일	-11.1268
해졌	-11.1269
적이며	-11.1273
로서는	-11.1276
주기	-11.1276
▁속한	-11.1279
더미	-11.1283
▁김씨	-11.1286
▁가한	-11.1298
스틴	-11.1302
▁클라	-11.1305
▁심사	-11.1314
하르	-11.1315
▁건수	-11.132
략	-11.1323
구간	-11.1326
리틀	-11.1333
▁어머니와	-11.1333
살인	-11.1334
다리	-11.1334
▁no	-11.1336
▁장악	-11.1337
▁지구에서	-11.1338
채가	-11.1344
▁선언한	-11.1344
▁클리	-11.1346
무라	-11.1346
▁개최되	-11.1346
버릴	-11.1352
NU	-11.1357
▁자라	-11.1357
▁회원들	-11.1358
▁유니	-11.1359
▁떼	-11.136
▁몽	-11.136
▁전설	-11.1365
▁자금이	-11.1367
▁서울에	-11.1369
▁중단하고	-11.1371
회의에서	-11.1377
기위해	-11.1385
▁마을에	-11.1388
만년	-11.1396
▁미시간	-11.1399
▁까	-11.1401
▁아기들	-11.1402
▁패한	-11.1406
▁감시단	-11.1408
전문	-11.1414
▁사업가	-11.142
▁부통령이	-11.142
▁열정	-11.142
있으며	-11.142
직에서	-11.1422
AU	-11.1422
첨	-11.1427
융	-11.143
쁘	-11.1431
▁풀려	-11.1432
ber	-11.1433
베라	-11.1433
Po	-11.1434
▁참석하기	-11.1435
스트리트	-11.1435
▁AFP	-11.1435
▁Secretary	-11.1435
▁로스앤젤레스	-11.1435
▁모가디슈	-11.1435
▁뮌헨	-11.1435
▁불렀다	-11.1435
▁상관없이	-11.1435
▁오케스트라	-11.1435
▁유니세프	-11.1435
▁이르기까지	-11.1435
▁이르렀다	-11.1435
▁재확인	-11.1435
▁정해지지	-11.1435
▁칸다하르	-11.1435
▁트라볼타	-11.1435
▁항생제	-11.1435
▁황우석	-11.1435
▁매머드	-11.1435
▁브리티시	-11.1435
▁집무실	-11.1435
잎	-11.1435
▁대주교	-11.1435
▁되풀이	-11.1435
▁어두운	-11.1435
▁유조선	-11.1435
마누엘	-11.1435
▁국가주석	-11.1435
▁세비야	-11.1435
▁흐름	-11.1435
▁중산층	-11.1435
▁브루스	-11.1435
▁잔혹	-11.1435
▁히드로	-11.1435
사령부	-11.1435
▁효력	-11.1436
▁무너져	-11.1436
(25)	-11.1436
▁맞붙	-11.1436
▁크로커	-11.1436
▁장기적	-11.1436
▁침범	-11.1436
▁면접	-11.1436
▁벌어들	-11.1436
▁캐롤	-11.1436
▁공군기지	-11.1437
▁가속화	-11.1437
▁아마존	-11.1437
▁1981	-11.1439
▁종말	-11.1441
▁다행히	-11.1441
▁밤새	-11.1442
▁풍선	-11.1442
▁피닉스호	-11.1442
92	-11.1444
▁2011	-11.1445
▁라이프	-11.1445
▁다녀	-11.1445
▁1/4	-11.1446
▁가축	-11.1447
▁감량	-11.1448
▁계열사	-11.145
▁가결	-11.1451
▁난동	-11.1452
▁요새	-11.1452
▁없었던	-11.1453
▁제패	-11.1454
▁사용하기	-11.1455
▁놓여	-11.1455
▁인계	-11.1455
▁정치범	-11.1457
▁줄이고	-11.1458
▁소란	-11.146
▁폐기물	-11.1462
▁프린스	-11.1462
▁염려	-11.1462
▁지니	-11.1462
▁우리베	-11.1464
▁레이더	-11.1464
▁정교	-11.1465
▁정상회의	-11.1466
▁크로아티아	-11.1468
만명에	-11.1473
▁세기	-11.1473
▁되었습니다	-11.1473
▁천문학자들	-11.1473
▁서명했다	-11.1477
▁노력에	-11.1478
▁입구	-11.148
▁페르	-11.1481
▁나란	-11.1482
▁검토하	-11.1483
▁방치	-11.1483
공항	-11.1484
▁닐	-11.1485
▁감원	-11.1486
▁비전	-11.1491
▁서약	-11.1493
▁전송	-11.1495
▁초래	-11.1497
▁연방수사국	-11.1498
▁덕	-11.1499
▁채우	-11.1499
시켜야	-11.15
렌스	-11.1501
방안	-11.1501
▁81	-11.1502
▁노동부	-11.1503
▁걸었다	-11.1504
▁버전	-11.1504
▁BDA	-11.1505
▁의원들에게	-11.1505
▁제공해	-11.1506
▁정오	-11.1507
▁성공회	-11.1509
작업을	-11.151
▁시작되	-11.1511
▁대조	-11.1511
▁확보했다	-11.1511
▁라인	-11.1514
▁부상자들	-11.1515
▁시계	-11.1517
▁개인적으로	-11.1518
▁1200	-11.1518
▁63	-11.152
▁경찰에따르면	-11.1522
▁말하면서	-11.1526
▁국정	-11.1527
ust	-11.1531
▁넣어	-11.1534
▁신도	-11.1536
▁영국은	-11.154
▁시위로	-11.1542
▁조사하기	-11.1544
▁한쪽	-11.1546
톱	-11.1546
FARC	-11.1549
▁팔려	-11.1551
검찰	-11.1552
개혁	-11.1553
▁선정됐다	-11.1555
▁경기도	-11.1558
▁공부	-11.1559
▁기소했다	-11.1564
바스	-11.1564
▁프레드	-11.1565
▁do	-11.1565
▁위협했다	-11.1572
▁사진들	-11.1573
▁결승전	-11.1579
▁총리로	-11.1582
▁미소	-11.1583
▁바다로	-11.1585
▁돈이	-11.1586
▁캔	-11.1587
▁총격으로	-11.1588
▁허위	-11.1589
=	-11.1592
▁제트	-11.1593
▁얻는	-11.1595
▁모스크바에서	-11.1595
▁증진	-11.1597
▁정보국	-11.1598
사람들은	-11.1599
▁가서	-11.1601
▁당국자	-11.1601
▁해외에서	-11.1603
▁단계에	-11.1605
통제	-11.1606
투어	-11.1607
▁증인	-11.1613
▁동해	-11.1613
▁주교	-11.1613
▁동맹국들	-11.1616
▁고려해	-11.1618
그린	-11.1619
▁관계자들과	-11.1633
▁시점에서	-11.1635
▁출전한	-11.1635
▁차관보	-11.1637
▁아내와	-11.1639
▁탈출했다	-11.1641
33	-11.1642
▁우드	-11.1643
▁금지하고	-11.1644
▁공격수	-11.1644
86	-11.1649
▁기자들이	-11.1656
part	-11.1656
코드	-11.1656
군데	-11.1657
▁학생들과	-11.1658
▁지지도	-11.1665
시까지	-11.167
▁ex	-11.167
학년	-11.1671
▁당의	-11.1677
▁지수가	-11.1677
▁가정에	-11.1678
놓고	-11.1681
NA	-11.1684
▁효율적	-11.1685
▁주가가	-11.1686
파크	-11.1686
▁라이브	-11.17
▁힐튼이	-11.1703
▁참가했다	-11.1706
▁지지율이	-11.1706
▁중상	-11.1708
▁드는	-11.1709
▁등급	-11.1711
▁보내기	-11.1712
▁컨	-11.1713
▁수만명	-11.1714
▁개발에	-11.1715
▁주인이	-11.1716
▁혼란에	-11.1719
▁환경에	-11.1723
▁판결했다	-11.1725
▁불가피	-11.1736
스럽다	-11.1737
코스	-11.174
▁자바	-11.1748
▁번지	-11.175
ever	-11.1754
▁크리스티	-11.1755
▁아시	-11.1756
▁오픈에서	-11.176
▁말하지	-11.1764
▁광우병	-11.1768
▁글래스고	-11.1768
▁상파울루	-11.1768
▁야스쿠니	-11.1768
▁우주정거장	-11.1768
▁인종차별	-11.1768
▁잃지	-11.1768
▁좋게	-11.1768
▁카자흐스탄	-11.1768
▁커뮤니티	-11.1768
윗	-11.1768
▁Foreign	-11.1768
▁당나귀	-11.1768
▁수퍼대의원	-11.1768
▁스튜어트	-11.1768
▁왕복선	-11.1768
킴	-11.1768
▁몸무게	-11.1768
▁부작용	-11.1768
▁예언자	-11.1768
▁마라도나	-11.1768
인디아나	-11.1768
▁카지노	-11.1768
▁교과서	-11.1768
▁닉슨	-11.1768
▁모로코	-11.1769
▁동북아	-11.1769
▁쇼핑몰	-11.1769
▁State	-11.1769
▁힌두교	-11.1769
▁있었는지	-11.177
▁양육권	-11.177
▁침투	-11.177
▁연휴	-11.177
▁쿠르드족	-11.1771
▁도와주	-11.1771
▁높아졌다	-11.1771
▁농담	-11.1771
▁호킹	-11.1771
▁풍경	-11.1772
▁이해하	-11.1772
▁필리스	-11.1772
▁활기	-11.1772
▁회색	-11.1772
ISS	-11.1773
▁임박	-11.1773
▁워너	-11.1773
▁연극	-11.1773
▁가자지구에	-11.1773
▁유효	-11.1774
▁회피	-11.1775
▁하더라도	-11.1775
▁수비수	-11.1776
▁버튼	-11.1776
줘야	-11.1776
▁재벌	-11.1776
▁할아버지	-11.1776
▁무너진	-11.1776
▁헌신	-11.1778
▁전대통령	-11.1778
▁침수	-11.1779
▁종양	-11.1779
▁900	-11.1779
라트	-11.1779
▁국무장관이	-11.178
▁추출	-11.178
▁토양	-11.178
▁지닌	-11.178
▁나가는	-11.1783
▁복사	-11.1783
▁크고	-11.1783
▁기름	-11.1784
▁조종	-11.1784
▁극단주의자들	-11.1784
▁소식통들	-11.1784
▁본국	-11.1784
▁지속될	-11.1785
▁차림	-11.1785
74	-11.1786
▁후퇴	-11.1786
▁부른	-11.1787
▁책정	-11.179
▁이례적	-11.179
▁일축했다	-11.179
▁구단주	-11.179
▁유예	-11.1792
▁교량	-11.18
▁문신	-11.1803
▁감면	-11.1804
▁구형	-11.1805
만여	-11.1805
▁재발	-11.1806
▁강연	-11.1806
▁꺼	-11.1806
▁확실하다	-11.1808
▁가려	-11.1812
▁뉴욕에	-11.1823
▁소방관	-11.1824
▁동전	-11.1825
▁하도록	-11.1826
▁통일	-11.1829
▁지키기	-11.183
▁수십억	-11.1832
내려	-11.1834
▁면적	-11.1834
▁특별히	-11.1834
▁부토는	-11.1834
느냐	-11.1837
▁보낸다	-11.1838
폴리스	-11.1838
▁포기했다	-11.1838
line	-11.1846
▁누르고	-11.1851
▁설치된	-11.1852
ile	-11.1859
▁녹화	-11.186
▁변호사들	-11.1862
시민	-11.1864
▁지방의	-11.1865
▁미치	-11.187
▁장려	-11.1874
▁협상단	-11.1875
▁수용할	-11.1879
▁파손되	-11.1879
▁2009.01	-11.1879
ore	-11.1881
▁파일	-11.1884
son	-11.1888
죽	-11.1891
핀	-11.1891
빛	-11.1891
UEFA	-11.1893
국가들	-11.1894
CIA	-11.1894
▁취임한	-11.1896
▁벌어지고	-11.1898
▁추진하고	-11.1898
▁했을	-11.1901
언론	-11.1901
are	-11.1905
여부	-11.191
▁독자	-11.1914
NS	-11.1916
시키는데	-11.1916
▁해명	-11.1916
▁물리치	-11.1917
▁여자아이	-11.1918
▁향했다	-11.1918
tic	-11.1919
▁발리	-11.1919
▁시작되었다	-11.192
▁위치하	-11.192
ger	-11.1922
잡지	-11.1922
▁상원의원에	-11.1923
▁기적	-11.1924
노프	-11.1926
▁Mo	-11.1928
▁이베이	-11.1928
▁구상	-11.1929
연구원	-11.193
▁군부대	-11.193
▁포함된다	-11.1931
▁인명	-11.1932
▁연기했다	-11.1933
지도자	-11.1934
▁시작되는	-11.1935
왔으며	-11.1935
▁돌리	-11.1936
▁학위	-11.1937
▁Be	-11.1938
피아	-11.1946
▁군복	-11.195
▁표현했다	-11.1952
▁과장	-11.1954
▁무장대원들	-11.1956
일째	-11.1957
▁경찰서에	-11.1957
그러	-11.1959
▁호위	-11.1961
▁차가	-11.1964
▁반지	-11.197
▁가할	-11.197
▁확인해	-11.1971
▁세관	-11.1976
▁문자	-11.1976
전문가	-11.1983
▁북부지역	-11.1993
▁시설에	-11.1994
데르	-11.1997
▁시상식에서	-11.2
ese	-11.2001
81	-11.2004
있던	-11.2004
▁사이트에	-11.2005
▁비교해	-11.2011
▁아이들에게	-11.2012
bu	-11.2015
▁수비	-11.2016
▁아사	-11.2021
▁취소됐다	-11.2026
▁측면	-11.2029
▁밝혔었	-11.2032
포르	-11.204
▁의혹에	-11.2042
▁74	-11.205
▁구하기	-11.2056
Al	-11.2062
▁산악	-11.2062
▁감옥에	-11.2075
▁보호할	-11.2079
▁신문에	-11.208
▁후송	-11.208
▁내장	-11.2081
역대	-11.2087
▁펜실베니아	-11.2088
▁승자	-11.2089
빠	-11.209
▁지냈	-11.2094
▁하트	-11.2096
▁모욕	-11.21
▁윤리	-11.21
▁루이지애나	-11.21
▁선거전	-11.2101
▁비행기에	-11.2101
▁매사추세츠	-11.2102
▁플래	-11.2103
▁가난	-11.2103
줘	-11.2105
▁시위대와	-11.2109
멍	-11.2111
삭	-11.2112
이었고	-11.2112
▁치솟	-11.2112
텍	-11.2113
&#8226;	-11.2113
▁Party	-11.2113
▁protest	-11.2113
▁났다	-11.2113
▁뉴캐슬	-11.2113
▁도널드	-11.2113
▁동계올림픽	-11.2113
▁매코맥	-11.2113
▁맥코맥	-11.2113
▁미드필더	-11.2113
▁세계보건기구	-11.2113
▁악영향	-11.2113
▁암스트롱	-11.2113
▁촛불	-11.2113
▁친선경기	-11.2113
▁포괄적	-11.2113
넥	-11.2113
랫	-11.2113
엽	-11.2113
▁빠뜨	-11.2113
▁종신형	-11.2113
▁아스널	-11.2113
▁제니퍼	-11.2113
▁총기난사	-11.2113
PML	-11.2113
▁바쿠바	-11.2113
▁흥행	-11.2113
▁안락사	-11.2113
▁3-0	-11.2113
▁election	-11.2113
▁린제이	-11.2113
▁여파로	-11.2113
▁중서부	-11.2114
▁퇴장	-11.2114
▁속옷	-11.2114
2006.06	-11.2114
▁기후변화	-11.2114
▁수하물	-11.2114
▁계곡	-11.2114
▁둘째	-11.2114
2008.06	-11.2115
▁여배우	-11.2115
▁환경보호	-11.2115
▁Kim	-11.2116
▁대피령	-11.2116
ncy	-11.2117
▁뒤따	-11.2117
▁허블	-11.2117
▁만찬	-11.2118
▁면역	-11.2118
▁정보기관	-11.2118
▁여객기는	-11.2118
▁받았으나	-11.2118
▁몰래	-11.2118
▁연방법원	-11.2119
▁승객들이	-11.2119
2006.12	-11.2119
▁품질	-11.2119
▁불안감	-11.212
▁복권	-11.212
▁성행위	-11.2121
▁맹세	-11.2121
▁아끼	-11.2121
▁아닐	-11.2121
▁해킹	-11.2121
▁국가안보	-11.2121
▁존드로	-11.2121
▁피셔	-11.2123
▁도시로	-11.2124
▁외교관계	-11.2125
▁배제하지	-11.2125
▁격려	-11.2126
▁공백	-11.2126
▁과실	-11.2129
▁USA	-11.2129
▁식물	-11.2129
▁약혼	-11.213
▁취약	-11.213
▁교토	-11.213
▁가르치	-11.2135
▁코너	-11.2135
▁산악지역	-11.2135
▁청소년들	-11.2136
자회담에	-11.2137
▁후보들은	-11.2141
42	-11.2144
▁크라우	-11.2148
일에도	-11.2152
▁버진	-11.2152
▁알았다	-11.2154
▁대학살	-11.2154
▁성경	-11.2156
▁붐	-11.2156
▁산타클로스	-11.2157
▁결장	-11.2157
▁생존자들	-11.216
▁일반적인	-11.2161
▁혼다	-11.2162
▁생겼다	-11.2163
▁둔화	-11.2165
투데이	-11.2166
▁아카데미상	-11.2166
▁요트	-11.2167
▁저가	-11.2171
▁장악한	-11.2171
▁파악하	-11.2173
▁빙	-11.2174
▁아이티	-11.2176
▁말로	-11.218
▁운하	-11.2181
▁말했지만	-11.2181
▁돌보	-11.2182
▁Center	-11.2188
▁총선에	-11.2189
▁아이들과	-11.219
▁leader	-11.2191
▁여기서	-11.2195
▁홀리	-11.2196
▁효율	-11.22
▁빗	-11.2204
▁포기하지	-11.2204
▁자신에	-11.2206
DR	-11.2212
▁리서치	-11.2212
ator	-11.2213
▁짜	-11.2214
▁사정	-11.2216
밀리에	-11.2217
▁단서	-11.2218
▁기반으로	-11.2219
▁부장관	-11.2219
▁숨기	-11.2219
아웃	-11.222
야만	-11.222
▁du	-11.2221
▁단일	-11.2228
▁정보가	-11.2229
▁25%	-11.2231
▁부진	-11.2231
층에	-11.2231
▁웹사이트는	-11.2232
밤	-11.2234
▁저널	-11.2234
▁현안	-11.2235
▁끈	-11.2236
▁기한	-11.2239
▁만나기	-11.2241
페이스	-11.2248
▁comm	-11.2249
▁연예인	-11.2249
▁건물들	-11.225
▁캐리	-11.225
FRB	-11.225
딸	-11.225
책임자	-11.2252
▁칼로	-11.2253
▁7%	-11.2258
등급	-11.2262
▁관료	-11.2263
▁들었	-11.2265
▁중단시키	-11.2265
▁강진	-11.2265
폭력	-11.2267
재판	-11.2269
▁당국자는	-11.2275
▁있었을	-11.2276
해진다	-11.2278
▁환영했다	-11.2279
비행	-11.2281
▁시작해	-11.2284
▁시스템이	-11.2286
모두	-11.2286
AT	-11.2286
▁350	-11.2288
카스	-11.229
▁피의자	-11.2292
▁반대했다	-11.2306
▁어린이들이	-11.2309
▁유입	-11.2311
▁동부지역	-11.2319
▁처음에	-11.2321
직원	-11.2325
▁공세	-11.2325
▁지연되	-11.2326
▁광부들	-11.233
▁손님	-11.2331
▁듯한	-11.2337
병력	-11.2341
▁유세에서	-11.2351
En	-11.2355
▁민주당원	-11.2357
새로	-11.2363
역사	-11.2369
방위	-11.2371
imp	-11.2378
▁공산	-11.2379
▁새해	-11.238
▁장소로	-11.2389
리프	-11.2394
▁얼음이	-11.2394
카트	-11.2395
ney	-11.2396
헤드	-11.24
▁주지사와	-11.2403
▁움직임에	-11.2403
▁남편과	-11.2409
ner	-11.2412
▁추정되	-11.2415
▁일으켰	-11.2417
red	-11.2421
the	-11.2422
▁페레	-11.2426
▁호흡	-11.2429
▁부근에	-11.2436
▁국정원	-11.2436
▁관리인	-11.2437
겠	-11.244
▁경영자	-11.2442
▁불확실	-11.2444
▁기간에	-11.2444
▁제공한다	-11.2446
▁위스콘신	-11.2446
00	-11.2447
▁2005.1	-11.2449
▁동영상에	-11.2451
07	-11.2459
픈	-11.2462
뒀	-11.2467
▁진행됐다	-11.2467
▁강사	-11.2467
▁이루어	-11.2468
얄	-11.2469
흙	-11.2469
▁House	-11.247
▁모하마드	-11.247
▁미네소타	-11.247
▁사형집행	-11.247
▁생중계	-11.247
▁슈워제네거	-11.247
▁승용차	-11.247
▁않았을	-11.247
▁오키나와	-11.247
▁유럽축구연맹	-11.247
▁재정경제부	-11.247
▁침팬지	-11.247
▁탔다	-11.247
▁터미널	-11.247
▁펼칠	-11.247
▁피추시킨	-11.247
▁호르몬	-11.247
▶	-11.247
뻔	-11.247
팍	-11.247
헴	-11.247
7,000	-11.247
•	-11.247
▁냄새	-11.247
▁클루니	-11.247
▁깃발	-11.247
▁뉴욕타임스	-11.247
▁갤런당	-11.247
▁북동쪽	-11.247
NEW	-11.247
▁영부인	-11.247
▁지중해	-11.247
▁염두	-11.247
▁퍼트레이어스	-11.247
▁앗아	-11.247
▁북서쪽	-11.247
(32)	-11.247
back	-11.2471
▁미망인	-11.2471
▁방사능	-11.2471
▁페이스북	-11.2471
▁들리	-11.2471
단지	-11.2471
▁무하메드	-11.2471
▁노왁	-11.2471
▁같았다	-11.2471
▁타이완	-11.2472
▁패널	-11.2472
2006.07	-11.2473
▁공략	-11.2473
▁say	-11.2473
▁면밀	-11.2473
▁알자와히리	-11.2473
▁녹색	-11.2474
▁메이저	-11.2474
▁조셉	-11.2474
▁나쁘	-11.2475
▁완공	-11.2475
▁밀림	-11.2475
▁페리노	-11.2475
▁라틴	-11.2476
▁주치의	-11.2476
▁인도에서	-11.2476
▁왔습니다	-11.2476
2007.10	-11.2476
▁준장은	-11.2476
▁교황청	-11.2477
▁항복	-11.2477
▁요격	-11.2477
▁건립	-11.2477
자회담에서	-11.2477
▁냉전	-11.2478
▁미하	-11.2479
▁세균	-11.2479
▁어디서	-11.2479
▁787	-11.248
▁행방	-11.2481
▁적대적	-11.2481
▁제라드	-11.2481
▁토론토	-11.2481
▁브레	-11.2482
▁변함	-11.2482
놨다	-11.2483
▁크리스티나	-11.2484
▁발목	-11.2485
▁총알	-11.2485
▁타입	-11.2486
▁어려워	-11.2487
▁베스트	-11.2487
▁중단하라	-11.2489
▁병역	-11.249
▁비준	-11.2492
▁언	-11.2493
▁우연	-11.2495
▁탄약	-11.2495
▁후보에게	-11.2495
▁사법부	-11.2498
▁대피소	-11.2499
▁보상금	-11.25
▁정통	-11.2501
▁통역	-11.2501
심리	-11.2505
▁임명된	-11.2506
세스	-11.2508
▁그럼	-11.2511
▁유포	-11.2511
fire	-11.2514
▁누드	-11.2516
▁무장괴한	-11.2516
▁off	-11.2517
▁것들	-11.2517
▁독일에서	-11.2517
▁제트기	-11.2518
▁순찰대	-11.2522
브리지	-11.2523
▁갖는다	-11.2523
▁빵	-11.2523
▁실은	-11.2525
비오	-11.2525
▁신고했다	-11.2527
▁야후는	-11.2528
▁자리잡고	-11.2529
▁않자	-11.2534
▁무시하고	-11.2536
▁67	-11.2536
ical	-11.2537
▁임무는	-11.2538
바다	-11.2538
▁고마	-11.254
▁하나이다	-11.254
사이드	-11.2541
왔지만	-11.2544
▁기내	-11.2544
▁확인하는	-11.2545
▁그라운드	-11.2547
▁팬들에게	-11.2549
▁110	-11.255
▁로라	-11.2552
▁조사단	-11.2552
▁그쳤다	-11.2552
▁임원	-11.2555
▁자선	-11.2556
▁많지	-11.2557
▁군용	-11.2559
▁상승으로	-11.256
▁전례	-11.2562
학회	-11.2565
▁대면	-11.2567
▁달아	-11.2568
▁발부	-11.2574
▁신비	-11.2579
▁사회주의	-11.2579
OS	-11.2579
▁지속된	-11.2585
워진	-11.2587
▁미국에서는	-11.2588
▁든다	-11.2588
▁기자들과	-11.2589
업체들	-11.2591
▁광대	-11.2595
ease	-11.2598
▁집안	-11.2602
▁IT	-11.2602
짐	-11.2613
▁제품에	-11.2613
▁근무하	-11.2621
NATO	-11.2621
대통령은	-11.2621
쥐	-11.2621
미얀마	-11.2623
르트	-11.2624
사단	-11.2627
민족	-11.2627
▁미친	-11.2628
▁지표	-11.2632
일정	-11.2632
▁묘	-11.2633
▁동일	-11.2634
ling	-11.2639
아시아	-11.264
32	-11.2642
▁소유자	-11.2644
▁가하고	-11.2644
▁범죄에	-11.2646
▁장관들	-11.2647
▁피해지역	-11.265
득	-11.2652
▁고고학자들	-11.2656
▁불안한	-11.2656
▁다음과	-11.2658
▁금지하는	-11.2665
아이들	-11.2671
▁반대한다	-11.2671
▁양측의	-11.2673
▁관중	-11.2675
▁go	-11.2677
▁우주인	-11.2681
▁지역이다	-11.2683
제작	-11.2684
▁반군과	-11.2688
꾼	-11.2691
34	-11.2699
요원들	-11.2702
ther	-11.2712
▁공원에서	-11.2714
▁대사가	-11.2714
버렸	-11.2714
▁목격한	-11.2715
제국	-11.2716
AS	-11.2716
▁국가들과	-11.2719
▁예상되는	-11.2721
▁제안한	-11.2727
▁제조사	-11.2733
-5	-11.2734
그녀는	-11.2746
▁올리는	-11.2747
▁방한	-11.2747
▁지르	-11.2751
프린	-11.2754
네트	-11.2765
▁관광객들은	-11.277
만여명	-11.277
▁KT	-11.277
▁To	-11.2771
처리	-11.2773
ef	-11.2776
회장	-11.2788
▁전설적	-11.2788
▁박탈	-11.2794
▁부탁	-11.2796
▁물리	-11.2799
▁적합	-11.2799
▁수행한	-11.2808
▁걸려있	-11.2808
▁명에	-11.2808
▁재미	-11.2813
▁건물에서	-11.2814
▁편집자	-11.2816
어지고	-11.2819
▁86	-11.2819
▁경제와	-11.282
천억	-11.2823
▁광장에	-11.2824
▁줄기	-11.2826
▁피닉스	-11.2832
엇	-11.2838
▁갑작스	-11.2838
▁위에서	-11.284
긋	-11.2841
International	-11.2841
▁200806.0	-11.2841
▁그루지아	-11.2841
▁그루지야	-11.2841
▁넘어섰다	-11.2841
▁놀랐다	-11.2841
▁마흐무드	-11.2841
▁만장일치	-11.2841
▁메사추세츠	-11.2841
▁박테리아	-11.2841
▁블룸버그	-11.2841
▁스피처	-11.2841
▁없기	-11.2841
▁캠벨	-11.2841
▁캥거루	-11.2841
▁클리블랜드	-11.2841
▁탈라바니	-11.2841
▁프로듀서	-11.2841
믹	-11.2841
▁벨몬트	-11.2841
▁이스탄불	-11.2841
▁케르비엘	-11.2841
띠	-11.2841
셈	-11.2841
▁겁니다	-11.2841
▁김계관	-11.2841
▁오징어	-11.2841
▁앙겔	-11.2841
▁비영리	-11.2841
▁실업수당	-11.2841
▁퇴역	-11.2841
▁셰이크	-11.2841
▁피아노	-11.2841
▁닥터	-11.2841
▁셔츠	-11.2841
▁자서전	-11.2841
▁다뤄	-11.2841
▁월드시리즈	-11.2841
▁뉴멕시코	-11.2841
▁흡수	-11.2841
▁김선일	-11.2841
▁하리리	-11.2841
▁습관	-11.2841
▁빨간색	-11.2842
2007.05	-11.2842
▁구조조정	-11.2842
▁무엇인지	-11.2842
▁전염병	-11.2843
▁심사위원	-11.2843
▁디스커버리호	-11.2843
▁압승	-11.2843
▁후계자	-11.2843
▁불쾌	-11.2843
▁두뇌	-11.2844
▁간섭	-11.2844
▁다짐	-11.2844
▁평범	-11.2845
▁평결	-11.2845
▁모르지만	-11.2845
▁꽤	-11.2845
▁국영방송	-11.2846
▁영입	-11.2846
▁격추	-11.2846
▁놓았다	-11.2847
▁사마라	-11.2847
▁선데이	-11.2847
▁결백	-11.2847
▁올랐으며	-11.2848
▁악재	-11.2848
▁데니스	-11.2848
▁벌금형	-11.2849
▁시도한	-11.2849
▁확인한	-11.2849
▁남았다	-11.285
▁감추	-11.285
▁LG	-11.2851
▁국왕이	-11.2851
▁안겨	-11.2852
▁담겨있다	-11.2853
▁육상	-11.2854
▁장관급	-11.2855
▁분출	-11.2856
▁국토	-11.2856
▁참전	-11.2857
▁곡물	-11.2857
▁면에서	-11.2857
▁번역	-11.2858
▁주어진	-11.2858
▁생각합니다	-11.2859
▁종파	-11.286
▁독점	-11.286
▁외출	-11.286
▁지침	-11.2862
▁보았다	-11.2862
▁악화될	-11.2863
▁벽에	-11.2865
▁공통	-11.2865
▁십대	-11.2865
▁고속	-11.2865
▁잠재	-11.2868
▁위기로	-11.2868
▁것이냐	-11.2868
▁걸프	-11.287
▁서버	-11.2872
▁시장과	-11.2872
▁공방	-11.2873
▁소감	-11.2874
▁기초	-11.2875
▁초래할	-11.2875
▁남미	-11.2877
▁불가피하다	-11.2877
▁막고	-11.2877
▁이용하여	-11.2878
▁사무실에서	-11.2878
▁부인과	-11.2878
▁아프가니스탄에	-11.288
▁주당	-11.288
▁공개되지	-11.288
▁안건	-11.2884
▁아버지와	-11.2884
천억원	-11.2887
▁안심	-11.289
▁법정에	-11.289
▁과도한	-11.2891
▁개조	-11.2896
조지	-11.29
▁상정	-11.2902
하려면	-11.2903
▁비방	-11.2906
▁측에	-11.2906
▁게이	-11.2907
▁리타	-11.291
▁조카	-11.2911
▁장착된	-11.2912
▁파견된	-11.2915
no	-11.2916
▁콩	-11.2917
▁폐쇄했다	-11.2918
ise	-11.2926
▁인적	-11.2929
▁암살된	-11.293
부문	-11.2932
▁발생했던	-11.2932
▁납치됐다	-11.2934
일만에	-11.2935
▁지목했다	-11.294
▁도쿄에서	-11.2942
▁상아	-11.2943
▁전하며	-11.2944
▁들어있는	-11.2945
▁샘	-11.2946
▁오해	-11.2947
▁상태였다	-11.2948
▁사업에	-11.2951
▁사원에서	-11.2961
▁유아	-11.2962
▁환영한다	-11.2971
▁칩	-11.2973
총리는	-11.2976
레이트	-11.2978
시기	-11.2978
▁교회에서	-11.2984
경기장	-11.2985
▁보여주기	-11.2987
법에따라	-11.2988
▁웹사이트에서	-11.2989
▁고려할	-11.2992
▁이겨	-11.2996
꾸	-11.2998
▁다음으로	-11.2999
▁국민이	-11.3002
묘	-11.3003
헬	-11.3004
fi	-11.3005
탐	-11.3006
떨어진	-11.3007
▁여진이	-11.3011
▁관해서	-11.3013
▁것이지만	-11.3013
▁모르고	-11.3014
▁맡아	-11.3015
처음	-11.3015
▁내게	-11.3018
장애	-11.3024
▁이사는	-11.3027
대사관	-11.303
▁Sa	-11.3035
air	-11.3037
▁맞이하	-11.3039
▁유지하는	-11.3042
▁양상	-11.3043
▁분리주의	-11.3046
▁예비선거	-11.3051
▁이내	-11.3054
▁안되	-11.3056
▁이탈	-11.3059
▁경제학	-11.306
▁국민에게	-11.3064
▁단기	-11.3071
▁릭	-11.3071
▁대장	-11.3072
▁라마	-11.3076
▁개최지	-11.3077
tions	-11.308
▁이라크전에	-11.3082
▁핀	-11.3085
▁떨어지는	-11.3086
대학교	-11.3087
▁미트	-11.3091
▁목소리로	-11.3095
▁그때	-11.3098
빌리	-11.31
▁일상적	-11.3108
▁[	-11.3111
▁호전	-11.3114
▁전략적	-11.3117
과정에서	-11.3119
▁실직	-11.3121
▁85	-11.3122
La	-11.3128
▁이브	-11.3146
▁진행할	-11.3148
▁공개할	-11.3149
▁녹아	-11.3168
용의자	-11.3172
▁당장	-11.3176
실장	-11.3181
▁치명적	-11.3182
▁시리아와	-11.3182
▁8000	-11.3183
▁펼쳤	-11.3194
버거	-11.3196
▁시도했다	-11.3209
졌지만	-11.3219
▁머무	-11.3221
둑	-11.3222
렬	-11.3223
쇠	-11.3223
▁논의하고	-11.3225
4,000	-11.3225
▁YORK	-11.3225
▁first	-11.3225
▁과테말라	-11.3225
▁구스마오	-11.3225
▁높였다	-11.3225
▁늘어났다	-11.3225
▁댈러스	-11.3225
▁알렉산드	-11.3225
▁애틀란타	-11.3225
▁에탄올	-11.3225
▁여동생	-11.3225
▁인플루엔자	-11.3225
▁자메이카	-11.3225
▁조선중앙통신	-11.3225
겹	-11.3225
무장혁명군	-11.3225
▁Court	-11.3225
▁agree	-11.3225
▁나타낸	-11.3225
▁따돌리	-11.3225
▁수하르토	-11.3225
▁열렬한	-11.3225
▁정동영	-11.3225
▁토마토	-11.3225
▁세실리아	-11.3225
▁뉴욕증시	-11.3225
▁애쓰고	-11.3225
▁좌익	-11.3225
▁비공개	-11.3225
▁검찰총장	-11.3225
▁검출	-11.3225
▁하반기	-11.3225
▁이벤트	-11.3225
(23)	-11.3226
▁터뜨	-11.3226
▁러셀	-11.3226
▁결렬	-11.3226
▁ETA	-11.3226
▁코미디언	-11.3227
▁과잉	-11.3227
▁돌아갔다	-11.3227
▁열쇠	-11.3227
▁혼합	-11.3227
▁호주오픈	-11.3227
▁레논	-11.3228
▁태양열	-11.3228
▁유혹	-11.3228
▁블록	-11.3228
2006.09	-11.3228
▁펠리	-11.3228
▁노리에가	-11.3228
▁연합뉴스	-11.3229
▁뜨거	-11.3229
▁메뉴	-11.3229
▁워커	-11.3229
▁설교	-11.3229
▁냉동	-11.3229
▁삼림	-11.323
▁이른바	-11.323
▁계층	-11.3231
▁밀집	-11.3231
▁글렌	-11.3231
▁규명	-11.3232
▁머피	-11.3233
▁영예	-11.3233
▁사진기자	-11.3234
▁광경	-11.3235
▁매춘부	-11.3236
▁제이미	-11.3236
▁방북	-11.3237
▁연이	-11.3237
▁바퀴	-11.3237
▁지폐	-11.3238
▁메달	-11.3238
▁80%	-11.3239
▁고백	-11.324
▁내주	-11.3242
▁도왔다	-11.3243
▁SK	-11.3243
▁만든다	-11.3244
▁악성	-11.3245
▁농구	-11.3245
▁주장해	-11.3245
▁격분	-11.3246
순위	-11.3246
▁맡게	-11.3247
▁시술	-11.3247
▁석상	-11.325
▁미니	-11.3251
▁야간	-11.3252
▁오락	-11.3252
▁올릴	-11.3253
▁국면	-11.3253
▁부각	-11.3253
▁자매	-11.3253
▁홈페이지에	-11.3254
▁위법	-11.3255
▁시범	-11.3255
▁자유당	-11.3257
▁가두	-11.3259
분기에	-11.3259
▁장난	-11.326
▁발견돼	-11.3263
▁노동력	-11.3263
▁경위	-11.3264
▁대도시	-11.3266
아주	-11.3266
반군	-11.3266
▁방위	-11.3268
▁감옥	-11.327
▁컵	-11.327
▁호흡기	-11.3272
▁마련하기	-11.3273
총리	-11.3278
▁비자금	-11.3278
▁받았고	-11.328
▁우파	-11.328
▁레저	-11.3281
▁폭발했다	-11.3287
▁9%	-11.3288
리노	-11.329
▁당원	-11.3292
▁구제안	-11.3296
ster	-11.3302
▁후임자	-11.3303
▁방문객	-11.3306
글리	-11.3306
▁매트	-11.3311
▁쌍	-11.3312
▁내정자	-11.3314
▁결과에따르면	-11.3317
년째	-11.3318
▁철저한	-11.3318
▁입원한	-11.332
▁각료	-11.3321
▁섞	-11.3324
▁내년에	-11.3326
▁음와	-11.3327
▁강조하고	-11.333
▁라일	-11.333
실적	-11.3331
▁살해하겠다	-11.3333
▁굿	-11.3336
▁고전	-11.3337
▁82	-11.3341
UN	-11.3344
▁대표들은	-11.3347
허가	-11.3347
▁가이	-11.335
▁대원	-11.3354
▁all	-11.3358
▁줄어	-11.3359
▁돌입했다	-11.3361
▁빌라	-11.3364
▁사랑하는	-11.3364
▁테러범들	-11.3369
act	-11.3373
▁결승에서	-11.3382
ern	-11.3384
▁참가자	-11.3388
▁박수	-11.3389
▁찬사	-11.339
▁통로	-11.3391
혹	-11.3393
ai	-11.3394
▁갇혀	-11.3394
▁수반과	-11.34
2005.1	-11.3403
예비선거	-11.3404
2006.01	-11.3404
태평양	-11.3405
New	-11.3405
올림픽	-11.3406
▁큐	-11.3407
큰	-11.3407
월드컵	-11.3407
▁전제	-11.3409
▁내리기	-11.341
슈퍼	-11.341
EC	-11.3412
DH	-11.3416
▁기어	-11.3417
에너지	-11.342
드레	-11.3421
능력	-11.3424
▁일부에서는	-11.3425
▁나갔다	-11.3426
그런	-11.3429
조합	-11.3429
▁말했으며	-11.3429
▁블로그	-11.343
었기	-11.3432
조각	-11.3433
▁수의사	-11.3437
노동	-11.3438
위권	-11.3438
▁시민단체	-11.3447
▁강화했다	-11.3451
되게	-11.3458
▁기념일	-11.3464
스텐	-11.3465
수준	-11.3465
모토	-11.3465
▁코커스에서	-11.3467
▁마련했다	-11.3467
▁줄어들고	-11.347
▁중유	-11.3483
▁톱	-11.3488
▁균	-11.3496
▁보였	-11.3512
▁범죄자들	-11.3516
▁미수	-11.3518
▁하원에서	-11.3519
▁최대한	-11.352
디어	-11.3524
▁주최측	-11.3526
▁지명자	-11.3531
▁안다	-11.3534
▁거치	-11.3535
방식	-11.3537
▁주문했다	-11.3538
▁아니고	-11.3546
▁여성에게	-11.3547
▁결의안은	-11.3549
소득	-11.3549
PF	-11.3558
FA	-11.3561
320	-11.3562
▁순례	-11.3568
▁재판소	-11.357
▁살리	-11.3571
지요	-11.3578
▁여행사	-11.3584
▁마이크로	-11.3592
▁압도적	-11.3596
▁붙이	-11.3601
▁바탕	-11.3604
국민들	-11.3604
▁요한	-11.3605
▁아담	-11.3607
▁개헌	-11.361
▁유명인사	-11.3614
랍	-11.3618
흥	-11.3619
옹	-11.3621
▁비공식	-11.3621
▁숙박	-11.3623
홉	-11.3625
▁내셔널	-11.3625
톡	-11.3625
▁200806.1	-11.3625
▁BMW	-11.3625
▁FTSE	-11.3625
▁곤돌라	-11.3625
▁단백질	-11.3625
▁라왈핀디	-11.3625
▁보건복지부	-11.3625
▁부딪혀	-11.3625
▁아웅산수지	-11.3625
▁안타까	-11.3625
▁집행유예	-11.3625
▁초등학교	-11.3625
▁카톨릭	-11.3625
▁퍼레이드	-11.3625
▁페널티킥	-11.3625
▁횟수	-11.3625
뇨	-11.3625
듬	-11.3625
룽	-11.3625
벡	-11.3625
▁갤럭시	-11.3625
▁농작물	-11.3625
▁로페즈	-11.3625
▁마닐라	-11.3625
▁싱가폴	-11.3625
▁원정경기	-11.3625
▁조코비치	-11.3625
▁크누트	-11.3625
딱	-11.3625
찔	-11.3625
▁내비쳤다	-11.3625
▁뱅크	-11.3625
▁작곡가	-11.3625
▁카리스마	-11.3625
▁수족관	-11.3625
▁콜레라	-11.3625
▁종업원	-11.3625
▁빠질	-11.3625
▁1/3	-11.3625
▁동남아시아	-11.3625
▁웨스트버지니아	-11.3625
▁빈민가	-11.3625
▁도덕적	-11.3625
▁살모넬라균	-11.3626
▁카라카스	-11.3626
▁대지진	-11.3626
▁원내대표	-11.3626
▁월마트	-11.3626
▁검진	-11.3626
▁가자시티	-11.3626
▁낙찰	-11.3626
▁신용위기	-11.3627
▁자회사	-11.3627
2008.09	-11.3627
▁티켓	-11.3627
▁꾸준	-11.3627
▁밀접	-11.3627
▁관광산업	-11.3627
▁부정선거	-11.3627
▁결승골	-11.3628
▁참패	-11.3628
▁이끌었던	-11.3628
▁삼엄	-11.3628
▁배럭	-11.3628
투자	-11.3628
▁남겼다	-11.3629
▁감독상	-11.3629
▁사찰	-11.3629
▁울머	-11.363
▁부회장	-11.363
▁오스틴	-11.363
▁삼았다	-11.363
▁입찰	-11.3631
▁결별	-11.3631
▁이정인	-11.3632
▁기둥	-11.3632
▁당분간	-11.3632
▁경제성장률	-11.3632
▁비싸	-11.3633
▁세레나	-11.3633
▁밀매	-11.3633
▁몸집	-11.3633
▁태양계	-11.3633
▁도착했을	-11.3633
▁포스터	-11.3634
▁납치했다	-11.3634
▁숨지게	-11.3634
▁연립	-11.3634
▁1984	-11.3635
▁면허	-11.3635
▁권유	-11.3636
▁연구조사	-11.3637
▁번영	-11.3637
▁2014	-11.3637
▁무너졌다	-11.364
▁개발도상국	-11.364
▁외각	-11.3641
▁보수파	-11.3641
▁폭풍우	-11.3641
▁전미	-11.3642
▁상반	-11.3643
▁DC	-11.3644
▁피플	-11.3644
▁원격	-11.3646
▁보석금	-11.3647
▁고생	-11.3647
▁재생	-11.365
▁발작	-11.3651
▁우방	-11.3652
▁생물학자	-11.3652
▁시사회	-11.3655
▁육성	-11.3656
▁95%	-11.3656
▁더이상	-11.3656
▁관심사	-11.3657
펠드	-11.3658
▁이끌었다	-11.366
▁비극적	-11.3661
▁보류	-11.3663
▁판사들	-11.3665
▁크리스티아	-11.3665
▁후보작	-11.3668
▁줄어들었다	-11.3669
▁정상적으로	-11.3669
단체인	-11.3672
▁일기로	-11.3673
▁밀수	-11.3674
▁실내	-11.3674
▁인부	-11.3675
▁와서	-11.3675
▁심정	-11.3676
▁위치에	-11.3678
▁1-1	-11.3681
▁가이드	-11.3684
▁댐	-11.3685
▁1800	-11.3685
▁피난민	-11.3686
▁사이즈	-11.3686
▁번식	-11.369
▁고정	-11.3691
▁범죄자	-11.3693
느라	-11.3695
▁질서	-11.3698
▁101	-11.3699
▁명인	-11.3701
▁발견되	-11.3701
▁모바일	-11.3702
정신	-11.3703
▁이룬	-11.3703
▁Sp	-11.3705
▁감행했다	-11.3707
▁前	-11.3713
▁투표권	-11.3714
▁대처하기	-11.3714
93	-11.3716
▁3,000	-11.3722
▁언제든	-11.3722
▁입장권	-11.3723
▁연관된	-11.3726
▁닷	-11.3728
▁was	-11.3732
▁수잔	-11.3734
▁방콕에서	-11.3742
▁방사	-11.3744
▁친구들과	-11.3753
▁예로	-11.3754
▁사망했고	-11.3755
▁뿐이라	-11.3768
적이지	-11.3769
▁정비	-11.3769
▁레인	-11.3769
▁잡혀있	-11.377
▁식으로	-11.3774
▁제기한	-11.3777
정상	-11.3781
▁포기할	-11.3787
io	-11.3787
▁퇴원	-11.3788
▁유대	-11.3789
▁살해됐다	-11.379
▁정부로부터	-11.3792
▁기록적인	-11.3792
▁World	-11.3796
▁될지	-11.3798
▁발생하기	-11.3798
▁과도	-11.3804
▁지정된	-11.3811
폭발	-11.3814
눈	-11.3819
천여	-11.3821
▁베를린에서	-11.3821
WHO	-11.3822
IOC	-11.3822
춤	-11.3823
▁수감됐다	-11.3823
사드르	-11.3823
오픈	-11.3825
분쟁	-11.383
주민들	-11.383
▁구조대원	-11.3832
▁사무소	-11.3834
▁감기	-11.3834
여개	-11.3835
▁알파	-11.3836
▁발표하지	-11.3842
=26	-11.3842
▁펼치고	-11.3846
정말	-11.3846
▁국경지역에	-11.3846
MD	-11.3848
▁바스라에서	-11.385
▁임신한	-11.3853
▁발생한다	-11.3853
mer	-11.3855
▁알리기	-11.3856
마드	-11.3864
▁고위관리는	-11.3867
▁협정에	-11.387
게이트	-11.3872
▁동원해	-11.3876
▁거라고	-11.3878
▁주자	-11.3878
▁해변에서	-11.3887
▁미사	-11.3898
▁통신과	-11.3903
▁에는	-11.3907
▁파괴됐다	-11.3909
▁당원들	-11.3912
▁자랑스럽	-11.3915
▁주사	-11.392
▁남지	-11.3922
▁기념하기	-11.3923
방법	-11.3926
▁보아	-11.393
▁용인	-11.3931
장소	-11.3933
피크	-11.3939
▁영구	-11.3941
▁행한	-11.3943
▁통근	-11.3944
▁그날	-11.3946
▁공격하는	-11.3947
▁의뢰	-11.3949
▁양곤	-11.396
▁위반한	-11.3963
▁나르	-11.3964
▁조달	-11.3964
▁복용한	-11.3964
주재	-11.3966
▁태국에서	-11.3968
▁퍼지	-11.3968
▁획득했다	-11.3969
▁이어진	-11.397
▁이목	-11.3973
ors	-11.3976
▁고리	-11.3976
▁국세청	-11.3977
▁봐	-11.3978
-4	-11.3983
이라도	-11.3983
하겠지만	-11.3991
▁석방했다	-11.3995
▁에바	-11.4003
▁어디에	-11.4004
▁누르	-11.401
▁홈페이지	-11.4011
회사들	-11.4017
▁땅에	-11.4017
▁125	-11.402
▁95	-11.4027
▁버몬트	-11.4028
ook	-11.4029
▁필수	-11.4031
▁시작하기	-11.4033
▁상업적	-11.4034
획	-11.4034
▁경제성장	-11.4035
▁후보자들	-11.4039
되었으나	-11.404
뭉	-11.4042
2007.06	-11.4042
▁SUV	-11.4042
▁가톨릭	-11.4042
▁국가보안법	-11.4042
▁대통합민주신당	-11.4042
▁리얼리티	-11.4042
▁마호메트	-11.4042
▁무크타다	-11.4042
▁베테랑	-11.4042
▁브로드웨이	-11.4042
▁사카쉬빌리	-11.4042
▁얀코비치	-11.4042
▁엉덩이	-11.4042
▁올바른	-11.4042
▁이데올로기	-11.4042
▁저작권	-11.4042
▁추수감사절	-11.4042
▁캠퍼스	-11.4042
▁컨퍼런스	-11.4042
▁프리메라리가	-11.4042
▁합참의장	-11.4042
궐	-11.4042
돋	-11.4042
캘	-11.4042
캣	-11.4042
▁금융제재	-11.4042
▁페르난도	-11.4042
쿤	-11.4042
▁백화점	-11.4042
▁의구심	-11.4042
▁임산부	-11.4042
▁링컨	-11.4042
▁제네바	-11.4042
▁휴양지	-11.4042
▁두개골	-11.4042
▁팔루자	-11.4042
▁횡단	-11.4042
▁뮤직	-11.4042
▁최우수	-11.4042
▁번호판	-11.4042
▁테이블	-11.4042
▁도메인	-11.4042
터무니	-11.4042
▁억압	-11.4042
▁뒤덮	-11.4042
▁이소연	-11.4042
▁활력	-11.4042
▁와중에	-11.4042
▁대중교통	-11.4042
▁소수민족	-11.4042
▁쟁점	-11.4043
▁낙관적	-11.4043
▁동점골	-11.4043
▁아지즈	-11.4043
▁농촌	-11.4043
호르타	-11.4043
land	-11.4043
▁범람	-11.4043
▁근접	-11.4044
▁홈런	-11.4044
▁홀랜드	-11.4044
▁궁금	-11.4045
▁표적이	-11.4045
▁액수	-11.4045
▁계절	-11.4045
▁제어	-11.4045
▁지뢰	-11.4046
▁엄중	-11.4046
Brit	-11.4046
▁흉기	-11.4046
▁창립	-11.4047
▁제재조치	-11.4047
▁초대형	-11.4048
2006.11	-11.4048
▁평생	-11.4049
▁없었지만	-11.405
▁inter	-11.405
▁피델	-11.405
▁심장병	-11.4052
▁750	-11.4055
ark	-11.4056
▁포격	-11.4056
▁완수	-11.4056
▁지칭	-11.4056
▁극심	-11.4056
▁에이미	-11.4056
▁천연	-11.4059
▁페퍼	-11.4059
▁울프	-11.406
▁많았다	-11.406
▁비율이	-11.406
▁고집	-11.406
▁전반적으로	-11.4061
▁감안	-11.4062
나마	-11.4062
▁터진	-11.4064
▁동행	-11.4065
▁대담	-11.4065
▁드문	-11.4066
▁걸음	-11.4067
▁조업	-11.4072
▁영역	-11.4072
▁분명하다	-11.4072
▁이끈	-11.4072
▁반격	-11.4073
만톤	-11.4074
▁단호	-11.4074
얼리	-11.4074
▁풍자	-11.4075
▁보수적인	-11.4075
ami	-11.4075
▁예금	-11.4076
▁건조	-11.4076
▁mor	-11.4076
▁원장은	-11.4076
▁인용하여	-11.4077
▁사격	-11.4077
▁인파	-11.4079
▁휩싸였다	-11.4083
▁상임	-11.4083
▁작용할	-11.4084
▁호우	-11.4085
▁지하드	-11.4085
▁가즈니주	-11.4086
▁국민당	-11.4086
▁상원의원직	-11.409
▁여정	-11.409
▁별로	-11.409
▁맺었다	-11.4091
▁공장에서	-11.4092
▁한반도에서	-11.4093
cent	-11.4096
▁치타	-11.4097
▁관세	-11.4098
▁행운	-11.4101
▁두목	-11.4101
▁미쳤다	-11.4102
▁43%	-11.4104
▁최상	-11.4106
▁후임으로	-11.4106
▁전선	-11.4107
▁열리기	-11.4108
oint	-11.4108
▁1600	-11.4108
▁줄었다	-11.411
▁취해야	-11.411
▁NFL	-11.4114
▁발사된	-11.412
▁자치구	-11.4121
▁빚어	-11.4121
▁발견했으며	-11.4124
▁넘어서	-11.4125
그녀	-11.4129
▁he	-11.413
▁어선	-11.4133
슬러	-11.4135
베키	-11.4137
▁필립스	-11.4137
▁올드	-11.4141
▁앤더슨은	-11.4143
▁심각하다	-11.4143
Pro	-11.4144
▁구입한	-11.4145
▁배아	-11.4152
▁명명	-11.4153
▁구분	-11.4153
▁불과했다	-11.4157
▁흔들리	-11.4158
▁공급받	-11.4159
▁일종	-11.4159
▁쉐	-11.4162
월말	-11.4163
▁APEC	-11.4164
▁거물	-11.4174
▁경찰청장	-11.4177
▁파르	-11.4177
▁노르	-11.4178
▁투자가들	-11.4179
▁의원들과	-11.4179
▁공직	-11.4182
▁루스	-11.4191
▁지지율로	-11.4198
▁차지할	-11.4199
▁제작자들	-11.4202
▁결정될	-11.4207
▁과다	-11.4216
▁만족한다	-11.4217
▁개혁안	-11.4219
▁무혐의	-11.4221
▁헤르	-11.4221
▁선박에	-11.4223
AC	-11.4236
▁교도	-11.4241
▁공주	-11.425
ash	-11.4255
엠	-11.4255
딕	-11.4256
몇	-11.4257
인터넷	-11.4259
뼈	-11.426
▁호스	-11.4261
▁홀에서	-11.4265
▁잡기	-11.4265
▁접근할	-11.4268
자루	-11.4268
▁세번째	-11.4269
▁지사	-11.4269
식품	-11.4271
▁2006.01	-11.4279
▁맡기	-11.4284
▁가사	-11.4285
연설	-11.4285
▁인정하고	-11.4286
▁들어가기	-11.4291
▁표기	-11.4292
▁관료들	-11.4296
ting	-11.4303
▁고국	-11.4304
▁미군측	-11.4309
▁당혹	-11.431
▁저자	-11.4311
▁페이스	-11.4313
▁par	-11.4315
치기	-11.4315
포스	-11.4321
마트	-11.4321
▁차원	-11.4333
▁경쟁에서	-11.4341
AM	-11.4342
▁감자	-11.4343
▁난자	-11.4343
마른	-11.4354
▁통과할	-11.4355
▁선호	-11.436
▁지점에	-11.4366
▁클럽에서	-11.4368
▁괴한들	-11.437
▁합의안	-11.4379
조약	-11.4381
▁판매하는	-11.4386
데요	-11.4392
Con	-11.4392
▁설립자	-11.4393
▁도움으로	-11.4394
▁나라들	-11.4398
▁시작하는	-11.4406
화물	-11.4407
▁경사	-11.4413
▁소방관들	-11.4414
▁발사했다	-11.4415
▁버렸다	-11.4417
▁나라에서	-11.4421
▁중재자	-11.443
▁보여준	-11.4432
▁겪었	-11.4439
사법	-11.4441
▁맞지	-11.4441
▁일반인들	-11.4449
▁스토	-11.445
▁못하면	-11.4457
▁오프	-11.4459
▁통상	-11.4459
▁다국적	-11.4461
▁승리하는	-11.4465
▁콜린	-11.4465
▁테네시	-11.4466
▁Vi	-11.4467
▁과학적	-11.4468
롯	-11.4472
▁퇴직	-11.4473
▁브뤼셀	-11.4477
Chinese	-11.4477
▁그린스펀	-11.4477
▁급상승	-11.4477
▁낙하산	-11.4477
▁닌텐도	-11.4477
▁루마니아	-11.4477
▁몬타나	-11.4477
▁무책임	-11.4477
▁버시바우	-11.4477
▁앨라배마	-11.4477
▁없음	-11.4477
▁엔데버호	-11.4477
▁엔터테인먼트	-11.4477
▁여객선	-11.4477
▁오차범위	-11.4477
▁짝짓기	-11.4477
▁쫓겨	-11.4477
▁콘크리트	-11.4477
▁콜레스테롤	-11.4477
▁타블로이드	-11.4477
▁프란시스	-11.4477
늄	-11.4477
옌	-11.4477
촨	-11.4477
OECD	-11.4477
▁벤자민	-11.4477
▁보스니아	-11.4477
▁무차별	-11.4477
▁자이툰	-11.4477
▁저녁식사	-11.4477
▁수마트라	-11.4477
WWF	-11.4477
▁검열	-11.4477
▁힉스	-11.4477
▁유태인	-11.4477
▁안젤리	-11.4477
▁가볍	-11.4477
(27)	-11.4477
▁기번스	-11.4477
(29)	-11.4477
▁said	-11.4477
=31	-11.4477
▁의료보험	-11.4477
▁황교수	-11.4477
▁LPGA	-11.4478
▁싱글	-11.4478
▁무엇인가	-11.4478
▁나중에	-11.4478
▁아르빌	-11.4478
▁별도로	-11.4478
▁get	-11.4479
▁냉각	-11.4479
▁state	-11.4479
▁자본주의	-11.4479
▁Star	-11.4479
▁자살폭탄	-11.4479
▁줄어든	-11.4479
▁토끼	-11.4479
▁충돌했다	-11.448
▁동맹관계	-11.448
▁보도자료	-11.448
▁간첩	-11.4481
▁평창	-11.4481
▁토로했다	-11.4481
▁싸울	-11.4481
▁이루어질	-11.4481
2008.0	-11.4481
▁사냥꾼	-11.4483
▁앙리	-11.4483
▁신념	-11.4483
▁철거	-11.4483
▁총격사건	-11.4483
▁친밀	-11.4484
▁보였지만	-11.4484
ZA	-11.4485
▁증산	-11.4485
▁늘어난	-11.4485
▁관행	-11.4486
▁해준다	-11.4486
light	-11.4486
▁납부	-11.4486
▁팔렸다	-11.4487
▁친절	-11.4487
▁테네시주	-11.4487
▁우편	-11.4487
▁누설	-11.4489
▁받았습니다	-11.4489
▁모닝	-11.4489
▁장례식에	-11.4489
▁지나친	-11.4489
▁단절	-11.4489
▁테러공격	-11.449
▁매사추세츠주	-11.449
▁재능	-11.4491
▁샤론	-11.4491
▁한국전쟁	-11.4492
▁바이오	-11.4492
▁잔디	-11.4492
▁동남	-11.4492
▁911	-11.4493
▁서열	-11.4495
▁책임감	-11.4495
▁관계자에따르면	-11.4496
▁태어났다	-11.4496
▁93	-11.4496
▁분양	-11.4496
▁HD	-11.4497
▁불경기	-11.4498
▁감동	-11.4498
▁만행	-11.4499
▁뉴저지주	-11.45
▁질식	-11.4501
▁급파	-11.4501
▁변동	-11.4502
▁2~3	-11.4502
▁동요	-11.4503
학자인	-11.4504
▁강화하기	-11.4505
살짜리	-11.4505
▁사절	-11.4505
▁도박	-11.4506
▁상속	-11.4506
▁테크	-11.4509
▁생선	-11.4509
▁상징적인	-11.4509
▁대승	-11.451
▁놀이	-11.451
▁신설	-11.4512
▁섬유	-11.4513
▁탈세	-11.4513
▁참수	-11.4513
됐기	-11.4515
▁태아	-11.4515
▁말았다	-11.4516
▁미국내	-11.4516
▁들어보	-11.4516
GM	-11.4518
▁반란	-11.452
▁보행	-11.4521
▁요구해	-11.4522
▁윤리적	-11.4522
▁탈당	-11.4523
▁대신해	-11.4524
▁불거	-11.4526
▁신종	-11.4526
▁로즈	-11.4526
▁외모	-11.4527
▁똑	-11.4527
▁버크	-11.4528
케르	-11.453
▁증가시키	-11.453
▁양호	-11.4531
▁항해	-11.4533
ung	-11.4534
▁말라위	-11.4535
▁스노	-11.4536
▁미화	-11.4537
▁비행선	-11.4537
▁일이었다	-11.4537
런스	-11.4538
▁교통부	-11.4539
▁총살	-11.4541
▁끝나지	-11.4541
▁요인이	-11.4541
▁피터슨	-11.4541
▁재계	-11.4542
▁일어	-11.4542
▁억류된	-11.4543
▁무관	-11.4545
▁유타	-11.4547
▁답변했다	-11.4547
▁서쪽으로	-11.4548
▁기대된다	-11.4551
▁쉴	-11.4552
▁카디	-11.4553
▁공격하기	-11.4554
▁말했었다	-11.4557
▁봉인	-11.4558
▁양당	-11.4559
▁허용하는	-11.456
클린	-11.4562
▁효과적인	-11.4566
▁ban	-11.4573
▁내리지	-11.4574
▁Su	-11.4576
▁직면한	-11.4576
▁주둔군	-11.4578
▁의뢰인	-11.4579
▁서부지역	-11.4579
▁실종됐다고	-11.4581
조차도	-11.4581
▁덩어리	-11.4582
▁불가능한	-11.4583
겼으며	-11.4584
▁허리	-11.4585
▁일조	-11.4586
▁의미하는	-11.4586
▁부상했으며	-11.4588
▁부자	-11.4592
▁전술	-11.4596
리터	-11.4604
▁입장이다	-11.4606
eep	-11.461
▁근거지	-11.4613
PD	-11.4615
▁진정시키	-11.4616
▁이동했다	-11.4619
클레	-11.4623
▁생각된다	-11.4625
▁작품상	-11.4626
▁살상	-11.463
▁수습	-11.4631
▁230	-11.4631
▁경사는	-11.4632
▁지불할	-11.4637
▁참가하는	-11.4638
▁결승전에	-11.4642
▁도달했다	-11.4644
▁끝내고	-11.4645
▁휩싸	-11.4646
▁시선	-11.4649
▁참가국들	-11.4652
▁판매되	-11.4664
▁내야	-11.4668
form	-11.4669
▁천명	-11.4675
▁소행	-11.4679
▁마르코	-11.469
비드	-11.4693
▁주도하고	-11.4695
▁제조회사	-11.4696
▁이견	-11.4697
▁추정하	-11.4698
▁지미	-11.4701
▁대학생들	-11.4701
▁설립한	-11.4702
into	-11.4703
▁내용이다	-11.4705
▁보도된	-11.4709
쌍	-11.471
▁얻었	-11.471
차관	-11.471
▁경고하고	-11.4711
▁실시됐다	-11.4711
사무소	-11.4711
▁해결하는	-11.4711
콩	-11.4712
즐	-11.4712
한나라당	-11.4713
티베트	-11.4713
투쟁	-11.4714
클럽	-11.4714
FTA	-11.4715
카메라	-11.4715
▁리사	-11.4716
전화	-11.4717
반응	-11.4718
▁경상	-11.4726
▁치료제	-11.4727
▁두려워하	-11.4731
스위스	-11.4731
▁모스	-11.4733
▁피랍됐	-11.4733
▁체인	-11.4737
▁모였다	-11.474
▁시작한다	-11.474
▁법무	-11.474
▁세우고	-11.4741
▁후안	-11.4744
▁올렸	-11.4746
열차	-11.475
▁Gr	-11.4756
▁안개	-11.4757
eac	-11.4758
시안	-11.4768
▁주립	-11.477
▁아파트에서	-11.4772
▁수행했다	-11.4773
▁왔으며	-11.4776
▁마련된	-11.4785
▁사망했	-11.4786
▁심리학	-11.4794
▁서울대	-11.48
ali	-11.4806
▁모여들	-11.4808
▁엔지니어	-11.4812
아무	-11.4833
▁크로	-11.4835
▁세라	-11.4845
▁해치	-11.4846
▁파견했다	-11.4849
이어서	-11.4852
아마	-11.4859
▁선포한	-11.4861
▁이행하	-11.4865
외교	-11.4866
▁위반했다	-11.4869
▁승려	-11.4873
공원	-11.4884
▁Ri	-11.4886
컷	-11.4897
정치적	-11.4899
▁America	-11.4899
▁이용자	-11.4901
▁가나	-11.4903
▁울리	-11.4904
ress	-11.4909
▁담겨	-11.4912
므	-11.4916
▁검문	-11.4921
▁나온다	-11.4925
▁발령	-11.4926
▁남겨	-11.4928
훔	-11.4928
▁도착해	-11.4929
▁빨간	-11.493
▁감염자	-11.4931
펀	-11.4931
갱	-11.4931
앵	-11.4931
▁England	-11.4931
▁좋았다	-11.4931
츄	-11.4931
2007.03	-11.4931
Australia	-11.4931
▁Association	-11.4931
▁BBK	-11.4931
▁issue	-11.4931
▁president	-11.4931
▁국제사면위원회	-11.4931
▁내다봤다	-11.4931
▁대량살상무기	-11.4931
▁돈세탁	-11.4931
▁로맨틱	-11.4931
▁롱고리아	-11.4931
▁몰디브	-11.4931
▁부정부패	-11.4931
▁선거캠페인	-11.4931
▁손해배상	-11.4931
▁슈나이더	-11.4931
▁스탠리	-11.4931
▁아이슬란드	-11.4931
▁애널리스트	-11.4931
▁언색호	-11.4931
▁자이언트	-11.4931
▁찍었다	-11.4931
▁카메론	-11.4931
▁클레이코트	-11.4931
▁플레이오프	-11.4931
▁혐오	-11.4931
밭	-11.4931
셜	-11.4931
썩	-11.4931
파이낸셜	-11.4931
United	-11.4931
▁가금류	-11.4931
▁참모총장	-11.4931
▁황박사	-11.4931
Human	-11.4931
▁크리켓	-11.4931
▁올랜도	-11.4931
▁전화통화	-11.4931
▁갱신	-11.4931
▁그렇다면	-11.4931
▁유시프	-11.4931
▁태어나	-11.4931
▁몬테	-11.4931
▁탑재	-11.4931
▁프리킥	-11.4931
▁선진국	-11.4931
▁진원지	-11.4931
▁정부청사	-11.4931
▁발레리	-11.4932
▁라시드	-11.4932
▁접어들	-11.4932
(24)	-11.4932
(21)	-11.4932
▁페인트	-11.4932
▁퇴치	-11.4932
▁리더십	-11.4932
▁격돌한	-11.4932
▁설문조사	-11.4932
▁선제골	-11.4932
▁쓰러졌	-11.4932
▁고기	-11.4932
▁공동성명	-11.4932
▁삼성그룹	-11.4933
▁소요사태	-11.4933
▁다툼	-11.4933
▁푸켓	-11.4933
▁Lee	-11.4933
▁이틀째	-11.4933
▁불쾌감	-11.4934
▁있겠지만	-11.4934
▁곳곳에서	-11.4934
▁당첨	-11.4934
▁곤란	-11.4935
▁51%	-11.4935
▁반도체	-11.4935
▁통계청	-11.4935
▁지방선거	-11.4936
▁페트로	-11.4936
▁고등	-11.4936
▁투항	-11.4936
▁물러난	-11.4937
▁짙	-11.4937
후쿠다	-11.4938
▁다룰	-11.4938
▁학자들	-11.4938
▁평등	-11.4938
▁기념품	-11.4939
▁터너	-11.4939
▁헌터	-11.4939
▁미술관	-11.494
▁크라	-11.494
▁단축	-11.494
▁발송	-11.494
▁감각	-11.4941
▁대기권	-11.4942
▁금지령	-11.4942
▁근본주의	-11.4942
▁구조됐다	-11.4942
▁비리	-11.4943
▁늘려	-11.4943
▁정교회	-11.4944
▁출간	-11.4944
▁검시관	-11.4945
관리국	-11.4947
▁솜	-11.4947
▁해산물	-11.4948
▁성능	-11.4948
▁인천	-11.4948
▁마텔	-11.4949
▁일삼	-11.4949
▁무패	-11.4949
▁북경	-11.4949
▁본래	-11.495
▁프로디	-11.495
정당	-11.4952
▁황제	-11.4952
▁수백만명	-11.4952
▁지난밤	-11.4952
▁온천	-11.4952
▁교역	-11.4953
▁바스크	-11.4953
▁공범	-11.4953
▁방침이다	-11.4954
▁방위군	-11.4955
▁재료	-11.4957
▁빈번	-11.4958
▁콜린스	-11.4959
시께	-11.496
ni	-11.4961
▁온실	-11.4962
▁순회	-11.4963
▁중단된	-11.4963
▁끌어들이	-11.4964
▁비정부	-11.4964
▁풀어주	-11.4971
▁영아	-11.4972
차원	-11.4974
▁표한다	-11.4975
▁연정	-11.4975
▁역전	-11.4975
▁선동	-11.4975
▁린치	-11.4975
▁낮게	-11.4976
▁노벨상	-11.4976
▁딴	-11.4979
▁피고인들	-11.4982
ull	-11.4982
▁상실	-11.4983
▁용서	-11.4983
▁나이키	-11.4984
▁공표	-11.4984
▁샤프	-11.4986
링턴	-11.4986
▁현직	-11.4987
▁주차장에서	-11.4992
▁파기	-11.4994
▁결과에따라	-11.4994
▁저자인	-11.4995
▁240	-11.4997
▁42%	-11.4998
▁연상	-11.5
▁확신하	-11.5001
▁주입	-11.5001
▁450	-11.5002
▁반감	-11.5002
다소	-11.5002
▁배정	-11.5004
▁보호소	-11.501
▁down	-11.501
▁피우	-11.5011
tter	-11.5014
▁발표하면서	-11.5016
▁시사했다	-11.5016
▁숨졌	-11.5016
▁외계인	-11.5018
▁투수	-11.5018
▁알아내	-11.502
▁연어	-11.5027
▁190	-11.5028
▁판명	-11.5028
▁경유	-11.503
▁비중	-11.5033
카우	-11.5033
▁자란	-11.5035
▁선보였	-11.5037
▁확인하지	-11.5038
학생들	-11.504
▁필요성	-11.504
▁옐	-11.504
걸스	-11.5047
▁영해	-11.5047
▁들어서	-11.5047
▁살아있는	-11.5049
▁펴	-11.5049
보트	-11.5051
▁내려오	-11.5051
▁전통적으로	-11.5052
▁아카	-11.5063
▁외교관들	-11.5064
reat	-11.5066
용품	-11.5067
▁주식시장이	-11.5069
▁밝혀지	-11.5071
▁관여한	-11.5074
방향	-11.5076
▁아랍어	-11.5076
▁진상	-11.5077
▁서있	-11.5082
▁FC	-11.5089
Com	-11.5089
ja	-11.5089
▁악명	-11.5097
하트	-11.51
▁분명한	-11.5104
▁본즈	-11.5109
▁배달	-11.511
▁상표	-11.5112
해줬다	-11.5116
▁노력했다	-11.5116
▁FIFA	-11.5116
▁앤드	-11.5117
▁직위	-11.5119
▁열리고	-11.5122
▁왕위	-11.5123
자산	-11.5125
▁MDC	-11.5131
▁진행하는	-11.5131
▁신성	-11.5132
▁무서	-11.5141
▁조직원들	-11.5146
▁성전	-11.5147
▁쓰지	-11.515
▁압수했다	-11.5151
▁외곽에서	-11.5153
▁계속됐다	-11.5155
▁주립대학	-11.516
어요	-11.5163
▁고민	-11.5167
▁사실이다	-11.5174
재단	-11.518
캔	-11.5182
따	-11.5183
▁결정하기	-11.5184
큐	-11.5185
2008.12	-11.5187
공화국	-11.5188
시리즈	-11.5189
무샤라프	-11.5189
웨스트	-11.5195
2008	-11.5197
모델	-11.5199
나이트	-11.5201
코르	-11.5202
▁헤어	-11.5208
▁관계자와	-11.5211
▁있으면	-11.5216
▁이혼했다	-11.5217
결정	-11.522
대상	-11.522
집단	-11.5223
란다	-11.5226
▁파괴된	-11.5238
나갔다	-11.5245
▁잡혀	-11.5248
sk	-11.5248
수퍼	-11.5248
상품	-11.525
탈리아	-11.5255
▁여진	-11.5264
▁중태라	-11.5264
▁토론회에서	-11.5268
▁진도	-11.5269
▁당선된	-11.5273
▁금지된	-11.5276
LA	-11.5279
티브	-11.528
웃으며	-11.5283
▁공해	-11.5288
▁숨지	-11.5291
▁앤더슨	-11.5293
운영	-11.53
마저	-11.5302
▁여러분들	-11.5308
적당한	-11.5313
38	-11.5316
▁가정에서	-11.5317
혁명	-11.5321
군사	-11.5324
▁참가국	-11.5329
▁있을까	-11.5331
▁연기됐다	-11.5331
십만	-11.5334
▁한국측	-11.5342
▁팔리	-11.5345
▁di	-11.5345
▁실종됐다	-11.5345
▁항의했다	-11.5346
▁촉구하고	-11.5351
▁격렬	-11.5355
려면	-11.5368
▁남부지역	-11.5371
▁영화화	-11.5372
▁하스	-11.5375
하기위해	-11.539
▁다스	-11.5391
▁납치범들	-11.5391
붕	-11.5402
뷔	-11.5404
갤	-11.5405
▁선정했다	-11.5406
봇	-11.5406
PGA	-11.5407
뮤	-11.5407
툰	-11.5407
▁가라앉	-11.5407
NYMEX	-11.5407
inancial	-11.5407
world	-11.5407
▁Pakistan	-11.5407
▁death	-11.5407
▁minister	-11.5407
▁가로질러	-11.5407
▁가이트너	-11.5407
▁농산물	-11.5407
▁높았다	-11.5407
▁디얄라	-11.5407
▁라스무센	-11.5407
▁라우터바흐	-11.5407
▁레드삭스	-11.5407
▁로널드	-11.5407
▁믿음	-11.5407
▁밀리밴드	-11.5407
▁불필요	-11.5407
▁빈라덴	-11.5407
▁선생님	-11.5407
▁스콜세지	-11.5407
▁와지리스탄	-11.5407
▁유네스코	-11.5407
▁지구온난화	-11.5407
▁질렀다	-11.5407
▁코네티컷	-11.5407
▁콘텐트	-11.5407
▁테헤란	-11.5407
▁펌프	-11.5407
▁페르난데스	-11.5407
▁포틀랜드	-11.5407
▁푸에르토리코	-11.5407
덟	-11.5407
윙	-11.5407
쯔	-11.5407
하였으나	-11.5407
▁high	-11.5407
▁가석방	-11.5407
▁졸릭	-11.5407
▁주미대사	-11.5407
▁무중력	-11.5407
▁브라더스	-11.5407
ould	-11.5407
▁자부심	-11.5407
WTI	-11.5407
▁아메드	-11.5407
▁획기적	-11.5407
▁오마바	-11.5408
깜짝	-11.5408
▁본거지	-11.5408
▁비평가들은	-11.5408
▁텔레콤	-11.5408
▁남동쪽	-11.5408
▁위안화	-11.5408
▁나이로비	-11.5408
▁놀랍	-11.5408
▁주니어	-11.5408
▁남서쪽	-11.5408
▁지저스	-11.5408
▁딜리	-11.5408
▁소아과	-11.5408
▁블레이크	-11.5408
▁강아지	-11.5408
▁아이팟	-11.5408
▁인디언	-11.5408
▁떠오르	-11.5408
이건희	-11.5408
▁트레이드	-11.5409
▁납북	-11.5409
▁화폐	-11.5409
ECB	-11.5409
▁포옹	-11.5409
▁may	-11.5409
▁않으려	-11.5409
▁왕궁	-11.541
▁석탄	-11.541
▁완승	-11.541
▁재처리	-11.5411
▁점유율	-11.5411
▁불러일으키	-11.5411
스테이트	-11.5411
▁맞춘	-11.5411
2008.02	-11.5411
▁그린랜드	-11.5412
▁자유로운	-11.5412
▁기차역	-11.5412
▁프라임	-11.5412
▁음란물	-11.5412
▁외교정책	-11.5412
▁아바타	-11.5414
▁난폭	-11.5414
▁연습	-11.5414
▁철강	-11.5414
▁우익	-11.5414
▁1953	-11.5415
▁주머니	-11.5415
▁은폐	-11.5415
▁소식통에따르면	-11.5415
▁청색	-11.5417
▁여자들	-11.5417
▁사촌	-11.5417
▁1975	-11.5418
▁투병	-11.5419
▁계단	-11.542
▁화물선	-11.542
▁잠재력	-11.5421
▁선언문	-11.5421
▁함정	-11.5421
함으로서	-11.5422
▁증오	-11.5422
▁이용자들	-11.5422
▁디에고	-11.5422
▁가졌으며	-11.5423
▁익사	-11.5423
▁선거자금	-11.5424
▁긴장감	-11.5424
▁추모식	-11.5425
▁앞서있다	-11.5425
▁정글	-11.5425
▁기부금	-11.5425
▁미시간주	-11.5425
▁복부	-11.5426
▁유언	-11.5426
▁우주센터	-11.5427
▁웃음	-11.5429
▁시청률	-11.5429
▁엔화	-11.543
▁하사	-11.543
▁핵문제	-11.543
▁판결문	-11.5431
▁지배하	-11.5432
▁변형	-11.5432
▁보험금	-11.5434
▁분배	-11.5434
▁경호원들	-11.5434
▁교정	-11.5436
▁달렸다	-11.5438
▁원한다면	-11.5438
▁투하	-11.5439
▁공공장소에서	-11.5439
▁대열	-11.5439
▁2.5	-11.544
▁붙였다	-11.5441
▁합법적으로	-11.5441
코브	-11.5441
▁시합	-11.5444
▁시작됐으며	-11.5444
▁지도력	-11.5448
▁툴	-11.5449
▁분리주의자들	-11.5449
▁레노	-11.5452
▁시작했고	-11.5453
▁문화적	-11.5455
▁감행한	-11.5456
▁들어왔다	-11.5456
▁루디	-11.5456
▁폐허	-11.5456
▁종전	-11.5459
▁치우	-11.5461
▁루즈	-11.5463
민들	-11.5463
▁3-1	-11.5464
▁전념	-11.5464
▁간호사	-11.5471
▁의존하고	-11.5472
▁펜실베이니아주	-11.5475
▁팔아	-11.5477
▁의류	-11.5477
▁중국인들	-11.5479
▁취업	-11.5479
▁결성	-11.5479
▁내달	-11.5481
▁가계	-11.5482
▁알려졌	-11.5482
▁철학	-11.5482
▁금주	-11.5487
▁의사당	-11.5487
▁샬	-11.549
▁해법	-11.5495
ron	-11.5498
▁보건당국	-11.5499
▁수영장	-11.5503
▁치아	-11.5504
▁이끌어내	-11.5504
▁보험사	-11.5505
▁돌아간	-11.5505
▁목표물	-11.5507
▁양곤에서	-11.551
생물학	-11.5512
기종	-11.5516
▁이행할	-11.5518
▁마련해	-11.5519
▁제기되	-11.5525
▁출판사	-11.5526
▁후속	-11.5529
▁시작했으며	-11.5529
▁예상치	-11.5531
▁220	-11.5536
판매	-11.5539
▁들어주	-11.5542
▁기록했으며	-11.5542
▁남부지역에서	-11.5545
▁103	-11.5553
▁하퍼	-11.5555
▁저명	-11.5556
▁측면에서	-11.5557
use	-11.5558
▁혼인	-11.5558
▁입히	-11.5561
▁기업체	-11.5563
▁비티	-11.5563
▁동상	-11.5563
▁주심	-11.5567
었었다	-11.5586
꾼들	-11.5588
▁카불에서	-11.5589
▁적게	-11.5592
▁제시할	-11.5599
▁실리	-11.5599
▁손님들	-11.5601
▁한국계	-11.5601
▁몰린	-11.5601
있지	-11.5602
▁서명한	-11.5608
▁손상된	-11.5609
▁떠나지	-11.5609
렸지만	-11.5613
▁설립된	-11.5619
▁Do	-11.5621
하였고	-11.5622
▁임명했다	-11.5623
▁결심했다	-11.5625
프레스	-11.5626
▁착용한	-11.5629
▁앉아있	-11.563
▁완화하기	-11.5632
▁호주군	-11.5637
AI	-11.5638
▁식당에서	-11.564
▁등정	-11.5642
훈련	-11.5643
▁대응할	-11.5644
▁등록된	-11.5645
▁결혼했다	-11.5648
My	-11.5648
88	-11.5654
▁자식	-11.5662
▁조사팀	-11.5665
남북	-11.5665
▁순수	-11.567
▁중태	-11.568
▁이후에도	-11.5681
보좌관	-11.5688
뒤	-11.5689
하마스	-11.569
▁폭락했다	-11.569
▁갇혀있	-11.569
폭풍	-11.5691
물리학	-11.5694
평화로운	-11.5694
헌법	-11.5696
▁요구한다	-11.5701
▁소방대원	-11.5701
▁퇴원했다	-11.5707
▁운전자들	-11.5711
결국	-11.5714
▁일본인들	-11.5719
▁정직	-11.5719
▁정국	-11.5725
모양	-11.573
파업	-11.5735
▁Te	-11.5736
arly	-11.5738
▁중국정부	-11.5738
▁충족	-11.5744
자녀	-11.5752
▁강화된	-11.5757
▁aid	-11.5761
식량	-11.5772
▁간부들	-11.5776
▁우주비행사들	-11.5779
시리아	-11.5781
▁나사	-11.5783
▁고고학자	-11.5794
ous	-11.5794
▁돌아왔	-11.5799
▁변수	-11.5803
rap	-11.5806
하느냐	-11.5806
▁한국정부	-11.5817
▁느끼지	-11.5817
▁조화	-11.582
노엘	-11.5829
▁나비	-11.5834
▁심리학자	-11.584
▁월터	-11.5845
MC	-11.5846
ler	-11.5847
▁자원봉사	-11.5848
륙	-11.585
ble	-11.5851
▁기록됐다	-11.5852
▁과일	-11.5852
▁본부장	-11.5853
▁민주적	-11.586
▁기르	-11.5871
하원	-11.5874
▁정규	-11.5876
▁AK	-11.5877
▁시달	-11.5882
▁태어났	-11.5885
▁우주비행	-11.5887
시키다	-11.5892
▁노출되	-11.5893
▁메모리	-11.5897
욱	-11.5897
▁미주리	-11.5898
-8	-11.5898
▁얼룩	-11.5907
▁근본	-11.5907
그렇다	-11.5907
▁WASHINGTON	-11.5907
life	-11.5907
▁UFO	-11.5907
▁peace	-11.5907
▁갖췄다	-11.5907
▁그랜드슬램	-11.5907
▁김경준	-11.5907
▁네그로폰테	-11.5907
▁맞교환	-11.5907
▁매카트니	-11.5907
▁베스트셀러	-11.5907
▁생태계	-11.5907
▁소렌스탐	-11.5907
▁식이요법	-11.5907
▁신용경색	-11.5907
▁신천옹	-11.5907
▁쓰러져	-11.5907
▁아라파트	-11.5907
▁아흐마디네자드	-11.5907
▁않았기	-11.5907
▁얼어붙	-11.5907
▁영유권	-11.5907
▁우비넨	-11.5907
▁윌리암	-11.5907
▁평론가들은	-11.5907
▁포츠머스	-11.5907
▁현수막	-11.5907
굽	-11.5907
배아줄기세포	-11.5907
콴	-11.5907
푼	-11.5907
퓨	-11.5907
▁about	-11.5907
▁뉴욕상업거래소	-11.5907
▁만델라	-11.5907
▁알자지라	-11.5907
▁해리왕자	-11.5907
▁훔쳐	-11.5907
▁start	-11.5907
▁국가정보원	-11.5907
▁마리화나	-11.5907
▁마스터스	-11.5907
▁눈보라	-11.5908
Two	-11.5908
▁몰아넣	-11.5908
▁갱단	-11.5908
▁프리츨	-11.5908
사관학교	-11.5908
UAE	-11.5908
▁2/3	-11.5908
▁매도프	-11.5908
▁파이프라인	-11.5908
▁발자국	-11.5908
▁추종자들	-11.5908
▁함부르크	-11.5908
▁땅콩	-11.5908
▁이뤄져야	-11.5908
▁있느냐	-11.5908
▁혜성	-11.5908
▁에어웨이	-11.5908
▁가르시아	-11.5908
▁파이프	-11.5908
▁프레슬리	-11.5908
▁봉착	-11.5909
▁투옥	-11.5909
2007.04	-11.5909
▁삭스	-11.5909
▁거세지	-11.5909
▁도미니카	-11.591
▁가져왔다	-11.591
▁출항	-11.591
▁참의원	-11.591
▁퍼뜨	-11.591
▁동물보호	-11.591
▁잡혔다	-11.591
▁창업자	-11.591
▁call	-11.591
▁신분증	-11.5911
▁척추	-11.5911
▁금연법	-11.5911
▁거슬러	-11.5911
▁선고받았다	-11.5912
▁육박	-11.5912
▁위헌	-11.5912
▁지방법원	-11.5912
▁우호적	-11.5913
▁생물학적	-11.5913
▁일환	-11.5913
▁침실	-11.5913
▁봅	-11.5914
▁증권거래소	-11.5914
▁인준	-11.5915
▁솔직하	-11.5915
▁이민법	-11.5915
▁연애	-11.5915
▁인질극	-11.5917
▁단언	-11.5917
▁없었으며	-11.5918
▁예외	-11.5918
▁진열	-11.5918
▁바이든	-11.5919
▁있었	-11.5919
▁피해여성	-11.5919
▁사절단	-11.5919
▁독립국가	-11.5919
▁버려진	-11.592
▁첫째	-11.592
▁사탕	-11.5921
▁막았다	-11.5922
▁몰리	-11.5922
▁조사결과	-11.5922
▁정황	-11.5922
▁31%	-11.5924
▁사이먼	-11.5925
▁호박	-11.5925
보관소	-11.5926
▁남긴	-11.5926
▁카이로	-11.5926
▁파타당	-11.5926
▁하위	-11.5926
▁승진	-11.5927
▁경색	-11.5927
▁조율	-11.5928
▁교실	-11.5928
▁따내	-11.593
▁부착	-11.593
프라이스	-11.593
▁버려	-11.5931
▁데이트	-11.5932
▁조립	-11.5932
▁유머	-11.5933
now	-11.5934
▁시몬	-11.5934
▁체포됐으며	-11.5934
▁Dis	-11.5935
▁투여	-11.5935
▁물리적	-11.5938
▁납치범	-11.5938
▁콜로라도주	-11.5938
▁동거	-11.594
▁크로스	-11.5941
▁살리기	-11.5942
보리스	-11.5942
▁정박	-11.5943
▁만회	-11.5944
▁make	-11.5946
▁정부기관	-11.5947
▁아이오와주	-11.5948
▁힐러리경	-11.5949
▁박차	-11.595
▁인수위원회	-11.5951
▁만들어내	-11.5952
▁치료법	-11.5953
▁다행	-11.596
▁합법적인	-11.5962
▁금융계	-11.5963
▁관광객들에게	-11.5966
▁조각상	-11.5966
▁스위	-11.5968
▁도시들	-11.5968
▁문학	-11.5969
▁케이스	-11.597
▁태세	-11.597
▁도피	-11.597
▁실었다	-11.5971
▁따라잡	-11.5972
▁조세	-11.5974
▁채무	-11.5975
▁comp	-11.5975
▁번개	-11.5976
▁실바	-11.5976
▁발표되지	-11.598
▁선제	-11.5981
▁못했으며	-11.5985
▁1400	-11.5985
▁국제법	-11.5985
▁배역	-11.5987
▁Ge	-11.5988
▁연주자	-11.5989
▁레이드	-11.599
▁resign	-11.5992
▁128	-11.5994
▁토드	-11.5996
▁상승하며	-11.5997
▁기각했다	-11.5998
명씩	-11.5998
▁0.2	-11.5999
▁우주복	-11.6
▁끌어내	-11.6001
▁일본군	-11.6002
▁친척들	-11.6002
▁말했으나	-11.6002
▁112	-11.6005
▁만들었	-11.6005
▁주목할	-11.6016
▁조그	-11.6018
외국	-11.6024
▁제조업	-11.6027
▁기용	-11.6027
▁추락해	-11.6028
▁되려	-11.6028
▁전용기	-11.6038
▁감염되	-11.6039
▁자진	-11.6045
▁나타난다	-11.6045
공학	-11.6046
▁투표소	-11.6048
▁왕국	-11.6053
▁처했다	-11.6055
멜라	-11.6059
▁북해	-11.6063
▁구속했다	-11.6064
▁길게	-11.6069
▁서울시장	-11.6075
스버그	-11.6079
▁박스	-11.6083
▁연행됐다	-11.6083
▁주시하	-11.6089
▁벌여왔	-11.6106
▁위협받	-11.6107
▁이슬라마바드에서	-11.611
▁바라보	-11.6118
▁토레	-11.6121
▁히스	-11.6122
▁지나간	-11.6135
▁잘라	-11.614
▁죽였다	-11.6142
▁매력적	-11.6151
▁몰렸	-11.6152
▁News	-11.6156
▁기관들	-11.6159
▁이사장	-11.6167
▁고르	-11.6167
▁결정하지	-11.6171
▁장점	-11.6171
앞	-11.6176
▁광장에서	-11.6182
▁노린	-11.6198
▁북한측	-11.6206
프로그램	-11.6211
World	-11.6212
아메리카	-11.6213
꽃	-11.6213
MDC	-11.6213
붙	-11.6213
턱	-11.6213
끝	-11.6215
왜	-11.6215
다이애나	-11.6215
가능한	-11.6217
ally	-11.6219
▁국제적으로	-11.6221
▁1.5	-11.6223
보험	-11.6227
▁구속됐다	-11.623
▁전사들	-11.6233
▁영화관	-11.6234
소송	-11.6237
▁높이기	-11.6238
▁일부분	-11.6239
지휘	-11.624
업무	-11.6243
▁이루어져	-11.6243
혈관	-11.6254
무역	-11.6257
▁방문했	-11.6263
타카	-11.6264
▁고고학	-11.6285
▁정보원	-11.6291
▁시청자	-11.6296
▁개정된	-11.6299
▁있음에	-11.6306
▁잔인	-11.6306
▁방문한다	-11.6312
▁다치	-11.6312
▁단계적	-11.6314
보안	-11.6317
▁동의한다	-11.6321
▁민영	-11.6324
61	-11.6328
▁유대인들	-11.6332
친구	-11.6332
요금	-11.6336
umb	-11.6337
▁별개	-11.6339
▁십년	-11.635
연금	-11.6351
▁숨어	-11.6365
▁웨스	-11.6372
중앙	-11.638
▁근본적	-11.6385
ism	-11.6387
▁위험하다	-11.6392
▁외계	-11.6395
▁나타냈	-11.6401
ful	-11.6405
공주	-11.6406
▁슈퍼대의원	-11.6407
▁북한군	-11.6408
▁꼬리	-11.6412
▁악화된	-11.6417
깃	-11.6431
룡	-11.6432
▁힌두	-11.6432
돔	-11.6433
▁중앙정보국	-11.6434
ject	-11.6434
풋	-11.6434
2007.01	-11.6434
8,000	-11.6434
▁9/11	-11.6434
▁Bank	-11.6434
▁GNP	-11.6434
▁Life	-11.6434
▁foreign	-11.6434
▁가솔린	-11.6434
▁갤러리	-11.6434
▁국토안보부	-11.6434
▁꿀벌	-11.6434
▁낳았다	-11.6434
▁니스텔로이	-11.6434
▁디스플레이	-11.6434
▁뚜렷	-11.6434
▁매릴랜드	-11.6434
▁미항공우주국	-11.6434
▁바랍니다	-11.6434
▁박정희	-11.6434
▁방코델타아시아	-11.6434
▁버틀러	-11.6434
▁불매운동	-11.6434
▁셰퍼드	-11.6434
▁신행정수도	-11.6434
▁싫어하	-11.6434
▁앙카라	-11.6434
▁애틀랜티스호	-11.6434
▁와이오밍	-11.6434
▁요하네스버그	-11.6434
▁즐거움	-11.6434
▁초콜릿	-11.6434
▁키드먼	-11.6434
▁토튼햄	-11.6434
▁투탕카멘	-11.6434
▁팽팽	-11.6434
▁핸드폰	-11.6434
▁헝가리	-11.6434
늬	-11.6434
뜯	-11.6434
륭	-11.6434
빔	-11.6434
인터내셔널	-11.6434
자르카위	-11.6434
콥	-11.6434
▁Wild	-11.6434
▁금강산	-11.6434
▁버클리	-11.6434
▁자민당	-11.6434
▁잠수함	-11.6434
▁재규어	-11.6434
▁학부모	-11.6434
벵	-11.6434
▁노워크	-11.6434
▁밀라노	-11.6434
▁합법화	-11.6434
▁200809.1	-11.6434
▁딜런	-11.6434
▁중소기업	-11.6434
▁나뉘어	-11.6434
▁순이익	-11.6434
▁영사관	-11.6434
▁선거유세	-11.6434
▁홈구장	-11.6434
▁기다렸다	-11.6434
▁예정이었으나	-11.6434
▁조선일보	-11.6434
▁폭넓	-11.6434
dition	-11.6434
▁원자재	-11.6434
▁오사카	-11.6434
▁대운하	-11.6434
▁액션	-11.6434
▁오페라	-11.6434
▁하루종일	-11.6434
▁반짝이	-11.6434
▁소령은	-11.6434
▁나이트클럽	-11.6434
▁막바지	-11.6434
▁Prim	-11.6434
(33)	-11.6434
▁핑크	-11.6434
▁관절염	-11.6434
▁강원도	-11.6434
▁외딴	-11.6434
▁under	-11.6434
▁번화가	-11.6434
▁참혹	-11.6434
▁몸싸움	-11.6434
▁실질적으로	-11.6434
(26)	-11.6434
▁페라로	-11.6434
uff	-11.6435
▁연못	-11.6435
▁파란색	-11.6435
▁하이킹	-11.6435
▁0.5%	-11.6435
▁휴이트	-11.6435
▁혼잡	-11.6435
▁독특	-11.6435
▁바오로	-11.6435
▁로얄	-11.6436
갤론	-11.6436
▁게놈	-11.6436
▁want	-11.6436
▁흑자	-11.6436
▁휘말	-11.6436
▁재건축	-11.6436
▁2.13	-11.6436
▁틀림	-11.6436
▁체첸	-11.6436
▁잠비아	-11.6436
▁형벌	-11.6437
▁넘겼다	-11.6437
▁웰스	-11.6437
action	-11.6437
▁쉽다	-11.6437
▁이용했다	-11.6437
▁작별	-11.6437
▁내놓았다	-11.6438
▁돌풍	-11.6438
▁불빛	-11.6438
▁정회장	-11.6439
▁가정집	-11.6439
▁막으려	-11.6439
side	-11.6439
▁스테판	-11.644
▁숨져	-11.6441
▁소방차	-11.6441
▁스몰	-11.6442
▁벤처	-11.6442
▁기원전	-11.6443
▁야외	-11.6444
▁금융기관	-11.6444
▁데이브	-11.6444
▁절단	-11.6445
메모리얼	-11.6445
▁아시안	-11.6445
▁법규	-11.6445
▁해리슨	-11.6446
▁사라질	-11.6446
▁도착하자	-11.6447
▁저격	-11.6447
▁법령	-11.6448
▁만들어졌다	-11.6448
▁직무	-11.6448
▁들렸다	-11.6449
▁각료회의	-11.6449
▁꾸미	-11.645
▁곤경에	-11.645
▁초드리	-11.645
▁며칠간	-11.6451
▁반란군	-11.6451
▁예정이지만	-11.6451
▁미시건주	-11.6451
▁속출	-11.6453
▁사과문	-11.6453
▁사귀	-11.6453
▁개체	-11.6454
▁라이더	-11.6454
▁허브	-11.6454
▁보였으며	-11.6454
▁CO	-11.6455
▁비틀	-11.6457
▁푸미	-11.6459
▁관제	-11.6459
▁생길	-11.646
▁형량	-11.6462
ound	-11.6463
▁반세기	-11.6464
▁경감	-11.6465
▁가져오	-11.6466
▁쿠즈	-11.6466
▁만연	-11.6466
▁테디	-11.6467
▁측에서는	-11.6467
▁대통령궁	-11.6469
▁뒤이어	-11.647
▁들어있다	-11.6471
ony	-11.6471
▁표정	-11.6475
워스	-11.6476
▁벌인다	-11.6477
▁100%	-11.6477
▁구두	-11.6479
▁파워	-11.648
▁손길	-11.648
▁주장했었다	-11.6481
▁벤치	-11.6482
▁장애물	-11.6483
Thi	-11.6483
▁친분	-11.6484
▁드러나	-11.6488
▁돌진	-11.649
▁당사	-11.6491
환자	-11.6491
▁통과된	-11.6493
▁거행	-11.6494
▁360	-11.6496
▁자원봉사자들	-11.6496
▁자연적	-11.6499
▁구성원	-11.6503
▁날려	-11.6504
▁총력	-11.6506
▁입원해	-11.6512
▁포즈	-11.6515
▁민족주의	-11.6518
▁리우	-11.6519
▁반경	-11.652
▁회복세	-11.6521
▁카카	-11.6521
▁포크	-11.6521
▁과거사	-11.6527
▁공개될	-11.6527
▁은신	-11.6529
▁연관성	-11.6533
▁어미	-11.6535
부르크	-11.6536
▁놓치	-11.6537
▁구속력	-11.6538
▁조사관	-11.6539
▁관여하	-11.6542
▁들소	-11.6544
▁가담한	-11.6544
▁작가들	-11.6545
▁끝나기	-11.6546
▁유전적	-11.6546
▁우수	-11.6548
▁마루	-11.6549
▁책상	-11.655
▁우표	-11.655
▁동력	-11.6552
▁연합통신	-11.6554
▁버드	-11.6554
▁서구	-11.6556
1945	-11.6556
▁총회에서	-11.6557
▁신선	-11.6558
▁촬영된	-11.656
▁분주	-11.6565
▁국경지역에서	-11.6566
▁중립	-11.6567
스프링스	-11.657
▁크루	-11.6571
dict	-11.6573
▁보이지만	-11.6576
▁한창	-11.6577
▁집어	-11.6577
All	-11.6579
▁상징으로	-11.6579
▁주행	-11.6582
벨라	-11.6584
▁14%	-11.6586
uck	-11.6587
▁당선됐다	-11.6589
▁이겼다	-11.6592
▁hel	-11.6596
▁본회의	-11.6596
▁다르지	-11.6597
먼트	-11.6603
▁수송기	-11.6608
▁몰아내	-11.6612
▁BE	-11.6613
▁등장하	-11.6615
tive	-11.6616
▁선박들	-11.6625
▁실직자	-11.6629
였음	-11.663
2007	-11.6632
▁밀리	-11.6633
▁진압하기	-11.6637
▁소원	-11.6638
▁의약	-11.6646
▁시행되	-11.665
ton	-11.6657
▁추방된	-11.6675
▁농부들	-11.6676
▁통과했다	-11.6677
머니	-11.6681
비안	-11.6682
▁따르지	-11.6684
▁가야	-11.6689
데릭	-11.669
그램	-11.6703
▁보니	-11.6712
▁원주민들	-11.6717
▁차이나	-11.6725
▁주최한	-11.6726
▁심리적	-11.6731
휘	-11.6734
전국	-11.6743
▁신체적	-11.6748
짜	-11.6752
▁동원됐다	-11.6753
▁바라지	-11.676
FIFA	-11.6767
떠	-11.6768
곰	-11.6769
▁들어왔	-11.6769
낙	-11.677
톰	-11.677
매케인	-11.6771
특별	-11.6773
▁가시	-11.6774
▁제품들	-11.6778
▁존재하지	-11.6787
란드	-11.6789
행동	-11.679
납치	-11.6794
▁효과적	-11.6797
동료	-11.68
▁농부	-11.6801
1983	-11.6803
공연	-11.682
수익	-11.6825
▁걸렸	-11.6829
전문가들	-11.6831
▁힘들었	-11.6833
▁이어져	-11.684
소속	-11.6847
재정	-11.6851
▁권했다	-11.6864
▁조심	-11.6865
▁1.6	-11.6872
쿠르	-11.6873
▁합법적	-11.6891
▁권장	-11.6891
▁통신원	-11.6892
었음	-11.6892
▁7.9	-11.6916
▁소방서	-11.6916
▁주정부	-11.6927
중단	-11.6933
스러워	-11.6937
여건	-11.6948
메스	-11.6949
▁노출된	-11.6949
▁시달리	-11.6967
▁계열	-11.6968
▁설립했다	-11.6974
뢰	-11.6977
ology	-11.698
▁들어있	-11.6984
륜	-11.6986
▁오르기	-11.6988
▁첨단	-11.6989
▁arrest	-11.6989
▁앵커	-11.6989
헝	-11.6989
ISAF	-11.6989
▁RCTV	-11.6989
▁Russia	-11.6989
▁Street	-11.6989
▁가깝게	-11.6989
▁개성공단	-11.6989
▁경기후퇴	-11.6989
▁국제축구연맹	-11.6989
▁리트비넨코	-11.6989
▁메르세데스	-11.6989
▁무하마드	-11.6989
▁베를루스코니	-11.6989
▁상임이사국	-11.6989
▁새크라멘토	-11.6989
▁샌안토니오	-11.6989
▁선거기부금	-11.6989
▁세골렌	-11.6989
▁심장질환	-11.6989
▁아제르바이잔	-11.6989
▁아프카니스탄	-11.6989
▁애슐리	-11.6989
▁옮겼다	-11.6989
▁유엔사무총장	-11.6989
▁정권인수팀	-11.6989
▁정확하게	-11.6989
▁제너럴	-11.6989
▁좋겠다	-11.6989
▁즈보나레바	-11.6989
▁지켜봤다	-11.6989
▁지켰다	-11.6989
▁찍힌	-11.6989
▁췌장암	-11.6989
▁쿠즈넷소바	-11.6989
▁하드웨어	-11.6989
▁해안경비대	-11.6989
▁화성탐사	-11.6989
▁히스패닉	-11.6989
시켰으며	-11.6989
엑스파일	-11.6989
캇	-11.6989
커뮤니케이션	-11.6989
햇	-11.6989
흠	-11.6989
▁Corp	-11.6989
▁Science	-11.6989
▁forces	-11.6989
▁price	-11.6989
▁대니얼	-11.6989
▁성매매	-11.6989
▁오리건주	-11.6989
▁푸에르타	-11.6989
키티호크	-11.6989
▁로날드	-11.6989
▁메신저	-11.6989
▁신생아	-11.6989
▁나타날	-11.6989
▁회교도	-11.6989
▁깁슨	-11.6989
▁승부차기	-11.6989
국제올림픽위원회	-11.6989
▁대법관	-11.6989
EPL	-11.6989
▁추기경	-11.6989
▁카펠로	-11.6989
▁하니야	-11.6989
▁아폴로	-11.6989
USGS	-11.6989
▁사직서	-11.6989
▁핀란드	-11.6989
▁law	-11.6989
▁동성결혼	-11.6989
▁규탄	-11.699
▁뉴잉글랜드	-11.699
▁비너스	-11.699
▁컨셉	-11.699
▁무자비	-11.699
▁사형선고	-11.699
▁좌우	-11.699
▁캐롤라인	-11.699
▁아로요	-11.699
▁괴물	-11.699
▁그리핀	-11.699
▁즐겁	-11.699
습니까	-11.699
▁묵념	-11.699
▁희귀	-11.699
▁룰라	-11.699
▁적혀있	-11.699
▁블랙워터	-11.699
▁항구도시	-11.6991
▁에밀리	-11.6991
▁바레인	-11.6991
▁빠져나가	-11.6991
▁게이머	-11.6991
▁test	-11.6991
▁황폐	-11.6991
▁탈퇴	-11.6991
▁욕구	-11.6991
▁인내심	-11.6991
▁스프레이	-11.6991
▁즐겨	-11.6991
▁오스만	-11.6991
▁쿠마르	-11.6992
▁잠자리	-11.6992
▁벌어질	-11.6992
▁드라이브	-11.6992
▁쏟아져	-11.6993
▁잠겨	-11.6993
dge	-11.6993
▁무효	-11.6994
▁옮겨졌다	-11.6994
▁제이슨	-11.6994
▁빙산	-11.6995
▁묻혀	-11.6995
▁디젤	-11.6995
▁허용했다	-11.6995
▁꺼내	-11.6995
▁요구사항	-11.6995
▁순결	-11.6996
▁어윈	-11.6996
▁연봉	-11.6996
▁최후	-11.6996
▁주어지	-11.6996
▁들어올	-11.6997
▁attacks	-11.6997
▁터져	-11.6997
▁모여들었다	-11.6997
▁호황	-11.6998
▁환급	-11.6998
▁러브	-11.6998
▁아이다호	-11.6998
▁중동평화회의	-11.6999
▁그레이스	-11.6999
▁난항	-11.6999
&#4	-11.7
▁의논	-11.7001
▁오닐	-11.7001
▁표범	-11.7001
▁아흐메드	-11.7001
▁빅토	-11.7001
▁버리고	-11.7002
▁지하실	-11.7002
▁교도통신	-11.7003
▁루머	-11.7003
▁누출	-11.7003
▁이어갔다	-11.7004
▁난처	-11.7004
▁과속	-11.7005
▁마스크	-11.7005
▁무척	-11.7005
▁JP	-11.7006
▁집결	-11.7007
▁밝혀질	-11.7008
▁접종	-11.7008
▁강철	-11.7009
▁월스트리트에서	-11.7009
▁않을까	-11.701
▁출산율	-11.701
▁카누	-11.701
▁소유즈	-11.701
▁종사하	-11.701
▁기대감	-11.7011
▁과감	-11.7011
▁그런데	-11.7012
▁탈선	-11.7012
▁이르다	-11.7013
/4	-11.7014
Inter	-11.7015
▁전인대	-11.7017
▁제왕	-11.7017
▁항공편	-11.7019
-16	-11.7019
▁제약회사	-11.702
▁다름	-11.702
▁스파이스	-11.7021
▁자체적으로	-11.7022
▁카렌	-11.7023
▁자동차업체	-11.7025
▁안았다	-11.7025
▁여러차례	-11.7025
▁고층	-11.7026
▁골든	-11.7028
▁코란	-11.7028
▁사립	-11.7029
▁비스타	-11.7029
▁선교	-11.703
▁수익금	-11.703
▁펜실베니아주	-11.703
▁가져야	-11.7031
▁싶어하	-11.7032
▁점심	-11.7037
▁알아야	-11.7037
▁감당	-11.7038
▁들려	-11.7039
▁1930	-11.704
▁사료	-11.7042
▁부국장	-11.7043
부적절한	-11.7043
▁애정	-11.7044
▁바탕으로	-11.7044
▁부양	-11.7047
▁수사팀	-11.7047
▁고통스러	-11.7048
▁사용하여	-11.7048
▁타마	-11.7051
▁친미	-11.7052
▁제작진	-11.7053
▁정당화	-11.7056
▁티나	-11.7057
▁수십만	-11.7057
▁저하	-11.7059
▁거주자	-11.7062
▁부패혐의	-11.7062
▁금지했다	-11.7062
▁부의장	-11.7064
▁벗어나기	-11.7066
▁가루	-11.7066
▁지냈다	-11.7067
ship	-11.707
민주적인	-11.7073
▁배우자	-11.7074
▁충성	-11.7075
▁견디	-11.7075
▁새우	-11.7076
ncer	-11.7077
▁클라인	-11.7077
▁설명하지	-11.7078
▁위크	-11.7081
▁45%	-11.7081
▁지질학	-11.7081
atch	-11.7082
▁이제까지	-11.7082
▁원내	-11.7085
▁그럴	-11.7085
▁자질	-11.7086
▁의거	-11.7093
▁최다	-11.7095
▁복도	-11.7097
화씨	-11.71
▁계약서	-11.7101
▁예산안	-11.7102
▁리마	-11.7106
▁모색하고	-11.7109
했거나	-11.711
▁기조	-11.7113
▁삼바	-11.7115
▁측근들	-11.7118
▁문어	-11.7119
▁정부측	-11.7119
▁스티븐스	-11.712
▁확정됐다	-11.7124
▁축하하기	-11.7124
웃	-11.7126
▁일방적	-11.7129
former	-11.713
▁나노	-11.7131
호선	-11.7132
▁운동화	-11.7157
군요	-11.7163
▁허가했다	-11.7168
▁노인들	-11.717
▁사용된다	-11.717
▁조사관들	-11.7174
행해진	-11.7179
▁편집장	-11.7187
▁수사관들	-11.7195
▁fund	-11.7195
▁물건들	-11.7199
▁인종적	-11.7207
▁적군	-11.721
▁다양성	-11.7215
대원들	-11.7218
▁중단해야	-11.7223
해왔으며	-11.723
▁넘었다	-11.7247
fter	-11.7247
uk	-11.7257
▁생사	-11.7257
▁합류했다	-11.726
▁병장	-11.726
탈루	-11.726
▁대위	-11.727
▁자백	-11.7275
▁희생됐다	-11.7284
▁적었다	-11.7287
▁떠나기	-11.7288
▁별장	-11.7293
렉스	-11.7297
▁공화당원들	-11.7308
▁자백했다	-11.731
▁운영되	-11.7329
▁소행이라	-11.7331
1974	-11.7332
▁되는데	-11.7354
폭탄테러	-11.7357
있게	-11.7357
잇	-11.7358
세르비아	-11.7359
캘리포니아	-11.7359
힐러리	-11.736
랭킹	-11.736
▁교사들	-11.7361
미사일	-11.7361
아일랜드	-11.7362
0%	-11.7363
미디어	-11.7365
▁같지	-11.7367
자신의	-11.7373
▁자국민	-11.738
누구	-11.7381
▁분리된	-11.7383
완전	-11.7383
az	-11.7384
노동자	-11.74
▁갖지	-11.7403
석유	-11.7413
▁생산성	-11.7422
▁관람객	-11.7431
▁소매업	-11.7432
▁You	-11.7433
판사	-11.7433
학자들	-11.7435
▁우주국	-11.7455
회복	-11.7462
▁Go	-11.7469
▁sur	-11.7469
▁살아있	-11.7481
▁있음	-11.7492
▁발사됐다	-11.7512
▁대항하는	-11.7532
▁거점	-11.7541
점이다	-11.7549
백만명	-11.7552
ness	-11.7555
▁미시건	-11.7558
화학	-11.7561
▁브랜	-11.7562
▁준결승	-11.7562
셸	-11.7564
▁이라크인들	-11.7566
▁역설	-11.7567
▁상점들	-11.7569
▁바람직	-11.7572
옳	-11.7573
▁주차장	-11.7573
even	-11.7576
벳	-11.7577
▁살모넬라	-11.7577
샨	-11.7578
켐	-11.7578
팽	-11.7578
EADS	-11.7578
employ	-11.7578
▁claim	-11.7578
▁official	-11.7578
▁people	-11.7578
▁summit	-11.7578
▁two	-11.7578
▁걸림돌	-11.7578
▁검정색	-11.7578
▁고르바초프	-11.7578
▁구소련	-11.7578
▁늦추	-11.7578
▁당뇨병	-11.7578
▁르완다	-11.7578
▁리우데자네이루	-11.7578
▁메릴린치	-11.7578
▁몰랐다	-11.7578
▁민주노동당	-11.7578
▁바나프샤	-11.7578
▁블래터	-11.7578
▁빈민층	-11.7578
▁서둘러	-11.7578
▁스탤론	-11.7578
▁스필버그	-11.7578
▁아디다스	-11.7578
▁악천후	-11.7578
▁않았었다	-11.7578
▁암스테르담	-11.7578
▁에스트라다	-11.7578
▁예방접종	-11.7578
▁위태롭게	-11.7578
▁인신매매	-11.7578
▁조류독감	-11.7578
▁칠면조	-11.7578
▁트리폴리	-11.7578
▁헐리우드	-11.7578
▁확립	-11.7578
▁휴전협정	-11.7578
▁흩어져	-11.7578
英	-11.7578
띤	-11.7578
팻	-11.7578
펙	-11.7578
퐁	-11.7578
2007.02	-11.7578
week	-11.7578
▁KBS	-11.7578
▁strike	-11.7578
▁독극물	-11.7578
▁마스터즈	-11.7578
▁여중생	-11.7578
▁오래전부터	-11.7578
▁정보통신부	-11.7578
▁제퍼슨	-11.7578
▁즐거운	-11.7578
▁항공모함	-11.7578
▁핵연료	-11.7578
뚝	-11.7578
쥬	-11.7578
▁영업이익	-11.7578
▁쿼터백	-11.7578
反	-11.7578
▁불공정	-11.7578
▁다이어트	-11.7578
▁센트럴	-11.7578
▁존엄성	-11.7578
▁급성장	-11.7578
▁오디오	-11.7578
▁하토야	-11.7578
▁낭독	-11.7578
▁대성당	-11.7578
▁유동성	-11.7578
▁고아원	-11.7578
▁흥정	-11.7578
▁깁스	-11.7578
▁치뤄	-11.7578
▁개구리	-11.7578
▁다둘라	-11.7578
▁산체스	-11.7578
▁Polic	-11.7578
▁강대국	-11.7578
▁조심스럽게	-11.7578
▁징조	-11.7578
(36)	-11.7578
(31)	-11.7578
▁진상조사	-11.7578
▁경수로	-11.7578
▁플루	-11.7578
▁정착촌	-11.7578
▁인공위성	-11.7578
▁특혜	-11.7578
▁다이앤	-11.7578
▁그만두	-11.7578
▁북아일랜드	-11.7578
▁노숙자	-11.7578
▁클릭	-11.7578
▁Burm	-11.7579
▁카펫	-11.7579
▁유가족들	-11.7579
▁도망쳤다	-11.7579
▁진짜	-11.7579
▁소실	-11.7579
▁통합민주당	-11.7579
▁역전승	-11.7579
▁블랙홀	-11.7579
▁Press	-11.7579
▁국영언론	-11.7579
▁로렌	-11.7579
▁기념행사	-11.7579
▁극도로	-11.7579
▁출혈	-11.758
▁사무국장은	-11.758
▁타계했다	-11.758
▁크리스틴	-11.758
▁루카스	-11.758
▁좁혀	-11.7581
▁부유층	-11.7581
▁십자가	-11.7581
▁항의시위	-11.7581
▁헬렌	-11.7581
▁리옹	-11.7581
▁총파업	-11.7581
▁More	-11.7581
▁체험	-11.7581
▁식별	-11.7581
▁크랜	-11.7581
▁군복무	-11.7581
▁어워드	-11.7582
▁출현	-11.7582
▁조세프	-11.7582
▁절망	-11.7582
▁관례	-11.7582
▁Ex	-11.7582
▁몰락	-11.7583
▁무효화	-11.7583
▁차세대	-11.7583
▁그래함	-11.7583
▁인텔	-11.7583
▁진척	-11.7584
▁양육	-11.7585
▁카타르	-11.7585
▁손잡	-11.7585
▁이슬람교도들	-11.7585
▁베니스	-11.7585
▁올라왔다	-11.7586
▁실망감	-11.7587
▁살인사건	-11.7587
▁통신망	-11.7587
▁축복	-11.7587
▁소년병	-11.7588
▁물리학자	-11.7589
린첨	-11.7589
▁피켓	-11.7589
▁제휴	-11.759
▁환경단체	-11.759
▁돌렸다	-11.759
▁기네스	-11.759
▁미주리주	-11.7591
▁평화롭	-11.7591
▁넘긴	-11.7592
▁일축	-11.7592
▁근방	-11.7592
▁표본	-11.7594
▁절정	-11.7594
org	-11.7595
▁로렌스	-11.7596
▁상환	-11.7596
▁머무르	-11.7596
▁urge	-11.7597
▁최장	-11.7597
▁휘트	-11.7598
▁737	-11.7598
▁오찬	-11.7598
▁보내졌다	-11.7599
▁강탈	-11.7599
▁고등학생	-11.76
▁명절	-11.76
▁견제	-11.76
▁재앙	-11.7601
▁구제금융안	-11.7602
▁국무회의	-11.7602
▁현저	-11.7602
디언	-11.7603
▁귀중	-11.7604
▁임원들	-11.7604
▁의장직	-11.7605
▁발령했다	-11.7605
▁최적	-11.7606
구조대	-11.7607
▁고독	-11.7608
▁진동	-11.761
▁유타주	-11.761
▁어류	-11.7613
▁SG	-11.7613
▁임상	-11.7613
▁조장하	-11.7614
▁개통	-11.7614
▁마샤	-11.7616
▁황소	-11.7616
▁베이비	-11.7616
▁불량	-11.7618
▁공작	-11.7619
▁매설	-11.7619
▁영하	-11.7619
▁싶다면	-11.762
▁진술서	-11.7621
▁구사하	-11.7624
▁소비자들에게	-11.7629
▁관용	-11.763
▁고객들에게	-11.763
▁점유	-11.763
▁변호인단	-11.7631
▁정복	-11.7632
▁북극해	-11.7632
▁지상군	-11.7633
군사훈련	-11.7634
▁망치	-11.7634
▁압도적으로	-11.7636
▁찾아야	-11.7637
▁희생된	-11.7639
▁세울	-11.764
▁흔들며	-11.764
▁준결승전에서	-11.7642
▁부친	-11.7643
▁당사자	-11.7644
▁결선	-11.7644
▁원형	-11.7644
▁정문	-11.7647
▁아담스	-11.7648
▁자재	-11.7652
▁왔었다	-11.7652
▁구직	-11.7653
▁주의보	-11.7653
▁부탁했다	-11.7662
▁무장조직	-11.7663
▁시급	-11.7663
other	-11.7664
▁유지될	-11.7666
▁총리실	-11.7669
출동한	-11.7673
▁개제	-11.7676
됐음	-11.7678
▁대통령으로서	-11.7678
▁나포	-11.7682
▁집계됐다	-11.7682
▁반대파	-11.7683
▁보잉사	-11.7684
▁car	-11.7685
▁급락했다	-11.7686
▁분개	-11.7689
▁통과시키	-11.7689
▁처사	-11.7691
▁주말까지	-11.7693
▁구조물	-11.7699
▁우리들	-11.7702
▁숨어있	-11.7705
▁맞이했다	-11.7712
▁태워	-11.7716
▁work	-11.7724
▁악수	-11.7726
▁4500	-11.7731
▁에너지부	-11.7734
▁로게	-11.7737
▁차이점	-11.7738
▁계획이었다	-11.774
▁문화원	-11.7743
▁소치	-11.7746
▁신청했다	-11.7753
ju	-11.7757
▁해안지역	-11.7758
▁파괴되	-11.776
▁원석	-11.7763
▁비슷하다	-11.7767
▁깨어	-11.7775
▁음식점	-11.7781
극적으로	-11.7784
▁사망률	-11.7788
▁개별	-11.7789
▁양식	-11.7806
▁정보통	-11.7806
▁경찰관들	-11.7812
rel	-11.7814
▁cont	-11.7816
베르트	-11.7816
▁정해진	-11.7819
▁살아있다	-11.7822
rop	-11.7829
▁대구	-11.7834
▁잠들	-11.7837
▁참석자들	-11.784
▁게르	-11.7856
▁무너	-11.786
루드	-11.7863
ld	-11.7874
▁체포됐	-11.7913
▁혁신적	-11.7914
▁1,2	-11.7915
▁다량	-11.7916
▁0.7	-11.7917
▁작위	-11.7919
▁사라져	-11.7926
끈	-11.7935
▁붕괴되	-11.7946
담당자	-11.7965
UC	-11.7972
▁보이기	-11.7973
▁생겼	-11.7973
칩	-11.7981
드립니다	-11.7981
▁집행위원	-11.7983
CEO	-11.7984
깊	-11.7984
아프가니스탄	-11.7984
콜롬비아	-11.7984
심각한	-11.7985
민주주의	-11.7986
결혼	-11.7989
어머니	-11.7993
득점	-11.8
그리고	-11.8001
uni	-11.8006
버락	-11.8006
전세계	-11.8011
▁신자들	-11.8012
▁라벨	-11.8015
코리아	-11.8016
특히	-11.8019
▁연구자들	-11.8036
바라크	-11.8038
▁내역	-11.8039
▁강타했다	-11.8039
▁MP	-11.8047
▁급증했다	-11.8068
▁촉진시키	-11.8091
▁사라졌	-11.8093
▁거래되	-11.8098
USS	-11.8111
모건	-11.8119
net	-11.8121
불안	-11.8132
▁작동되	-11.8133
▁자리잡	-11.8134
ating	-11.8141
▁취하기	-11.8144
▁빠졌	-11.8145
매장	-11.8152
▁정신병	-11.8157
바락	-11.8167
▁메디컬	-11.8171
▁자동차회사	-11.8173
▁극단주의	-11.8173
▁거뒀	-11.8174
섯	-11.8197
▁불러일으	-11.8198
ina	-11.8199
콧	-11.82
콕	-11.82
eneral	-11.8202
놔	-11.8203
랏	-11.8203
UNHCR	-11.8203
▁Administration	-11.8203
▁Securit	-11.8203
▁Senate	-11.8203
▁Week	-11.8203
▁chief	-11.8203
▁economic	-11.8203
▁six	-11.8203
▁건강검진	-11.8203
▁공상과학	-11.8203
▁깨달았다	-11.8203
▁남동생	-11.8203
▁뇌졸중	-11.8203
▁떠올랐다	-11.8203
▁리투아니아	-11.8203
▁멜버른	-11.8203
▁물러났다	-11.8203
▁볼티모어	-11.8203
▁불균형	-11.8203
▁불러일으켰다	-11.8203
▁블록버스터	-11.8203
▁스틸러스	-11.8203
▁시에라리온	-11.8203
▁식품의약국	-11.8203
▁옥스포드	-11.8203
▁옵션	-11.8203
▁재결합	-11.8203
▁준이치로	-11.8203
▁찾으려	-11.8203
▁츠방기라이	-11.8203
▁퀘벡	-11.8203
▁트러스트	-11.8203
▁평화협정	-11.8203
▁프랑크푸르트	-11.8203
▁플레이스테이션	-11.8203
▁햇빛	-11.8203
▁휠체어	-11.8203
늑	-11.8203
쑤	-11.8203
윅	-11.8203
텀	-11.8203
퍼레이션	-11.8203
▁200809.0	-11.8203
▁ABN	-11.8203
▁Health	-11.8203
▁demand	-11.8203
▁기울여야	-11.8203
▁나미비아	-11.8203
▁모레스모	-11.8203
▁바랐다	-11.8203
▁부총재	-11.8203
▁비아그라	-11.8203
▁언젠가	-11.8203
▁이바노비치	-11.8203
市	-11.8203
긍	-11.8203
팡	-11.8203
▁내보냈다	-11.8203
▁볼드윈	-11.8203
▁자페타	-11.8203
▁카르발라	-11.8203
뚜	-11.8203
▁tax	-11.8203
▁남겨두고	-11.8203
▁부동층	-11.8203
HDA	-11.8203
▁구속영장	-11.8203
▁노던록	-11.8203
▁청원서	-11.8203
▁탄원서	-11.8203
▁헬만드	-11.8203
▁흡입	-11.8203
▁전자메일	-11.8203
▁상무부	-11.8203
▁인수제안	-11.8203
▁타디치	-11.8203
GDP	-11.8203
▁사무차장	-11.8203
▁스즈키	-11.8203
▁원동력	-11.8203
▁사로잡	-11.8203
▁스콜스	-11.8203
▁산악지대	-11.8203
▁서두르	-11.8203
▁중질유	-11.8203
▁컬럼비아호	-11.8203
▁놀이공원	-11.8203
▁버나드	-11.8203
▁trans	-11.8203
▁포브스	-11.8203
▁산시성	-11.8203
▁로드아일랜드	-11.8203
▁수수료	-11.8203
count	-11.8203
▁때때로	-11.8203
▁자위대	-11.8203
▁엘리엇	-11.8203
▁trial	-11.8203
▁프린트	-11.8203
▁그려진	-11.8203
▁해들리	-11.8203
▁다저스	-11.8203
▁있으므로	-11.8203
▁이스마일	-11.8203
시드르	-11.8203
▁패트로스	-11.8203
▁궁극적으로	-11.8203
▁액체	-11.8203
▁검역	-11.8203
▁축구팬들	-11.8203
▁슬픈	-11.8203
으므로	-11.8203
▁작가조합	-11.8203
▁노동조합	-11.8204
▁압델	-11.8204
▁국가안보회의	-11.8204
▁벗겨	-11.8204
▁레빈슨	-11.8204
▁Medic	-11.8204
▁철폐	-11.8204
▁침착하	-11.8204
▁주변국들	-11.8204
▁놓여있다	-11.8204
▁추산되	-11.8204
▁현대자동차	-11.8204
▁Park	-11.8204
▁부활절	-11.8205
▁유대교	-11.8205
▁당직자	-11.8206
▁soldiers	-11.8206
▁예상됩니다	-11.8206
▁신흥	-11.8207
▁있냐	-11.8207
▁출처	-11.8207
▁우주여행	-11.8207
▁집값	-11.8207
▁계승	-11.8208
▁랜디	-11.8208
▁장례	-11.8208
▁스튜	-11.8208
▁찾아냈다	-11.8208
▁생애	-11.8209
▁키팅	-11.8209
▁나눈	-11.8209
▁차량폭탄	-11.8209
ww	-11.821
▁1.5%	-11.821
▁합쳐	-11.8211
▁생물체	-11.8211
▁알라위	-11.8211
▁공헌	-11.8211
▁신기록	-11.8211
▁도발적	-11.8211
▁불법행위	-11.8211
▁내륙	-11.8211
▁흔들었다	-11.8212
첸코	-11.8212
▁지불했다	-11.8212
▁완구	-11.8212
▁자동차산업	-11.8213
▁찰리	-11.8213
▁1967	-11.8213
▁코웰	-11.8214
▁오웬	-11.8214
▁관통	-11.8214
▁바꾼	-11.8215
▁레빈	-11.8215
▁조롱	-11.8215
▁생생	-11.8215
▁지명되기	-11.8216
▁종목	-11.8216
▁희미	-11.8216
▁언니	-11.8217
▁폭도들	-11.8218
▁Air	-11.8218
▁폴락	-11.8218
▁단결	-11.8219
▁증파	-11.8219
▁흉내	-11.8219
▁그레그	-11.822
NT	-11.8221
▁골절	-11.8221
▁유명인사들	-11.8222
▁용감	-11.8223
▁야채	-11.8224
▁자폭	-11.8224
▁사무국	-11.8224
▁아델	-11.8225
▁단편	-11.8225
▁찾아온	-11.8226
▁루이지애나주	-11.8226
▁왕관	-11.8226
▁법무상	-11.8226
▁거론하	-11.8227
▁청산	-11.823
▁게시물	-11.823
▁진심	-11.8231
▁위함	-11.8231
▁풀려나	-11.8232
▁강조하며	-11.8233
▁무력화	-11.8233
▁줄리아	-11.8233
▁돌아보	-11.8233
▁브라이언트	-11.8234
▁팬더	-11.8236
▁통제권	-11.8236
짐에따라	-11.8238
▁루터	-11.8238
▁배출량	-11.8239
▁애리조나주	-11.824
▁격전	-11.8242
즉각적으로	-11.8243
▁발판	-11.8244
▁증대	-11.8245
▁과오	-11.8246
▁가속	-11.8248
▁중요하게	-11.8252
▁해골	-11.8252
▁타워	-11.8252
▁도출	-11.8252
▁청년들	-11.8254
ft	-11.8255
▁합의에따라	-11.8256
▁돌파구	-11.8259
▁생산업체	-11.826
▁간주되	-11.8261
노브	-11.8263
▁실업자	-11.8264
▁파란	-11.8264
▁말해주	-11.8266
▁바다위	-11.8266
▁궁전	-11.8267
▁난관	-11.827
▁모방	-11.827
▁유로화	-11.8271
▁기자실	-11.8272
▁거울	-11.8272
▁살레	-11.8272
▁추억	-11.8272
▁깨진	-11.8276
▁늘었다	-11.8277
▁무거	-11.8277
다시피	-11.8278
▁어조	-11.8287
▁등장한다	-11.8287
▁내외	-11.8288
▁목성	-11.8288
▁유실	-11.8289
▁박탈당	-11.829
▁당사자들	-11.8291
PR	-11.8291
pose	-11.8293
▁경미	-11.8294
▁11%	-11.8296
▁주범	-11.8301
▁중단시켰다	-11.8301
▁특성	-11.8302
▁인내	-11.8306
▁실망했다	-11.8309
▁요리사	-11.8312
▁천국	-11.8316
▁헌법상	-11.8319
투성이	-11.8321
▁장갑	-11.8325
▁친부	-11.8326
▁지방정부	-11.8338
▁동점	-11.8339
▁맺어	-11.8354
▁위력	-11.8358
▁관람객들	-11.8363
작품	-11.8363
▁하나였다	-11.8368
long	-11.8369
▁조직위	-11.837
▁해당한다	-11.8373
▁베드	-11.8373
▁밝혀져	-11.8375
▁받아들이기	-11.8385
▁조각들	-11.8386
▁의사회	-11.8389
ift	-11.8393
than	-11.8403
▁부대변인	-11.8414
▁무장세력들	-11.8424
▁독자적	-11.8432
프로스트	-11.8442
▁이루어졌	-11.8445
▁집중적	-11.8446
▁수출국	-11.8456
▁축출된	-11.8459
▁대행	-11.8464
▁블로거	-11.8466
illion	-11.8477
레이즈	-11.8479
스러웠다	-11.8485
금치	-11.8485
태국	-11.8487
▁관중들	-11.8509
▁출동했다	-11.8532
cial	-11.8535
프레드	-11.8553
orn	-11.8558
▁확산됐다	-11.8558
EL	-11.8563
▁이송됐으	-11.8578
▁목장	-11.8589
▁천장	-11.8593
▁사유	-11.8615
▁임명됐다	-11.8634
못	-11.8645
듀	-11.8647
OPEC	-11.8648
PKK	-11.8649
흔	-11.8649
홈	-11.865
따라서	-11.865
퀸	-11.865
여객기	-11.865
워싱턴	-11.865
2009.01	-11.865
레바논	-11.8651
사르코지	-11.8651
데일리	-11.8652
베컴	-11.8654
▁간주하	-11.8656
여러분	-11.8657
bur	-11.866
등록	-11.8666
혁	-11.8673
심장	-11.8685
하락	-11.8694
방문	-11.87
▁존재한다	-11.8701
▁경찰국장	-11.8707
▁삼아	-11.8711
▁이재민들	-11.8715
▁소녀들	-11.8716
▁인도주의	-11.8727
985	-11.8752
▁티모	-11.878
▁태우	-11.88
▁스타디움	-11.8804
▁극복하	-11.8804
▁저질렀	-11.8808
집회	-11.8815
▁알려왔	-11.8818
▁같아	-11.8824
▁지원자들	-11.883
▁신씨	-11.8832
▁던졌	-11.8833
▁떨어뜨	-11.8837
▁달링	-11.8837
▁싶었	-11.8838
거래소에서	-11.8856
▁폐쇄하기	-11.8866
둬	-11.8866
▁로빈	-11.8866
ough	-11.8866
▁콜롬	-11.8867
▁kill	-11.8867
갓	-11.8869
6,000	-11.8869
▁California	-11.8869
▁Work	-11.8869
북대서양조약기구	-11.8869
세컨드라이프	-11.8869
ING	-11.8869
People	-11.8869
usiness	-11.8869
▁2007~2008	-11.8869
▁DAX	-11.8869
▁High	-11.8869
▁IRNA	-11.8869
▁NHC	-11.8869
▁Research	-11.8869
▁Thai	-11.8869
▁candidate	-11.8869
▁group	-11.8869
▁grow	-11.8869
▁market	-11.8869
▁굉장히	-11.8869
▁국가평의회	-11.8869
▁끊겼	-11.8869
▁대검찰청	-11.8869
▁래드클리프	-11.8869
▁멤피스	-11.8869
▁버킹엄	-11.8869
▁부드러운	-11.8869
▁사이언톨로지	-11.8869
▁슈퍼마켓	-11.8869
▁아르메니아	-11.8869
▁애틀랜틱	-11.8869
▁전비법안	-11.8869
▁출퇴근	-11.8869
▁칼데론	-11.8869
▁타임스퀘어	-11.8869
▁티크리트	-11.8869
▁파키스탄인민당	-11.8869
▁프랑수아	-11.8869
▁하르툼	-11.8869
▁햇볕	-11.8869
▁혹등고래	-11.8869
엉	-11.8869
쟈	-11.8869
퀘	-11.8869
▁Iran	-11.8869
▁구제금융법안	-11.8869
▁국제영화제	-11.8869
▁다비덴코	-11.8869
▁매몰된	-11.8869
▁무기징역	-11.8869
▁애완용	-11.8869
▁포유류	-11.8869
Black	-11.8869
▁대배심	-11.8869
▁루고보이	-11.8869
▁볼리비아	-11.8869
▁즐긴다	-11.8869
▁니제르	-11.8869
▁파딜라	-11.8869
▁섭씨	-11.8869
▁트레일러	-11.8869
타이타닉	-11.8869
▁여기저기	-11.8869
▁1972	-11.8869
▁메이도프	-11.8869
▁바이에른	-11.8869
▁핵폐기	-11.8869
▁아메바	-11.8869
▁제레미	-11.8869
▁재경부	-11.8869
▁금리인하	-11.8869
▁리브니	-11.8869
▁메케인	-11.8869
▁냉장고	-11.8869
스타워즈	-11.8869
▁모으고	-11.8869
▁파라오	-11.8869
슬라브	-11.8869
하였는데	-11.8869
▁버크헤드	-11.8869
▁불가사의	-11.8869
솔직히	-11.887
▁사진작가	-11.887
▁올림피	-11.887
▁무언가	-11.887
▁말리부	-11.887
(41)	-11.887
▁뛰어넘	-11.887
(37)	-11.887
▁어쩔	-11.887
▁소비에트	-11.887
rug	-11.887
(22)	-11.887
도날드	-11.887
house	-11.887
▁화학물질	-11.887
▁알라스카	-11.887
▁비정상적	-11.887
▁바시르	-11.887
▁아이튠	-11.8871
▁home	-11.8871
▁show	-11.8871
▁미뤄	-11.8871
▁용도로	-11.8871
▁군사행동	-11.8871
▁메인주	-11.8871
쿼터	-11.8871
▁CAC	-11.8871
▁남태평양	-11.8871
▁1,500	-11.8871
▁killed	-11.8872
▁베이징올림픽	-11.8872
▁로리언	-11.8872
▁옳은	-11.8872
▁마스리	-11.8872
▁봉투	-11.8872
(30)	-11.8872
rough	-11.8872
▁부모님	-11.8872
▁동아시아	-11.8872
▁십먼	-11.8872
▁로지스	-11.8872
▁레코드	-11.8873
▁부정행위	-11.8873
▁피난처	-11.8873
▁홈경기	-11.8873
▁불륜	-11.8873
▁포털	-11.8873
▁비밀요원	-11.8873
▁4.5%	-11.8873
▁복음	-11.8873
▁콜롬보	-11.8874
▁날카로	-11.8874
▁놀라움	-11.8874
▁우발적	-11.8874
▁입후보	-11.8874
▁푸른	-11.8874
▁스노우	-11.8874
▁비웃	-11.8875
▁FAA	-11.8875
▁XP	-11.8875
▁멜론	-11.8875
▁범죄행위	-11.8876
▁일기장	-11.8876
▁누구인지	-11.8876
층짜리	-11.8876
▁정몽	-11.8876
▁해산시키기	-11.8876
▁빈센트	-11.8877
▁통상적	-11.8877
▁hit	-11.8877
▁축구스타	-11.8878
기동대	-11.8878
▁계급	-11.8878
▁자치권	-11.8878
▁기관총	-11.8878
▁아프리카연합	-11.8878
▁근절	-11.8878
▁에베레스트산	-11.8878
▁하렐	-11.8878
▁형편	-11.8879
▁최신작	-11.8879
▁인권문제	-11.8879
▁운용	-11.888
▁엔론	-11.888
had	-11.888
▁교각	-11.8881
▁폭발사고	-11.8881
▁만평	-11.8881
▁태생	-11.8882
▁도로변	-11.8882
▁대국민	-11.8882
▁야망	-11.8882
▁고심하	-11.8882
▁절실	-11.8882
▁난입	-11.8883
▁set	-11.8883
▁우편물	-11.8883
▁즉석	-11.8883
▁보스톤	-11.8884
▁번복	-11.8884
▁로빈슨	-11.8884
퍼트	-11.8885
▁선례	-11.8886
▁거론되	-11.8886
▁공공연	-11.8886
▁은둔	-11.8886
▁국회의장	-11.8886
▁경합	-11.8886
▁평온	-11.8888
▁놀란	-11.8888
▁설전	-11.8888
▁용납하지	-11.889
▁2018	-11.8891
▁할렘	-11.8891
▁들어설	-11.8891
▁상향	-11.8891
▁버몬트주	-11.8891
val	-11.8892
▁설비	-11.8893
▁담요	-11.8893
▁역설했다	-11.8894
▁과연	-11.8894
▁악마	-11.8896
▁포탄	-11.8898
▁난방	-11.8898
▁가장자리	-11.89
▁싶었다	-11.89
▁건축물	-11.8901
▁연합정부	-11.8901
▁생계	-11.8901
▁위독	-11.8902
▁매료	-11.8903
▁왕조	-11.8903
▁제공되	-11.8904
▁대피시켰다	-11.8904
We	-11.8906
▁휴전선	-11.8906
▁마술	-11.8906
rious	-11.8906
▁결단	-11.8907
▁요구했었다	-11.891
▁속력	-11.8911
▁궁지에	-11.8912
ween	-11.8913
▁엄청나	-11.8915
▁음료수	-11.8915
▁0.5	-11.8917
▁아샤	-11.8917
▁유영	-11.8917
▁소방당국	-11.8917
▁부주의	-11.8918
▁시립	-11.8919
▁부분적으로	-11.8919
▁불확실성	-11.892
▁경계선	-11.8926
하듯	-11.8927
▁소포	-11.8932
▁기술자들	-11.8935
▁가문	-11.8939
정규직	-11.8939
▁정치국	-11.894
▁거주민	-11.8941
▁소실됐다	-11.8942
▁블루스	-11.8943
▁아프간군	-11.8945
▁토레스	-11.8945
실질적	-11.8948
▁군사위원회	-11.8952
▁보험회사	-11.8952
통합	-11.8954
▁설사	-11.8958
▁선호하	-11.8959
▁입안	-11.896
▁펼쳐진	-11.8962
▁꺼리	-11.8967
▁사업체	-11.8968
cal	-11.8969
▁국세청장	-11.8975
학술	-11.8987
VS	-11.8995
클래	-11.8997
▁방영되	-11.8999
▁보건장관	-11.9
▁나누어	-11.9008
▁주의회	-11.9009
▁공금	-11.9015
▁동의안	-11.9015
겠는가	-11.9018
▁거머쥐었	-11.9019
▁교장	-11.9022
▁끝나면	-11.9039
▁감사원	-11.904
▁휴회	-11.9046
▁향상시키	-11.9047
▁군사정부	-11.9052
▁경쟁자들	-11.9059
▁구성원들	-11.9065
▁수감돼	-11.9091
▁안정화	-11.9101
▁활동가들	-11.9111
셰르	-11.912
▁유사하다	-11.9136
over	-11.9142
▁남북간	-11.9144
▁관점	-11.9173
광장	-11.9174
교통	-11.9182
▁장악했다	-11.9219
.25%	-11.9226
▁베티	-11.9245
어지면서	-11.9248
▁존재하	-11.9268
▁구매자들	-11.9284
▁전사자	-11.9292
▁거기에	-11.9326
▁모국	-11.9332
김양	-11.9334
맹	-11.9342
979	-11.9351
라이스	-11.9354
봐	-11.9357
▁싶어하지	-11.9359
흘	-11.9359
▁힘들어	-11.9361
끄	-11.9362
슛	-11.9363
템	-11.9363
몸	-11.9364
숨	-11.9364
코소보	-11.9365
녹	-11.9365
라디오	-11.9365
첫	-11.9366
바이러스	-11.9367
오프라	-11.9372
트럭	-11.9381
위험	-11.9381
사우디	-11.9384
남편	-11.9386
▁각료들	-11.9408
Tri	-11.9409
▁약화시키	-11.9412
아갈	-11.9436
▁제압하	-11.9445
ham	-11.9457
▁야마	-11.9457
▁미성년	-11.9462
▁팔린	-11.9482
무차관	-11.9487
▁인류학	-11.949
~200	-11.9495
▁천문학	-11.9498
▁제조업자	-11.951
▁부적절	-11.9514
▁Sup	-11.9534
▁요인들	-11.9539
▁개최국	-11.9542
범들	-11.9554
▁6.8	-11.9569
블러	-11.957
▁2.0	-11.9576
자와히리	-11.9578
쿼	-11.9581
덱	-11.9583
탬	-11.9583
NDO	-11.9583
뜰	-11.9583
Academy	-11.9584
▁economy	-11.9584
▁return	-11.9584
▁withdraw	-11.9584
▁다녔다	-11.9584
▁디카프리오	-11.9584
▁맛봤다	-11.9584
▁머물렀다	-11.9584
▁바예스테로스	-11.9584
▁아쿠아리움	-11.9584
▁에메랄드	-11.9584
▁카메룬	-11.9584
▁프란체스	-11.9584
껴	-11.9584
뚱	-11.9584
훌	-11.9584
(57)	-11.9584
SNCF	-11.9584
lobal	-11.9584
▁Control	-11.9584
▁IWC	-11.9584
▁Rights	-11.9584
▁Society	-11.9584
▁constitution	-11.9584
▁problem	-11.9584
▁securit	-11.9584
▁support	-11.9584
▁견뎌	-11.9584
▁국가대표팀	-11.9584
▁나스랄라	-11.9584
▁남우주연상	-11.9584
▁네브라스카	-11.9584
▁뉴욕타임즈	-11.9584
▁대기오염	-11.9584
▁대선예비후보	-11.9584
▁더글라스	-11.9584
▁따돌렸다	-11.9584
▁만토바니	-11.9584
▁믿어지	-11.9584
▁박스오피스	-11.9584
▁발렌시아	-11.9584
▁배트맨	-11.9584
▁벗어났다	-11.9584
▁분리독립	-11.9584
▁사우스다코타	-11.9584
▁시니오라	-11.9584
▁신시내티	-11.9584
▁아름답	-11.9584
▁아리조나	-11.9584
▁와코비아	-11.9584
▁잉그리드	-11.9584
▁카스파로프	-11.9584
▁크라이튼	-11.9584
▁홀로코스트	-11.9584
눕	-11.9584
랴	-11.9584
멕	-11.9584
뭘	-11.9584
샵	-11.9584
샹	-11.9584
애국전선	-11.9584
쿡	-11.9584
퉁	-11.9584
펠릭스	-11.9584
▁threaten	-11.9584
▁독립선언	-11.9584
▁미식축구	-11.9584
▁쓰러진	-11.9584
▁옥수수	-11.9584
▁워싱턴포스트	-11.9584
▁최연소	-11.9584
갑작스럽게	-11.9584
▁라말라	-11.9584
어느때보다	-11.9584
▁공동기자회견에	-11.9584
▁전두환	-11.9584
▁퇴근	-11.9584
▁패터슨	-11.9584
▁사이언스	-11.9584
▁은하계	-11.9584
▁허덕이	-11.9584
▁비무장지대	-11.9584
▁산티아고	-11.9584
▁분화구	-11.9584
▁알메이다	-11.9584
▁우체국	-11.9584
▁공청회	-11.9584
▁어둡	-11.9584
▁돌려보내	-11.9584
▁보너스	-11.9584
▁성범죄자	-11.9584
▁세르게이	-11.9584
RBS	-11.9584
▁퇴출	-11.9584
▁삼성전자	-11.9584
▁아침식사	-11.9584
AIDS	-11.9584
▁도서관	-11.9584
▁국가안보보좌관	-11.9584
외할머니	-11.9584
▁떠다니	-11.9584
▁인공심장	-11.9584
▁결론지었다	-11.9584
(61)	-11.9584
▁[[	-11.9584
▁세비르	-11.9584
(38)	-11.9584
▁씨앗	-11.9584
▁민주변화운동	-11.9584
▁트레이시	-11.9584
▁어쩌	-11.9584
▁크로포드	-11.9584
다빈치	-11.9584
▁추도식	-11.9584
▁리프트	-11.9584
▁헐값	-11.9584
▁버핏	-11.9584
▁Union	-11.9584
▁와일드	-11.9584
(52)	-11.9584
▁제국주의	-11.9584
▁종합병원	-11.9584
▁켄트	-11.9584
▁현명한	-11.9584
▁홍보담당자	-11.9584
▁종지부	-11.9584
▁김일성	-11.9584
▁업종	-11.9584
▁빠져나갔다	-11.9584
▁불상사	-11.9585
▁선거인단	-11.9585
▁탐지기	-11.9585
▁어둠	-11.9585
갤런	-11.9585
▁재가동	-11.9585
▁탈옥	-11.9585
▁천수이	-11.9585
▁낫다	-11.9585
▁구급차	-11.9585
▁온몸	-11.9585
▁출몰	-11.9585
▁놀이기구	-11.9585
▁사육사들	-11.9585
(19)	-11.9585
(40)	-11.9585
▁출근	-11.9585
▁who	-11.9585
▁패션쇼	-11.9586
▁아름다움	-11.9586
했었지만	-11.9586
▁건강보험	-11.9586
▁마샬	-11.9586
▁주모자	-11.9586
(20)	-11.9586
▁겨누	-11.9586
▁올라간다	-11.9586
▁고의적으로	-11.9586
▁갈망하	-11.9587
▁교훈	-11.9587
▁수감생활	-11.9587
▁디즈니랜드	-11.9587
▁그래미	-11.9587
▁틸리	-11.9587
▁베풀	-11.9587
▁약물검사	-11.9587
▁사형제도	-11.9588
▁있었는데	-11.9588
▁평의회	-11.9588
▁봉급	-11.9588
바레드	-11.9588
sex	-11.9588
▁잠정적	-11.9589
▁도미니	-11.9589
▁별칭	-11.9589
2008.01	-11.9589
▁검은색	-11.9589
▁드럼	-11.9589
▁청취	-11.9589
▁노골적	-11.9589
▁갑작스러	-11.9589
▁휴먼	-11.959
▁cut	-11.959
▁압류	-11.959
할로윈	-11.959
▁도와준	-11.959
▁유명해졌다	-11.959
▁채굴	-11.959
▁만들어낸	-11.959
▁페드로	-11.9591
▁싸워	-11.9591
▁완강	-11.9591
▁머독	-11.9591
▁대리모	-11.9591
▁감기약	-11.9591
▁City	-11.9591
▁잃었으며	-11.9591
▁뉴먼	-11.9591
▁사망원인	-11.9591
▁회생	-11.9591
reme	-11.9592
플랜	-11.9592
▁환경운동	-11.9592
▁편견	-11.9592
▁MTV	-11.9592
▁마피아	-11.9592
▁필사적	-11.9592
AMA	-11.9592
▁가져온	-11.9592
▁축구협회	-11.9593
▁월급	-11.9593
▁잠입	-11.9594
▁떨어지면서	-11.9594
▁터졌다	-11.9594
▁숙박비	-11.9594
▁years	-11.9594
▁암살사건	-11.9594
▁애견	-11.9594
▁축구선수	-11.9595
▁샤리아	-11.9595
▁케이티	-11.9596
▁deal	-11.9596
IJ	-11.9596
▁처방전	-11.9596
▁담합	-11.9596
▁과열	-11.9596
▁주택시장	-11.9597
▁Iraqi	-11.9597
▁합작	-11.9597
▁담았다	-11.9597
▁소도시	-11.9597
▁화산재	-11.9598
▁자궁	-11.9598
▁듀크	-11.9599
▁정치활동	-11.96
▁칭하며	-11.96
▁홀더	-11.96
▁스토리	-11.9601
▁떼어	-11.9602
▁투자은행	-11.9602
▁USB	-11.9603
▁구슬	-11.9605
▁인출	-11.9605
▁표출	-11.9605
▁에릭슨	-11.9605
▁학계	-11.9605
▁어른	-11.9606
▁플래시	-11.9606
▁오델	-11.9606
▁로케	-11.9606
▁양빈	-11.9606
▁독려	-11.9606
▁성취	-11.9607
▁축적	-11.961
▁친지들	-11.9611
▁응용	-11.9611
▁종교단체	-11.9611
▁생체	-11.9611
▁자율	-11.9612
▁반테러	-11.9612
▁혼자서	-11.9613
▁없어질	-11.9613
▁카나리	-11.9615
▁신랑	-11.9615
▁거칠	-11.9616
▁보장받	-11.9618
▁천체	-11.9619
▁돌발	-11.9619
▁않음	-11.9621
▁변종	-11.9622
▁칼리드	-11.9622
▁교신	-11.9627
프로축구	-11.9628
쥐스틴	-11.9628
트루먼	-11.9632
▁의향	-11.9633
▁투명성	-11.9634
▁위스콘신주	-11.9634
▁보수주의자들	-11.9634
부총리	-11.9636
▁매복	-11.9637
1977	-11.9644
▁근본주의자들	-11.9645
▁얻어야	-11.9647
▁이민국	-11.9664
▁주연상	-11.967
▁청장	-11.9672
▁임시정부	-11.9676
▁용량	-11.9678
▁소비량	-11.9679
▁패트	-11.9679
ater	-11.9681
▁달아나	-11.9683
▁월터스	-11.9687
▁호건	-11.9702
▁office	-11.9702
▁거주지역	-11.971
ray	-11.9716
1191	-11.9723
▁통과시킨	-11.9728
▁상무위원	-11.9729
▁충분하다	-11.973
▁납치됐	-11.9736
dom	-11.9737
▁파장	-11.9743
▁관장	-11.9748
Big	-11.9757
▁공급업체	-11.9786
▁산업지수	-11.9809
개인적	-11.982
▁사죄	-11.9835
▁우위	-11.9837
▁농성	-11.9844
유니티	-11.9852
▁프라하	-11.9854
▁초고속	-11.9877
▁소방대원들	-11.9889
▁교수들	-11.9898
973	-11.9907
emi	-11.9912
▁2008.12.1	-11.9917
KO	-11.9919
▁인권단체들	-11.9922
▁감정적	-11.9935
▁스키장	-11.9972
▁cl	-12.0016
▁bill	-12.0028
라이츠	-12.0051
▁탈북자들	-12.0084
▁중단하겠다	-12.0106
쉐	-12.013
굿	-12.0131
APEC	-12.0131
샘	-12.0131
기상청	-12.0133
꿈	-12.0133
박물관	-12.0133
누군가	-12.0134
백악관	-12.0134
앨범	-12.0135
싸움	-12.0135
마지막	-12.0135
마이클	-12.0135
사망자	-12.0136
테니스	-12.0138
경쟁	-12.014
리서치	-12.014
night	-12.0143
실험	-12.0143
미국인들은	-12.0145
▁경영자들	-12.0147
▁주최하	-12.0148
▁0.4	-12.0149
▁lead	-12.0178
▁받으면	-12.0191
▁회사측	-12.023
▁공직자	-12.0254
▁연결하	-12.0261
▁준결승전	-12.0289
볼트	-12.0316
▁드러냈	-12.0329
▁검시	-12.0332
▁year	-12.0342
▁디스커버리	-12.0348
듭	-12.0349
▁경기부양	-12.0352
▁솔로몬	-12.0352
Space	-12.0353
오피니언	-12.0353
팰	-12.0353
▁Commission	-12.0353
륨	-12.0353
Europe	-12.0353
place	-12.0353
▁Agency	-12.0353
▁Israel	-12.0353
▁Microsoft	-12.0353
▁NHK	-12.0353
▁Washington	-12.0353
▁capital	-12.0353
▁missile	-12.0353
▁sanction	-12.0353
▁system	-12.0353
▁가깝다	-12.0353
▁고혈압	-12.0353
▁광저우	-12.0353
▁굉장한	-12.0353
▁나뭇가지	-12.0353
▁노스다코타	-12.0353
▁루프트한자	-12.0353
▁맨하탄	-12.0353
▁밀워키	-12.0353
▁발렌타인	-12.0353
▁백과사전	-12.0353
▁보궐선거	-12.0353
▁북방한계선	-12.0353
▁브래들리	-12.0353
▁비무장	-12.0353
▁사파테로	-12.0353
▁산업자원부	-12.0353
▁서부텍사스산	-12.0353
▁아틀레티코	-12.0353
▁알레르기	-12.0353
▁알츠하이머	-12.0353
▁엔터프라이즈	-12.0353
▁연방준비은행	-12.0353
▁월경작전	-12.0353
▁이슬라미야	-12.0353
▁인수합병	-12.0353
▁조기총선	-12.0353
▁족자카르타	-12.0353
▁캄푸쉬	-12.0353
▁컨소시엄	-12.0353
▁코뿔소	-12.0353
▁코펜하겐	-12.0353
▁클랩튼	-12.0353
▁클리브랜드	-12.0353
▁통합러시아당	-12.0353
▁트럼프	-12.0353
▁파라마운트	-12.0353
▁폴란스키	-12.0353
▁해밀턴	-12.0353
▁해수욕장	-12.0353
▁행정명령	-12.0353
▁확고히	-12.0353
性	-12.0353
故	-12.0353
뎀	-12.0353
드림라이너	-12.0353
샴	-12.0353
샷	-12.0353
슬로바키아	-12.0353
싹	-12.0353
씬	-12.0353
쥔	-12.0353
쪼	-12.0353
챈	-12.0353
캐시미르	-12.0353
퍽	-12.0353
John	-12.0353
▁Group	-12.0353
▁대북제재	-12.0353
▁듀프레	-12.0353
▁스머프	-12.0353
▁스펙터	-12.0353
▁울프위츠	-12.0353
▁유럽중앙은행	-12.0353
▁쫓아내	-12.0353
▁천안문	-12.0353
▁휘두르	-12.0353
▁서포터	-12.0353
▁스릴러	-12.0353
▁시베리아	-12.0353
▁시트콤	-12.0353
▁에버튼	-12.0353
▁코리아타임즈	-12.0353
▁테러리즘	-12.0353
만배럴	-12.0353
어리석은	-12.0353
언더파	-12.0353
프로농구	-12.0353
간담회에서	-12.0353
Earth	-12.0353
▁복부비만	-12.0353
▁이스트우드	-12.0353
▁친인척	-12.0353
Green	-12.0353
▁3~4	-12.0353
▁UCI	-12.0353
▁드물게	-12.0353
▁현충일	-12.0353
▁배기가스	-12.0353
▁트레이너	-12.0353
▁유니폼	-12.0353
▁카제미	-12.0353
▁혈압	-12.0353
▁임상실험	-12.0353
▁상여금	-12.0353
▁차이나데일리	-12.0353
MLS	-12.0353
▁쓰러지	-12.0353
KGB	-12.0353
▁카밀라	-12.0353
▁만수르	-12.0353
▁엘비스	-12.0353
▁스프링스틴	-12.0353
▁끼치지	-12.0353
▁붐비는	-12.0353
▁루시디	-12.0353
▁착각	-12.0353
▁헬멧	-12.0353
▁손가락	-12.0353
학저널	-12.0353
▁구덩이	-12.0353
▁조연상	-12.0353
▁주일미군	-12.0353
됨으로써	-12.0353
▁의정서	-12.0353
▁혈통	-12.0353
▁그랜트	-12.0353
▁에모리	-12.0353
▁미생물	-12.0353
stem	-12.0353
▁rul	-12.0353
▁로하스	-12.0353
참전용사	-12.0353
▁어렸을	-12.0353
스피어	-12.0353
▁발리우드	-12.0353
(42)	-12.0353
▁민주변화	-12.0353
▁스트립	-12.0353
▁클라우디	-12.0353
▁에어컨	-12.0353
▁비서관	-12.0353
(35)	-12.0354
▁비디오테이프	-12.0354
▁경신했다	-12.0354
▁적임자	-12.0354
▁선두주자	-12.0354
▁디아즈	-12.0354
▁집주인	-12.0354
(28)	-12.0354
▁메세지	-12.0354
▁클리닉	-12.0354
▁확실시되	-12.0354
▁스코어	-12.0354
▁얼룩말	-12.0354
▁move	-12.0354
▁폭죽	-12.0354
▁give	-12.0354
▁블랙베리	-12.0354
▁히잡	-12.0354
▁클린트	-12.0354
▁곤봉	-12.0354
▁데이비스컵	-12.0354
1966	-12.0354
▁골드버그	-12.0354
나르기스	-12.0354
▁냉소적	-12.0355
▁깨뜨	-12.0355
▁음란	-12.0355
▁마땅	-12.0355
▁press	-12.0355
▁청중들	-12.0355
▁report	-12.0355
▁현존하	-12.0355
▁특검	-12.0355
▁겸손	-12.0355
▁전자제품	-12.0355
▁rate	-12.0355
▁권좌	-12.0355
▁완패	-12.0356
▁가르쳐	-12.0356
▁압축	-12.0356
Georg	-12.0356
▁장병들	-12.0356
▁Watch	-12.0356
▁과격단체	-12.0356
▁타깃	-12.0356
했어야	-12.0356
▁차량폭탄테러	-12.0357
▁훔쳤	-12.0357
▁보호구역	-12.0357
▁학습	-12.0357
▁지켜볼	-12.0357
▁61%	-12.0357
▁쇼핑센터	-12.0357
▁사흘	-12.0357
▁경범죄	-12.0358
▁추락사고	-12.0358
▁항목	-12.0359
▁폭염	-12.0359
▁남아시아	-12.0359
▁3.5%	-12.0359
▁서유럽	-12.0359
▁금전적	-12.0359
▁슈스터	-12.0359
▁슬림	-12.0359
▁성폭력	-12.0359
▁출품	-12.0359
▁없었으나	-12.0359
▁입혔다	-12.0359
▁라마디	-12.036
▁부흥	-12.036
▁친근	-12.036
▁유로스타	-12.036
▁붉은색	-12.0361
▁38%	-12.0361
▁휩쓸려	-12.0361
▁굴복	-12.0362
▁대슐	-12.0362
▁평화회담	-12.0362
▁돌봐	-12.0362
▁빛나는	-12.0363
▁관절	-12.0363
▁석권	-12.0363
▁움직여	-12.0363
▁어부들	-12.0363
▁짐작	-12.0364
▁종족	-12.0364
▁피해규모	-12.0364
▁출입국	-12.0364
▁특유	-12.0364
▁헬러	-12.0365
▁소멸	-12.0365
▁대선결과	-12.0365
▁올리버	-12.0365
▁성폭행범	-12.0366
▁올라있다	-12.0366
▁추산하	-12.0366
▁아이콘	-12.0366
▁결말	-12.0366
water	-12.0366
▁도킹	-12.0367
▁가리키	-12.0367
▁충실	-12.0369
▁삼판	-12.0369
▁양봉	-12.0369
▁채팅	-12.037
▁교도관	-12.0371
▁커져	-12.0372
▁낙타	-12.0372
▁모스크	-12.0372
▁테너	-12.0372
clos	-12.0372
▁신랄	-12.0373
▁잠복	-12.0373
▁독살	-12.0373
NSC	-12.0374
▁열악	-12.0374
느린	-12.0375
▁요한슨	-12.0375
▁갈색	-12.0376
▁소변	-12.0377
해보면	-12.0379
▁출구	-12.0379
▁능가	-12.0379
▁돌려받	-12.038
▁도망치	-12.038
▁바람직하다	-12.0382
▁작용하	-12.0385
▁기상학자	-12.0387
Marin	-12.039
▁leg	-12.0391
▁슈퍼대의원들	-12.0392
▁최신호에	-12.0393
선수들	-12.0401
▁시에나	-12.0402
툴라	-12.0407
클로버	-12.0407
TAM	-12.0409
▁행해지	-12.0409
▁주가지수	-12.0413
▁추측된다	-12.0415
▁국교	-12.042
▁행정장관	-12.042
해지면서	-12.0425
poll	-12.0426
▁집행위원회	-12.043
통계국	-12.0436
▁조합원들	-12.0438
▁상인들	-12.044
Live	-12.0448
▁보수주의	-12.0459
▁나와있	-12.0459
▁응급실	-12.0463
▁국정원장	-12.0465
▁글로리	-12.0467
▁중부지역	-12.0471
▁소방서장	-12.0485
▁후송됐다	-12.0488
▁알프레	-12.0499
▁외곽지역	-12.0501
▁심각해지	-12.0531
well	-12.0542
▁통근자들	-12.0548
▁Un	-12.0565
▁2.4	-12.0572
▁영구적	-12.0578
코넬	-12.0617
▁배심원들	-12.063
▁피살됐다	-12.063
▁공개되	-12.0631
▁쥐들	-12.0634
▁대중들	-12.0637
▁골프장	-12.0648
▁1.8	-12.0666
▁형법	-12.0674
▁실종됐	-12.0708
보호법	-12.0731
▁추측되	-12.074
stro	-12.0744
▁수상작	-12.075
▁세워졌	-12.0774
nois	-12.0781
▁인기있	-12.0807
놓는다	-12.0809
▁순례객	-12.0826
▁블로거들	-12.0842
▁행성들	-12.0847
stra	-12.085
▁제조업체들	-12.0868
▁Service	-12.0876
팬들	-12.0892
▁끝냈	-12.0911
▁개별적	-12.0914
▁ris	-12.094
평했다	-12.0941
▁당선되	-12.095
뇌	-12.096
엑	-12.0963
벗	-12.0964
빗	-12.0964
덜	-12.0966
FDA	-12.0966
CDC	-12.0966
쓸	-12.0966
고등학교	-12.0967
웹	-12.0967
교도소	-12.0967
콰	-12.0968
컴퓨터	-12.0968
닷	-12.0968
일리노이	-12.0968
중요한	-12.0968
펴	-12.0969
섞	-12.097
▁스프링	-12.0971
테러범들	-12.0972
부상자	-12.0986
라이언	-12.1003
▁범인들	-12.1017
▁장갑차	-12.1037
▁무장괴한들	-12.1077
▁악화시키	-12.1077
▁느꼈	-12.1107
▁영국인들	-12.1119
war	-12.1134
▁개발도상국들	-12.1155
▁attack	-12.1175
976	-12.1179
▁증권거래	-12.1182
▁안토니	-12.1184
멧	-12.1186
컬럼비아	-12.1186
횡	-12.1186
숭	-12.1186
▁세계경제포럼	-12.1186
Wii	-12.1186
YouTube	-12.1186
▁굶주림	-12.1186
▁난투극	-12.1186
▁델라웨어	-12.1186
▁롤러코스터	-12.1186
▁부에노스아이레스	-12.1186
▁업데이트	-12.1186
▁쿠알라룸푸르	-12.1186
▁테스토스테론	-12.1186
▁템파베이	-12.1186
▁파키스탄무슬림리그	-12.1186
▁헨더슨	-12.1186
新	-12.1186
삐	-12.1186
엣	-12.1186
엿	-12.1186
줍	-12.1186
쿵	-12.1186
트랜스포머	-12.1186
Church	-12.1186
Facebook	-12.1186
IPCC	-12.1186
KCNA	-12.1186
Little	-12.1186
▁Clinton	-12.1186
▁EMI	-12.1186
▁ESTA	-12.1186
▁Government	-12.1186
▁Heart	-12.1186
▁PETA	-12.1186
▁TGV	-12.1186
▁Times	-12.1186
▁UCLA	-12.1186
▁hostage	-12.1186
▁job	-12.1186
▁police	-12.1186
▁program	-12.1186
▁공영방송	-12.1186
▁까다로운	-12.1186
▁나폴리타노	-12.1186
▁네델란드	-12.1186
▁노벨평화상	-12.1186
▁뇌종양	-12.1186
▁댕기열	-12.1186
▁레슬링	-12.1186
▁레터맨	-12.1186
▁록펠러	-12.1186
▁맥클라렌	-12.1186
▁메탄가스	-12.1186
▁무너뜨리	-12.1186
▁바뀌었다	-12.1186
▁바리케이드	-12.1186
▁보디가드	-12.1186
▁불태우	-12.1186
▁브란카토	-12.1186
▁선덜랜드	-12.1186
▁세계무역센터	-12.1186
▁수족구병	-12.1186
▁순조롭	-12.1186
▁스트라이커	-12.1186
▁스프린트	-12.1186
▁스피커	-12.1186
▁아틀란티스	-12.1186
▁애국심	-12.1186
▁여우주연상	-12.1186
▁오두막	-12.1186
▁오랑우탄	-12.1186
▁오마이뉴스	-12.1186
▁유니버셜	-12.1186
▁유투브	-12.1186
▁융통성	-12.1186
▁죄책감	-12.1186
▁츠요시	-12.1186
▁카트만두	-12.1186
▁컨텐츠	-12.1186
▁코카콜라	-12.1186
▁콜럼버스	-12.1186
▁콜럼비아	-12.1186
▁펀자브	-12.1186
▁플랫폼	-12.1186
▁핵사찰단	-12.1186
▁행방불명	-12.1186
▁호나우지뉴	-12.1186
▁히말라야	-12.1186
교통안전위원회	-12.1186
넛	-12.1186
산업평균지수	-12.1186
쉘	-12.1186
젼	-12.1186
칫	-12.1186
트래포드	-12.1186
▁control	-12.1186
▁가비알	-12.1186
▁국제통화기금	-12.1186
▁노란색	-12.1186
▁마르세유	-12.1186
▁메디슨	-12.1186
▁메트로폴리	-12.1186
▁스테로이드	-12.1186
▁스폰서	-12.1186
▁심사숙고	-12.1186
▁짐바브웨아프리카민족	-12.1186
▁팽창	-12.1186
선글라스	-12.1186
펜타곤	-12.1186
rank	-12.1186
▁살펴보	-12.1186
▁의사소통	-12.1186
▁저질러	-12.1186
Change	-12.1186
entral	-12.1186
▁강렬한	-12.1186
▁극단적인	-12.1186
▁로버츠	-12.1186
▁헤드폰	-12.1186
▁2006.03	-12.1186
▁고래상어	-12.1186
▁모토로라	-12.1186
▁이병헌	-12.1186
▁목걸이	-12.1186
▁현기증	-12.1186
▁내버려	-12.1186
▁멜리사	-12.1186
NLD	-12.1186
▁갓난	-12.1186
▁국유화	-12.1186
▁안테나	-12.1186
오피니언리서치	-12.1186
▁모니카	-12.1186
▁물대포	-12.1186
▁클래식	-12.1186
▁비엔나	-12.1186
▁아세안	-12.1186
▁불어넣	-12.1186
▁징집	-12.1186
▁제노아	-12.1186
이었는데	-12.1186
▁빌라로사	-12.1186
eague	-12.1186
▁내보내	-12.1186
▁비참한	-12.1186
▁에볼라	-12.1186
▁레예스	-12.1186
▁튜브	-12.1186
▁플레임	-12.1186
▁오마하	-12.1186
▁갑판	-12.1186
▁불도저	-12.1186
불공평	-12.1186
▁욕설	-12.1186
▁좌초	-12.1186
▁어소시에이션	-12.1186
▁염증	-12.1186
▁산유국	-12.1186
▁맹렬	-12.1186
▁아스카리	-12.1186
▁흉선	-12.1186
▁자랑스러워	-12.1186
▁카우치	-12.1186
▁플로렌스	-12.1186
▁리스본	-12.1186
▁Ill	-12.1187
▁욕실	-12.1187
▁가오리	-12.1187
▁니가타	-12.1187
▁왓슨	-12.1187
▁무작위	-12.1187
▁운전기사	-12.1187
▁브라우	-12.1187
▁너머	-12.1187
▁플래카드	-12.1187
(59)	-12.1187
▁consumer	-12.1187
▁익숙하	-12.1187
▁유원지	-12.1187
▁로스쿨	-12.1187
▁마운트	-12.1187
▁부녀자	-12.1187
▁양조장	-12.1187
▁훔치	-12.1187
▁컨트리	-12.1187
▁히트곡	-12.1187
▁셀틱	-12.1187
▁윈스턴	-12.1187
▁good	-12.1187
▁웬디	-12.1187
(48)	-12.1187
▁무리뉴	-12.1187
ression	-12.1187
▁악몽	-12.1187
▁호프만	-12.1187
(44)	-12.1187
▁free	-12.1187
▁탁자	-12.1188
▁비상대책	-12.1188
▁안와르	-12.1188
▁어려웠다	-12.1188
▁붙어있	-12.1188
▁징수	-12.1188
▁meeting	-12.1188
▁선거운동본부	-12.1188
▁제주도	-12.1188
▁풍습	-12.1188
▁몰려들었	-12.1188
▁마지드	-12.1188
▁터뜨렸다	-12.1188
▁사무엘	-12.1188
▁로보트	-12.1189
▁니켈	-12.1189
▁강제진압	-12.1189
▁끼치는	-12.1189
▁run	-12.119
▁가디언	-12.119
▁이해찬	-12.119
▁fail	-12.119
▁기반시설	-12.119
▁처해있다	-12.119
▁슈웨	-12.119
▁폰테	-12.119
▁잠겼다	-12.119
▁다가왔다	-12.119
▁거둬	-12.119
▁크리스마스트리	-12.119
=278	-12.1191
▁납품	-12.1191
▁달려있다	-12.1191
▁관중석	-12.1191
▁결탁	-12.1191
▁펠트	-12.1191
▁스마트	-12.1191
▁Hong	-12.1191
▁49%	-12.1191
▁목욕	-12.1192
▁스페이스	-12.1192
▁풍속	-12.1192
▁멕시코시티	-12.1192
▁용암	-12.1192
▁크리스티안	-12.1192
▁따냈다	-12.1192
▁높아져	-12.1192
▁동결자금	-12.1192
▁베넷	-12.1192
▁이해관계	-12.1192
▁도둑	-12.1192
ground	-12.1193
▁라이플	-12.1193
▁브랜슨	-12.1193
▁휩싸여	-12.1193
▁자금지원	-12.1194
▁왕족	-12.1194
▁마약거래	-12.1194
▁비공식적으로	-12.1194
▁패턴	-12.1195
▁48%	-12.1195
▁레슬리	-12.1195
▁오빠	-12.1196
▁육류	-12.1196
▁왕립	-12.1196
▁손녀	-12.1197
▁낮출	-12.1197
▁win	-12.1197
▁계란	-12.1198
▁위스키	-12.1198
▁신탁	-12.1198
▁보컬	-12.12
▁하락폭	-12.12
▁환경문제	-12.12
▁중개인	-12.1201
▁율법	-12.1201
▁남겨놓	-12.1203
더러운	-12.1203
▁민감하	-12.1204
▁지나갔다	-12.1205
less	-12.1206
▁체인점	-12.1208
▁바에즈	-12.1209
▁윈저	-12.1209
▁4~5	-12.1209
▁발휘하	-12.121
▁그래미상	-12.1213
▁실정이	-12.1217
▁종파간	-12.1221
해오고	-12.1223
▁종합지수	-12.1223
wards	-12.1232
▁vote	-12.1241
▁모욕적	-12.1241
2009.0	-12.1251
▁둔화되	-12.1251
▁울음	-12.1252
▁이르지	-12.1254
949	-12.1262
▁투입되	-12.127
▁필수적	-12.128
스프레	-12.1288
Good	-12.129
▁현명하	-12.1295
▁아니었	-12.1295
▁이슬람인들	-12.1299
▁외교부장관	-12.1316
▁동성간	-12.1317
▁연결시키	-12.1326
▁취하겠다	-12.1336
클라라	-12.1339
▁열정적	-12.1342
스토어	-12.1343
round	-12.1395
udi	-12.1408
▁엔지니어들	-12.1412
▁쌍방	-12.1416
▁선호한다	-12.142
▁찬성표	-12.1435
▁0.1	-12.1451
▁이뤄졌으	-12.1468
▁충족시키	-12.1474
1.7%	-12.1495
▁납세자들	-12.1529
▁생산되	-12.155
대변인은	-12.1574
▁혁신	-12.1589
▁시민단체들	-12.1646
▁연인들	-12.1648
ccess	-12.1706
unda	-12.1716
▁부끄러	-12.1774
▁트랜	-12.1809
▁투표자들	-12.1832
옐	-12.1872
덩어리	-12.1873
3,000	-12.1873
냉	-12.1873
2,000	-12.1874
원자력	-12.1875
겸	-12.1875
옷	-12.1875
주한미군	-12.1876
넘	-12.1876
조종사	-12.1876
멕시코	-12.1876
윌리엄	-12.1877
그것이	-12.1877
화요일	-12.1878
Korean	-12.1878
희생자	-12.1878
이집트	-12.1879
소비자	-12.1894
일방적인	-12.1895
▁장려하	-12.1911
▁스캔	-12.1923
여성들	-12.1928
▁있겠	-12.196
▁간호사들	-12.1973
사람들	-12.2003
▁공공장소	-12.2035
▁toward	-12.2046
▁비서실	-12.2048
▁Africa	-12.205
낫	-12.2094
▁politic	-12.2095
ASEAN	-12.2095
NTSB	-12.2095
▁Committee	-12.2095
▁French	-12.2095
▁OLPC	-12.2095
▁Prevention	-12.2095
▁announce	-12.2095
▁공정거래위원회	-12.2095
▁되돌려	-12.2095
▁디와니야	-12.2095
▁백만장자	-12.2095
▁버밍엄	-12.2095
▁샌디에고	-12.2095
▁소용돌이	-12.2095
▁스페셜	-12.2095
▁원심분리기	-12.2095
▁조직폭력배	-12.2095
▁컵케이크	-12.2095
▁큐레이터	-12.2095
▁파르베즈	-12.2095
맙	-12.2095
Democrat	-12.2095
Federal	-12.2095
Institute	-12.2095
JAXA	-12.2095
Kurdis	-12.2095
Memorial	-12.2095
Organization	-12.2095
▁Auto	-12.2095
▁IUCN	-12.2095
▁SARS	-12.2095
▁Taliban	-12.2095
▁York	-12.2095
▁dead	-12.2095
▁envoy	-12.2095
▁illegal	-12.2095
▁invest	-12.2095
▁investigation	-12.2095
▁secret	-12.2095
▁short	-12.2095
▁가브리엘	-12.2095
▁고프섬	-12.2095
▁곤살레스	-12.2095
▁교토의정서	-12.2095
▁교통체증	-12.2095
▁구테레스	-12.2095
▁네브래스카	-12.2095
▁데이터베이스	-12.2095
▁라이베리아	-12.2095
▁라자스탄	-12.2095
▁레오나르도	-12.2095
▁마르티네즈	-12.2095
▁몬태나	-12.2095
▁무사콸라	-12.2095
▁문자메시지	-12.2095
▁보드랜더	-12.2095
▁보았습니	-12.2095
▁불충분	-12.2095
▁브루클린	-12.2095
▁스펜서	-12.2095
▁아틀란타	-12.2095
▁아흐마드	-12.2095
▁압수수색	-12.2095
▁야누코비치	-12.2095
▁약물복용	-12.2095
▁에스판디아리	-12.2095
▁여겨진다	-12.2095
▁유벤투스	-12.2095
▁유혈충돌	-12.2095
▁인테르팍스	-12.2095
▁자바코뿔소	-12.2095
▁전시작전통제권	-12.2095
▁카디널스	-12.2095
▁카슈미르	-12.2095
▁콘테스트	-12.2095
▁크루그먼	-12.2095
▁크메르루즈	-12.2095
▁타지마할	-12.2095
▁태즈메이니아	-12.2095
▁페르난데즈	-12.2095
▁펠프스	-12.2095
▁풍력발전기	-12.2095
▁프랑코	-12.2095
▁프리미엄	-12.2095
▁피츠제럴드	-12.2095
▁황열병	-12.2095
▁휴먼라이츠워치	-12.2095
▁흑색종	-12.2095
궂	-12.2095
다케시마	-12.2095
렝	-12.2095
송완영	-12.2095
시킴으로써	-12.2095
오퍼튜니티	-12.2095
▁삽입	-12.2095
▁양귀비	-12.2095
▁연방대법원	-12.2095
▁치나왓	-12.2095
▁거식증	-12.2095
▁공동묘지	-12.2095
▁나가사키	-12.2095
▁농무부	-12.2095
▁뇌물수수	-12.2095
▁동아태	-12.2095
▁반독점	-12.2095
▁트레제게	-12.2095
▁파라과이	-12.2095
▁핵원자로	-12.2095
▁회계연도	-12.2095
녕	-12.2095
▁Dae	-12.2095
▁마들렌	-12.2095
▁박스데일	-12.2095
▁상무장관	-12.2095
▁수뇌부	-12.2095
▁숭배	-12.2095
▁알레한드	-12.2095
▁영주권	-12.2095
▁체스판	-12.2095
▁친서방	-12.2095
▁나탄즈	-12.2095
▁라리자니	-12.2095
▁십자군	-12.2095
▁Law	-12.2095
▁모레노	-12.2095
▁앵커리지	-12.2095
▁울타리	-12.2095
▁집어넣	-12.2095
▁개회식	-12.2095
▁동호회	-12.2095
▁미들턴	-12.2095
▁아티스트	-12.2095
▁프로세서	-12.2095
롤링스톤스	-12.2095
▁관방장관	-12.2095
▁농경지	-12.2095
▁호기심	-12.2095
KLM	-12.2095
MySpace	-12.2095
▁고생물학자	-12.2095
▁구치소	-12.2095
▁비키니	-12.2095
▁재구성	-12.2095
▁외무상	-12.2095
▁인권운동가	-12.2095
▁탬파	-12.2095
▁메수드	-12.2095
▁불사조	-12.2095
▁오름세	-12.2095
▁산토스	-12.2095
▁아파치	-12.2095
▁기조연설	-12.2095
▁오클리	-12.2095
▁도와줄	-12.2095
▁총기소지	-12.2095
▁prim	-12.2095
▁Music	-12.2095
▁밀어붙	-12.2095
▁국가안전보장회의	-12.2095
▁누워있	-12.2095
▁바우어	-12.2095
▁잔디코트	-12.2096
▁켈러	-12.2096
▁노스웨스트	-12.2096
▁럭비	-12.2096
▁general	-12.2096
▁언쟁	-12.2096
▁국가원수	-12.2096
▁메이저리그	-12.2096
▁Spain	-12.2096
▁장래에	-12.2096
▁리브스	-12.2096
▁징크	-12.2096
▁선제공격	-12.2096
▁매혹적	-12.2096
▁갑부	-12.2096
▁아메리칸리그	-12.2096
▁풀어줬다	-12.2096
▁미립자	-12.2096
▁성수기	-12.2096
▁붙잡혔다	-12.2096
▁도보로	-12.2097
▁쇼핑객들	-12.2097
▁고속철	-12.2097
▁맥코넬	-12.2097
▁007	-12.2097
▁팩스	-12.2097
▁사기꾼	-12.2097
▁유대관계	-12.2097
▁자유무역	-12.2097
▁피아트	-12.2097
[...]
